{
  "version": "1.0",
  "truncation": null,
  "padding": null,
  "added_tokens": [
    {
      "id": 0,
      "content": "<pad>",
      "single_word": false,
      "lstrip": false,
      "rstrip": false,
      "normalized": false,
      "special": true
    },
    {
      "id": 1,
      "content": "<unk>",
      "single_word": false,
      "lstrip": false,
      "rstrip": false,
      "normalized": false,
      "special": true
    },
    {
      "id": 2,
      "content": "<s>",
      "single_word": false,
      "lstrip": false,
      "rstrip": false,
      "normalized": false,
      "special": true
    },
    {
      "id": 3,
      "content": "</s>",
      "single_word": false,
      "lstrip": false,
      "rstrip": false,
      "normalized": false,
      "special": true
    },
    {
      "id": 4,
      "content": "\"<str>\"",
      "single_word": false,
      "lstrip": false,
      "rstrip": false,
      "normalized": false,
      "special": true
    }
  ],
  "normalizer": {
    "type": "Sequence",
    "normalizers": [
      {
        "type": "NFD"
      },
      {
        "type": "StripAccents"
      },
      {
        "type": "Strip",
        "strip_left": true,
        "strip_right": true
      }
    ]
  },
  "pre_tokenizer": {
    "type": "Whitespace"
  },
  "post_processor": null,
  "decoder": null,
  "model": {
    "type": "BPE",
    "dropout": null,
    "unk_token": "<unk>",
    "continuing_subword_prefix": null,
    "end_of_word_suffix": "</w>",
    "fuse_unk": false,
    "vocab": {
      "<pad>": 0,
      "<unk>": 1,
      "<s>": 2,
      "</s>": 3,
      "\"<str>\"": 4,
      "!": 5,
      "\"": 6,
      "#": 7,
      "$": 8,
      "%": 9,
      "&": 10,
      "'": 11,
      "(": 12,
      ")": 13,
      "*": 14,
      "+": 15,
      ",": 16,
      "-": 17,
      ".": 18,
      "/": 19,
      "0": 20,
      "1": 21,
      "2": 22,
      "3": 23,
      "4": 24,
      "5": 25,
      "6": 26,
      "7": 27,
      "8": 28,
      "9": 29,
      ":": 30,
      ";": 31,
      "<": 32,
      "=": 33,
      ">": 34,
      "?": 35,
      "@": 36,
      "A": 37,
      "B": 38,
      "C": 39,
      "D": 40,
      "E": 41,
      "F": 42,
      "G": 43,
      "H": 44,
      "I": 45,
      "J": 46,
      "K": 47,
      "L": 48,
      "M": 49,
      "N": 50,
      "O": 51,
      "P": 52,
      "Q": 53,
      "R": 54,
      "S": 55,
      "T": 56,
      "U": 57,
      "V": 58,
      "W": 59,
      "X": 60,
      "Y": 61,
      "Z": 62,
      "[": 63,
      "\\": 64,
      "]": 65,
      "^": 66,
      "_": 67,
      "`": 68,
      "a": 69,
      "b": 70,
      "c": 71,
      "d": 72,
      "e": 73,
      "f": 74,
      "g": 75,
      "h": 76,
      "i": 77,
      "j": 78,
      "k": 79,
      "l": 80,
      "m": 81,
      "n": 82,
      "o": 83,
      "p": 84,
      "q": 85,
      "r": 86,
      "s": 87,
      "t": 88,
      "u": 89,
      "v": 90,
      "w": 91,
      "x": 92,
      "y": 93,
      "z": 94,
      "{": 95,
      "|": 96,
      "}": 97,
      "~": 98,
      "": 99,
      "k</w>": 100,
      "y</w>": 101,
      "c</w>": 102,
      "E</w>": 103,
      "d</w>": 104,
      "L</w>": 105,
      "n</w>": 106,
      "e</w>": 107,
      "r</w>": 108,
      "t</w>": 109,
      "s</w>": 110,
      "l</w>": 111,
      "h</w>": 112,
      "x</w>": 113,
      "a</w>": 114,
      "p</w>": 115,
      "b</w>": 116,
      "D</w>": 117,
      "w</w>": 118,
      "Y</w>": 119,
      "F</w>": 120,
      "N</w>": 121,
      "S</w>": 122,
      "P</w>": 123,
      "1</w>": 124,
      "g</w>": 125,
      "K</w>": 126,
      "T</w>": 127,
      "4</w>": 128,
      "2</w>": 129,
      "o</w>": 130,
      "V</w>": 131,
      "O</w>": 132,
      "M</w>": 133,
      "f</w>": 134,
      "I</w>": 135,
      "m</w>": 136,
      "B</w>": 137,
      "_</w>": 138,
      "R</w>": 139,
      "0</w>": 140,
      "j</w>": 141,
      "5</w>": 142,
      "3</w>": 143,
      "G</w>": 144,
      "H</w>": 145,
      "X</w>": 146,
      "i</w>": 147,
      "7</w>": 148,
      "u</w>": 149,
      "C</w>": 150,
      "Q</w>": 151,
      "8</w>": 152,
      "9</w>": 153,
      "Z</w>": 154,
      "q</w>": 155,
      "6</w>": 156,
      "U</w>": 157,
      "A</w>": 158,
      "W</w>": 159,
      "z</w>": 160,
      "v</w>": 161,
      "=</w>": 162,
      "J</w>": 163,
      "'</w>": 164,
      "-</w>": 165,
      "?</w>": 166,
      "/</w>": 167,
      "@</w>": 168,
      "{</w>": 169,
      "+</w>": 170,
      "(</w>": 171,
      "<</w>": 172,
      "]</w>": 173,
      ",</w>": 174,
      "&</w>": 175,
      "}</w>": 176,
      "!</w>": 177,
      "*</w>": 178,
      "|</w>": 179,
      ";</w>": 180,
      ":</w>": 181,
      "$</w>": 182,
      "~</w>": 183,
      "%</w>": 184,
      "\\</w>": 185,
      "[</w>": 186,
      "\"</w>": 187,
      "></w>": 188,
      ")</w>": 189,
      "^</w>": 190,
      ".</w>": 191,
      "et": 192,
      "in": 193,
      "te": 194,
      "ti": 195,
      "bl": 196,
      "st": 197,
      "re": 198,
      "get": 199,
      "on": 200,
      "pu": 201,
      "ur": 202,
      "tr": 203,
      "en": 204,
      "er": 205,
      "ic</w>": 206,
      "publ": 207,
      "public</w>": 208,
      "at": 209,
      "al": 210,
      "ro": 211,
      "ne": 212,
      "le": 213,
      "on</w>": 214,
      "ret": 215,
      "retur": 216,
      "return</w>": 217,
      "th": 218,
      "str</w>": 219,
      "ul": 220,
      "an": 221,
      "or": 222,
      "id</w>": 223,
      "ing</w>": 224,
      "\"<</w>": 225,
      ">\"</w>": 226,
      "ce": 227,
      "Str": 228,
      "tion</w>": 229,
      "vo": 230,
      "void</w>": 231,
      "is": 232,
      "er</w>": 233,
      "String</w>": 234,
      "ar": 235,
      "if</w>": 236,
      "set": 237,
      "am": 238,
      "ec": 239,
      "as": 240,
      "de": 241,
      "is</w>": 242,
      "ull</w>": 243,
      "new</w>": 244,
      "es": 245,
      "null</w>": 246,
      "this</w>": 247,
      "ac": 248,
      "ad": 249,
      "ri": 250,
      "int</w>": 251,
      "Ex": 252,
      "or</w>": 253,
      "ue</w>": 254,
      "In": 255,
      "ou": 256,
      "il": 257,
      "ag": 258,
      "cep": 259,
      "ame</w>": 260,
      "el": 261,
      "se</w>": 262,
      "Excep": 263,
      "tion": 264,
      "lo": 265,
      "ent</w>": 266,
      "Exception</w>": 267,
      "Co": 268,
      "si": 269,
      "oo": 270,
      "ate": 271,
      "ate</w>": 272,
      "Con": 273,
      "ap": 274,
      "jec": 275,
      "St": 276,
      "ex": 277,
      "it": 278,
      "ter": 279,
      "se": 280,
      "fi": 281,
      "ch": 282,
      "==</w>": 283,
      "um": 284,
      "alue</w>": 285,
      "mp": 286,
      "Pro": 287,
      "bjec": 288,
      "ent": 289,
      "thro": 290,
      "co": 291,
      "an</w>": 292,
      "abl": 293,
      "yp": 294,
      "qu": 295,
      "Name</w>": 296,
      "per": 297,
      "res": 298,
      "Lis": 299,
      "pro": 300,
      "oole": 301,
      "ge": 302,
      "ut": 303,
      "od": 304,
      "al</w>": 305,
      "ser": 306,
      "oolean</w>": 307,
      "Re": 308,
      "bject</w>": 309,
      "ing": 310,
      "es</w>": 311,
      "con": 312,
      "ce</w>": 313,
      "boolean</w>": 314,
      "ren": 315,
      "Se": 316,
      "Ch": 317,
      "oc": 318,
      "!=</w>": 319,
      "la": 320,
      "id": 321,
      "im": 322,
      "ve": 323,
      "Fi": 324,
      "riv": 325,
      "Typ": 326,
      "to": 327,
      "ws</w>": 328,
      "age</w>": 329,
      "cte": 330,
      "th</w>": 331,
      "Object</w>": 332,
      "fin": 333,
      "add": 334,
      "priv": 335,
      "up": 336,
      "bu": 337,
      "private</w>": 338,
      "lem": 339,
      "ile</w>": 340,
      "las": 341,
      "ode": 342,
      "En": 343,
      "oun": 344,
      "throws</w>": 345,
      "ke": 346,
      "alse</w>": 347,
      "iz": 348,
      "ma": 349,
      "stan": 350,
      "ol": 351,
      "ra": 352,
      "ter</w>": 353,
      "false</w>": 354,
      "ch</w>": 355,
      "tor": 356,
      "int": 357,
      "try</w>": 358,
      "true</w>": 359,
      "Proper": 360,
      "else</w>": 361,
      "ic": 362,
      "List</w>": 363,
      "our": 364,
      "Value</w>": 365,
      "un": 366,
      "ation</w>": 367,
      "ig": 368,
      "ten": 369,
      "Ac": 370,
      "Res": 371,
      "ode</w>": 372,
      "tem</w>": 373,
      "Tex": 374,
      "cted</w>": 375,
      "Type</w>": 376,
      "Dat": 377,
      "ator</w>": 378,
      "mo": 379,
      "able": 380,
      "ff": 381,
      "value</w>": 382,
      "xt</w>": 383,
      "cre": 384,
      "ess": 385,
      "als</w>": 386,
      "get</w>": 387,
      "Pa": 388,
      "dex</w>": 389,
      "eng": 390,
      "ult</w>": 391,
      "ed": 392,
      "app": 393,
      "ner</w>": 394,
      "rea": 395,
      "ty": 396,
      "Col": 397,
      "tri": 398,
      "for</w>": 399,
      "ation": 400,
      "ength</w>": 401,
      "atch</w>": 402,
      "prote": 403,
      "protected</w>": 404,
      "par": 405,
      "vi": 406,
      "add</w>": 407,
      "able</w>": 408,
      "Elem": 409,
      "name</w>": 410,
      "and": 411,
      "vent</w>": 412,
      "final</w>": 413,
      "Ma": 414,
      "De": 415,
      "lec": 416,
      "Ar": 417,
      "quals</w>": 418,
      "po": 419,
      "To": 420,
      "cri": 421,
      "catch</w>": 422,
      "ack": 423,
      "out</w>": 424,
      "le</w>": 425,
      "Tr": 426,
      "ble</w>": 427,
      "Po": 428,
      "Clas": 429,
      "Comp": 430,
      "tener</w>": 431,
      "pa": 432,
      "La": 433,
      "tem": 434,
      "ver": 435,
      "create": 436,
      "length</w>": 437,
      "pr": 438,
      "throw</w>": 439,
      "crip": 440,
      "age": 441,
      "tor</w>": 442,
      "Id</w>": 443,
      "ty</w>": 444,
      "new": 445,
      "Ad": 446,
      "it</w>": 447,
      "sion</w>": 448,
      "ar</w>": 449,
      "Par": 450,
      "ow": 451,
      "Bu": 452,
      "ild": 453,
      "for": 454,
      "utt": 455,
      "remo": 456,
      "end</w>": 457,
      "ath</w>": 458,
      "alu": 459,
      "end": 460,
      "tory</w>": 461,
      "ed</w>": 462,
      "ger</w>": 463,
      "Di": 464,
      "ta": 465,
      "result</w>": 466,
      "Mess": 467,
      "++</w>": 468,
      "Fiel": 469,
      "av": 470,
      "IO": 471,
      "Des": 472,
      "Sy": 473,
      "text</w>": 474,
      "File</w>": 475,
      "sert": 476,
      "ts</w>": 477,
      "fa": 478,
      "siz": 479,
      "Ser": 480,
      "&&</w>": 481,
      "str": 482,
      "li": 483,
      "mm": 484,
      "put": 485,
      "Pane": 486,
      "At": 487,
      "ouble</w>": 488,
      "Listener</w>": 489,
      "For": 490,
      "Loc": 491,
      "Mode": 492,
      "size</w>": 493,
      "rent": 494,
      "Fac": 495,
      "di": 496,
      "sh": 497,
      "print": 498,
      "Element</w>": 499,
      "ot": 500,
      "has": 501,
      "Property": 502,
      "cal": 503,
      "Butt": 504,
      "Event</w>": 505,
      "Ke": 506,
      "ces": 507,
      "Text</w>": 508,
      "in</w>": 509,
      "assert": 510,
      "Node</w>": 511,
      "ord": 512,
      "Chan": 513,
      "ers</w>": 514,
      "igh": 515,
      "append</w>": 516,
      "Lo": 517,
      "Tim": 518,
      "cur": 519,
      "ase</w>": 520,
      "Descrip": 521,
      "put</w>": 522,
      "lis": 523,
      "m_": 524,
      "E_": 525,
      "ount</w>": 526,
      "getS": 527,
      "terator</w>": 528,
      "IN": 529,
      "equals</w>": 530,
      "ource": 531,
      "ult": 532,
      "Sys": 533,
      "be": 534,
      "Al": 535,
      "ve</w>": 536,
      "Data": 537,
      "ER": 538,
      "ize</w>": 539,
      "index</w>": 540,
      "xt": 541,
      "dat": 542,
      "lay": 543,
      "instan": 544,
      "test": 545,
      "ffer</w>": 546,
      "toString</w>": 547,
      "te</w>": 548,
      "File": 549,
      "Factory</w>": 550,
      "Attri": 551,
      "Class</w>": 552,
      "su": 553,
      "ans": 554,
      "ource</w>": 555,
      "nec": 556,
      "double</w>": 557,
      "atu": 558,
      "String": 559,
      "do": 560,
      "por": 561,
      "col": 562,
      "ID</w>": 563,
      "ew": 564,
      "he": 565,
      "Text": 566,
      "Lin": 567,
      "Man": 568,
      "Vi": 569,
      "Arra": 570,
      "Map</w>": 571,
      "ace</w>": 572,
      "System</w>": 573,
      "Panel</w>": 574,
      "lon": 575,
      "fo</w>": 576,
      "Set</w>": 577,
      "Index</w>": 578,
      "Data</w>": 579,
      "typ": 580,
      "red": 581,
      "tain": 582,
      "de</w>": 583,
      "set</w>": 584,
      "rec": 585,
      "log": 586,
      "no": 587,
      "Li": 588,
      "Item</w>": 589,
      "Im": 590,
      "Message</w>": 591,
      "umb": 592,
      "UR": 593,
      "Model</w>": 594,
      "Qu": 595,
      "ser</w>": 596,
      "wri": 597,
      "ream</w>": 598,
      "ents</w>": 599,
      "rent</w>": 600,
      "pl": 601,
      "Manag": 602,
      "Action": 603,
      "Ed": 604,
      "jav": 605,
      "Comm": 606,
      "remove": 607,
      "ler</w>": 608,
      "star": 609,
      "Inte": 610,
      "ane</w>": 611,
      "Compon": 612,
      "est": 613,
      "ds</w>": 614,
      "at</w>": 615,
      "key</w>": 616,
      "Item": 617,
      "ute</w>": 618,
      "sion": 619,
      "ame": 620,
      "Field</w>": 621,
      "An": 622,
      "Change": 623,
      "let": 624,
      "IOException</w>": 625,
      "Men": 626,
      "Th": 627,
      "getP": 628,
      "date": 629,
      "By": 630,
      "||</w>": 631,
      "T_": 632,
      "sup": 633,
      "clas": 634,
      "eck": 635,
      "op": 636,
      "rap": 637,
      "getC": 638,
      "EN": 639,
      "Button</w>": 640,
      "ln</w>": 641,
      "ang": 642,
      "ader</w>": 643,
      "Pane</w>": 644,
      "Rec": 645,
      "valu": 646,
      "AT": 647,
      "Size</w>": 648,
      "ob": 649,
      "Instan": 650,
      "comp": 651,
      "me": 652,
      "ment</w>": 653,
      "st</w>": 654,
      "Un": 655,
      "Met": 656,
      "println</w>": 657,
      "mb": 658,
      "Integer</w>": 659,
      "est</w>": 660,
      "Stream</w>": 661,
      "old": 662,
      "ocum": 663,
      "ight</w>": 664,
      "Lay": 665,
      "fe": 666,
      "Confi": 667,
      "amet": 668,
      "Selec": 669,
      "Le": 670,
      "elem": 671,
      "Op": 672,
      "lin": 673,
      "Manager</w>": 674,
      "instance": 675,
      "java</w>": 676,
      "lu": 677,
      "He": 678,
      "wh": 679,
      "ties</w>": 680,
      "fault": 681,
      "Conten": 682,
      "Uti": 683,
      "uc": 684,
      "Per": 685,
      "loc": 686,
      "bute": 687,
      "of</w>": 688,
      "alid": 689,
      "current": 690,
      "form": 691,
      "tions</w>": 692,
      "ree": 693,
      "idth</w>": 694,
      "Adap": 695,
      "PropertyDescrip": 696,
      "instanceof</w>": 697,
      "getName</w>": 698,
      "Out": 699,
      "ase": 700,
      "cess": 701,
      "AL": 702,
      "Key</w>": 703,
      "Path</w>": 704,
      "out": 705,
      "bel</w>": 706,
      "ho": 707,
      "log</w>": 708,
      "ted": 709,
      "type</w>": 710,
      "Connec": 711,
      "Count</w>": 712,
      "As": 713,
      "Valu": 714,
      "Nex": 715,
      "getR": 716,
      "Context</w>": 717,
      "cle": 718,
      "next</w>": 719,
      "ls</w>": 720,
      "Numb": 721,
      "Buffer</w>": 722,
      "State": 723,
      "Er": 724,
      "Property</w>": 725,
      "ST": 726,
      "getString</w>": 727,
      "super</w>": 728,
      "ip": 729,
      "object</w>": 730,
      "ab": 731,
      "ror</w>": 732,
      "ind": 733,
      "leg": 734,
      "bute</w>": 735,
      "bject": 736,
      "while</w>": 737,
      "RE": 738,
      "pre": 739,
      "and</w>": 740,
      "Inter": 741,
      "abled</w>": 742,
      "Log": 743,
      "Trans": 744,
      "Array": 745,
      "ity</w>": 746,
      "tifi": 747,
      "clo": 748,
      "flo": 749,
      "umn": 750,
      "Iterator</w>": 751,
      "Be": 752,
      "ew</w>": 753,
      "Color</w>": 754,
      "Edit": 755,
      "Servi": 756,
      "cted": 757,
      "all": 758,
      "Hand": 759,
      "ON": 760,
      "node</w>": 761,
      "pon": 762,
      "Equals</w>": 763,
      "Info</w>": 764,
      "data</w>": 765,
      "om": 766,
      "dex": 767,
      "read": 768,
      "getT": 769,
      "sw": 770,
      "Instance</w>": 771,
      "Requ": 772,
      "OR": 773,
      "contain": 774,
      "up</w>": 775,
      "long</w>": 776,
      "Resource": 777,
      "file": 778,
      "Bo": 779,
      "sy": 780,
      "ach": 781,
      "ure</w>": 782,
      "Component</w>": 783,
      "Sele": 784,
      "Vec": 785,
      "by": 786,
      "Docum": 787,
      "Of": 788,
      "Set": 789,
      "isi": 790,
      "assertEquals</w>": 791,
      "State</w>": 792,
      "sition</w>": 793,
      "Gro": 794,
      "case</w>": 795,
      "ord</w>": 796,
      "isp": 797,
      "feren": 798,
      "event</w>": 799,
      "putStream</w>": 800,
      "remove</w>": 801,
      "Su": 802,
      "mess": 803,
      "Date</w>": 804,
      "Attribute</w>": 805,
      "Time</w>": 806,
      "gro": 807,
      "sub": 808,
      "User": 809,
      "alo": 810,
      "Sh": 811,
      "ll": 812,
      "Pre": 813,
      "update": 814,
      "pec": 815,
      "Grap": 816,
      "proper": 817,
      "ifi": 818,
      "Enabled</w>": 819,
      "Fr": 820,
      "Key": 821,
      "Menu": 822,
      "arg": 823,
      "ore": 824,
      "Class": 825,
      "file</w>": 826,
      "No": 827,
      "ession</w>": 828,
      "check": 829,
      "iterator</w>": 830,
      "read</w>": 831,
      "DE": 832,
      "Node": 833,
      "fil": 834,
      "ms": 835,
      "Paramet": 836,
      "Next</w>": 837,
      "Contr": 838,
      "vent": 839,
      "atch": 840,
      "legal": 841,
      "Add": 842,
      "row": 843,
      "local": 844,
      "Sc": 845,
      "ork": 846,
      "iti": 847,
      "Fil": 848,
      "ror": 849,
      "am</w>": 850,
      "Il": 851,
      "Exp": 852,
      "atus</w>": 853,
      "Ver": 854,
      "Illegal": 855,
      "Arg": 856,
      "list</w>": 857,
      "Type": 858,
      "AR": 859,
      "Code</w>": 860,
      "Up": 861,
      "terFactory</w>": 862,
      "ild</w>": 863,
      "RO": 864,
      "Layout</w>": 865,
      "ces</w>": 866,
      "mat</w>": 867,
      "requ": 868,
      "class</w>": 869,
      "PropertyDescriptor</w>": 870,
      "Object": 871,
      "AN": 872,
      "ati": 873,
      "Field": 874,
      "Attribute": 875,
      "ari": 876,
      "Collec": 877,
      "ron": 878,
      "Image</w>": 879,
      "Run": 880,
      "action": 881,
      "act": 882,
      "Default": 883,
      "Not": 884,
      "Pack": 885,
      "LO": 886,
      "getM": 887,
      "val</w>": 888,
      "start": 889,
      "View": 890,
      "getJ": 891,
      "min": 892,
      "hand": 893,
      "Boun": 894,
      "Nam": 895,
      "List": 896,
      "ge</w>": 897,
      "setText</w>": 898,
      "hasNext</w>": 899,
      "Has": 900,
      "Config": 901,
      "Id": 902,
      "ver</w>": 903,
      "Content": 904,
      "float</w>": 905,
      "bug</w>": 906,
      "ort</w>": 907,
      "user": 908,
      "item": 909,
      "ex</w>": 910,
      "Ap": 911,
      "text": 912,
      "ack</w>": 913,
      "Of</w>": 914,
      "SQ": 915,
      "+=</w>": 916,
      "parent</w>": 917,
      "mar": 918,
      "obj</w>": 919,
      "key": 920,
      "ener": 921,
      "Time": 922,
      "valid": 923,
      "Or": 924,
      "ML": 925,
      "getD": 926,
      "Quer": 927,
      "ress</w>": 928,
      "Wri": 929,
      "vel</w>": 930,
      "ort": 931,
      "Button": 932,
      "aliz": 933,
      "Vector</w>": 934,
      "ist": 935,
      "fiel": 936,
      "sb</w>": 937,
      "mode": 938,
      "Tree": 939,
      "gor": 940,
      "Ro": 941,
      "res</w>": 942,
      "close</w>": 943,
      "Fe": 944,
      "Child": 945,
      "Argum": 946,
      "ool": 947,
      "logger</w>": 948,
      "Build": 949,
      "Action</w>": 950,
      "date</w>": 951,
      "Table</w>": 952,
      "roll": 953,
      "ment": 954,
      "met": 955,
      "pe": 956,
      "Entry</w>": 957,
      "tic": 958,
      "Form": 959,
      "On": 960,
      "Star": 961,
      "comm": 962,
      "inter": 963,
      "D_": 964,
      "Label</w>": 965,
      "StringBuffer</w>": 966,
      "Point</w>": 967,
      "time": 968,
      "Constan": 969,
      "ted</w>": 970,
      "TE": 971,
      "next": 972,
      "il</w>": 973,
      "rom": 974,
      "ml": 975,
      "Number</w>": 976,
      "View</w>": 977,
      "Graph": 978,
      "getB": 979,
      "write": 980,
      "ponse</w>": 981,
      "teners</w>": 982,
      "alog</w>": 983,
      "MA": 984,
      "path</w>": 985,
      "Handler</w>": 986,
      "rid": 987,
      "SQL": 988,
      "byte</w>": 989,
      "ity": 990,
      "buffer</w>": 991,
      "ore</w>": 992,
      "ard": 993,
      "Changed</w>": 994,
      "Value": 995,
      "ule": 996,
      "umn</w>": 997,
      "port": 998,
      "selec": 999,
      "S_": 1000,
      "arch": 1001,
      "At</w>": 1002,
      "Command</w>": 1003,
      "Result</w>": 1004,
      "brea": 1005,
      "Imp": 1006,
      "um</w>": 1007,
      "load": 1008,
      "ffset</w>": 1009,
      "message</w>": 1010,
      "Trace</w>": 1011,
      "my": 1012,
      "syn": 1013,
      "ator": 1014,
      "Mod": 1015,
      "lan": 1016,
      "Properties</w>": 1017,
      "fire": 1018,
      "Dec": 1019,
      "cop": 1020,
      "Projec": 1021,
      "SE": 1022,
      "ath": 1023,
      "entException</w>": 1024,
      "vid": 1025,
      "ble": 1026,
      "Cur": 1027,
      "debug</w>": 1028,
      "tific": 1029,
      "Fon": 1030,
      "LE": 1031,
      "Stack": 1032,
      "00</w>": 1033,
      "count</w>": 1034,
      "Char": 1035,
      "string</w>": 1036,
      "hod</w>": 1037,
      "tar": 1038,
      ">=</w>": 1039,
      "child": 1040,
      "break</w>": 1041,
      "ave": 1042,
      "Ab": 1043,
      "Connection</w>": 1044,
      "Table": 1045,
      "item</w>": 1046,
      "Selected": 1047,
      "Emp": 1048,
      "last": 1049,
      "ail": 1050,
      "start</w>": 1051,
      "Width</w>": 1052,
      "Lon": 1053,
      "confi": 1054,
      "AC": 1055,
      "row</w>": 1056,
      "ad</w>": 1057,
      "Visi": 1058,
      "tim": 1059,
      "context</w>": 1060,
      "sc": 1061,
      "Byte": 1062,
      "Array</w>": 1063,
      "IC": 1064,
      "reg": 1065,
      "connec": 1066,
      "listener</w>": 1067,
      "max": 1068,
      "port</w>": 1069,
      "TY": 1070,
      "TextField</w>": 1071,
      "getIn": 1072,
      "raw": 1073,
      "param</w>": 1074,
      "Enti": 1075,
      "are": 1076,
      "Status</w>": 1077,
      "Package</w>": 1078,
      "AM": 1079,
      "Acti": 1080,
      "ArrayList</w>": 1081,
      "Document</w>": 1082,
      "Model": 1083,
      "Hash": 1084,
      "Bord": 1085,
      "ouse": 1086,
      "element</w>": 1087,
      "mp</w>": 1088,
      "Message": 1089,
      "trans": 1090,
      "show": 1091,
      "Remo": 1092,
      "ull": 1093,
      "Box</w>": 1094,
      "aw": 1095,
      "Oper": 1096,
      "Get": 1097,
      "oot": 1098,
      "Column": 1099,
      "info</w>": 1100,
      "tif": 1101,
      "hod": 1102,
      "exec": 1103,
      "getValue</w>": 1104,
      "error</w>": 1105,
      "URL</w>": 1106,
      "action</w>": 1107,
      "io": 1108,
      "chron": 1109,
      "emp": 1110,
      "gin": 1111,
      "ren</w>": 1112,
      "Direc": 1113,
      "ArgumentException</w>": 1114,
      "width</w>": 1115,
      "Constants</w>": 1116,
      "ure": 1117,
      "Control": 1118,
      "ree</w>": 1119,
      "StackTrace</w>": 1120,
      "value": 1121,
      "Cal": 1122,
      "Local": 1123,
      "con</w>": 1124,
      "SQLException</w>": 1125,
      "Event": 1126,
      "ings</w>": 1127,
      "delet": 1128,
      "IllegalArgumentException</w>": 1129,
      "Level</w>": 1130,
      "Collection</w>": 1131,
      "tors</w>": 1132,
      "CO": 1133,
      "bo": 1134,
      "data": 1135,
      "Contain": 1136,
      "Ta": 1137,
      "enti": 1138,
      "Name": 1139,
      "Thread</w>": 1140,
      "ask</w>": 1141,
      "imp": 1142,
      "ken</w>": 1143,
      "ute": 1144,
      "exp": 1145,
      "parse": 1146,
      "values</w>": 1147,
      "Sty": 1148,
      "Reg": 1149,
      "Error": 1150,
      "Position</w>": 1151,
      "Ob": 1152,
      "All</w>": 1153,
      "oth": 1154,
      "clear</w>": 1155,
      "index": 1156,
      "bel": 1157,
      "Adapter</w>": 1158,
      "buf</w>": 1159,
      "attri": 1160,
      "chroniz": 1161,
      "ken": 1162,
      "ance": 1163,
      "instance</w>": 1164,
      "imen": 1165,
      "VAL": 1166,
      "ith": 1167,
      "AdapterFactory</w>": 1168,
      "printStackTrace</w>": 1169,
      "Utils</w>": 1170,
      "ategor": 1171,
      "ule</w>": 1172,
      "ages</w>": 1173,
      "Element": 1174,
      "ard</w>": 1175,
      "table</w>": 1176,
      "Test": 1177,
      "True</w>": 1178,
      "ol</w>": 1179,
      "ange": 1180,
      "sp": 1181,
      "Configur": 1182,
      "atter": 1183,
      "Resource</w>": 1184,
      "Line</w>": 1185,
      "Location</w>": 1186,
      "not": 1187,
      "ession": 1188,
      "und": 1189,
      "Flo": 1190,
      "Cli": 1191,
      "User</w>": 1192,
      "Request</w>": 1193,
      "Image": 1194,
      "dis": 1195,
      "Length</w>": 1196,
      "Group</w>": 1197,
      "Math</w>": 1198,
      "Compo": 1199,
      "From": 1200,
      "tit": 1201,
      "synchroniz": 1202,
      "lang</w>": 1203,
      "iter</w>": 1204,
      "Writer</w>": 1205,
      "au": 1206,
      "ints</w>": 1207,
      "ps</w>": 1208,
      "em": 1209,
      "Frame</w>": 1210,
      "elp": 1211,
      "lic": 1212,
      "Sub": 1213,
      "en</w>": 1214,
      "Scroll": 1215,
      "Boolean</w>": 1216,
      "N_": 1217,
      "Error</w>": 1218,
      "Service</w>": 1219,
      "node": 1220,
      "unc": 1221,
      "conten": 1222,
      "find": 1223,
      "Dialog</w>": 1224,
      "IT": 1225,
      "Referen": 1226,
      "Builder</w>": 1227,
      "Selection": 1228,
      "All": 1229,
      "msg</w>": 1230,
      "ign": 1231,
      "pos</w>": 1232,
      "synchronized</w>": 1233,
      "Ur": 1234,
      "tp": 1235,
      "setS": 1236,
      "assertTrue</w>": 1237,
      "Height</w>": 1238,
      "height</w>": 1239,
      "Menu</w>": 1240,
      "FI": 1241,
      "ust": 1242,
      "ask": 1243,
      "write</w>": 1244,
      "AS": 1245,
      "line</w>": 1246,
      "quer": 1247,
      "Double</w>": 1248,
      "setT": 1249,
      "XML": 1250,
      "model</w>": 1251,
      "initi": 1252,
      "We": 1253,
      "getInstance</w>": 1254,
      "getClass</w>": 1255,
      "sig": 1256,
      "angle</w>": 1257,
      "Service": 1258,
      "stra": 1259,
      "assw": 1260,
      "layer</w>": 1261,
      "getMessage</w>": 1262,
      "Visible</w>": 1263,
      "column": 1264,
      "Case</w>": 1265,
      "Max": 1266,
      "char": 1267,
      "Int</w>": 1268,
      "Rect": 1269,
      "ache</w>": 1270,
      "awt</w>": 1271,
      "Check": 1272,
      "Mode</w>": 1273,
      "sed</w>": 1274,
      "ret</w>": 1275,
      "ActionListener</w>": 1276,
      "ies</w>": 1277,
      "Format</w>": 1278,
      "ket</w>": 1279,
      "Long</w>": 1280,
      "num": 1281,
      "And": 1282,
      "To</w>": 1283,
      "Au": 1284,
      "Bounds</w>": 1285,
      "Expres": 1286,
      "itor</w>": 1287,
      "class": 1288,
      "ItemPropertyDescriptor</w>": 1289,
      "sele": 1290,
      "Del": 1291,
      "Do": 1292,
      "des": 1293,
      "Ht": 1294,
      "mod": 1295,
      "New": 1296,
      "Address</w>": 1297,
      "Util</w>": 1298,
      "nel</w>": 1299,
      "Cel": 1300,
      "ams</w>": 1301,
      "Font</w>": 1302,
      "Work": 1303,
      "uct": 1304,
      "Vari": 1305,
      "coun": 1306,
      "isplay": 1307,
      "rst": 1308,
      "IS": 1309,
      "getResource": 1310,
      "as</w>": 1311,
      "if": 1312,
      "imension</w>": 1313,
      "Valid": 1314,
      "ound": 1315,
      "contains</w>": 1316,
      "tal": 1317,
      "lay</w>": 1318,
      "UL": 1319,
      "label</w>": 1320,
      "clu": 1321,
      "main": 1322,
      "late": 1323,
      "ID": 1324,
      "Gener": 1325,
      "build": 1326,
      "cess</w>": 1327,
      "tification</w>": 1328,
      "fr": 1329,
      "InputStream</w>": 1330,
      "Sp": 1331,
      "Statement</w>": 1332,
      "ref": 1333,
      "Index": 1334,
      "sq": 1335,
      "state</w>": 1336,
      "Empty</w>": 1337,
      "us": 1338,
      "Query</w>": 1339,
      "ir": 1340,
      "Page</w>": 1341,
      "Line": 1342,
      "Is": 1343,
      "compon": 1344,
      "Source</w>": 1345,
      "ress": 1346,
      "Sec": 1347,
      "fix</w>": 1348,
      "send": 1349,
      "request</w>": 1350,
      "Panel": 1351,
      "ok": 1352,
      "default": 1353,
      "Reader</w>": 1354,
      "temp": 1355,
      "Config</w>": 1356,
      "SW": 1357,
      "VALU": 1358,
      "ock": 1359,
      "vis": 1360,
      "Method</w>": 1361,
      "Response</w>": 1362,
      "sert</w>": 1363,
      "Pr": 1364,
      "ations</w>": 1365,
      "sec": 1366,
      "fo": 1367,
      "the": 1368,
      "Null</w>": 1369,
      "map</w>": 1370,
      "indo": 1371,
      "Wid": 1372,
      "lock</w>": 1373,
      "nal": 1374,
      "url</w>": 1375,
      "Group": 1376,
      "amp": 1377,
      "00": 1378,
      "Session</w>": 1379,
      "Exten": 1380,
      "property": 1381,
      "Icon</w>": 1382,
      "getText</w>": 1383,
      "Runtime": 1384,
      "Help": 1385,
      "MenuItem</w>": 1386,
      "TYP": 1387,
      "plic": 1388,
      "posi": 1389,
      "Result": 1390,
      "view": 1391,
      "quen": 1392,
      "Parent</w>": 1393,
      "Values</w>": 1394,
      "list": 1395,
      "source</w>": 1396,
      "entry</w>": 1397,
      "Comb": 1398,
      "Bar</w>": 1399,
      "acti": 1400,
      "Ho": 1401,
      "OutputStream</w>": 1402,
      "tify": 1403,
      "TR": 1404,
      "Child</w>": 1405,
      "Selection</w>": 1406,
      "substring</w>": 1407,
      "Date": 1408,
      "getF": 1409,
      "ded": 1410,
      "Impl</w>": 1411,
      "clon": 1412,
      "ook": 1413,
      "Liter": 1414,
      "Number": 1415,
      "IM": 1416,
      "save": 1417,
      "session</w>": 1418,
      "own": 1419,
      "db": 1420,
      "cli": 1421,
      "Dimension</w>": 1422,
      "ION_": 1423,
      "Row</w>": 1424,
      "un</w>": 1425,
      "Locator</w>": 1426,
      "endar</w>": 1427,
      "setEnabled</w>": 1428,
      "PRO": 1429,
      "paramet": 1430,
      "Container</w>": 1431,
      "rs</w>": 1432,
      "Parameter</w>": 1433,
      "Featu": 1434,
      "servi": 1435,
      "form</w>": 1436,
      "older</w>": 1437,
      "ot</w>": 1438,
      "G_": 1439,
      "nam": 1440,
      "Provid": 1441,
      "indow</w>": 1442,
      "butt": 1443,
      "Elements</w>": 1444,
      "element": 1445,
      "Filter</w>": 1446,
      "Bean</w>": 1447,
      "adap": 1448,
      "GE</w>": 1449,
      "Rectangle</w>": 1450,
      "Description</w>": 1451,
      "itle</w>": 1452,
      "ange</w>": 1453,
      "Mo": 1454,
      "Y_": 1455,
      "Temp": 1456,
      "Perform": 1457,
      "ile": 1458,
      "umer": 1459,
      "und</w>": 1460,
      "NAM": 1461,
      "col</w>": 1462,
      "try": 1463,
      "DO": 1464,
      "Token</w>": 1465,
      "Val</w>": 1466,
      "Names</w>": 1467,
      "Dir</w>": 1468,
      "Selected</w>": 1469,
      "JButton</w>": 1470,
      "base": 1471,
      "ool</w>": 1472,
      "RuntimeException</w>": 1473,
      "L_": 1474,
      "ION</w>": 1475,
      "its</w>": 1476,
      "Me": 1477,
      "NO": 1478,
      "ER_": 1479,
      "men": 1480,
      "rig": 1481,
      "dere": 1482,
      "URI</w>": 1483,
      "attribute": 1484,
      "work": 1485,
      "user</w>": 1486,
      "Sup": 1487,
      "DB": 1488,
      "Sch": 1489,
      "attern</w>": 1490,
      "Buff": 1491,
      "Grid": 1492,
      "Content</w>": 1493,
      "JPanel</w>": 1494,
      "other</w>": 1495,
      "ename</w>": 1496,
      "child</w>": 1497,
      "one</w>": 1498,
      "setC": 1499,
      "Input": 1500,
      "Defin": 1501,
      "target</w>": 1502,
      "getRoot": 1503,
      "Document": 1504,
      "ff</w>": 1505,
      "low": 1506,
      "ded</w>": 1507,
      "ev": 1508,
      "tory": 1509,
      "char</w>": 1510,
      "SS": 1511,
      "Method": 1512,
      "Big": 1513,
      "vlet": 1514,
      "line": 1515,
      "lace": 1516,
      "Listeners</w>": 1517,
      "PropertyDescriptors</w>": 1518,
      "Option": 1519,
      "ay": 1520,
      "Start": 1521,
      "ill": 1522,
      "atus": 1523,
      "isEmpty</w>": 1524,
      "Process": 1525,
      "<=</w>": 1526,
      "ight": 1527,
      "att": 1528,
      "Column</w>": 1529,
      "Change</w>": 1530,
      "10</w>": 1531,
      "Border": 1532,
      "getProperty</w>": 1533,
      "UT": 1534,
      "init": 1535,
      "getId</w>": 1536,
      "process": 1537,
      "contains": 1538,
      "ActionEvent</w>": 1539,
      "Graphic": 1540,
      "UN": 1541,
      "der": 1542,
      "fac": 1543,
      "Mouse": 1544,
      "Performed</w>": 1545,
      "selected": 1546,
      "offset</w>": 1547,
      "Pri": 1548,
      "Attributes</w>": 1549,
      "Tar": 1550,
      "man": 1551,
      "struc": 1552,
      "CON": 1553,
      "Format": 1554,
      "projec": 1555,
      "mis": 1556,
      "getCur": 1557,
      "Back": 1558,
      "DA": 1559,
      "Dis": 1560,
      "Log</w>": 1561,
      "Plu": 1562,
      "Token": 1563,
      "fer": 1564,
      "hash": 1565,
      "Ag": 1566,
      "format</w>": 1567,
      "Constra": 1568,
      "Component": 1569,
      "Are": 1570,
      "Rel": 1571,
      "qual": 1572,
      "assword</w>": 1573,
      "op</w>": 1574,
      "getSelected": 1575,
      "arra": 1576,
      "config": 1577,
      "Expression</w>": 1578,
      "ked": 1579,
      "ationException</w>": 1580,
      "contr": 1581,
      "Cre": 1582,
      "With": 1583,
      "gin</w>": 1584,
      "indow": 1585,
      "2D</w>": 1586,
      "SWT</w>": 1587,
      "Command": 1588,
      "ader": 1589,
      "getO": 1590,
      "fail</w>": 1591,
      "handle": 1592,
      "Label": 1593,
      "listeners</w>": 1594,
      "setM": 1595,
      "late</w>": 1596,
      "ContentPane</w>": 1597,
      "Sett": 1598,
      "dec": 1599,
      "we": 1600,
      "End": 1601,
      "max</w>": 1602,
      "Helper</w>": 1603,
      "_VALU": 1604,
      "ph": 1605,
      "ema": 1606,
      "bug": 1607,
      "Track": 1608,
      "Last": 1609,
      "clone</w>": 1610,
      "use": 1611,
      "change": 1612,
      "getN": 1613,
      "delete": 1614,
      "field": 1615,
      "Clo": 1616,
      "numb": 1617,
      "Project</w>": 1618,
      "run</w>": 1619,
      "KE": 1620,
      "Ter": 1621,
      "Throw": 1622,
      "Request": 1623,
      "code</w>": 1624,
      "sis": 1625,
      "indexOf</w>": 1626,
      "ler": 1627,
      "table": 1628,
      "Logger</w>": 1629,
      "back": 1630,
      "fault</w>": 1631,
      "position</w>": 1632,
      "Area</w>": 1633,
      "setValue</w>": 1634,
      "Applic": 1635,
      "state": 1636,
      "ulti": 1637,
      "ults</w>": 1638,
      "Prog": 1639,
      "match": 1640,
      "entifi": 1641,
      "Header</w>": 1642,
      "BL": 1643,
      "notify": 1644,
      "Http": 1645,
      "root</w>": 1646,
      "ay</w>": 1647,
      "Update": 1648,
      "ally</w>": 1649,
      "Fa": 1650,
      "cept</w>": 1651,
      "CH": 1652,
      "column</w>": 1653,
      "can": 1654,
      "Servlet": 1655,
      "Regi": 1656,
      "swit": 1657,
      "ground</w>": 1658,
      "Separ": 1659,
      "Tag</w>": 1660,
      "Over": 1661,
      "getResourceLocator</w>": 1662,
      "Server": 1663,
      "min</w>": 1664,
      "Calendar</w>": 1665,
      "isplay</w>": 1666,
      "ScrollPane</w>": 1667,
      "clear": 1668,
      "us</w>": 1669,
      "itemPropertyDescriptors</w>": 1670,
      "draw": 1671,
      "Tree</w>": 1672,
      "vel": 1673,
      "ht": 1674,
      "uto": 1675,
      "P_": 1676,
      "grap": 1677,
      "tn": 1678,
      "Tool": 1679,
      "Mapp": 1680,
      "Search": 1681,
      "Pol": 1682,
      "Provider</w>": 1683,
      "Reference</w>": 1684,
      "Abstr": 1685,
      "layer": 1686,
      "sol": 1687,
      "cm": 1688,
      "ft": 1689,
      "docum": 1690,
      "initial": 1691,
      "regis": 1692,
      "Func": 1693,
      "Path": 1694,
      "len</w>": 1695,
      "time</w>": 1696,
      "getRe": 1697,
      "red</w>": 1698,
      "mt</w>": 1699,
      "run": 1700,
      "Entity": 1701,
      "Configuration</w>": 1702,
      "rom</w>": 1703,
      "print</w>": 1704,
      "0x": 1705,
      "actionPerformed</w>": 1706,
      "args</w>": 1707,
      "ache": 1708,
      "ary": 1709,
      "Editor</w>": 1710,
      "lock": 1711,
      "Det": 1712,
      "ual": 1713,
      "finally</w>": 1714,
      "ly": 1715,
      "doc</w>": 1716,
      "Connection": 1717,
      "mon": 1718,
      "Types</w>": 1719,
      "paint</w>": 1720,
      "error": 1721,
      "Exec": 1722,
      "Defini": 1723,
      "Cap": 1724,
      "writer</w>": 1725,
      "init</w>": 1726,
      "Bean": 1727,
      "gener": 1728,
      "Sequen": 1729,
      "imple": 1730,
      "Modifi": 1731,
      "TA": 1732,
      "der</w>": 1733,
      "sor</w>": 1734,
      "Point": 1735,
      "GE": 1736,
      "Source": 1737,
      "edi": 1738,
      "les</w>": 1739,
      "enc": 1740,
      "ml</w>": 1741,
      "ss": 1742,
      "Window</w>": 1743,
      "ft</w>": 1744,
      "place": 1745,
      "ith</w>": 1746,
      "Query": 1747,
      "ated": 1748,
      "JTextField</w>": 1749,
      "Throwable</w>": 1750,
      "que": 1751,
      "Map": 1752,
      "setP": 1753,
      "Auth": 1754,
      "Categor": 1755,
      "view</w>": 1756,
      "type": 1757,
      "Version</w>": 1758,
      "sch": 1759,
      "getCurrent": 1760,
      "Code": 1761,
      "ags</w>": 1762,
      "Editor": 1763,
      "sign": 1764,
      "Mon": 1765,
      "Dep": 1766,
      "Roo": 1767,
      "Children</w>": 1768,
      "Literals</w>": 1769,
      "derer</w>": 1770,
      "ustom": 1771,
      "Decim": 1772,
      "Activ": 1773,
      "nore": 1774,
      "IG": 1775,
      "Controller</w>": 1776,
      "ported": 1777,
      "Matri": 1778,
      "Que": 1779,
      "adapterFactory</w>": 1780,
      "Directory</w>": 1781,
      "getType</w>": 1782,
      "ature</w>": 1783,
      "Ren": 1784,
      "ue": 1785,
      "Annot": 1786,
      "abil": 1787,
      "lus": 1788,
      "angu": 1789,
      "notification</w>": 1790,
      "Box": 1791,
      "children</w>": 1792,
      "Abstract": 1793,
      "visi": 1794,
      "Rad": 1795,
      "ered": 1796,
      "Ret": 1797,
      "sr": 1798,
      "Context": 1799,
      "dest": 1800,
      "direc": 1801,
      "query</w>": 1802,
      "field</w>": 1803,
      "Style</w>": 1804,
      "With</w>": 1805,
      "PL": 1806,
      "FA": 1807,
      "ream": 1808,
      "ses</w>": 1809,
      "uti": 1810,
      "pace": 1811,
      "ax": 1812,
      "UI": 1813,
      "val": 1814,
      "switch</w>": 1815,
      "Compose": 1816,
      "err</w>": 1817,
      "setVisible</w>": 1818,
      "Offset</w>": 1819,
      "war": 1820,
      "ords</w>": 1821,
      "act</w>": 1822,
      "MO": 1823,
      "Cache</w>": 1824,
      "ick": 1825,
      "Combo": 1826,
      "NAME</w>": 1827,
      "Input</w>": 1828,
      "UM": 1829,
      "ouble": 1830,
      "Widget</w>": 1831,
      "compare": 1832,
      "open": 1833,
      "AP": 1834,
      "Seri": 1835,
      "descrip": 1836,
      "Form</w>": 1837,
      "Vis": 1838,
      "response</w>": 1839,
      "resh": 1840,
      "Url</w>": 1841,
      "to</w>": 1842,
      "Conver": 1843,
      "soc": 1844,
      "Ne": 1845,
      "Access": 1846,
      "ableAdapterFactory</w>": 1847,
      "ComposeableAdapterFactory</w>": 1848,
      "getRootAdapterFactory</w>": 1849,
      "so": 1850,
      "com": 1851,
      "Row": 1852,
      "Null": 1853,
      "go": 1854,
      "input</w>": 1855,
      "valueOf</w>": 1856,
      "ish": 1857,
      "ME": 1858,
      "expec": 1859,
      "copy</w>": 1860,
      "nel": 1861,
      "ram": 1862,
      "cei": 1863,
      "Color": 1864,
      "exten": 1865,
      "conver": 1866,
      "sty": 1867,
      "hashCode</w>": 1868,
      "map": 1869,
      "entity</w>": 1870,
      "Control</w>": 1871,
      "ters</w>": 1872,
      "Ge": 1873,
      "source": 1874,
      "Info": 1875,
      "ric": 1876,
      "grid": 1877,
      "elements</w>": 1878,
      "istor": 1879,
      "OR_": 1880,
      "ite": 1881,
      "ava": 1882,
      "title</w>": 1883,
      "Base": 1884,
      "Pos</w>": 1885,
      "Start</w>": 1886,
      "tmp</w>": 1887,
      "ap</w>": 1888,
      "setBounds</w>": 1889,
      "own</w>": 1890,
      "Update</w>": 1891,
      "Simple": 1892,
      "Parameter": 1893,
      "status</w>": 1894,
      "count": 1895,
      "cale</w>": 1896,
      "Output": 1897,
      "params</w>": 1898,
      "lob": 1899,
      "createItemPropertyDescriptor</w>": 1900,
      "Names": 1901,
      "make": 1902,
      "Tab": 1903,
      "resource": 1904,
      "Next": 1905,
      "event": 1906,
      "Remote": 1907,
      "Prod": 1908,
      "Cell": 1909,
      "Ig": 1910,
      "Foc": 1911,
      "Coun": 1912,
      "parent": 1913,
      "Read": 1914,
      "IMA": 1915,
      "fon": 1916,
      "lag</w>": 1917,
      "ING</w>": 1918,
      "Obj</w>": 1919,
      "EX": 1920,
      "back</w>": 1921,
      "update</w>": 1922,
      "Bar": 1923,
      "server": 1924,
      "ary</w>": 1925,
      "Project": 1926,
      "PER": 1927,
      "AX": 1928,
      "rst</w>": 1929,
      "load</w>": 1930,
      "execute": 1931,
      "SO": 1932,
      "Part</w>": 1933,
      "Runn": 1934,
      "old</w>": 1935,
      "jButton": 1936,
      "MP": 1937,
      "Syn": 1938,
      "DI": 1939,
      "Task</w>": 1940,
      "Mar": 1941,
      "newValue</w>": 1942,
      "ANC": 1943,
      "current</w>": 1944,
      "Session": 1945,
      "--</w>": 1946,
      "Link": 1947,
      "Entity</w>": 1948,
      "Enumer": 1949,
      "Messages</w>": 1950,
      "rup": 1951,
      "ion": 1952,
      "component</w>": 1953,
      "edit": 1954,
      "Call": 1955,
      "EC": 1956,
      "sWith</w>": 1957,
      "Buffered": 1958,
      "ut</w>": 1959,
      "IZ": 1960,
      "color</w>": 1961,
      "SC": 1962,
      "BO": 1963,
      "Current": 1964,
      "com</w>": 1965,
      "addActionListener</w>": 1966,
      "properties</w>": 1967,
      "ody</w>": 1968,
      "Tracker</w>": 1969,
      "Record</w>": 1970,
      "group": 1971,
      "BorderLayout</w>": 1972,
      "Ms": 1973,
      "Bytes</w>": 1974,
      "ave</w>": 1975,
      "Options</w>": 1976,
      "excep": 1977,
      "Charac": 1978,
      "byte": 1979,
      "alog": 1980,
      "Decimal</w>": 1981,
      "oriz": 1982,
      "server</w>": 1983,
      "getG": 1984,
      "ds": 1985,
      "containsKey</w>": 1986,
      "10": 1987,
      "Delet": 1988,
      "Window": 1989,
      "close": 1990,
      "viou": 1991,
      "HashMap</w>": 1992,
      "TYPE_": 1993,
      "main</w>": 1994,
      "orm": 1995,
      "site</w>": 1996,
      "Bas": 1997,
      "bjects</w>": 1998,
      "Style": 1999,
      "config</w>": 2000,
      "illis</w>": 2001,
      "execute</w>": 2002,
      "System": 2003,
      "Prox": 2004,
      "name": 2005,
      "son": 2006,
      "ly</w>": 2007,
      "20</w>": 2008,
      "entation</w>": 2009,
      "ape</w>": 2010,
      "idx</w>": 2011,
      "sor": 2012,
      "Layout": 2013,
      "ML</w>": 2014,
      "First": 2015,
      "Ax": 2016,
      "getDefault": 2017,
      "ib": 2018,
      "End</w>": 2019,
      "conn</w>": 2020,
      "Items</w>": 2021,
      "Page": 2022,
      "face</w>": 2023,
      "ip</w>": 2024,
      "Identifi": 2025,
      "Border</w>": 2026,
      "Descriptor</w>": 2027,
      "cont": 2028,
      "Status": 2029,
      "Bind": 2030,
      "PO": 2031,
      "ative": 2032,
      "TreeNode</w>": 2033,
      "ked</w>": 2034,
      "Meta": 2035,
      "ound</w>": 2036,
      "cod": 2037,
      "StateException</w>": 2038,
      "Unit</w>": 2039,
      "content</w>": 2040,
      "ct": 2041,
      "DAT": 2042,
      "rapp": 2043,
      "Tra": 2044,
      "Spec": 2045,
      "filename</w>": 2046,
      "Loader</w>": 2047,
      "TO": 2048,
      "evt</w>": 2049,
      "Debug": 2050,
      "Graph</w>": 2051,
      "ms</w>": 2052,
      "uration</w>": 2053,
      "Parameters</w>": 2054,
      "Range</w>": 2055,
      "ordin": 2056,
      "Ste": 2057,
      "Server</w>": 2058,
      "os</w>": 2059,
      "HT": 2060,
      "tra": 2061,
      "property</w>": 2062,
      "connection</w>": 2063,
      "Print": 2064,
      "BigDecimal</w>": 2065,
      "resource</w>": 2066,
      "tener": 2067,
      "ChangeListener</w>": 2068,
      "om</w>": 2069,
      "page": 2070,
      "pose</w>": 2071,
      "stati": 2072,
      "Ignore": 2073,
      "ner": 2074,
      "pri": 2075,
      "top": 2076,
      "append": 2077,
      "sisten": 2078,
      "ponse": 2079,
      "point</w>": 2080,
      "FAUL": 2081,
      "ell</w>": 2082,
      "quals": 2083,
      "ind</w>": 2084,
      "ated</w>": 2085,
      "ix": 2086,
      "Struct": 2087,
      "StringBuilder</w>": 2088,
      "Task": 2089,
      "spec": 2090,
      "ists</w>": 2091,
      "Stream": 2092,
      "VER": 2093,
      "Store</w>": 2094,
      "image": 2095,
      "Enumeration</w>": 2096,
      "sing": 2097,
      "method": 2098,
      "K_": 2099,
      "Store": 2100,
      "Xml": 2101,
      "DEFAUL": 2102,
      "getUser": 2103,
      "Ref": 2104,
      "ker</w>": 2105,
      "Ref</w>": 2106,
      "NotNull</w>": 2107,
      "UI</w>": 2108,
      "Java": 2109,
      "message": 2110,
      "re</w>": 2111,
      "Player</w>": 2112,
      "image</w>": 2113,
      "Pattern</w>": 2114,
      "select": 2115,
      "Parser</w>": 2116,
      "sions</w>": 2117,
      "search": 2118,
      "jPanel": 2119,
      "ao</w>": 2120,
      "method</w>": 2121,
      "amp</w>": 2122,
      "base</w>": 2123,
      "Port</w>": 2124,
      "IMAGE</w>": 2125,
      "izer</w>": 2126,
      "validate": 2127,
      "More": 2128,
      "Cont": 2129,
      "ables</w>": 2130,
      "menu": 2131,
      "tries</w>": 2132,
      "invo": 2133,
      "sql</w>": 2134,
      "IllegalStateException</w>": 2135,
      "sets</w>": 2136,
      "temp</w>": 2137,
      "trim</w>": 2138,
      "one": 2139,
      "control": 2140,
      "br": 2141,
      "s_": 2142,
      "Preferen": 2143,
      "plit": 2144,
      "display": 2145,
      "first": 2146,
      "group</w>": 2147,
      "Devi": 2148,
      "oper": 2149,
      "return": 2150,
      "adat": 2151,
      "dir</w>": 2152,
      "txt": 2153,
      "Link</w>": 2154,
      "input": 2155,
      "ENT_": 2156,
      "teri": 2157,
      "cul": 2158,
      "ld": 2159,
      "FileName</w>": 2160,
      "accept</w>": 2161,
      "Features</w>": 2162,
      "string": 2163,
      "handle</w>": 2164,
      "mouse": 2165,
      "sed": 2166,
      "Float</w>": 2167,
      "setLayout</w>": 2168,
      "java": 2169,
      "stmt</w>": 2170,
      "_VALUE_": 2171,
      "content": 2172,
      "uri</w>": 2173,
      "Locale</w>": 2174,
      "ir</w>": 2175,
      "root": 2176,
      "TextField": 2177,
      "short</w>": 2178,
      "App": 2179,
      "reset</w>": 2180,
      "jo": 2181,
      "org</w>": 2182,
      "Low": 2183,
      "Found": 2184,
      "ste": 2185,
      "Sw": 2186,
      "model": 2187,
      "forma": 2188,
      "Compar": 2189,
      "Root</w>": 2190,
      "ger": 2191,
      "register": 2192,
      "sum": 2193,
      "Web": 2194,
      "dep": 2195,
      "xml": 2196,
      "Millis</w>": 2197,
      "result": 2198,
      "Lock</w>": 2199,
      "tab": 2200,
      "Settings</w>": 2201,
      "Rule": 2202,
      "Att": 2203,
      "Initi": 2204,
      "Client</w>": 2205,
      "Str</w>": 2206,
      "setSize</w>": 2207,
      "modifi": 2208,
      "Pres": 2209,
      "Nodes</w>": 2210,
      "Bund": 2211,
      "Resol": 2212,
      "button": 2213,
      "Rol": 2214,
      "Vector": 2215,
      "frame</w>": 2216,
      "sho": 2217,
      "led": 2218,
      "_VALUE_IMAGE</w>": 2219,
      "Test</w>": 2220,
      "command</w>": 2221,
      "fileName</w>": 2222,
      "output</w>": 2223,
      "SP": 2224,
      "compareTo</w>": 2225,
      "imum": 2226,
      "INST": 2227,
      "Client": 2228,
      "btn": 2229,
      "Parent": 2230,
      "hasMore": 2231,
      "session": 2232,
      "testGet": 2233,
      "ref</w>": 2234,
      "ite</w>": 2235,
      "Popu": 2236,
      "getData": 2237,
      "tag</w>": 2238,
      "setAttribute</w>": 2239,
      "Record": 2240,
      "validate</w>": 2241,
      "Memb": 2242,
      "Match": 2243,
      "ENT</w>": 2244,
      "wa": 2245,
      "Jo": 2246,
      "TI": 2247,
      "addElement</w>": 2248,
      "repaint</w>": 2249,
      "setD": 2250,
      "ast": 2251,
      "attributes</w>": 2252,
      "Top": 2253,
      "setF": 2254,
      "factory</w>": 2255,
      "getAttribute</w>": 2256,
      "AD": 2257,
      "Radio": 2258,
      "fs</w>": 2259,
      "Remove": 2260,
      "equals": 2261,
      "ll</w>": 2262,
      "object": 2263,
      "stop": 2264,
      "Renderer</w>": 2265,
      "label": 2266,
      "getParent</w>": 2267,
      "orig": 2268,
      "ample": 2269,
      "Min": 2270,
      "GEN": 2271,
      "Transaction</w>": 2272,
      "query": 2273,
      "vari": 2274,
      "dispose</w>": 2275,
      "delete</w>": 2276,
      "CL": 2277,
      "getChild": 2278,
      "OptionPane</w>": 2279,
      "Reposi": 2280,
      "getA": 2281,
      "lar": 2282,
      "filter</w>": 2283,
      "ments</w>": 2284,
      "lot</w>": 2285,
      "Overri": 2286,
      "request": 2287,
      "ss</w>": 2288,
      "eck</w>": 2289,
      "IgnoreCase</w>": 2290,
      "stream</w>": 2291,
      "oolean": 2292,
      "FIL": 2293,
      "Spe": 2294,
      "Files</w>": 2295,
      "code": 2296,
      "Condi": 2297,
      "NotFound": 2298,
      "Scrip": 2299,
      "setProperty</w>": 2300,
      "INSTANC": 2301,
      "pace</w>": 2302,
      "ical": 2303,
      "prefix</w>": 2304,
      "chan": 2305,
      "getColumn": 2306,
      "document</w>": 2307,
      "JOptionPane</w>": 2308,
      "TER</w>": 2309,
      "Int": 2310,
      "Main": 2311,
      "output": 2312,
      "oi": 2313,
      "manag": 2314,
      "Cursor</w>": 2315,
      "categor": 2316,
      "ion</w>": 2317,
      "Tag": 2318,
      "MS": 2319,
      "PT": 2320,
      "Pu": 2321,
      "token": 2322,
      "Viewer</w>": 2323,
      "creen": 2324,
      "Stack</w>": 2325,
      "Thread": 2326,
      "graph": 2327,
      "Open": 2328,
      "lem</w>": 2329,
      "Title</w>": 2330,
      "ancel": 2331,
      "initialize</w>": 2332,
      "Val": 2333,
      "insert": 2334,
      "me</w>": 2335,
      "getH": 2336,
      "Queue</w>": 2337,
      "ine</w>": 2338,
      "Clic": 2339,
      "Plugin</w>": 2340,
      "getMax": 2341,
      "Posi": 2342,
      "path": 2343,
      "mary": 2344,
      "NotFoundException</w>": 2345,
      "Symb": 2346,
      "Folder</w>": 2347,
      "comp</w>": 2348,
      "acket</w>": 2349,
      "format": 2350,
      "Definition</w>": 2351,
      "panel</w>": 2352,
      "getE": 2353,
      "ferred": 2354,
      "location</w>": 2355,
      "fl": 2356,
      "Graphics</w>": 2357,
      "items</w>": 2358,
      "keys</w>": 2359,
      "player</w>": 2360,
      "Edge</w>": 2361,
      "Option</w>": 2362,
      "JS": 2363,
      "setName</w>": 2364,
      "cope</w>": 2365,
      "Block</w>": 2366,
      "supported": 2367,
      "elementAt</w>": 2368,
      "ED</w>": 2369,
      "Complet": 2370,
      "INSTANCE</w>": 2371,
      "handler</w>": 2372,
      "ht</w>": 2373,
      "Filter": 2374,
      "replace": 2375,
      "cept": 2376,
      "ie": 2377,
      "ize": 2378,
      "Choo": 2379,
      "ain": 2380,
      "ant": 2381,
      "auth": 2382,
      "selection</w>": 2383,
      "100</w>": 2384,
      "TY_": 2385,
      "rapper</w>": 2386,
      "Proto": 2387,
      "Application": 2388,
      "target": 2389,
      "store": 2390,
      "Parse": 2391,
      "urn": 2392,
      "Char</w>": 2393,
      "wid": 2394,
      "Langu": 2395,
      "tree": 2396,
      "PAR": 2397,
      "page</w>": 2398,
      "Tran": 2399,
      "ution": 2400,
      "inc": 2401,
      "util</w>": 2402,
      "GENER": 2403,
      "repl": 2404,
      "store</w>": 2405,
      "call": 2406,
      "Multi": 2407,
      "point": 2408,
      "level</w>": 2409,
      "Variable</w>": 2410,
      "static</w>": 2411,
      "cap": 2412,
      "Active": 2413,
      "equalsIgnoreCase</w>": 2414,
      "setB": 2415,
      "intValue</w>": 2416,
      "getX</w>": 2417,
      "Font": 2418,
      "link": 2419,
      "older": 2420,
      "ke</w>": 2421,
      "Exception": 2422,
      "Dir": 2423,
      "Verte": 2424,
      "Fields</w>": 2425,
      "Rule</w>": 2426,
      "Interface</w>": 2427,
      "create</w>": 2428,
      "reader</w>": 2429,
      "service": 2430,
      "inter</w>": 2431,
      "arn": 2432,
      "LA": 2433,
      "ComboBox</w>": 2434,
      "et</w>": 2435,
      "getDe": 2436,
      "rad": 2437,
      "ep": 2438,
      "Msg</w>": 2439,
      "Identifier</w>": 2440,
      "Output</w>": 2441,
      "Root": 2442,
      "urity": 2443,
      "Polic": 2444,
      "X_": 2445,
      "tmp": 2446,
      "Cell</w>": 2447,
      "Resources</w>": 2448,
      "other": 2449,
      "Registr": 2450,
      "STAT": 2451,
      "M_": 2452,
      "getSh": 2453,
      "order": 2454,
      "CE": 2455,
      "Feature": 2456,
      "parameters</w>": 2457,
      "number": 2458,
      "seri": 2459,
      "getY</w>": 2460,
      "cla": 2461,
      "TH</w>": 2462,
      "Utili": 2463,
      "Sequence</w>": 2464,
      "props</w>": 2465,
      "getWidth</w>": 2466,
      "tedException</w>": 2467,
      "FF": 2468,
      "exception</w>": 2469,
      "orizon": 2470,
      "AL_": 2471,
      "ast</w>": 2472,
      "ERR": 2473,
      "Detail": 2474,
      "mark": 2475,
      "Utilities</w>": 2476,
      "renFeatures</w>": 2477,
      "token</w>": 2478,
      "ClassName</w>": 2479,
      "array": 2480,
      "BU": 2481,
      "Net": 2482,
      "Ph": 2483,
      "db</w>": 2484,
      "lobal": 2485,
      "mode</w>": 2486,
      "service</w>": 2487,
      "Basic": 2488,
      "Histor": 2489,
      "stop</w>": 2490,
      "Engin": 2491,
      "move": 2492,
      "pack": 2493,
      "LOG</w>": 2494,
      "fix": 2495,
      "rela": 2496,
      "Host": 2497,
      "copy": 2498,
      "project</w>": 2499,
      "param": 2500,
      "getW": 2501,
      "Interrup": 2502,
      "Order</w>": 2503,
      "referen": 2504,
      "URL": 2505,
      "generate": 2506,
      "Unsupported": 2507,
      "ub": 2508,
      "ific": 2509,
      "activ": 2510,
      "Target</w>": 2511,
      "redic": 2512,
      "Manager": 2513,
      "DEFAULT_": 2514,
      "Transform": 2515,
      "assert</w>": 2516,
      "Lower": 2517,
      "tree</w>": 2518,
      "array</w>": 2519,
      "scrip": 2520,
      "Composite</w>": 2521,
      "resol": 2522,
      "Cop": 2523,
      "assertNotNull</w>": 2524,
      "getModel</w>": 2525,
      "nl": 2526,
      "lush</w>": 2527,
      "Pointer": 2528,
      "ties": 2529,
      "rows</w>": 2530,
      "getHeight</w>": 2531,
      "Matrix</w>": 2532,
      "DAO</w>": 2533,
      "Param</w>": 2534,
      "utable": 2535,
      "det": 2536,
      "PropertyChange</w>": 2537,
      "Internal": 2538,
      "Separator": 2539,
      "setPre": 2540,
      "over": 2541,
      "parse</w>": 2542,
      "ema</w>": 2543,
      "OS</w>": 2544,
      "XML</w>": 2545,
      "initializ": 2546,
      "ER</w>": 2547,
      "nextElement</w>": 2548,
      "address</w>": 2549,
      "className</w>": 2550,
      "df": 2551,
      "INF": 2552,
      "ify": 2553,
      "stic": 2554,
      "Num</w>": 2555,
      "Lim": 2556,
      "Permis": 2557,
      "getImage</w>": 2558,
      "ender": 2559,
      "from": 2560,
      "gu": 2561,
      "ran": 2562,
      "Response": 2563,
      "Diag": 2564,
      "collec": 2565,
      "getSize</w>": 2566,
      "stance</w>": 2567,
      "sk": 2568,
      "total": 2569,
      "_c": 2570,
      "hasMoreElements</w>": 2571,
      "ors</w>": 2572,
      "Stati": 2573,
      "parseInt</w>": 2574,
      "manager</w>": 2575,
      "Pl": 2576,
      "Out</w>": 2577,
      "Coordin": 2578,
      "del": 2579,
      "command": 2580,
      "ance</w>": 2581,
      "compar": 2582,
      "ye": 2583,
      "Template</w>": 2584,
      "Frame": 2585,
      "ned": 2586,
      "Extension</w>": 2587,
      "US": 2588,
      "ResultSet</w>": 2589,
      "Header": 2590,
      "MouseEvent</w>": 2591,
      "ock</w>": 2592,
      "task": 2593,
      "CheckBox</w>": 2594,
      "PROPER": 2595,
      "clude": 2596,
      "description</w>": 2597,
      "save</w>": 2598,
      "Align": 2599,
      "Background</w>": 2600,
      "firePropertyChange</w>": 2601,
      "ep</w>": 2602,
      "Up</w>": 2603,
      "Entry": 2604,
      "play": 2605,
      "GENERIC": 2606,
      "Can": 2607,
      "Game": 2608,
      "sTo": 2609,
      "Override</w>": 2610,
      "getField": 2611,
      "Operation</w>": 2612,
      "F_": 2613,
      "HO": 2614,
      "solute": 2615,
      "ground": 2616,
      "ud": 2617,
      "container</w>": 2618,
      "SAX": 2619,
      "Order": 2620,
      "active": 2621,
      "sys": 2622,
      "visit</w>": 2623,
      "arch</w>": 2624,
      "Instance": 2625,
      "password</w>": 2626,
      "Auto": 2627,
      "exists</w>": 2628,
      "ority</w>": 2629,
      "Fin": 2630,
      "pol": 2631,
      "Cri": 2632,
      "Invo": 2633,
      "GENERIC_VALUE_IMAGE</w>": 2634,
      "Display</w>": 2635,
      "reset": 2636,
      "Params</w>": 2637,
      "Display": 2638,
      "style</w>": 2639,
      "tive": 2640,
      "lex": 2641,
      "popu": 2642,
      "Create": 2643,
      "ChangeEvent</w>": 2644,
      "Bag": 2645,
      "Cache": 2646,
      "soci": 2647,
      "Invalid": 2648,
      "Block": 2649,
      "task</w>": 2650,
      "cmd</w>": 2651,
      "expResult</w>": 2652,
      "Byte</w>": 2653,
      "flush</w>": 2654,
      "src</w>": 2655,
      "setSelected": 2656,
      "rag": 2657,
      "io</w>": 2658,
      "default</w>": 2659,
      "Rows</w>": 2660,
      "Channel</w>": 2661,
      "startsWith</w>": 2662,
      "el</w>": 2663,
      "Look": 2664,
      "vas</w>": 2665,
      "ans</w>": 2666,
      "options</w>": 2667,
      "prog": 2668,
      "SIZ": 2669,
      "isDebug": 2670,
      "tal</w>": 2671,
      "Bundle</w>": 2672,
      "Constraints</w>": 2673,
      "files</w>": 2674,
      "charAt</w>": 2675,
      "ingException</w>": 2676,
      "getLast": 2677,
      "Objects</w>": 2678,
      "Runnable</w>": 2679,
      "cr": 2680,
      "Keys</w>": 2681,
      "parameter": 2682,
      "flow": 2683,
      "enter": 2684,
      "ine": 2685,
      "ell": 2686,
      "top</w>": 2687,
      "sql": 2688,
      "Doc": 2689,
      "Unit": 2690,
      "ual</w>": 2691,
      "ffec": 2692,
      "prop</w>": 2693,
      "entity": 2694,
      "post": 2695,
      "Database": 2696,
      "Wrapper</w>": 2697,
      "number</w>": 2698,
      "mapp": 2699,
      "entry": 2700,
      "creen</w>": 2701,
      "estamp</w>": 2702,
      "Rect</w>": 2703,
      "Notification</w>": 2704,
      "zz</w>": 2705,
      "tag": 2706,
      "keySet</w>": 2707,
      "Progress": 2708,
      "Linked": 2709,
      "button</w>": 2710,
      "ern": 2711,
      "Role</w>": 2712,
      "jTextField": 2713,
      "cs</w>": 2714,
      "req</w>": 2715,
      "W_": 2716,
      "Reference": 2717,
      "orizontal": 2718,
      "JMenuItem</w>": 2719,
      "attr": 2720,
      "from</w>": 2721,
      "first</w>": 2722,
      "acity</w>": 2723,
      "client</w>": 2724,
      "Function</w>": 2725,
      "QU": 2726,
      "Fig": 2727,
      "builder</w>": 2728,
      "fill": 2729,
      "rele": 2730,
      "Seg": 2731,
      "nd": 2732,
      "Show": 2733,
      "tool": 2734,
      "ason</w>": 2735,
      "ERROR_": 2736,
      "Port": 2737,
      "tical": 2738,
      "NE": 2739,
      "NullPointer": 2740,
      "filter": 2741,
      "CT": 2742,
      "header</w>": 2743,
      "TYPE</w>": 2744,
      "pres": 2745,
      "bean</w>": 2746,
      "NullPointerException</w>": 2747,
      "HttpServlet": 2748,
      "project": 2749,
      "isDebugEnabled</w>": 2750,
      "Points</w>": 2751,
      "previou": 2752,
      "let</w>": 2753,
      "Load": 2754,
      "tom</w>": 2755,
      "gen": 2756,
      "Av": 2757,
      "Template": 2758,
      "username</w>": 2759,
      "Wh": 2760,
      "Draw": 2761,
      "wor": 2762,
      "Custom": 2763,
      "left</w>": 2764,
      "PRE": 2765,
      "CEN": 2766,
      "jContentPane</w>": 2767,
      "af": 2768,
      "ING_": 2769,
      "InterruptedException</w>": 2770,
      "look": 2771,
      "bed": 2772,
      "Tab</w>": 2773,
      "record": 2774,
      "viron": 2775,
      "Valid</w>": 2776,
      "plu": 2777,
      "Metadat": 2778,
      "Pool</w>": 2779,
      "Tip": 2780,
      "rand": 2781,
      "cb": 2782,
      "visit": 2783,
      "raw</w>": 2784,
      "convert": 2785,
      "getSource</w>": 2786,
      "Separator</w>": 2787,
      "Uni": 2788,
      "Assert</w>": 2789,
      "Te": 2790,
      "prepa": 2791,
      "lid": 2792,
      "Base</w>": 2793,
      "JScrollPane</w>": 2794,
      "ceive": 2795,
      "defin": 2796,
      "aly": 2797,
      "enter</w>": 2798,
      "memb": 2799,
      "Gen": 2800,
      "Af": 2801,
      "sel": 2802,
      "ao": 2803,
      "18": 2804,
      "Transaction": 2805,
      "Ori": 2806,
      "ounds</w>": 2807,
      "Gu": 2808,
      "ome</w>": 2809,
      "TimeMillis</w>": 2810,
      "ability</w>": 2811,
      "addAll</w>": 2812,
      "dialog</w>": 2813,
      "Chooser</w>": 2814,
      "Doc</w>": 2815,
      "Mapping</w>": 2816,
      "newInstance</w>": 2817,
      "sett": 2818,
      "os": 2819,
      "16</w>": 2820,
      "Target": 2821,
      "fet": 2822,
      "ram</w>": 2823,
      "Support</w>": 2824,
      "host</w>": 2825,
      "results</w>": 2826,
      "ire": 2827,
      "ATION_": 2828,
      "prod": 2829,
      "Informa": 2830,
      "Version": 2831,
      "Db": 2832,
      "num</w>": 2833,
      "use</w>": 2834,
      "False</w>": 2835,
      "Icon": 2836,
      "setR": 2837,
      "Hashtable</w>": 2838,
      "obj": 2839,
      "Space</w>": 2840,
      "Edge": 2841,
      "IGH": 2842,
      "ide": 2843,
      "attribute</w>": 2844,
      "attern": 2845,
      "names": 2846,
      "coding</w>": 2847,
      "javax</w>": 2848,
      "getKey</w>": 2849,
      "In</w>": 2850,
      "ached": 2851,
      "Persisten": 2852,
      "Long": 2853,
      "_id</w>": 2854,
      "lot": 2855,
      "getNode": 2856,
      "pattern</w>": 2857,
      "cas": 2858,
      "ocket</w>": 2859,
      "paint": 2860,
      "connect</w>": 2861,
      "getValue": 2862,
      "tom": 2863,
      "face": 2864,
      "prop": 2865,
      "calcul": 2866,
      "ant</w>": 2867,
      "Ow": 2868,
      "Flow": 2869,
      "sifi": 2870,
      "A_": 2871,
      "gle</w>": 2872,
      "HE": 2873,
      "Swing": 2874,
      "ta</w>": 2875,
      "Host</w>": 2876,
      "LIN": 2877,
      "RemoteException</w>": 2878,
      "DT": 2879,
      "11</w>": 2880,
      "fields</w>": 2881,
      "Def</w>": 2882,
      "box</w>": 2883,
      "Handle</w>": 2884,
      "Sign": 2885,
      "right</w>": 2886,
      "menu</w>": 2887,
      "getAb": 2888,
      "client": 2889,
      "ocket": 2890,
      "Variable": 2891,
      "STR": 2892,
      "clazz</w>": 2893,
      "ced": 2894,
      "NumberOf": 2895,
      "AGE</w>": 2896,
      "currentTimeMillis</w>": 2897,
      "Category</w>": 2898,
      "evalu": 2899,
      "son</w>": 2900,
      "Proxy</w>": 2901,
      "scale</w>": 2902,
      "Columns</w>": 2903,
      "fore": 2904,
      "gorith": 2905,
      "ibern": 2906,
      "pos": 2907,
      "entic": 2908,
      "Pe": 2909,
      "ACT": 2910,
      "arg</w>": 2911,
      "Publ": 2912,
      "setH": 2913,
      "She": 2914,
      "doc": 2915,
      "ci": 2916,
      "Mis": 2917,
      "Transform</w>": 2918,
      "cl": 2919,
      "gr</w>": 2920,
      "Double": 2921,
      "rect</w>": 2922,
      "ori": 2923,
      "names</w>": 2924,
      "aset</w>": 2925,
      "_is": 2926,
      "func": 2927,
      "Tri": 2928,
      "norm": 2929,
      "rop": 2930,
      "Head": 2931,
      "Ind": 2932,
      "setTitle</w>": 2933,
      "nodes</w>": 2934,
      "Save": 2935,
      "that</w>": 2936,
      "refresh": 2937,
      "show</w>": 2938,
      "Fl": 2939,
      "lation</w>": 2940,
      "Uri</w>": 2941,
      "Play": 2942,
      "ie</w>": 2943,
      "Results</w>": 2944,
      "Generator</w>": 2945,
      "Empty": 2946,
      "25": 2947,
      "Stor": 2948,
      "MIN": 2949,
      "Modified</w>": 2950,
      "Serializ": 2951,
      "Criteri": 2952,
      "yn": 2953,
      "setMax": 2954,
      "AL</w>": 2955,
      "IL": 2956,
      "condi": 2957,
      "ech": 2958,
      "urn</w>": 2959,
      "Password</w>": 2960,
      "Location": 2961,
      "Core": 2962,
      "SU": 2963,
      "DOM": 2964,
      "ats</w>": 2965,
      "mail": 2966,
      "order</w>": 2967,
      "LowerCase</w>": 2968,
      "ni": 2969,
      "Ev": 2970,
      "Interval</w>": 2971,
      "xml</w>": 2972,
      "get_": 2973,
      "net": 2974,
      "CENTER</w>": 2975,
      "Num": 2976,
      "bind": 2977,
      "test</w>": 2978,
      "parser</w>": 2979,
      "edia": 2980,
      "word</w>": 2981,
      "getTime</w>": 2982,
      "bounds</w>": 2983,
      "Listener": 2984,
      "Mutable": 2985,
      "oom": 2986,
      "From</w>": 2987,
      "Ali": 2988,
      "Bounds": 2989,
      "12</w>": 2990,
      "locale</w>": 2991,
      "Debug</w>": 2992,
      "oldValue</w>": 2993,
      "ispatch": 2994,
      "Term</w>": 2995,
      "ONE</w>": 2996,
      "secon": 2997,
      "getProperty": 2998,
      "Only</w>": 2999,
      "ByteArray": 3000,
      "warn</w>": 3001,
      "ternal": 3002,
      "status": 3003,
      "Allow": 3004,
      "layout</w>": 3005,
      "Max</w>": 3006,
      "LOG": 3007,
      "toLowerCase</w>": 3008,
      "HashSet</w>": 3009,
      "Total": 3010,
      "datab": 3011,
      "JLabel</w>": 3012,
      "rt": 3013,
      "Dialog": 3014,
      "xture</w>": 3015,
      "Schema": 3016,
      "Prefix</w>": 3017,
      "Sim": 3018,
      "Character</w>": 3019,
      "editor</w>": 3020,
      "Socket</w>": 3021,
      "Layer</w>": 3022,
      "iv": 3023,
      "Declar": 3024,
      "constra": 3025,
      "TEX": 3026,
      "stri": 3027,
      "getEx": 3028,
      "Focus": 3029,
      "prepare": 3030,
      "cache</w>": 3031,
      "Expr</w>": 3032,
      "Find": 3033,
      "ody": 3034,
      "setPreferred": 3035,
      "elem</w>": 3036,
      "ben": 3037,
      "KEY</w>": 3038,
      "assertFalse</w>": 3039,
      "Registry</w>": 3040,
      "Strok": 3041,
      "getLength</w>": 3042,
      "Brow": 3043,
      "getRow": 3044,
      "space</w>": 3045,
      "omet": 3046,
      "font</w>": 3047,
      "Graphics": 3048,
      "Domain</w>": 3049,
      "flag</w>": 3050,
      "Param": 3051,
      "ali": 3052,
      "Paint</w>": 3053,
      "getMin": 3054,
      "MESS": 3055,
      "Ye": 3056,
      "ape": 3057,
      "graph</w>": 3058,
      "ution</w>": 3059,
      "origin": 3060,
      "Shape</w>": 3061,
      "component": 3062,
      "ibernate": 3063,
      "this": 3064,
      "assword": 3065,
      "Visitor</w>": 3066,
      "Level": 3067,
      "version</w>": 3068,
      "wait": 3069,
      "Wa": 3070,
      "SIZE</w>": 3071,
      "resh</w>": 3072,
      "prox": 3073,
      "ancel</w>": 3074,
      "player": 3075,
      "OperationException</w>": 3076,
      "Sen": 3077,
      "Configuration": 3078,
      "Down": 3079,
      "Select": 3080,
      "jSeparator": 3081,
      "attr</w>": 3082,
      "spe": 3083,
      "hash</w>": 3084,
      "Tit": 3085,
      "Namespace</w>": 3086,
      "Card</w>": 3087,
      "serv": 3088,
      "Tokenizer</w>": 3089,
      "loc</w>": 3090,
      "open</w>": 3091,
      "ctx</w>": 3092,
      "Job": 3093,
      "ars</w>": 3094,
      "AG": 3095,
      "TER": 3096,
      "getFile": 3097,
      "sin": 3098,
      "rid</w>": 3099,
      "Sum": 3100,
      "rule": 3101,
      "getAttribute": 3102,
      "suc": 3103,
      "Stroke</w>": 3104,
      "getL": 3105,
      "getFirst": 3106,
      "setRe": 3107,
      "rc</w>": 3108,
      "Matrix": 3109,
      "expected</w>": 3110,
      "RI": 3111,
      "Construc": 3112,
      "Bin": 3113,
      "cy": 3114,
      "_VALUE</w>": 3115,
      "connection": 3116,
      "ates</w>": 3117,
      "Use": 3118,
      "display</w>": 3119,
      "Qual": 3120,
      "enabled</w>": 3121,
      "cp": 3122,
      "cell</w>": 3123,
      "gg": 3124,
      "sible": 3125,
      "double": 3126,
      "imum</w>": 3127,
      "scroll": 3128,
      "getPath</w>": 3129,
      "Active</w>": 3130,
      "getComponent</w>": 3131,
      "Assign": 3132,
      "Vertex</w>": 3133,
      "Instruc": 3134,
      "trace</w>": 3135,
      "TextArea</w>": 3136,
      "isSelected</w>": 3137,
      "ParseException</w>": 3138,
      "getNext": 3139,
      "By</w>": 3140,
      "Post": 3141,
      "Module": 3142,
      "ighl": 3143,
      "bot": 3144,
      "selection": 3145,
      "getResource</w>": 3146,
      "Driv": 3147,
      "legate</w>": 3148,
      "Down</w>": 3149,
      "Position": 3150,
      "LOC": 3151,
      "setSelected</w>": 3152,
      "Float": 3153,
      "contin": 3154,
      "setLocation</w>": 3155,
      "body</w>": 3156,
      "Annotation</w>": 3157,
      "ATTR": 3158,
      "Relation": 3159,
      "Move": 3160,
      "tes</w>": 3161,
      "iction": 3162,
      "UID</w>": 3163,
      "tional": 3164,
      "multi": 3165,
      "Part": 3166,
      "Bit": 3167,
      "ateg": 3168,
      "ClassLoader</w>": 3169,
      "mer": 3170,
      "ERRO": 3171,
      "owner</w>": 3172,
      "argum": 3173,
      "selected</w>": 3174,
      "Focus</w>": 3175,
      "all</w>": 3176,
      "Produc": 3177,
      "Process</w>": 3178,
      "setDefault": 3179,
      "getLocal": 3180,
      "eINSTANCE</w>": 3181,
      "ination</w>": 3182,
      "ingle": 3183,
      "right": 3184,
      "Components</w>": 3185,
      "head": 3186,
      "UnsupportedOperationException</w>": 3187,
      "KEY_": 3188,
      "ERROR</w>": 3189,
      "Policy</w>": 3190,
      "OutOf": 3191,
      "Alignment</w>": 3192,
      "separ": 3193,
      "Pair</w>": 3194,
      "getAll": 3195,
      "Selector</w>": 3196,
      "color": 3197,
      "Player": 3198,
      "link</w>": 3199,
      "Depend": 3200,
      "Plugin": 3201,
      "Cms": 3202,
      "SER": 3203,
      "Collections</w>": 3204,
      "FOR": 3205,
      "SE</w>": 3206,
      "full": 3207,
      "msg": 3208,
      "ning</w>": 3209,
      "If": 3210,
      "getElement": 3211,
      "Left</w>": 3212,
      "DF": 3213,
      "scal": 3214,
      "childrenFeatures</w>": 3215,
      "__": 3216,
      "og": 3217,
      "tf": 3218,
      "Indi": 3219,
      "LE</w>": 3220,
      "cell": 3221,
      "replace</w>": 3222,
      "vec": 3223,
      "Changed": 3224,
      "Cor": 3225,
      "comb": 3226,
      "COL": 3227,
      "KeyEvent</w>": 3228,
      "getTar": 3229,
      "Flag</w>": 3230,
      "bit": 3231,
      "Warn": 3232,
      "s1</w>": 3233,
      "sle": 3234,
      "utd": 3235,
      "0f</w>": 3236,
      "Card": 3237,
      "BUT": 3238,
      "p_": 3239,
      "ks</w>": 3240,
      "Mem": 3241,
      "ive": 3242,
      "pute": 3243,
      "lim": 3244,
      "led</w>": 3245,
      "avig": 3246,
      "auto": 3247,
      "Rand": 3248,
      "EL": 3249,
      "long": 3250,
      "columnIndex</w>": 3251,
      "Packet</w>": 3252,
      "font": 3253,
      "apply": 3254,
      "unit</w>": 3255,
      "Desc</w>": 3256,
      "Application</w>": 3257,
      "ek</w>": 3258,
      "mary</w>": 3259,
      "ause</w>": 3260,
      "getAbsolute": 3261,
      "Range": 3262,
      "Editable</w>": 3263,
      "expres": 3264,
      "Actions</w>": 3265,
      "incip": 3266,
      "Dest": 3267,
      "Agent</w>": 3268,
      "incre": 3269,
      "ings": 3270,
      "Stand": 3271,
      "setPreferredSize</w>": 3272,
      "getID</w>": 3273,
      "sort": 3274,
      "stack</w>": 3275,
      "Acces": 3276,
      "iod</w>": 3277,
      "ook</w>": 3278,
      "ixel": 3279,
      "Direction</w>": 3280,
      "Sequence": 3281,
      "3D</w>": 3282,
      "sequen": 3283,
      "Environ": 3284,
      "tolog": 3285,
      "<<</w>": 3286,
      "annot": 3287,
      "her": 3288,
      "Profile</w>": 3289,
      "inst": 3290,
      "checkWidget</w>": 3291,
      "Short</w>": 3292,
      "Non": 3293,
      "points</w>": 3294,
      "ID_": 3295,
      "isS": 3296,
      "board</w>": 3297,
      "devi": 3298,
      "50</w>": 3299,
      "ime": 3300,
      "nal</w>": 3301,
      "Engine</w>": 3302,
      "Timestamp</w>": 3303,
      "Associ": 3304,
      "ory": 3305,
      "Security": 3306,
      "ature": 3307,
      "ON_": 3308,
      "Feature</w>": 3309,
      "-=</w>": 3310,
      "Expression": 3311,
      "Html": 3312,
      "Popup": 3313,
      "PTION</w>": 3314,
      "MenuItem": 3315,
      "bedPane</w>": 3316,
      "gan": 3317,
      "kit</w>": 3318,
      "Binding</w>": 3319,
      "Account": 3320,
      "getParent": 3321,
      "Write": 3322,
      "calculate": 3323,
      "Condition</w>": 3324,
      "kn": 3325,
      "Category": 3326,
      "Screen</w>": 3327,
      "ired": 3328,
      "sm": 3329,
      "alize</w>": 3330,
      "FormatException</w>": 3331,
      "Fail": 3332,
      "radi": 3333,
      "sList</w>": 3334,
      "MenuBar</w>": 3335,
      "part": 3336,
      "cache": 3337,
      "tx</w>": 3338,
      "core": 3339,
      "Annotation": 3340,
      "getConnection</w>": 3341,
      "our</w>": 3342,
      "12": 3343,
      "Arrays</w>": 3344,
      "GER</w>": 3345,
      "DE</w>": 3346,
      "den": 3347,
      "control</w>": 3348,
      "cation": 3349,
      "off": 3350,
      "sum</w>": 3351,
      "ship": 3352,
      "Collection": 3353,
      "ES</w>": 3354,
      "tered": 3355,
      "ec</w>": 3356,
      "newVal</w>": 3357,
      "dio": 3358,
      "game": 3359,
      "Choi": 3360,
      "DEBU": 3361,
      "ker": 3362,
      "Scope</w>": 3363,
      "langu": 3364,
      "XY": 3365,
      "enable": 3366,
      "Comment</w>": 3367,
      "Left": 3368,
      "host": 3369,
      "First</w>": 3370,
      "Channel": 3371,
      "bil": 3372,
      "numberOf": 3373,
      "defaultValue</w>": 3374,
      "Render": 3375,
      "1000</w>": 3376,
      "types</w>": 3377,
      "OK</w>": 3378,
      "sched": 3379,
      "Viewer": 3380,
      "Split": 3381,
      "JSON": 3382,
      "Rate</w>": 3383,
      "ST_": 3384,
      "ign</w>": 3385,
      "amer": 3386,
      "TipText</w>": 3387,
      "ImageIcon</w>": 3388,
      "Entries</w>": 3389,
      "getPer": 3390,
      "Module</w>": 3391,
      "Avail": 3392,
      "Check</w>": 3393,
      "ids</w>": 3394,
      "loy": 3395,
      "Size": 3396,
      "propertyName</w>": 3397,
      "Step</w>": 3398,
      "Regis": 3399,
      "Package": 3400,
      "Clon": 3401,
      "C_": 3402,
      "ade</w>": 3403,
      "tax": 3404,
      "document": 3405,
      "tr</w>": 3406,
      "Factory": 3407,
      "MetaData</w>": 3408,
      "ency</w>": 3409,
      "getDescription</w>": 3410,
      "getPre": 3411,
      "rie": 3412,
      "tive</w>": 3413,
      "Properties": 3414,
      "pas": 3415,
      "throw": 3416,
      "web": 3417,
      "Mail": 3418,
      "ude</w>": 3419,
      "WAR": 3420,
      "mit": 3421,
      "tex": 3422,
      "icon</w>": 3423,
      "queue</w>": 3424,
      "bytes</w>": 3425,
      "Repository": 3426,
      "ict": 3427,
      "rot": 3428,
      "ory</w>": 3429,
      "BE": 3430,
      "RA": 3431,
      "Classifi": 3432,
      "columns</w>": 3433,
      "left": 3434,
      "bean": 3435,
      "getItem": 3436,
      "Language</w>": 3437,
      "TIM": 3438,
      "Descriptors</w>": 3439,
      "Zone</w>": 3440,
      "dir": 3441,
      "Timer</w>": 3442,
      "cancel": 3443,
      "foc": 3444,
      "PrintWriter</w>": 3445,
      "Local</w>": 3446,
      "fieldName</w>": 3447,
      "Symbol</w>": 3448,
      "compute": 3449,
      "help": 3450,
      "getX": 3451,
      "getInt</w>": 3452,
      "block": 3453,
      "Upper": 3454,
      "H_": 3455,
      "Anim": 3456,
      "setColor</w>": 3457,
      "gl": 3458,
      "edge</w>": 3459,
      "exp</w>": 3460,
      "CLAS": 3461,
      "nected</w>": 3462,
      "applic": 3463,
      "plit</w>": 3464,
      "Contents</w>": 3465,
      "getNo": 3466,
      "destro": 3467,
      "Events</w>": 3468,
      "Errors</w>": 3469,
      "Agent": 3470,
      "getV": 3471,
      "just": 3472,
      "part</w>": 3473,
      "Sched": 3474,
      "sIn": 3475,
      "INFO</w>": 3476,
      "My": 3477,
      "setBackground</w>": 3478,
      "BoundsException</w>": 3479,
      "ha": 3480,
      "pc</w>": 3481,
      "OutOfBoundsException</w>": 3482,
      "entries</w>": 3483,
      "30</w>": 3484,
      "ticip": 3485,
      "HttpServletRequest</w>": 3486,
      "Bound": 3487,
      "VE_": 3488,
      "Dig": 3489,
      "Parser": 3490,
      "Initializ": 3491,
      "extr": 3492,
      "redicate</w>": 3493,
      "curr": 3494,
      "Buffer": 3495,
      "Product": 3496,
      "Role": 3497,
      "LinkedList</w>": 3498,
      "site": 3499,
      "Wiz": 3500,
      "js": 3501,
      "allow": 3502,
      "Car": 3503,
      "ired</w>": 3504,
      "Figure</w>": 3505,
      "custom": 3506,
      "Generic": 3507,
      "Character": 3508,
      "tify</w>": 3509,
      "ioe</w>": 3510,
      "20": 3511,
      "anti": 3512,
      "window": 3513,
      "32</w>": 3514,
      "window</w>": 3515,
      "soap</w>": 3516,
      "On</w>": 3517,
      "Address": 3518,
      "setIn": 3519,
      "Axis</w>": 3520,
      "md</w>": 3521,
      "setFont</w>": 3522,
      "Clus": 3523,
      "StoreException</w>": 3524,
      "Script": 3525,
      "ION": 3526,
      "Read</w>": 3527,
      "Limit</w>": 3528,
      "Timeout</w>": 3529,
      "Equ": 3530,
      "ps": 3531,
      "HTML": 3532,
      "cm</w>": 3533,
      "exit</w>": 3534,
      "header": 3535,
      "Cla": 3536,
      "SH": 3537,
      "att</w>": 3538,
      "arraycopy</w>": 3539,
      "Factor</w>": 3540,
      "ST</w>": 3541,
      "Such": 3542,
      "Am": 3543,
      "IndexOutOfBoundsException</w>": 3544,
      "ared": 3545,
      "proto": 3546,
      "angle": 3547,
      "Instances</w>": 3548,
      "listener": 3549,
      "TY</w>": 3550,
      "stit": 3551,
      "ier": 3552,
      "Prepa": 3553,
      "FIN": 3554,
      "ample</w>": 3555,
      "sure": 3556,
      "Information</w>": 3557,
      "getData</w>": 3558,
      "Constraint</w>": 3559,
      "complet": 3560,
      ">></w>": 3561,
      "No</w>": 3562,
      "sh</w>": 3563,
      "getNum": 3564,
      "words</w>": 3565,
      "Domain": 3566,
      "ured": 3567,
      "Container": 3568,
      "she": 3569,
      "Off": 3570,
      "Delete": 3571,
      "Handler": 3572,
      "channel</w>": 3573,
      "word": 3574,
      "Database</w>": 3575,
      "Axis": 3576,
      "MM": 3577,
      "Algorith": 3578,
      "Login": 3579,
      "found</w>": 3580,
      "continue</w>": 3581,
      "thread": 3582,
      "sleep</w>": 3583,
      "'\\</w>": 3584,
      "tes": 3585,
      "getKey": 3586,
      "Area": 3587,
      "Iter": 3588,
      "Logg": 3589,
      "IP": 3590,
      "size": 3591,
      "a_": 3592,
      "Body</w>": 3593,
      "Ids</w>": 3594,
      "LE_": 3595,
      "gra": 3596,
      "off</w>": 3597,
      "getText": 3598,
      "record</w>": 3599,
      "DE_": 3600,
      "context": 3601,
      "Socket": 3602,
      "NoSuch": 3603,
      "BigInteger</w>": 3604,
      "Arch": 3605,
      "DateFormat</w>": 3606,
      "BLE</w>": 3607,
      "counter</w>": 3608,
      "History</w>": 3609,
      "matri": 3610,
      "IN</w>": 3611,
      "Open</w>": 3612,
      "symb": 3613,
      "iled</w>": 3614,
      "matches</w>": 3615,
      "last</w>": 3616,
      "IGHT</w>": 3617,
      "ain</w>": 3618,
      "isIn": 3619,
      "ail</w>": 3620,
      "rm": 3621,
      "Job</w>": 3622,
      "Details</w>": 3623,
      "viewer</w>": 3624,
      "pret": 3625,
      "Sol": 3626,
      "anner</w>": 3627,
      "alized": 3628,
      "Device</w>": 3629,
      "process</w>": 3630,
      "internal": 3631,
      "system": 3632,
      "var</w>": 3633,
      "ged": 3634,
      "Function": 3635,
      "ATION</w>": 3636,
      "buff": 3637,
      "begin": 3638,
      "Lines</w>": 3639,
      "_is_": 3640,
      "addr</w>": 3641,
      "bund": 3642,
      "CM": 3643,
      "Cer": 3644,
      "_name</w>": 3645,
      "nap": 3646,
      "compare</w>": 3647,
      "SAXException</w>": 3648,
      "TableModel</w>": 3649,
      "category</w>": 3650,
      "OR</w>": 3651,
      "box": 3652,
      "Comparator</w>": 3653,
      "matcher</w>": 3654,
      "setString</w>": 3655,
      "Processor</w>": 3656,
      "url": 3657,
      "ick</w>": 3658,
      "endsWith</w>": 3659,
      "ward</w>": 3660,
      "ness</w>": 3661,
      "GridData</w>": 3662,
      "Send": 3663,
      "send</w>": 3664,
      "Call</w>": 3665,
      "cor": 3666,
      "ide</w>": 3667,
      "AB": 3668,
      "ometr": 3669,
      "BufferedReader</w>": 3670,
      "Stop": 3671,
      "Access</w>": 3672,
      "report": 3673,
      "ategy</w>": 3674,
      "Ques": 3675,
      "render": 3676,
      "expr</w>": 3677,
      "edge": 3678,
      "Attach": 3679,
      "Day": 3680,
      "Contact": 3681,
      "iter": 3682,
      "OM": 3683,
      "bar</w>": 3684,
      "Holder</w>": 3685,
      "debug": 3686,
      "avail": 3687,
      "Device": 3688,
      "resolve": 3689,
      "removeAll": 3690,
      "tx": 3691,
      "Close": 3692,
      "Suc": 3693,
      "icon": 3694,
      "Spec</w>": 3695,
      "sd": 3696,
      "Converter</w>": 3697,
      "Proxy": 3698,
      "Validation": 3699,
      "JComponent</w>": 3700,
      "controller</w>": 3701,
      "ained</w>": 3702,
      "GridBag": 3703,
      "getLogger</w>": 3704,
      "Search</w>": 3705,
      "sort</w>": 3706,
      "Operation": 3707,
      "Scale</w>": 3708,
      "desc</w>": 3709,
      "modified</w>": 3710,
      "getSub": 3711,
      "PU": 3712,
      "Admin": 3713,
      "getStart": 3714,
      "match</w>": 3715,
      "insert</w>": 3716,
      "Geo": 3717,
      "refresh</w>": 3718,
      "Constraint": 3719,
      "select</w>": 3720,
      "Sk": 3721,
      "Enum</w>": 3722,
      "getAction": 3723,
      "DIS": 3724,
      "getWork": 3725,
      "Filename</w>": 3726,
      "notifyChanged</w>": 3727,
      "For</w>": 3728,
      "s2</w>": 3729,
      "tification": 3730,
      "Priv": 3731,
      "Counter</w>": 3732,
      "PLA": 3733,
      "MESSAGE</w>": 3734,
      "IndexOf</w>": 3735,
      "boolean": 3736,
      "Folder": 3737,
      "TP": 3738,
      "Hash</w>": 3739,
      "COMP": 3740,
      "transform</w>": 3741,
      "invoke": 3742,
      "RadioButton": 3743,
      "getSession</w>": 3744,
      "Activity</w>": 3745,
      "utils</w>": 3746,
      "dest</w>": 3747,
      "unch": 3748,
      "FO": 3749,
      "IR": 3750,
      "Tool</w>": 3751,
      "mail</w>": 3752,
      "Member": 3753,
      "ql": 3754,
      "clean": 3755,
      "expected": 3756,
      "uni": 3757,
      "seg": 3758,
      "Add</w>": 3759,
      "Tup": 3760,
      "Poly": 3761,
      "ighb": 3762,
      "cal</w>": 3763,
      "Remove</w>": 3764,
      "60</w>": 3765,
      "Account</w>": 3766,
      "toArray</w>": 3767,
      "Activity": 3768,
      "Pressed</w>": 3769,
      "ag</w>": 3770,
      "tions": 3771,
      "Cle": 3772,
      "struct": 3773,
      "compo": 3774,
      "socket</w>": 3775,
      "getAbsolutePath</w>": 3776,
      "PAT": 3777,
      "Resolver</w>": 3778,
      "EO": 3779,
      "StringTokenizer</w>": 3780,
      "configuration</w>": 3781,
      "RadioButton</w>": 3782,
      "Rele": 3783,
      "cat</w>": 3784,
      "Analy": 3785,
      "NONE</w>": 3786,
      "Person": 3787,
      "Home</w>": 3788,
      "sen": 3789,
      "3f</w>": 3790,
      "getElement</w>": 3791,
      "Metric": 3792,
      "Repository</w>": 3793,
      "15</w>": 3794,
      "ward": 3795,
      "Evalu": 3796,
      "package": 3797,
      "getCo": 3798,
      "Idx</w>": 3799,
      "Named": 3800,
      "check</w>": 3801,
      "ai": 3802,
      "dig": 3803,
      "DB</w>": 3804,
      "Wor": 3805,
      "Var</w>": 3806,
      "real": 3807,
      "ns</w>": 3808,
      "24</w>": 3809,
      "alet": 3810,
      "Profile": 3811,
      "abs</w>": 3812,
      "identifi": 3813,
      "SV": 3814,
      "def</w>": 3815,
      "Libr": 3816,
      "nextToken</w>": 3817,
      "setCurrent": 3818,
      "screen": 3819,
      "ified": 3820,
      "Copy</w>": 3821,
      "miti": 3822,
      "statement</w>": 3823,
      "Bound</w>": 3824,
      "direction</w>": 3825,
      "The": 3826,
      "Dirty</w>": 3827,
      "MutableTreeNode</w>": 3828,
      "getSelection": 3829,
      "Preferences</w>": 3830,
      "Weight</w>": 3831,
      "nt</w>": 3832,
      "Region</w>": 3833,
      "Hibernate": 3834,
      "Section</w>": 3835,
      "Fix": 3836,
      "removeAll</w>": 3837,
      "cu": 3838,
      "lastIndexOf</w>": 3839,
      "thread</w>": 3840,
      "provid": 3841,
      "pt</w>": 3842,
      "rule</w>": 3843,
      "ength": 3844,
      "Point2D</w>": 3845,
      "MAX": 3846,
      "lip": 3847,
      "Match</w>": 3848,
      "oreground</w>": 3849,
      "p1</w>": 3850,
      "Authentic": 3851,
      "cl</w>": 3852,
      "goo": 3853,
      "Standard": 3854,
      "Capacity</w>": 3855,
      "Classes</w>": 3856,
      "getString": 3857,
      "CR": 3858,
      "setMin": 3859,
      "getObject": 3860,
      "errors</w>": 3861,
      "DEBUG</w>": 3862,
      "redStatement</w>": 3863,
      "md": 3864,
      "Gre": 3865,
      "range</w>": 3866,
      "Monitor</w>": 3867,
      "indent</w>": 3868,
      "Oc": 3869,
      "ames</w>": 3870,
      "erException</w>": 3871,
      "Default</w>": 3872,
      "split</w>": 3873,
      "perform": 3874,
      "commit</w>": 3875,
      "Symbol": 3876,
      "car": 3877,
      "Pas": 3878,
      "title": 3879,
      "hs</w>": 3880,
      "IN_": 3881,
      "cy</w>": 3882,
      "Execution": 3883,
      "Year</w>": 3884,
      "separator</w>": 3885,
      "shutd": 3886,
      "ld</w>": 3887,
      "getMod": 3888,
      "PropertyChangeListener</w>": 3889,
      "JComboBox</w>": 3890,
      "Transi": 3891,
      "Word</w>": 3892,
      "reposi": 3893,
      "histor": 3894,
      "Callback</w>": 3895,
      "scri": 3896,
      "getChildren</w>": 3897,
      "Edit</w>": 3898,
      "Closed</w>": 3899,
      "wer</w>": 3900,
      "Frag": 3901,
      "TED</w>": 3902,
      "src": 3903,
      "ities</w>": 3904,
      "JMenu</w>": 3905,
      "ply</w>": 3906,
      "Combo</w>": 3907,
      "head</w>": 3908,
      "Pattern": 3909,
      "ynam": 3910,
      "card": 3911,
      "stric": 3912,
      "getNew": 3913,
      "extends</w>": 3914,
      "template": 3915,
      "Distance</w>": 3916,
      "super": 3917,
      "tifier</w>": 3918,
      "Secon": 3919,
      "SELE": 3920,
      "ype</w>": 3921,
      "Tokens</w>": 3922,
      "utor</w>": 3923,
      "uid</w>": 3924,
      "net</w>": 3925,
      "setTool": 3926,
      "getContent": 3927,
      "retVal</w>": 3928,
      "Declaration</w>": 3929,
      "FileOutputStream</w>": 3930,
      "Common": 3931,
      "testSet": 3932,
      "ByName</w>": 3933,
      "chor</w>": 3934,
      "Norm": 3935,
      "getNumberOf": 3936,
      "ScrollPane": 3937,
      "QName</w>": 3938,
      "cle</w>": 3939,
      "getActive": 3940,
      "Pos": 3941,
      "MAX_": 3942,
      "AsString</w>": 3943,
      "arg0</w>": 3944,
      "Namespace": 3945,
      "JEC": 3946,
      "Termin": 3947,
      "module": 3948,
      "stor": 3949,
      "uld": 3950,
      "itor": 3951,
      "EventListener</w>": 3952,
      "Feed": 3953,
      "Supported": 3954,
      "LOGGER</w>": 3955,
      "find</w>": 3956,
      "var": 3957,
      "getDefault</w>": 3958,
      "getObject</w>": 3959,
      "AR</w>": 3960,
      "tic</w>": 3961,
      "job": 3962,
      "NO_": 3963,
      "Pay": 3964,
      "getOw": 3965,
      "do</w>": 3966,
      "Global": 3967,
      "getBytes</w>": 3968,
      "ww": 3969,
      "lation": 3970,
      "cent": 3971,
      "getType": 3972,
      "iled": 3973,
      "style": 3974,
      "NUL": 3975,
      "Groups</w>": 3976,
      "Diagno": 3977,
      "dum": 3978,
      "ume</w>": 3979,
      "getTime": 3980,
      "Def": 3981,
      "UE</w>": 3982,
      "aster": 3983,
      "ators</w>": 3984,
      "ak": 3985,
      "Us": 3986,
      "Member</w>": 3987,
      "Min</w>": 3988,
      "expression</w>": 3989,
      "Initial": 3990,
      "settings</w>": 3991,
      "Report": 3992,
      "amount</w>": 3993,
      "SERV": 3994,
      "g2</w>": 3995,
      "ensure": 3996,
      "ById</w>": 3997,
      "visible</w>": 3998,
      "flags</w>": 3999,
      "frame": 4000,
      "Scen": 4001,
      "URI": 4002,
      "OP": 4003,
      "work</w>": 4004,
      "ek": 4005,
      "ools</w>": 4006,
      "initialize": 4007,
      "gc</w>": 4008,
      "ination": 4009,
      "indi": 4010,
      "getParameter</w>": 4011,
      "jb": 4012,
      "setField</w>": 4013,
      "Right</w>": 4014,
      "sem": 4015,
      "lers</w>": 4016,
      "ages": 4017,
      "cer": 4018,
      "e1</w>": 4019,
      "ian": 4020,
      "ished</w>": 4021,
      "getEn": 4022,
      "lap": 4023,
      "jj": 4024,
      "Script</w>": 4025,
      "REA": 4026,
      "getFile</w>": 4027,
      "Mgr</w>": 4028,
      "Vertical": 4029,
      "MessageDialog</w>": 4030,
      "www</w>": 4031,
      "ned</w>": 4032,
      "econ": 4033,
      "draw</w>": 4034,
      "DataStoreException</w>": 4035,
      "setUser": 4036,
      "Hel": 4037,
      "EMP": 4038,
      "track": 4039,
      "Dao</w>": 4040,
      "Rou": 4041,
      "ply": 4042,
      "Formul": 4043,
      "Game</w>": 4044,
      "matrix</w>": 4045,
      "Short": 4046,
      "Queue": 4047,
      "DTO</w>": 4048,
      "Operator</w>": 4049,
      "Drag": 4050,
      "Report</w>": 4051,
      "Toolkit</w>": 4052,
      "invoke</w>": 4053,
      "ARG": 4054,
      "SM": 4055,
      "role</w>": 4056,
      "Depth</w>": 4057,
      "Transfer": 4058,
      "NumberFormatException</w>": 4059,
      "series</w>": 4060,
      "push</w>": 4061,
      "addTo": 4062,
      "Mock": 4063,
      "entr": 4064,
      "ATTRI": 4065,
      "FileInputStream</w>": 4066,
      "DefaultMutableTreeNode</w>": 4067,
      "ire</w>": 4068,
      "servers</w>": 4069,
      "assertNull</w>": 4070,
      "exit": 4071,
      "Move</w>": 4072,
      "Diction": 4073,
      "termin": 4074,
      "stics</w>": 4075,
      "Sort": 4076,
      "CHAN": 4077,
      "Day</w>": 4078,
      "Schema</w>": 4079,
      "LEF": 4080,
      "Shell</w>": 4081,
      "Buttons</w>": 4082,
      "Permission</w>": 4083,
      "POR": 4084,
      "rect": 4085,
      "setup": 4086,
      "jPanel</w>": 4087,
      "sing</w>": 4088,
      "_p": 4089,
      "NOR": 4090,
      "Chun": 4091,
      "LEM": 4092,
      "istra": 4093,
      "eme</w>": 4094,
      "step</w>": 4095,
      "space": 4096,
      "actions</w>": 4097,
      "Protocol</w>": 4098,
      "siness": 4099,
      "getRo": 4100,
      "SelectionListener</w>": 4101,
      "Metadata</w>": 4102,
      "charac": 4103,
      "ca": 4104,
      "Click": 4105,
      "One": 4106,
      "TabbedPane</w>": 4107,
      "panel": 4108,
      "BufferedImage</w>": 4109,
      "block</w>": 4110,
      "template</w>": 4111,
      "call</w>": 4112,
      "Integer": 4113,
      "_b": 4114,
      "ish</w>": 4115,
      "fore</w>": 4116,
      "getLine": 4117,
      "IE": 4118,
      "tn</w>": 4119,
      "istr": 4120,
      "getSource": 4121,
      "dy</w>": 4122,
      "sa": 4123,
      "ToString</w>": 4124,
      "ChildDescriptors</w>": 4125,
      "LI": 4126,
      "o1</w>": 4127,
      "previous": 4128,
      "Environment</w>": 4129,
      "Boolean": 4130,
      "isValid</w>": 4131,
      "Exp</w>": 4132,
      "PreparedStatement</w>": 4133,
      "ateri": 4134,
      "getPref": 4135,
      "Delete</w>": 4136,
      "pha</w>": 4137,
      "argin</w>": 4138,
      "SI": 4139,
      "incipal</w>": 4140,
      "ggle": 4141,
      "Chart": 4142,
      "getView": 4143,
      "NUM": 4144,
      "Graphics2D</w>": 4145,
      "verse": 4146,
      "Return</w>": 4147,
      "objects</w>": 4148,
      "PROPERTY_": 4149,
      "CheckBox": 4150,
      "Dataset</w>": 4151,
      "25</w>": 4152,
      "engine</w>": 4153,
      "doubleValue</w>": 4154,
      "Meas": 4155,
      "Case": 4156,
      "total</w>": 4157,
      "RES": 4158,
      "valid</w>": 4159,
      "ED_": 4160,
      "Score</w>": 4161,
      "Protocol": 4162,
      "getFieldValue</w>": 4163,
      "renderer</w>": 4164,
      "Diff": 4165,
      "New</w>": 4166,
      "ffix</w>": 4167,
      "Single": 4168,
      "SOUR": 4169,
      "x1</w>": 4170,
      "Leg": 4171,
      "Extension": 4172,
      "sample": 4173,
      "simp": 4174,
      "getPri": 4175,
      "getImage": 4176,
      "ases</w>": 4177,
      "Sheet": 4178,
      "Full": 4179,
      "getCon": 4180,
      "known": 4181,
      "TH": 4182,
      "cls</w>": 4183,
      "diag": 4184,
      "Cy": 4185,
      "ffi": 4186,
      "ts": 4187,
      "book": 4188,
      "pli": 4189,
      "Series": 4190,
      "info": 4191,
      "Undo": 4192,
      "Observer</w>": 4193,
      "transform": 4194,
      "driv": 4195,
      "ganiz": 4196,
      "day": 4197,
      "Mark": 4198,
      "setIcon</w>": 4199,
      "Word": 4200,
      "Props</w>": 4201,
      "BLE_": 4202,
      "getLocation</w>": 4203,
      "board": 4204,
      "bar": 4205,
      "stance": 4206,
      "Lock": 4207,
      "Password": 4208,
      "img</w>": 4209,
      "Literal</w>": 4210,
      "include": 4211,
      "ENT": 4212,
      "Specific": 4213,
      "ending</w>": 4214,
      "gr": 4215,
      "swing</w>": 4216,
      "setE": 4217,
      "FileChooser</w>": 4218,
      "plugin": 4219,
      "getSu": 4220,
      "lPackage</w>": 4221,
      "setView": 4222,
      "Segment</w>": 4223,
      "AccessException</w>": 4224,
      "GRO": 4225,
      "VE</w>": 4226,
      "Na": 4227,
      "Criteria</w>": 4228,
      "cp</w>": 4229,
      "oot</w>": 4230,
      "timeout</w>": 4231,
      "setBorder</w>": 4232,
      "getComponent": 4233,
      "CLO": 4234,
      "clus": 4235,
      "Util": 4236,
      "Args</w>": 4237,
      "Vol": 4238,
      "ights</w>": 4239,
      "JCheckBox</w>": 4240,
      "ons</w>": 4241,
      "Main</w>": 4242,
      "monitor</w>": 4243,
      "Cat": 4244,
      "Network": 4245,
      "very": 4246,
      "import": 4247,
      "ynamic": 4248,
      "SIT": 4249,
      "parameter</w>": 4250,
      "CONT": 4251,
      "Cred": 4252,
      "getIndex</w>": 4253,
      "Cook": 4254,
      "Formatter</w>": 4255,
      "Notify": 4256,
      "verse</w>": 4257,
      "tern": 4258,
      "Parti": 4259,
      "Iter</w>": 4260,
      "err": 4261,
      "getCli": 4262,
      "So": 4263,
      "receive": 4264,
      "anim": 4265,
      "comment</w>": 4266,
      "ify</w>": 4267,
      "Instruction</w>": 4268,
      "I18": 4269,
      "readLine</w>": 4270,
      "sp</w>": 4271,
      "ency": 4272,
      "graphic": 4273,
      "inner": 4274,
      "sim": 4275,
      "fetch</w>": 4276,
      "Return": 4277,
      "env</w>": 4278,
      "Directory": 4279,
      "..": 4280,
      "...</w>": 4281,
      "remote": 4282,
      "schema": 4283,
      "Cast": 4284,
      "ple": 4285,
      "gl</w>": 4286,
      "Select</w>": 4287,
      "Units</w>": 4288,
      "changed</w>": 4289,
      "rieve": 4290,
      "ifier</w>": 4291,
      "mark</w>": 4292,
      "AST": 4293,
      "curren": 4294,
      "pnl": 4295,
      "extension</w>": 4296,
      "iod": 4297,
      "distance</w>": 4298,
      "Constant</w>": 4299,
      "ryp": 4300,
      "api</w>": 4301,
      "ise</w>": 4302,
      "Canvas</w>": 4303,
      "ierarch": 4304,
      "GUI</w>": 4305,
      "Series</w>": 4306,
      "widget</w>": 4307,
      "paces</w>": 4308,
      "section</w>": 4309,
      "GP": 4310,
      "getJPanel": 4311,
      "NOT_": 4312,
      "40</w>": 4313,
      "entation": 4314,
      "STAR": 4315,
      "OB": 4316,
      "role": 4317,
      "ServiceException</w>": 4318,
      "Trace": 4319,
      "FF</w>": 4320,
      "axis</w>": 4321,
      "Added</w>": 4322,
      "Strategy</w>": 4323,
      "IT</w>": 4324,
      "Running</w>": 4325,
      "Bad": 4326,
      "100": 4327,
      "gre": 4328,
      "StringUtils</w>": 4329,
      "Scal": 4330,
      "Owner</w>": 4331,
      "Aler": 4332,
      "ise": 4333,
      "IT_": 4334,
      "getDocument</w>": 4335,
      "rt</w>": 4336,
      "original": 4337,
      "actual": 4338,
      "retval</w>": 4339,
      "isEnabled</w>": 4340,
      "andid": 4341,
      "Url": 4342,
      "executeQuery</w>": 4343,
      "cmd": 4344,
      "pk": 4345,
      "metadat": 4346,
      "OPTION</w>": 4347,
      "random</w>": 4348,
      "setUp</w>": 4349,
      "Late": 4350,
      "ial": 4351,
      "Var": 4352,
      "ence": 4353,
      "flu": 4354,
      "release</w>": 4355,
      "UP": 4356,
      "BuildException</w>": 4357,
      "insets</w>": 4358,
      "getEnd": 4359,
      "Particip": 4360,
      "LIS": 4361,
      "tent</w>": 4362,
      "booleanValue</w>": 4363,
      "shell</w>": 4364,
      "mart": 4365,
      "dbc": 4366,
      "WE": 4367,
      "Validator</w>": 4368,
      "skip": 4369,
      "getTitle</w>": 4370,
      "velop": 4371,
      "Geometr": 4372,
      "Encoding</w>": 4373,
      "Real": 4374,
      "DER</w>": 4375,
      "Extr": 4376,
      "EV": 4377,
      "cation</w>": 4378,
      "Screen": 4379,
      "reshold</w>": 4380,
      "success</w>": 4381,
      "Chat": 4382,
      "ability": 4383,
      "NS": 4384,
      "relation": 4385,
      "que</w>": 4386,
      "calendar</w>": 4387,
      "gov</w>": 4388,
      "perim": 4389,
      "Removed</w>": 4390,
      "ACTION_": 4391,
      "ence</w>": 4392,
      "pop</w>": 4393,
      "setType</w>": 4394,
      "cursor</w>": 4395,
      "Beha": 4396,
      "Matcher</w>": 4397,
      "force": 4398,
      "oid</w>": 4399,
      "global": 4400,
      "getState</w>": 4401,
      "SEVER": 4402,
      "app</w>": 4403,
      "alette": 4404,
      "GR": 4405,
      "Period</w>": 4406,
      "EClass</w>": 4407,
      "day</w>": 4408,
      "ank</w>": 4409,
      "Angle</w>": 4410,
      "af</w>": 4411,
      "Orientation</w>": 4412,
      "seq": 4413,
      "Arg</w>": 4414,
      "uration": 4415,
      "ating": 4416,
      "ested": 4417,
      "Variables</w>": 4418,
      "o2</w>": 4419,
      "ComboBox": 4420,
      "setEditable</w>": 4421,
      "access": 4422,
      "Go": 4423,
      "Dispo": 4424,
      "lines</w>": 4425,
      "impl</w>": 4426,
      "connect": 4427,
      "Priority</w>": 4428,
      "sv": 4429,
      "lider</w>": 4430,
      "mask</w>": 4431,
      "attach": 4432,
      "External": 4433,
      "contents</w>": 4434,
      "Transition</w>": 4435,
      "im</w>": 4436,
      "unit": 4437,
      "Argument</w>": 4438,
      "Dispatch": 4439,
      "ating</w>": 4440,
      "dim</w>": 4441,
      "Preference": 4442,
      "consum": 4443,
      "reation": 4444,
      "ok</w>": 4445,
      "sBy": 4446,
      "getError": 4447,
      "ACE</w>": 4448,
      "Tick": 4449,
      "Attr": 4450,
      "SQL</w>": 4451,
      "ceiver</w>": 4452,
      "JMenuBar</w>": 4453,
      "Headers</w>": 4454,
      "destroy</w>": 4455,
      "addItem</w>": 4456,
      "Definition": 4457,
      "reason</w>": 4458,
      "entrySet</w>": 4459,
      "Flags</w>": 4460,
      "scrib": 4461,
      "Count": 4462,
      "ported</w>": 4463,
      "ist</w>": 4464,
      "card</w>": 4465,
      "loader</w>": 4466,
      "Import": 4467,
      "jScrollPane</w>": 4468,
      "ets</w>": 4469,
      "cc</w>": 4470,
      "buff</w>": 4471,
      "Len</w>": 4472,
      "ies": 4473,
      "Chec": 4474,
      "range": 4475,
      "COMM": 4476,
      "FILE_": 4477,
      "progress": 4478,
      "game</w>": 4479,
      "p2</w>": 4480,
      "reference": 4481,
      "Book": 4482,
      "down": 4483,
      "enable</w>": 4484,
      "Exists</w>": 4485,
      "ular": 4486,
      "oom</w>": 4487,
      "Provider": 4488,
      "bas": 4489,
      "getJContentPane</w>": 4490,
      "resources</w>": 4491,
      "CE_": 4492,
      "getSch": 4493,
      "getProject</w>": 4494,
      "Answ": 4495,
      "Allowed</w>": 4496,
      "amil": 4497,
      "getClass": 4498,
      "layout": 4499,
      "setToolTipText</w>": 4500,
      "Free": 4501,
      "Background": 4502,
      "condition</w>": 4503,
      "x2</w>": 4504,
      "Audio": 4505,
      "ash": 4506,
      "ending": 4507,
      "typed": 4508,
      "domain</w>": 4509,
      "History": 4510,
      "previous</w>": 4511,
      "Pdf": 4512,
      "ELEM": 4513,
      "Rectangle": 4514,
      "depth</w>": 4515,
      "Act": 4516,
      "NING</w>": 4517,
      "components</w>": 4518,
      "ario</w>": 4519,
      "alize": 4520,
      "appendChild</w>": 4521,
      "Only": 4522,
      "Step": 4523,
      "Pool": 4524,
      "Extended": 4525,
      "Media": 4526,
      "Sor": 4527,
      "inner</w>": 4528,
      "200</w>": 4529,
      "Methods</w>": 4530,
      "TIC": 4531,
      "B_": 4532,
      "meta": 4533,
      "napsh": 4534,
      "getTable": 4535,
      "focus": 4536,
      "PR": 4537,
      "ysi": 4538,
      "register</w>": 4539,
      "set_": 4540,
      "sive</w>": 4541,
      "SED</w>": 4542,
      "ship</w>": 4543,
      "evaluate</w>": 4544,
      "rtual": 4545,
      "initialized</w>": 4546,
      "Progress</w>": 4547,
      "methodName</w>": 4548,
      "userName</w>": 4549,
      "should": 4550,
      "with": 4551,
      "Mask</w>": 4552,
      "Rot": 4553,
      "erred": 4554,
      "Seq": 4555,
      "iec": 4556,
      "getContext</w>": 4557,
      "Bits</w>": 4558,
      "br</w>": 4559,
      "jcas": 4560,
      "bin": 4561,
      "MAX_VALUE</w>": 4562,
      "jcasType</w>": 4563,
      "ik": 4564,
      "messages</w>": 4565,
      "Plan": 4566,
      "ado": 4567,
      "ank": 4568,
      "Tags</w>": 4569,
      "Jsp": 4570,
      "language</w>": 4571,
      "Copy": 4572,
      "OW": 4573,
      "getProperties</w>": 4574,
      "Comment": 4575,
      "TRUE</w>": 4576,
      "AGE_": 4577,
      "split": 4578,
      "Visible": 4579,
      "response": 4580,
      "Structure": 4581,
      "cent</w>": 4582,
      "exc</w>": 4583,
      "dx</w>": 4584,
      "mid": 4585,
      "def": 4586,
      "Language": 4587,
      "iece</w>": 4588,
      "sPer": 4589,
      "Asyn": 4590,
      "short": 4591,
      "vision</w>": 4592,
      "Com": 4593,
      "ATOR</w>": 4594,
      "Prop": 4595,
      "canvas</w>": 4596,
      "Public": 4597,
      "Numer": 4598,
      "ListModel</w>": 4599,
      "signed": 4600,
      "Ontolog": 4601,
      "CP": 4602,
      "ven": 4603,
      "Wizard": 4604,
      "setContentPane</w>": 4605,
      "Enable": 4606,
      "shape</w>": 4607,
      "Radi": 4608,
      "tran": 4609,
      "Metadata": 4610,
      "ere</w>": 4611,
      "inte": 4612,
      "Amount</w>": 4613,
      "O_": 4614,
      "columnName</w>": 4615,
      "year</w>": 4616,
      "sPanel</w>": 4617,
      "tab</w>": 4618,
      "setId</w>": 4619,
      "Primary": 4620,
      "Cancel": 4621,
      "Brea": 4622,
      "Sample": 4623,
      "AV": 4624,
      "replaceAll</w>": 4625,
      "Internal</w>": 4626,
      "Dx": 4627,
      "getLabel</w>": 4628,
      "actual</w>": 4629,
      "namespace</w>": 4630,
      "ews</w>": 4631,
      "getSt": 4632,
      "fixture</w>": 4633,
      "TYPE__": 4634,
      "getSelection</w>": 4635,
      "mi": 4636,
      "YE": 4637,
      "Space": 4638,
      "DBException</w>": 4639,
      "_att": 4640,
      "'.": 4641,
      "'.'</w>": 4642,
      "ncb": 4643,
      "y1</w>": 4644,
      "getBack": 4645,
      "pw</w>": 4646,
      "aster</w>": 4647,
      "Super": 4648,
      "choo": 4649,
      "Unique": 4650,
      "Faces": 4651,
      "Navig": 4652,
      "uplic": 4653,
      "SD": 4654,
      "WID": 4655,
      "pc": 4656,
      "ClassNotFoundException</w>": 4657,
      "scope</w>": 4658,
      "endar": 4659,
      "getStatus</w>": 4660,
      "rap</w>": 4661,
      "zz": 4662,
      "getJButton": 4663,
      "getRowCount</w>": 4664,
      "tile": 4665,
      "marsh": 4666,
      "tokens</w>": 4667,
      "Observ": 4668,
      "setParent</w>": 4669,
      "prev": 4670,
      "getLog": 4671,
      "Person</w>": 4672,
      "ITY</w>": 4673,
      "Phas": 4674,
      "States</w>": 4675,
      "subject</w>": 4676,
      "gorian": 4677,
      "AST</w>": 4678,
      "PC": 4679,
      "Squ": 4680,
      "Lookup": 4681,
      "tices</w>": 4682,
      "ative</w>": 4683,
      "Replace": 4684,
      "Kind</w>": 4685,
      "Site": 4686,
      "editor": 4687,
      "Interface": 4688,
      "SwingUtilities</w>": 4689,
      "GridBagConstraints</w>": 4690,
      "install": 4691,
      "Delay</w>": 4692,
      "step": 4693,
      "cat": 4694,
      "isDirectory</w>": 4695,
      "sc</w>": 4696,
      "|=</w>": 4697,
      "getCap": 4698,
      "getChild</w>": 4699,
      "Complex": 4700,
      "getPreferred": 4701,
      "HTML</w>": 4702,
      "CUR": 4703,
      "sm</w>": 4704,
      "ves</w>": 4705,
      "faces</w>": 4706,
      "timer</w>": 4707,
      "schema</w>": 4708,
      "option</w>": 4709,
      "White": 4710,
      "support": 4711,
      "Summary</w>": 4712,
      "module</w>": 4713,
      "http": 4714,
      "Right": 4715,
      "Labels</w>": 4716,
      "Duration</w>": 4717,
      "ender</w>": 4718,
      "ipi": 4719,
      "Top</w>": 4720,
      "nemon": 4721,
      "Res</w>": 4722,
      "App</w>": 4723,
      "getMessage": 4724,
      "TAG</w>": 4725,
      "export": 4726,
      "destination</w>": 4727,
      "PA": 4728,
      "Grid</w>": 4729,
      "em</w>": 4730,
      "ING": 4731,
      "active</w>": 4732,
      "PROPERTY</w>": 4733,
      "ByteArrayOutputStream</w>": 4734,
      "greg": 4735,
      "free": 4736,
      "pool</w>": 4737,
      "STATU": 4738,
      "fe</w>": 4739,
      "medi": 4740,
      "aded</w>": 4741,
      "Workben": 4742,
      "folder</w>": 4743,
      "delta</w>": 4744,
      "Effec": 4745,
      "ae</w>": 4746,
      "Compil": 4747,
      "Fixture</w>": 4748,
      "Strings</w>": 4749,
      "abilities</w>": 4750,
      "Structured": 4751,
      "bound": 4752,
      "any": 4753,
      "Relation</w>": 4754,
      "Bot": 4755,
      "buffer": 4756,
      "uce": 4757,
      "executeUpdate</w>": 4758,
      "depend": 4759,
      "Clone": 4760,
      "nlm</w>": 4761,
      "Business": 4762,
      "zoom": 4763,
      "getU": 4764,
      "NotSupported": 4765,
      "release": 4766,
      "identifier</w>": 4767,
      "dl": 4768,
      "addAttribute</w>": 4769,
      "coder</w>": 4770,
      "ncbi</w>": 4771,
      "warning</w>": 4772,
      "INVAL": 4773,
      "getFeature": 4774,
      "getRoot</w>": 4775,
      "21</w>": 4776,
      "getTest": 4777,
      "collection</w>": 4778,
      "shutdown</w>": 4779,
      "Description": 4780,
      "nih</w>": 4781,
      "itr</w>": 4782,
      "Dictionary</w>": 4783,
      "Attr</w>": 4784,
      "Implem": 4785,
      "eutils</w>": 4786,
      "setO": 4787,
      "Save</w>": 4788,
      "Close</w>": 4789,
      "axis": 4790,
      "showMessageDialog</w>": 4791,
      "Price</w>": 4792,
      "Prob": 4793,
      "alias</w>": 4794,
      "JB": 4795,
      "bt": 4796,
      "Rules</w>": 4797,
      "need": 4798,
      "Interval": 4799,
      "provider</w>": 4800,
      "setSelection": 4801,
      "Persistence": 4802,
      "UpperCase</w>": 4803,
      "sembl": 4804,
      "permis": 4805,
      "scale": 4806,
      "pati": 4807,
      "Desk": 4808,
      "vector</w>": 4809,
      "mem": 4810,
      "df</w>": 4811,
      "getTotal": 4812,
      "ATTRIBUT": 4813,
      "cName</w>": 4814,
      "SEVERE</w>": 4815,
      "GL": 4816,
      "2d</w>": 4817,
      "getSession": 4818,
      "proxy</w>": 4819,
      "ToolBar</w>": 4820,
      "channel": 4821,
      "Ok</w>": 4822,
      "sal": 4823,
      "tered</w>": 4824,
      "SS</w>": 4825,
      "Insets</w>": 4826,
      "ume": 4827,
      "pha": 4828,
      "limit</w>": 4829,
      "getDisplay": 4830,
      "r1</w>": 4831,
      "Accessible": 4832,
      "Metrics</w>": 4833,
      "Gregorian": 4834,
      "verify": 4835,
      "Contact</w>": 4836,
      "getBounds</w>": 4837,
      "mapping</w>": 4838,
      "NotSupportedException</w>": 4839,
      "bility</w>": 4840,
      "change</w>": 4841,
      "attrs</w>": 4842,
      "cook": 4843,
      "DxlPackage</w>": 4844,
      "Loo": 4845,
      "ped</w>": 4846,
      "flow</w>": 4847,
      "Random": 4848,
      "getDocument": 4849,
      "Coordinate</w>": 4850,
      "_data</w>": 4851,
      "Title": 4852,
      "Cancel</w>": 4853,
      "ignore": 4854,
      "packet</w>": 4855,
      "member": 4856,
      "cancel</w>": 4857,
      "pe</w>": 4858,
      "isVisible</w>": 4859,
      "DataSource</w>": 4860,
      "COLUM": 4861,
      "sf": 4862,
      "used": 4863,
      "_att_": 4864,
      "descriptor</w>": 4865,
      "Tw": 4866,
      "category": 4867,
      "Xml</w>": 4868,
      "gs</w>": 4869,
      "Statement": 4870,
      "setModel</w>": 4871,
      "Controller": 4872,
      "Tile</w>": 4873,
      "isValid": 4874,
      "low</w>": 4875,
      "criteri": 4876,
      "states</w>": 4877,
      "arguments</w>": 4878,
      "dered": 4879,
      "preferen": 4880,
      "location": 4881,
      "After": 4882,
      "clic": 4883,
      "Zoom": 4884,
      "ermin": 4885,
      "pay": 4886,
      "NAME_": 4887,
      "FIEL": 4888,
      "01</w>": 4889,
      "Zip": 4890,
      "hoto": 4891,
      "used</w>": 4892,
      "Connected</w>": 4893,
      "LEFT</w>": 4894,
      "SY": 4895,
      "build</w>": 4896,
      "prepareStatement</w>": 4897,
      "JFrame</w>": 4898,
      "ev</w>": 4899,
      "Receive": 4900,
      "domain": 4901,
      "delegate</w>": 4902,
      "Certific": 4903,
      "BOO": 4904,
      "Note</w>": 4905,
      "ester</w>": 4906,
      "Atom</w>": 4907,
      "Tile": 4908,
      "Speed</w>": 4909,
      "efetch</w>": 4910,
      "reference</w>": 4911,
      "plugin</w>": 4912,
      "Engine": 4913,
      "r2</w>": 4914,
      "Si": 4915,
      "Driver</w>": 4916,
      "Failure</w>": 4917,
      "Mal": 4918,
      "Drop": 4919,
      "acing</w>": 4920,
      "Layer": 4921,
      "Desc": 4922,
      "Primiti": 4923,
      "prev</w>": 4924,
      "getService": 4925,
      "directory</w>": 4926,
      "IF": 4927,
      "application": 4928,
      "OF_": 4929,
      "Col</w>": 4930,
      "term</w>": 4931,
      "Manage": 4932,
      "Atom": 4933,
      "getEvent": 4934,
      "getChildrenFeatures</w>": 4935,
      "Mach": 4936,
      "userId</w>": 4937,
      "writeObject</w>": 4938,
      "Structure</w>": 4939,
      "Zer": 4940,
      "setAction": 4941,
      "VE": 4942,
      "jScrollPane": 4943,
      "gest": 4944,
      "bro": 4945,
      "Connector</w>": 4946,
      "Mapper</w>": 4947,
      "getField</w>": 4948,
      "now</w>": 4949,
      "PARAM": 4950,
      "duration</w>": 4951,
      "Trig": 4952,
      "11": 4953,
      "Storage": 4954,
      "vas": 4955,
      "nels</w>": 4956,
      "Disposed</w>": 4957,
      "dao</w>": 4958,
      "getBase": 4959,
      "presentation</w>": 4960,
      "AW": 4961,
      "equ": 4962,
      "sException</w>": 4963,
      "Required</w>": 4964,
      "vol": 4965,
      "getDec": 4966,
      "getAttributes</w>": 4967,
      "pack</w>": 4968,
      "Bro": 4969,
      "mt": 4970,
      "Mer": 4971,
      "ware": 4972,
      "produc": 4973,
      "Clause</w>": 4974,
      "login": 4975,
      "argu</w>": 4976,
      "getInput": 4977,
      "conf</w>": 4978,
      "fill</w>": 4979,
      "cs": 4980,
      "getRequest": 4981,
      "Launch": 4982,
      "choi": 4983,
      "Sur": 4984,
      "ther": 4985,
      "formed": 4986,
      "getPosition</w>": 4987,
      "Click</w>": 4988,
      "getParameter": 4989,
      "exist": 4990,
      "Last</w>": 4991,
      "Term": 4992,
      "getItem</w>": 4993,
      "Expec": 4994,
      "move</w>": 4995,
      "jButton</w>": 4996,
      "Scanner</w>": 4997,
      "ITE": 4998,
      "bits</w>": 4999,
      "lookup": 5000,
      "search</w>": 5001,
      "ConfigurationException</w>": 5002,
      "TreePath</w>": 5003,
      "bundle</w>": 5004,
      "ByteBuffer</w>": 5005,
      "Binding": 5006,
      "lookup</w>": 5007,
      "cel": 5008,
      "returnValue</w>": 5009,
      "Facade</w>": 5010,
      "Bars</w>": 5011,
      "_value</w>": 5012,
      "Reason</w>": 5013,
      "Load</w>": 5014,
      "brow": 5015,
      "chun": 5016,
      "Binary": 5017,
      "STATE_": 5018,
      "Distri": 5019,
      "getFull": 5020,
      "Sheet</w>": 5021,
      "v2</w>": 5022,
      "ByteArray</w>": 5023,
      "TEXT_": 5024,
      "Highl": 5025,
      "MouseListener</w>": 5026,
      "Tools</w>": 5027,
      "area</w>": 5028,
      "Connections</w>": 5029,
      "clip": 5030,
      "NS</w>": 5031,
      "Syntax": 5032,
      "Email": 5033,
      "jMenuItem": 5034,
      "ach</w>": 5035,
      "position": 5036,
      "0000": 5037,
      "no</w>": 5038,
      "calc": 5039,
      "Expan": 5040,
      "desc": 5041,
      "toUpperCase</w>": 5042,
      "Aut": 5043,
      "VK_": 5044,
      "deo": 5045,
      "visitor</w>": 5046,
      "roll</w>": 5047,
      "stic</w>": 5048,
      "vals</w>": 5049,
      "job</w>": 5050,
      "lator</w>": 5051,
      "undo": 5052,
      "fetch": 5053,
      "MAS": 5054,
      "interrup": 5055,
      "ba": 5056,
      "push": 5057,
      "retrieve": 5058,
      "ason": 5059,
      "31</w>": 5060,
      "HOR": 5061,
      "getSelectedIndex</w>": 5062,
      "antity</w>": 5063,
      "lex</w>": 5064,
      "atom": 5065,
      "report</w>": 5066,
      "ENG": 5067,
      "Deploy": 5068,
      "ui</w>": 5069,
      "Inet": 5070,
      "sl": 5071,
      "y2</w>": 5072,
      "version": 5073,
      "fc</w>": 5074,
      "script</w>": 5075,
      "Product</w>": 5076,
      "getAs": 5077,
      "Indic": 5078,
      "JFileChooser</w>": 5079,
      "Login</w>": 5080,
      "Polyg": 5081,
      "round</w>": 5082,
      "sFor": 5083,
      "Vertex": 5084,
      "cached": 5085,
      "Available</w>": 5086,
      "Width": 5087,
      "option": 5088,
      "Colors</w>": 5089,
      "dResources</w>": 5090,
      "etch": 5091,
      "transaction": 5092,
      "Pointer</w>": 5093,
      "15": 5094,
      "encoding</w>": 5095,
      "Gram": 5096,
      "Sho": 5097,
      "ater": 5098,
      "cryp": 5099,
      "mantic": 5100,
      "Den": 5101,
      "getEntity": 5102,
      "Elem</w>": 5103,
      "stream": 5104,
      "BO</w>": 5105,
      "NEC": 5106,
      "polic": 5107,
      "SCRI": 5108,
      "v1</w>": 5109,
      "eto": 5110,
      "Concept</w>": 5111,
      "begin</w>": 5112,
      "Mapping": 5113,
      "IC_": 5114,
      "'/": 5115,
      "'/'</w>": 5116,
      "Malformed": 5117,
      "Links</w>": 5118,
      "getId": 5119,
      "DataType</w>": 5120,
      "getCell": 5121,
      "Month</w>": 5122,
      "variable</w>": 5123,
      "ct</w>": 5124,
      "actor</w>": 5125,
      "dataset</w>": 5126,
      "setSelection</w>": 5127,
      "Obj": 5128,
      "getRel": 5129,
      "translate</w>": 5130,
      "operation</w>": 5131,
      "Changes</w>": 5132,
      "drag": 5133,
      "Program": 5134,
      "Wait": 5135,
      "FIX</w>": 5136,
      "rowIndex</w>": 5137,
      "Behavi": 5138,
      "GridLayout</w>": 5139,
      "64</w>": 5140,
      "Constant": 5141,
      "STRING</w>": 5142,
      "Organiz": 5143,
      "NaN</w>": 5144,
      "ony": 5145,
      "lash": 5146,
      "Arti": 5147,
      "Asser": 5148,
      "Plat": 5149,
      "Classifier</w>": 5150,
      "Algorithm</w>": 5151,
      "setIs": 5152,
      "getColor</w>": 5153,
      "gridBag": 5154,
      "Body": 5155,
      "random": 5156,
      "Board</w>": 5157,
      "sequence</w>": 5158,
      "CastException</w>": 5159,
      "ErrorMessage</w>": 5160,
      "Complete</w>": 5161,
      "getNotifier</w>": 5162,
      "getNode</w>": 5163,
      "exception": 5164,
      "simple": 5165,
      "ple</w>": 5166,
      "isDisposed</w>": 5167,
      "FileNotFoundException</w>": 5168,
      "amera</w>": 5169,
      "fail": 5170,
      "fig": 5171,
      "weight</w>": 5172,
      "Static": 5173,
      "AR_": 5174,
      "Span</w>": 5175,
      "GregorianCalendar</w>": 5176,
      "Dd</w>": 5177,
      "Principal</w>": 5178,
      "Chars</w>": 5179,
      "getLoc": 5180,
      "getMe": 5181,
      "headers</w>": 5182,
      "ROL": 5183,
      "getY": 5184,
      "login</w>": 5185,
      "Chart</w>": 5186,
      "Vector3f</w>": 5187,
      "Glob": 5188,
      "getPage": 5189,
      "TRAN": 5190,
      "i_": 5191,
      "Missing": 5192,
      "Creation": 5193,
      "Gra": 5194,
      "Fill": 5195,
      "ByteArrayInputStream</w>": 5196,
      "Topic": 5197,
      "ACK": 5198,
      "Settings": 5199,
      "notify</w>": 5200,
      "faults</w>": 5201,
      "General": 5202,
      "getSelectedItem</w>": 5203,
      "ub</w>": 5204,
      "setState</w>": 5205,
      "scen": 5206,
      "detail": 5207,
      "Msg": 5208,
      "Goo": 5209,
      "fireNotify": 5210,
      "RG": 5211,
      "score</w>": 5212,
      "13</w>": 5213,
      "It</w>": 5214,
      "Run</w>": 5215,
      "Email</w>": 5216,
      "arg1</w>": 5217,
      "ViewerNotification</w>": 5218,
      "fireNotifyChanged</w>": 5219,
      "22</w>": 5220,
      "Predicate</w>": 5221,
      "ources": 5222,
      "createStatement</w>": 5223,
      "Home": 5224,
      "imumSize</w>": 5225,
      "Current</w>": 5226,
      "google</w>": 5227,
      "Inclu": 5228,
      "SET</w>": 5229,
      "Supported</w>": 5230,
      "Src</w>": 5231,
      "OU": 5232,
      "ved": 5233,
      "Relative": 5234,
      "ged</w>": 5235,
      "NULL_": 5236,
      "UML": 5237,
      "supports": 5238,
      "QUE": 5239,
      "Decor": 5240,
      "Encod": 5241,
      "CE</w>": 5242,
      "tc</w>": 5243,
      "getTrans": 5244,
      "getUser</w>": 5245,
      "month</w>": 5246,
      "STAttribute</w>": 5247,
      "Equal</w>": 5248,
      "CONNEC": 5249,
      "setContent": 5250,
      "ous": 5251,
      "gui</w>": 5252,
      "I_": 5253,
      "ased</w>": 5254,
      "accept": 5255,
      "Stats</w>": 5256,
      "ored": 5257,
      "acao": 5258,
      "pop": 5259,
      "eren": 5260,
      "Started</w>": 5261,
      "way": 5262,
      "configure": 5263,
      "Indices</w>": 5264,
      "ount": 5265,
      "per</w>": 5266,
      "agent": 5267,
      "chart</w>": 5268,
      "registr": 5269,
      "dt": 5270,
      "Endpoint": 5271,
      "Sql": 5272,
      "core</w>": 5273,
      "extract": 5274,
      "groups</w>": 5275,
      "Math": 5276,
      "setLast": 5277,
      "Exist": 5278,
      "loye": 5279,
      "ARGUM": 5280,
      "nemonic</w>": 5281,
      "getPack": 5282,
      "Packet": 5283,
      "BorderFactory</w>": 5284,
      "analy": 5285,
      "Exit</w>": 5286,
      "Lib</w>": 5287,
      "lower": 5288,
      "fireTable": 5289,
      "Bran": 5290,
      "az": 5291,
      "dispatch": 5292,
      "illis": 5293,
      "Proble": 5294,
      "listenerList</w>": 5295,
      "html": 5296,
      "events</w>": 5297,
      "Place": 5298,
      "folder": 5299,
      "Serial": 5300,
      "setStatus</w>": 5301,
      "Init</w>": 5302,
      "VERS": 5303,
      "function</w>": 5304,
      "database</w>": 5305,
      "symbol": 5306,
      "trans</w>": 5307,
      "ours</w>": 5308,
      "ci</w>": 5309,
      "mi</w>": 5310,
      "Proced": 5311,
      "Memory": 5312,
      "asList</w>": 5313,
      "Observers</w>": 5314,
      "Concept": 5315,
      "1p": 5316,
      "disable": 5317,
      "getAl": 5318,
      "ass": 5319,
      "StructuredSelection</w>": 5320,
      "INTER": 5321,
      "tableName</w>": 5322,
      "ObjectOutputStream</w>": 5323,
      "expand": 5324,
      "constraints</w>": 5325,
      "GUI": 5326,
      "currentThread</w>": 5327,
      "inal": 5328,
      "sever": 5329,
      "alizer</w>": 5330,
      "ning": 5331,
      "sign</w>": 5332,
      "contact": 5333,
      "product": 5334,
      "puts</w>": 5335,
      "cols</w>": 5336,
      "Individ": 5337,
      "ures</w>": 5338,
      "Subject</w>": 5339,
      "database": 5340,
      "MON": 5341,
      "getContent</w>": 5342,
      "non": 5343,
      "Visual": 5344,
      "addChild</w>": 5345,
      "getDate": 5346,
      "sender</w>": 5347,
      "aret": 5348,
      "END": 5349,
      "DAO": 5350,
      "CML": 5351,
      "ins</w>": 5352,
      "erFactory</w>": 5353,
      "rol": 5354,
      "aler": 5355,
      "Random</w>": 5356,
      "ITE</w>": 5357,
      "Constructor</w>": 5358,
      "Alias</w>": 5359,
      "Kn": 5360,
      "ype": 5361,
      "Paths</w>": 5362,
      "getHost": 5363,
      "ess</w>": 5364,
      "Permission": 5365,
      "answer</w>": 5366,
      "255</w>": 5367,
      "amew": 5368,
      "StringWriter</w>": 5369,
      "getInputStream</w>": 5370,
      "sync": 5371,
      "itude</w>": 5372,
      "frag": 5373,
      "WARNING</w>": 5374,
      "Found</w>": 5375,
      "RIGHT</w>": 5376,
      "ques": 5377,
      "JAX": 5378,
      "are</w>": 5379,
      "second": 5380,
      "DEFAULT</w>": 5381,
      "PopupMenu</w>": 5382,
      "celer": 5383,
      "sity</w>": 5384,
      "here": 5385,
      "getMain": 5386,
      "80</w>": 5387,
      "Bundle": 5388,
      "Choice</w>": 5389,
      "Pla": 5390,
      "PrintStream</w>": 5391,
      "body": 5392,
      "Artif": 5393,
      "getIndex": 5394,
      "callback</w>": 5395,
      "JSeparator</w>": 5396,
      "peek</w>": 5397,
      "combo": 5398,
      "eta</w>": 5399,
      "Feat": 5400,
      "setTar": 5401,
      "portView</w>": 5402,
      "Edges</w>": 5403,
      "AUT": 5404,
      "CONFI": 5405,
      "ql</w>": 5406,
      "Plot</w>": 5407,
      "ote</w>": 5408,
      "aded": 5409,
      "Interpret": 5410,
      "border": 5411,
      "apache</w>": 5412,
      "Write</w>": 5413,
      "DATA_": 5414,
      "Simul": 5415,
      "IC</w>": 5416,
      "ResourceBundle</w>": 5417,
      "bs</w>": 5418,
      "center</w>": 5419,
      "Inst": 5420,
      "IDs</w>": 5421,
      "DateTime</w>": 5422,
      "Signature</w>": 5423,
      "Buf</w>": 5424,
      "imension": 5425,
      "Modifier</w>": 5426,
      "vious": 5427,
      "Hex": 5428,
      "utes</w>": 5429,
      "Medi": 5430,
      "den</w>": 5431,
      "populate": 5432,
      "14</w>": 5433,
      "classes</w>": 5434,
      "blog": 5435,
      "Policy": 5436,
      "Clip": 5437,
      "of": 5438,
      "defini": 5439,
      "device": 5440,
      "c1</w>": 5441,
      "Notification": 5442,
      "Updated</w>": 5443,
      "ping": 5444,
      "forName</w>": 5445,
      "ModelListener</w>": 5446,
      "Gui": 5447,
      "SplitPane</w>": 5448,
      "addListener</w>": 5449,
      "Managed": 5450,
      "trig": 5451,
      "ready": 5452,
      "ElementAt</w>": 5453,
      "level": 5454,
      "Insert": 5455,
      "Sel": 5456,
      "pm": 5457,
      "ural": 5458,
      "force</w>": 5459,
      "getBoolean</w>": 5460,
      "parti": 5461,
      "startTime</w>": 5462,
      "sName</w>": 5463,
      "ATE_": 5464,
      "Users</w>": 5465,
      "Cmd</w>": 5466,
      "dt</w>": 5467,
      "getI": 5468,
      "Tax": 5469,
      "bottom</w>": 5470,
      "Live": 5471,
      "WOR": 5472,
      "jLabel": 5473,
      "Exclu": 5474,
      "assign": 5475,
      "Widget": 5476,
      "getClient": 5477,
      "Total</w>": 5478,
      "pad</w>": 5479,
      "Board": 5480,
      "El": 5481,
      "sn": 5482,
      "newChildDescriptors</w>": 5483,
      "users</w>": 5484,
      "Pip": 5485,
      "encode": 5486,
      "getSystem": 5487,
      "getSec": 5488,
      "Records</w>": 5489,
      "Invocation": 5490,
      "TE</w>": 5491,
      "account": 5492,
      "rec</w>": 5493,
      "FileWriter</w>": 5494,
      "JTable</w>": 5495,
      "Arguments</w>": 5496,
      "queue": 5497,
      "typeName</w>": 5498,
      "getUn": 5499,
      "Neg": 5500,
      "composite</w>": 5501,
      "orts</w>": 5502,
      "WindowEvent</w>": 5503,
      "Paint": 5504,
      "Shared": 5505,
      "StreamReader</w>": 5506,
      "Workbench": 5507,
      "direct": 5508,
      "join</w>": 5509,
      "pm</w>": 5510,
      "encode</w>": 5511,
      "setViewportView</w>": 5512,
      "align": 5513,
      "SL": 5514,
      "POSIT": 5515,
      "Gl": 5516,
      "Hierarch": 5517,
      "email</w>": 5518,
      "metadata</w>": 5519,
      "Peer</w>": 5520,
      "BOOLE": 5521,
      "Mime": 5522,
      "translate": 5523,
      "TEXT</w>": 5524,
      "Rectangle2D</w>": 5525,
      "une": 5526,
      "fine": 5527,
      "ixels</w>": 5528,
      "INVALID_": 5529,
      "JRadioButton</w>": 5530,
      "ority": 5531,
      "diff": 5532,
      "portName</w>": 5533,
      "FlowLayout</w>": 5534,
      "DS</w>": 5535,
      "Fla": 5536,
      "amples</w>": 5537,
      "wer": 5538,
      "setAuto": 5539,
      "Adjust": 5540,
      "RDF": 5541,
      "pane</w>": 5542,
      "drop": 5543,
      "Composite": 5544,
      "SELEC": 5545,
      "decode": 5546,
      "CoreException</w>": 5547,
      "verage": 5548,
      "Messag": 5549,
      "sur": 5550,
      "Pati": 5551,
      "titude</w>": 5552,
      "bind</w>": 5553,
      "Chain</w>": 5554,
      "Db</w>": 5555,
      "Images</w>": 5556,
      "clone": 5557,
      "self</w>": 5558,
      "Incre": 5559,
      "sd</w>": 5560,
      "aller</w>": 5561,
      "Shape": 5562,
      "0xff</w>": 5563,
      "upper": 5564,
      "visible": 5565,
      "Length": 5566,
      "tex</w>": 5567,
      "Values": 5568,
      "Rendere": 5569,
      "waitFor": 5570,
      "getProject": 5571,
      "Delegate</w>": 5572,
      "dialog": 5573,
      "ED": 5574,
      "ision</w>": 5575,
      "Sal": 5576,
      "getServer": 5577,
      "ill</w>": 5578,
      "person": 5579,
      "vision": 5580,
      "Pages</w>": 5581,
      "setW": 5582,
      "agrap": 5583,
      "getTemp": 5584,
      "Note": 5585,
      "hide": 5586,
      "Stop</w>": 5587,
      "diff</w>": 5588,
      "setSelectedIndex</w>": 5589,
      "Initialized</w>": 5590,
      "tags</w>": 5591,
      "ext</w>": 5592,
      "protocol</w>": 5593,
      "dimension</w>": 5594,
      "Stud": 5595,
      "1_": 5596,
      "ared</w>": 5597,
      "ChangeSupport</w>": 5598,
      "setForeground</w>": 5599,
      "MASK</w>": 5600,
      "setText": 5601,
      "EntityManager": 5602,
      "device</w>": 5603,
      "ade": 5604,
      "Browser": 5605,
      "Later</w>": 5606,
      "Init": 5607,
      "Coordinate": 5608,
      "getCh": 5609,
      "peer</w>": 5610,
      "TER_": 5611,
      "tp</w>": 5612,
      "adjust": 5613,
      "book</w>": 5614,
      "ross": 5615,
      "ClassCastException</w>": 5616,
      "yph": 5617,
      "disconnect</w>": 5618,
      "chars</w>": 5619,
      "member</w>": 5620,
      "HORIZ": 5621,
      "BR": 5622,
      "Clicked</w>": 5623,
      "namespace": 5624,
      "getPropertyDescriptors</w>": 5625,
      "ers": 5626,
      "Threshold</w>": 5627,
      "getCan": 5628,
      "collect": 5629,
      "getModel": 5630,
      "IS1": 5631,
      "ARGUMENT</w>": 5632,
      "invalidate</w>": 5633,
      "STY": 5634,
      "ric</w>": 5635,
      "sli": 5636,
      "getColumn</w>": 5637,
      "apply</w>": 5638,
      "pla": 5639,
      "sel</w>": 5640,
      "_m": 5641,
      "cause</w>": 5642,
      "DOM</w>": 5643,
      "3d</w>": 5644,
      "Created</w>": 5645,
      "spec</w>": 5646,
      "case": 5647,
      "VO</w>": 5648,
      "Recur": 5649,
      "repository</w>": 5650,
      "requency</w>": 5651,
      "feature": 5652,
      "Sets</w>": 5653,
      "SECON": 5654,
      "CRE": 5655,
      "wrap": 5656,
      "Sync": 5657,
      "CF": 5658,
      "flush": 5659,
      "FILE</w>": 5660,
      "getShell</w>": 5661,
      "speed</w>": 5662,
      "TIT": 5663,
      "Services</w>": 5664,
      "nt": 5665,
      "_is_modified</w>": 5666,
      "eloc": 5667,
      "prefs</w>": 5668,
      "getTool": 5669,
      "Create</w>": 5670,
      "Horizontal": 5671,
      "porter</w>": 5672,
      "WN</w>": 5673,
      "Use</w>": 5674,
      "_type</w>": 5675,
      "ui": 5676,
      "setValue": 5677,
      "Addi": 5678,
      "COUN": 5679,
      "center": 5680,
      "uler</w>": 5681,
      "EM": 5682,
      "native": 5683,
      "ModelEvent</w>": 5684,
      "WIDTH</w>": 5685,
      "cd</w>": 5686,
      "isB": 5687,
      "bution</w>": 5688,
      "LED</w>": 5689,
      "address": 5690,
      "getMethod</w>": 5691,
      "ized": 5692,
      "servlet": 5693,
      "proxy": 5694,
      "Anchor</w>": 5695,
      "mbed": 5696,
      "SEPAR": 5697,
      "Transformer</w>": 5698,
      "LINE</w>": 5699,
      "driver</w>": 5700,
      "c2</w>": 5701,
      "jj_": 5702,
      "Memory</w>": 5703,
      "restore": 5704,
      "Origin": 5705,
      "ProcName</w>": 5706,
      "Center</w>": 5707,
      "Cour": 5708,
      "its": 5709,
      "Fast": 5710,
      "CHANGE": 5711,
      "dr</w>": 5712,
      "email": 5713,
      "ServletException</w>": 5714,
      "bi": 5715,
      "16": 5716,
      "I18N</w>": 5717,
      "nl</w>": 5718,
      "TimeZone</w>": 5719,
      "sheet</w>": 5720,
      "was": 5721,
      "setInt</w>": 5722,
      "SimpleDateFormat</w>": 5723,
      "INDE": 5724,
      "19": 5725,
      "jRadioButton": 5726,
      "StateChanged</w>": 5727,
      "bling</w>": 5728,
      "entials</w>": 5729,
      "ASE_": 5730,
      "dd": 5731,
      "UP</w>": 5732,
      "S_ProcName</w>": 5733,
      "Codes</w>": 5734,
      "done</w>": 5735,
      "setData</w>": 5736,
      "paren": 5737,
      "One</w>": 5738,
      "Registra": 5739,
      "available": 5740,
      "Popup</w>": 5741,
      "Pie": 5742,
      "term": 5743,
      "getFont</w>": 5744,
      "sole": 5745,
      "setDescription</w>": 5746,
      "Consum": 5747,
      "go</w>": 5748,
      "getName": 5749,
      "persisten": 5750,
      "FilePath</w>": 5751,
      "sub</w>": 5752,
      "cf": 5753,
      "cope": 5754,
      "50": 5755,
      "cb</w>": 5756,
      "img": 5757,
      "Bam": 5758,
      "horizontal": 5759,
      "EN_": 5760,
      "Calcul": 5761,
      "Cursor": 5762,
      "sole</w>": 5763,
      "float": 5764,
      "delay</w>": 5765,
      "widget": 5766,
      "Unknown": 5767,
      "Required": 5768,
      "transaction</w>": 5769,
      "Ex</w>": 5770,
      "onical": 5771,
      "setChanged</w>": 5772,
      "Done</w>": 5773,
      "parts</w>": 5774,
      "html</w>": 5775,
      "TS</w>": 5776,
      "FAL": 5777,
      "feature</w>": 5778,
      "TypeName</w>": 5779,
      "rg": 5780,
      "getFont": 5781,
      "Serializable</w>": 5782,
      "getPreferredSize</w>": 5783,
      "pstmt</w>": 5784,
      "Rati": 5785,
      "Export": 5786,
      "reen</w>": 5787,
      "authentic": 5788,
      "SelectionEvent</w>": 5789,
      "bench</w>": 5790,
      "priority</w>": 5791,
      "Same</w>": 5792,
      "Topic</w>": 5793,
      "rules</w>": 5794,
      "fec": 5795,
      "constan": 5796,
      "Threads</w>": 5797,
      "Prefix": 5798,
      "Type_": 5799,
      "ns": 5800,
      "ACTI": 5801,
      "background": 5802,
      "TO_": 5803,
      "fs": 5804,
      "Condition": 5805,
      "3d": 5806,
      "ive</w>": 5807,
      "ul</w>": 5808,
      "getSet": 5809,
      "ac</w>": 5810,
      "Detail</w>": 5811,
      "CD": 5812,
      "Materi": 5813,
      "plot</w>": 5814,
      "Serv": 5815,
      "Region": 5816,
      "sequence": 5817,
      "highl": 5818,
      "PI</w>": 5819,
      "setL": 5820,
      "account</w>": 5821,
      "createNew": 5822,
      "IS</w>": 5823,
      "BamBL": 5824,
      "nb": 5825,
      "setLayout": 5826,
      "eded</w>": 5827,
      "rc": 5828,
      "factor</w>": 5829,
      "dit": 5830,
      "ticle</w>": 5831,
      "adapter</w>": 5832,
      "stro": 5833,
      "Before</w>": 5834,
      "VERTIC": 5835,
      "erName</w>": 5836,
      "Semantic": 5837,
      "trib": 5838,
      "Argument": 5839,
      "t1</w>": 5840,
      "ma</w>": 5841,
      "primary": 5842,
      "setData": 5843,
      "Stamp</w>": 5844,
      "anch": 5845,
      "play</w>": 5846,
      "ubl": 5847,
      "Sensor": 5848,
      "Checked</w>": 5849,
      "300</w>": 5850,
      "Slot</w>": 5851,
      "alle": 5852,
      "variable": 5853,
      "WR": 5854,
      "jMenu": 5855,
      "Es": 5856,
      "Browser</w>": 5857,
      "_is_initialized</w>": 5858,
      "tories</w>": 5859,
      "JC": 5860,
      "Used</w>": 5861,
      "Quo": 5862,
      "getTree": 5863,
      "finish": 5864,
      "ry": 5865,
      "LOA": 5866,
      "Get</w>": 5867,
      "overlay": 5868,
      "LOG_": 5869,
      "CloneNotSupportedException</w>": 5870,
      "GE_": 5871,
      "vec</w>": 5872,
      "Prote": 5873,
      "ALLO": 5874,
      "sendMessage</w>": 5875,
      "increment</w>": 5876,
      "EMPTY_": 5877,
      "Virtual": 5878,
      "Authoriz": 5879,
      "Monitor": 5880,
      "RepositoryException</w>": 5881,
      "players</w>": 5882,
      "before": 5883,
      "mk": 5884,
      "join": 5885,
      "orientation</w>": 5886,
      "getBund": 5887,
      "origin</w>": 5888,
      "Swit": 5889,
      "Join": 5890,
      "Finished</w>": 5891,
      "hel": 5892,
      "getContentPane</w>": 5893,
      "Admin</w>": 5894,
      "Forward</w>": 5895,
      "rase</w>": 5896,
      "ten</w>": 5897,
      "region</w>": 5898,
      "Period": 5899,
      "scan": 5900,
      "empty": 5901,
      "Download": 5902,
      "Btn</w>": 5903,
      "getServlet": 5904,
      "filters</w>": 5905,
      "Warning</w>": 5906,
      "agent</w>": 5907,
      "Before": 5908,
      "tokenizer</w>": 5909,
      "newName</w>": 5910,
      "grid</w>": 5911,
      "Publish": 5912,
      "velope</w>": 5913,
      "Success</w>": 5914,
      "Hint</w>": 5915,
      "getCategor": 5916,
      "increment": 5917,
      "alpha</w>": 5918,
      "Commit</w>": 5919,
      "setLine": 5920,
      "JTextArea</w>": 5921,
      "LD</w>": 5922,
      "igh</w>": 5923,
      "HttpServletResponse</w>": 5924,
      "longValue</w>": 5925,
      "DATE</w>": 5926,
      "e_": 5927,
      "Filters</w>": 5928,
      "*=</w>": 5929,
      "Fo": 5930,
      "criteria</w>": 5931,
      "contact</w>": 5932,
      "Site</w>": 5933,
      "symbol</w>": 5934,
      "Intent</w>": 5935,
      "getRequest</w>": 5936,
      "Leaf</w>": 5937,
      "Dynamic": 5938,
      "ug": 5939,
      "wait</w>": 5940,
      "PREFIX</w>": 5941,
      "sic": 5942,
      "updateChildren</w>": 5943,
      "JAXB": 5944,
      "Pair": 5945,
      "DATA</w>": 5946,
      "ActionPerformed</w>": 5947,
      "ATE</w>": 5948,
      "Commands</w>": 5949,
      "a1</w>": 5950,
      "yper": 5951,
      "interval</w>": 5952,
      "ypo": 5953,
      "Modify": 5954,
      "comment": 5955,
      "_s": 5956,
      "inputStream</w>": 5957,
      "MethodName</w>": 5958,
      "plan": 5959,
      "STATUS_": 5960,
      "MET": 5961,
      "Fixed": 5962,
      "ElementException</w>": 5963,
      "getPath": 5964,
      "SetException</w>": 5965,
      "SCROL": 5966,
      "Stmt</w>": 5967,
      "invokeLater</w>": 5968,
      "history</w>": 5969,
      "Jar": 5970,
      "rite</w>": 5971,
      "Aggreg": 5972,
      "Formula</w>": 5973,
      "HORIZON": 5974,
      "setX": 5975,
      "getFeatureID</w>": 5976,
      "14": 5977,
      "Question": 5978,
      "tre": 5979,
      "sive": 5980,
      "setHorizontal": 5981,
      "SA": 5982,
      "getDate</w>": 5983,
      "Deleted</w>": 5984,
      "Loc</w>": 5985,
      "VIE": 5986,
      "NodeList</w>": 5987,
      "Detec": 5988,
      "radius</w>": 5989,
      "OBJEC": 5990,
      "Sli": 5991,
      "urity</w>": 5992,
      "script": 5993,
      "evaluate": 5994,
      "commit": 5995,
      "Comparable</w>": 5996,
      "sn</w>": 5997,
      "public": 5998,
      "setN": 5999,
      "Section": 6000,
      "owner": 6001,
      "getSpec": 6002,
      "getOwner</w>": 6003,
      "CS": 6004,
      "vo</w>": 6005,
      "setShow": 6006,
      "ACK</w>": 6007,
      "GET_": 6008,
      "orig</w>": 6009,
      "Offi": 6010,
      "c_": 6011,
      "Prop</w>": 6012,
      "Restric": 6013,
      "Commun": 6014,
      "Creator</w>": 6015,
      "v20": 6016,
      "jc": 6017,
      "admin": 6018,
      "aut": 6019,
      "associ": 6020,
      "getPlu": 6021,
      "formatter</w>": 6022,
      "CIM": 6023,
      "Constructor": 6024,
      "WA": 6025,
      "high": 6026,
      "getConnection": 6027,
      "EditPart</w>": 6028,
      "ELEMENT_": 6029,
      "local</w>": 6030,
      "asc": 6031,
      "Diagnostic</w>": 6032,
      "COR": 6033,
      "Pag": 6034,
      "writeInt</w>": 6035,
      "Addr</w>": 6036,
      "FALSE</w>": 6037,
      "setRes": 6038,
      "section": 6039,
      "inclu": 6040,
      "cursor": 6041,
      "where</w>": 6042,
      "connected</w>": 6043,
      "Conf": 6044,
      "URLException</w>": 6045,
      "Margin</w>": 6046,
      "DESCRI": 6047,
      "parameterIndex</w>": 6048,
      "null": 6049,
      "t_": 6050,
      "zy": 6051,
      "InputStreamReader</w>": 6052,
      "convert</w>": 6053,
      "e2</w>": 6054,
      "TEST_": 6055,
      "Execut": 6056,
      "Decimal": 6057,
      "getValueAt</w>": 6058,
      "ListenerList</w>": 6059,
      "setParameter</w>": 6060,
      "Measure": 6061,
      "sist": 6062,
      "getRun": 6063,
      "getTab": 6064,
      "Fragment</w>": 6065,
      "23</w>": 6066,
      "getURI</w>": 6067,
      "Marker</w>": 6068,
      "getTable</w>": 6069,
      "IP</w>": 6070,
      "acion": 6071,
      "getDo": 6072,
      "Storage</w>": 6073,
      "Released</w>": 6074,
      "EJB": 6075,
      "_Type</w>": 6076,
      "VALUE</w>": 6077,
      "Forward": 6078,
      "MalformedURLException</w>": 6079,
      "Aspec": 6080,
      "border</w>": 6081,
      "vor</w>": 6082,
      "schedule": 6083,
      "ProgressBar</w>": 6084,
      "interrupt</w>": 6085,
      "req": 6086,
      "gle": 6087,
      "zer</w>": 6088,
      "Identity</w>": 6089,
      "publish": 6090,
      "Ant": 6091,
      "bor": 6092,
      "addCommand</w>": 6093,
      "bc</w>": 6094,
      "Choice": 6095,
      "Veloc": 6096,
      "Association": 6097,
      "Fit": 6098,
      "nextInt</w>": 6099,
      "getTarget</w>": 6100,
      "variables</w>": 6101,
      "Plan</w>": 6102,
      "PATH</w>": 6103,
      "Cookie</w>": 6104,
      "Parts</w>": 6105,
      "encies</w>": 6106,
      "render</w>": 6107,
      "compile</w>": 6108,
      "sMap</w>": 6109,
      "mar</w>": 6110,
      "ObjectName</w>": 6111,
      "BoxLayout</w>": 6112,
      "selector</w>": 6113,
      "Mid": 6114,
      "Sm": 6115,
      "Workflow": 6116,
      "Titled": 6117,
      "profile</w>": 6118,
      "required": 6119,
      "running</w>": 6120,
      "sible</w>": 6121,
      "prob": 6122,
      "ysical": 6123,
      "Enum": 6124,
      "UUID</w>": 6125,
      "zone</w>": 6126,
      "any</w>": 6127,
      "construc": 6128,
      "ReadOnly</w>": 6129,
      "Hid": 6130,
      "sType</w>": 6131,
      "getIniti": 6132,
      "Pick": 6133,
      "shif": 6134,
      "Plot": 6135,
      "amera": 6136,
      "vertex</w>": 6137,
      "Converter": 6138,
      "trace": 6139,
      "Neighb": 6140,
      "IStructuredSelection</w>": 6141,
      "g2d</w>": 6142,
      "illisecon": 6143,
      "Tuple</w>": 6144,
      "found": 6145,
      "switch": 6146,
      "Executor</w>": 6147,
      "INT_": 6148,
      "unlock</w>": 6149,
      "transfer": 6150,
      "comparator</w>": 6151,
      "nected": 6152,
      "width": 6153,
      "LINE_": 6154,
      "Help</w>": 6155,
      "graphics</w>": 6156,
      "200": 6157,
      "pattern": 6158,
      "Dum": 6159,
      "stack": 6160,
      "getIs": 6161,
      "pow</w>": 6162,
      "createElement</w>": 6163,
      "Sd": 6164,
      "SE_": 6165,
      "Chunk</w>": 6166,
      "properties": 6167,
      "services</w>": 6168,
      "Qualified": 6169,
      "LENG": 6170,
      "ict</w>": 6171,
      "Handle": 6172,
      "t2</w>": 6173,
      "coordin": 6174,
      "Confirm": 6175,
      "topic": 6176,
      "CLASS_": 6177,
      "Utility</w>": 6178,
      "vertex": 6179,
      "Operand</w>": 6180,
      "aug": 6181,
      "Pict": 6182,
      "Back</w>": 6183,
      "operation": 6184,
      "Driver": 6185,
      "cast": 6186,
      "resses</w>": 6187,
      "RESOUR": 6188,
      "tick": 6189,
      "Decl</w>": 6190,
      "Statistics</w>": 6191,
      "ycle": 6192,
      "alloc": 6193,
      "setStart": 6194,
      "getDel": 6195,
      "PK</w>": 6196,
      "acts</w>": 6197,
      "XA": 6198,
      "AND": 6199,
      "zer": 6200,
      "ants</w>": 6201,
      "desk": 6202,
      "IResource</w>": 6203,
      "Experim": 6204,
      "readObject</w>": 6205,
      "99": 6206,
      "enumer": 6207,
      "exec</w>": 6208,
      "mod</w>": 6209,
      "Timer": 6210,
      "after": 6211,
      "timestamp</w>": 6212,
      "COLO": 6213,
      "MessagingException</w>": 6214,
      "Instanti": 6215,
      "USE_": 6216,
      "Direct": 6217,
      "side</w>": 6218,
      "stand": 6219,
      "isConnected</w>": 6220,
      "Feed</w>": 6221,
      "EntityManagerHelper</w>": 6222,
      "wiz": 6223,
      "unc</w>": 6224,
      "Program</w>": 6225,
      "JDB": 6226,
      "_index</w>": 6227,
      "vance": 6228,
      "Failed": 6229,
      "month": 6230,
      "constraint</w>": 6231,
      "ispatch</w>": 6232,
      "nor": 6233,
      "sts</w>": 6234,
      "ament": 6235,
      "olders</w>": 6236,
      "sheet": 6237,
      "fine</w>": 6238,
      "pageContext</w>": 6239,
      "SwingConstants</w>": 6240,
      "Jav": 6241,
      "getGroup": 6242,
      "setG": 6243,
      "Attributes": 6244,
      "Comments</w>": 6245,
      "aem": 6246,
      "Ext</w>": 6247,
      "capacity</w>": 6248,
      "Library</w>": 6249,
      "Bl": 6250,
      "ink": 6251,
      "TreeItem</w>": 6252,
      "ado</w>": 6253,
      "owled": 6254,
      "test_": 6255,
      "ario": 6256,
      "getList": 6257,
      "merge": 6258,
      "Op</w>": 6259,
      "WH": 6260,
      "XPath": 6261,
      "isActive</w>": 6262,
      "Fron": 6263,
      "Peer": 6264,
      "SheetPage</w>": 6265,
      "adding</w>": 6266,
      "Toggle": 6267,
      "Radius</w>": 6268,
      "Mock</w>": 6269,
      "Library": 6270,
      "setProperty": 6271,
      "Stat": 6272,
      "dist</w>": 6273,
      "NUMB": 6274,
      "working": 6275,
      "NoSuchElementException</w>": 6276,
      "FLA": 6277,
      "bit</w>": 6278,
      "gridData": 6279,
      "dom</w>": 6280,
      "setFile": 6281,
      "respon": 6282,
      "TO</w>": 6283,
      "Retained</w>": 6284,
      "binding</w>": 6285,
      "iki": 6286,
      "methods</w>": 6287,
      "indices</w>": 6288,
      "jor": 6289,
      "SEPARATOR</w>": 6290,
      "QL": 6291,
      "INT</w>": 6292,
      "feed": 6293,
      "Persistent": 6294,
      "pi</w>": 6295,
      "getDisplay</w>": 6296,
      "ucer</w>": 6297,
      "Archive": 6298,
      "vars</w>": 6299,
      "Outline": 6300,
      "activate</w>": 6301,
      "VO": 6302,
      "ObjectInputStream</w>": 6303,
      "Snapsh": 6304,
      "neighb": 6305,
      "getColumnCount</w>": 6306,
      "tok</w>": 6307,
      "Encryp": 6308,
      "about": 6309,
      "second</w>": 6310,
      "Cir": 6311,
      "AndFe": 6312,
      "Types": 6313,
      "Cols</w>": 6314,
      "SERVIC": 6315,
      "Tables</w>": 6316,
      "fat": 6317,
      "Delta</w>": 6318,
      "isAssign": 6319,
      "REMO": 6320,
      "As</w>": 6321,
      "setMessage</w>": 6322,
      "Print</w>": 6323,
      "bution": 6324,
      "pair</w>": 6325,
      "getContext": 6326,
      "side": 6327,
      "ModelException</w>": 6328,
      "Foo": 6329,
      "JList</w>": 6330,
      "bum": 6331,
      "observer</w>": 6332,
      "registry</w>": 6333,
      "Coordinates</w>": 6334,
      "After</w>": 6335,
      "Affine": 6336,
      "IO</w>": 6337,
      "Formatted": 6338,
      "candid": 6339,
      "i1</w>": 6340,
      "sqrt</w>": 6341,
      "strum": 6342,
      "relative": 6343,
      "Comp</w>": 6344,
      "T__": 6345,
      "empty</w>": 6346,
      "attributeName</w>": 6347,
      "Animation</w>": 6348,
      "ualiz": 6349,
      "zip": 6350,
      "ark": 6351,
      "actor": 6352,
      "&=</w>": 6353,
      "SF": 6354,
      "navig": 6355,
      "seq</w>": 6356,
      "addContent</w>": 6357,
      "Geometry</w>": 6358,
      "Assembl": 6359,
      "CellRenderer</w>": 6360,
      "effec": 6361,
      "NotSetException</w>": 6362,
      "history": 6363,
      "PH": 6364,
      "Piece</w>": 6365,
      "ext": 6366,
      "getCre": 6367,
      "getSc": 6368,
      "getOutput": 6369,
      "ALL_": 6370,
      "Literal": 6371,
      "Break": 6372,
      "getAc": 6373,
      "addi": 6374,
      "MD": 6375,
      "bl</w>": 6376,
      "TED_": 6377,
      "CLASS</w>": 6378,
      "oObj</w>": 6379,
      "enum": 6380,
      "ass</w>": 6381,
      "ceptor</w>": 6382,
      "0xFF</w>": 6383,
      "Cluster</w>": 6384,
      "FE": 6385,
      "coded": 6386,
      "getPassword</w>": 6387,
      "Catalog": 6388,
      "Raw": 6389,
      "TT": 6390,
      "getPort</w>": 6391,
      "getCount</w>": 6392,
      "Suffix</w>": 6393,
      "Runtime</w>": 6394,
      "Lex": 6395,
      "LIST</w>": 6396,
      "inst</w>": 6397,
      "retained</w>": 6398,
      "maining</w>": 6399,
      "tup": 6400,
      "getIcon</w>": 6401,
      "ORD": 6402,
      "filePath</w>": 6403,
      "getMon": 6404,
      "Algorithm": 6405,
      "press": 6406,
      "Conn</w>": 6407,
      "region": 6408,
      "logy</w>": 6409,
      "Question</w>": 6410,
      "Sn": 6411,
      "ls": 6412,
      "rollback</w>": 6413,
      "CLOSE</w>": 6414,
      "Bon": 6415,
      "MS</w>": 6416,
      "itle": 6417,
      "imensions</w>": 6418,
      "annotation</w>": 6419,
      "decor": 6420,
      "mit</w>": 6421,
      "lared": 6422,
      "Reser": 6423,
      "Notify</w>": 6424,
      "getJTextField": 6425,
      "delta": 6426,
      "cur</w>": 6427,
      "plier</w>": 6428,
      "Bet": 6429,
      "meas": 6430,
      "HEIGHT</w>": 6431,
      "getView</w>": 6432,
      "enum</w>": 6433,
      "Cluster": 6434,
      "imiter</w>": 6435,
      "MODE_": 6436,
      "algorith": 6437,
      "vertical": 6438,
      "EP": 6439,
      "Loaded</w>": 6440,
      "Handlers</w>": 6441,
      "Famil": 6442,
      "jar": 6443,
      "tm</w>": 6444,
      "Positions</w>": 6445,
      "curr</w>": 6446,
      "PROP_": 6447,
      "jCheckBox": 6448,
      "deli": 6449,
      "complete": 6450,
      "NORTH</w>": 6451,
      "METHO": 6452,
      "InternalFrame</w>": 6453,
      "chk": 6454,
      "pass</w>": 6455,
      "Py": 6456,
      "getOutputStream</w>": 6457,
      "VALUE_": 6458,
      "Tuple": 6459,
      "26</w>": 6460,
      "wrap</w>": 6461,
      "BP": 6462,
      "new_": 6463,
      "Dispatcher</w>": 6464,
      "period</w>": 6465,
      "ATTRIBUTE_": 6466,
      "Worker</w>": 6467,
      "arning": 6468,
      "Bus": 6469,
      "FileReader</w>": 6470,
      "getRet": 6471,
      "GL</w>": 6472,
      "ice": 6473,
      "Calendar": 6474,
      "eline": 6475,
      "chat": 6476,
      "Lists</w>": 6477,
      "'\\": 6478,
      "helper</w>": 6479,
      "MSG_": 6480,
      "getDi": 6481,
      "SOUT": 6482,
      "1Package</w>": 6483,
      "TitledBorder</w>": 6484,
      "Connect": 6485,
      "Schedule": 6486,
      "edges</w>": 6487,
      "sTable</w>": 6488,
      "smart": 6489,
      "eline</w>": 6490,
      "exclu": 6491,
      "Predic": 6492,
      "locator</w>": 6493,
      "Month": 6494,
      "Lookup</w>": 6495,
      "FS": 6496,
      "Bounding": 6497,
      "notifyObservers</w>": 6498,
      "getForm": 6499,
      "Roles</w>": 6500,
      "unique": 6501,
      "getInt": 6502,
      "external": 6503,
      "getAddress</w>": 6504,
      "acao</w>": 6505,
      "getBtn": 6506,
      "Working": 6507,
      "encryp": 6508,
      "IS_": 6509,
      "dirs</w>": 6510,
      "errorMessage</w>": 6511,
      "Alert</w>": 6512,
      "place</w>": 6513,
      "relation</w>": 6514,
      "chooser</w>": 6515,
      "PropertyChangeEvent</w>": 6516,
      "Segment": 6517,
      "createE": 6518,
      "Diagram": 6519,
      "17</w>": 6520,
      "IllegalAccessException</w>": 6521,
      "meta</w>": 6522,
      "Definitions</w>": 6523,
      "sCount</w>": 6524,
      "AsStream</w>": 6525,
      "Cost</w>": 6526,
      "ification</w>": 6527,
      "18</w>": 6528,
      "getEditor": 6529,
      "setInput": 6530,
      "converter</w>": 6531,
      "phas": 6532,
      "destination": 6533,
      "About": 6534,
      "EG": 6535,
      "cr</w>": 6536,
      "Coords</w>": 6537,
      "Options": 6538,
      "Override": 6539,
      "reply</w>": 6540,
      "Attachment": 6541,
      "Answer</w>": 6542,
      "USER_": 6543,
      "Register": 6544,
      "acc": 6545,
      "500</w>": 6546,
      "note": 6547,
      "CA": 6548,
      "DELE": 6549,
      "Core</w>": 6550,
      "getOri": 6551,
      "Ratio</w>": 6552,
      "setV": 6553,
      "Track</w>": 6554,
      "InetAddress</w>": 6555,
      "cluster": 6556,
      "Sample</w>": 6557,
      "_ret</w>": 6558,
      "lider": 6559,
      "IVE_": 6560,
      "rag</w>": 6561,
      "References</w>": 6562,
      "KeyListener</w>": 6563,
      "Tasks</w>": 6564,
      "BOOLEAN": 6565,
      "getResult</w>": 6566,
      "getLabel": 6567,
      "getStatus": 6568,
      "anchor</w>": 6569,
      "application</w>": 6570,
      "JspException</w>": 6571,
      "Author</w>": 6572,
      "Ti": 6573,
      "TEN": 6574,
      "determin": 6575,
      "IONS</w>": 6576,
      "Let": 6577,
      "_f": 6578,
      "Operator": 6579,
      "mainPanel</w>": 6580,
      "sw</w>": 6581,
      "Contin": 6582,
      "MUL": 6583,
      "function": 6584,
      "3dI18N</w>": 6585,
      "FR": 6586,
      "ALL</w>": 6587,
      "DISPO": 6588,
      "packageName</w>": 6589,
      "erId</w>": 6590,
      "profile": 6591,
      "metric": 6592,
      "cells</w>": 6593,
      "arm": 6594,
      "getTask": 6595,
      "isAssignable": 6596,
      "tip</w>": 6597,
      "Categories</w>": 6598,
      "WCM": 6599,
      "dom": 6600,
      "PLAY": 6601,
      "ontolog": 6602,
      "merge</w>": 6603,
      "Ok": 6604,
      "cnt</w>": 6605,
      "holder</w>": 6606,
      "Subscrip": 6607,
      "DIRE": 6608,
      "Cance": 6609,
      "dc</w>": 6610,
      "ira": 6611,
      "coming": 6612,
      "WS": 6613,
      "nd</w>": 6614,
      "Exceptions</w>": 6615,
      "Warnings</w>": 6616,
      "JMS": 6617,
      "Defaults</w>": 6618,
      "Ra": 6619,
      "getLocalized": 6620,
      "Html</w>": 6621,
      "SIG": 6622,
      "getVersion</w>": 6623,
      "Repe": 6624,
      "This": 6625,
      "popup": 6626,
      "IA": 6627,
      "ii</w>": 6628,
      "gen</w>": 6629,
      "Head</w>": 6630,
      "validator</w>": 6631,
      "CH_": 6632,
      "Wire</w>": 6633,
      "Commit": 6634,
      "Annotations</w>": 6635,
      "Transition": 6636,
      "localName</w>": 6637,
      "Cached": 6638,
      "dto</w>": 6639,
      "kind</w>": 6640,
      "Seconds</w>": 6641,
      "Views</w>": 6642,
      "Extent</w>": 6643,
      "ATTR_": 6644,
      "2_": 6645,
      "Representation</w>": 6646,
      "Week</w>": 6647,
      "Disco": 6648,
      "commands</w>": 6649,
      "media": 6650,
      "setColumn": 6651,
      "getTag": 6652,
      "getOffset</w>": 6653,
      "handleException</w>": 6654,
      "transi": 6655,
      "ORY</w>": 6656,
      "modify": 6657,
      "getChildCount</w>": 6658,
      "ables": 6659,
      "Spinner</w>": 6660,
      "ZER": 6661,
      "ur</w>": 6662,
      "ved</w>": 6663,
      "3D": 6664,
      "getMo": 6665,
      "Diagram</w>": 6666,
      "OUT": 6667,
      "Son": 6668,
      "dr": 6669,
      "Batch": 6670,
      "getComp": 6671,
      "best": 6672,
      "Framew": 6673,
      "cut": 6674,
      "ouse</w>": 6675,
      "LEVE": 6676,
      "chec": 6677,
      "Uml": 6678,
      "LocationException</w>": 6679,
      "Present</w>": 6680,
      "CTION_": 6681,
      "OWL": 6682,
      "ia</w>": 6683,
      "MBean": 6684,
      "Encoder</w>": 6685,
      "validation": 6686,
      "Capt": 6687,
      "Controls</w>": 6688,
      "bytes": 6689,
      "CTION</w>": 6690,
      "tear": 6691,
      "Transport": 6692,
      "TE_": 6693,
      "setMnemonic</w>": 6694,
      "Functions</w>": 6695,
      "labelValue</w>": 6696,
      "ves": 6697,
      "Proces": 6698,
      "Video": 6699,
      "simul": 6700,
      "Spacing</w>": 6701,
      "ADD": 6702,
      "LY</w>": 6703,
      "tile</w>": 6704,
      "ResourceException</w>": 6705,
      "NODE</w>": 6706,
      "Polygon</w>": 6707,
      "HTTP": 6708,
      "ixel</w>": 6709,
      "Information": 6710,
      "Actual": 6711,
      "bon": 6712,
      "palette": 6713,
      "persis": 6714,
      "Conversion": 6715,
      "Alive</w>": 6716,
      "available</w>": 6717,
      "0L</w>": 6718,
      "SS_": 6719,
      "Score": 6720,
      "toByteArray</w>": 6721,
      "getPage</w>": 6722,
      "Registry": 6723,
      "CU": 6724,
      "Descri": 6725,
      "Recipi": 6726,
      "operator</w>": 6727,
      "setLayoutData</w>": 6728,
      "Nr</w>": 6729,
      "ting": 6730,
      "getTxt": 6731,
      "security": 6732,
      "13": 6733,
      "fd</w>": 6734,
      "li</w>": 6735,
      "Veto": 6736,
      "getOr": 6737,
      "Adapter": 6738,
      "acro": 6739,
      "ITY_": 6740,
      "audio": 6741,
      "Compilation": 6742,
      "s_</w>": 6743,
      "Curren": 6744,
      "SelectionModel</w>": 6745,
      "BufferedWriter</w>": 6746,
      "series": 6747,
      "getAttributeValue</w>": 6748,
      "Duplic": 6749,
      "room": 6750,
      "Expand": 6751,
      "flag": 6752,
      "Desktop": 6753,
      "slot</w>": 6754,
      "XML_": 6755,
      "Finder</w>": 6756,
      "Wrap": 6757,
      "Adaptor</w>": 6758,
      "FON": 6759,
      "_re": 6760,
      "trim": 6761,
      "undo</w>": 6762,
      "mission": 6763,
      "isAssignableFrom</w>": 6764,
      "issu": 6765,
      "Sum</w>": 6766,
      "mime": 6767,
      "Vars</w>": 6768,
      "arr</w>": 6769,
      "oder</w>": 6770,
      "counts</w>": 6771,
      "MIN_": 6772,
      "__c</w>": 6773,
      "rest</w>": 6774,
      "toggle": 6775,
      "MODE": 6776,
      "Network</w>": 6777,
      "SOUTH</w>": 6778,
      "UD": 6779,
      "stats</w>": 6780,
      "Upload": 6781,
      "schedule</w>": 6782,
      "Mu": 6783,
      "PD": 6784,
      "getPoint</w>": 6785,
      "home</w>": 6786,
      "configure</w>": 6787,
      "single": 6788,
      "decode</w>": 6789,
      "resultSet</w>": 6790,
      "Native": 6791,
      "ene": 6792,
      "setTime</w>": 6793,
      "Infos</w>": 6794,
      "SUB": 6795,
      "escap": 6796,
      "getSimple": 6797,
      "DataObject</w>": 6798,
      "removeElement</w>": 6799,
      "recision</w>": 6800,
      "Visibility</w>": 6801,
      "ANCE": 6802,
      "condition": 6803,
      "air": 6804,
      "rhs</w>": 6805,
      "keep": 6806,
      "rigin</w>": 6807,
      "jPanel1</w>": 6808,
      "members</w>": 6809,
      "19</w>": 6810,
      "R_": 6811,
      "Setting</w>": 6812,
      "editing": 6813,
      "getBundle</w>": 6814,
      "KNO": 6815,
      "umul": 6816,
      "Actor</w>": 6817,
      "argin": 6818,
      "vertices</w>": 6819,
      "equal</w>": 6820,
      "getCommand": 6821,
      "setField": 6822,
      "screen</w>": 6823,
      "Async": 6824,
      "a2</w>": 6825,
      "libr": 6826,
      "ifiers</w>": 6827,
      "COLOR</w>": 6828,
      "pt": 6829,
      "predicate</w>": 6830,
      "Descriptor": 6831,
      "labels</w>": 6832,
      "Ast</w>": 6833,
      "lbl": 6834,
      "stat</w>": 6835,
      "riend": 6836,
      "ink</w>": 6837,
      "PLIC": 6838,
      "DOMException</w>": 6839,
      "getClassLoader</w>": 6840,
      "getState": 6841,
      "removed</w>": 6842,
      "Place</w>": 6843,
      "Available": 6844,
      "Success": 6845,
      "HibernateException</w>": 6846,
      "Bi": 6847,
      "intersec": 6848,
      "basic": 6849,
      "Individual</w>": 6850,
      "getSearch": 6851,
      "DataSource": 6852,
      "ArrayOf": 6853,
      "Flow</w>": 6854,
      "Setting": 6855,
      "Execute</w>": 6856,
      "hasMoreTokens</w>": 6857,
      "Ance": 6858,
      "arti": 6859,
      "coords</w>": 6860,
      "Fetch": 6861,
      "Complex</w>": 6862,
      "Ready</w>": 6863,
      "ALLOW_": 6864,
      "ited</w>": 6865,
      "istic": 6866,
      "units</w>": 6867,
      "suffix</w>": 6868,
      "API</w>": 6869,
      "Accessor</w>": 6870,
      "TIME</w>": 6871,
      "txt</w>": 6872,
      "MONTH</w>": 6873,
      "AffineTransform</w>": 6874,
      "Jml": 6875,
      "ejb": 6876,
      "iler</w>": 6877,
      "Bytes": 6878,
      "NAME": 6879,
      "MODE</w>": 6880,
      "Team": 6881,
      "Coord</w>": 6882,
      "Any": 6883,
      "parseDouble</w>": 6884,
      "JSONObject</w>": 6885,
      "Renderer": 6886,
      "RP": 6887,
      "nes": 6888,
      "TABLE</w>": 6889,
      "Der": 6890,
      "INTE": 6891,
      "outputStream</w>": 6892,
      "romo": 6893,
      "Manif": 6894,
      "Scan": 6895,
      "instruc": 6896,
      "setImage</w>": 6897,
      "getControl</w>": 6898,
      "Ontology": 6899,
      "overlayImage</w>": 6900,
      "Import</w>": 6901,
      "rootNode</w>": 6902,
      "getItemCount</w>": 6903,
      "SPACE</w>": 6904,
      "LookAndFe": 6905,
      "going": 6906,
      "gex</w>": 6907,
      "NamingException</w>": 6908,
      "define": 6909,
      "destroy": 6910,
      "Sibling</w>": 6911,
      "Slider</w>": 6912,
      "ped": 6913,
      "Frames</w>": 6914,
      "Explo": 6915,
      "AND</w>": 6916,
      "getMenu": 6917,
      "getAction</w>": 6918,
      "classifi": 6919,
      "ACE_": 6920,
      "ffici": 6921,
      "Fore": 6922,
      "l_": 6923,
      "addNew": 6924,
      "findBy": 6925,
      "ware</w>": 6926,
      "deploy": 6927,
      "READ_": 6928,
      "Digits</w>": 6929,
      "Altern": 6930,
      "OID</w>": 6931,
      "Rob": 6932,
      "setA": 6933,
      "chart": 6934,
      "Room</w>": 6935,
      "64": 6936,
      "EN</w>": 6937,
      "getQuery": 6938,
      "getStart</w>": 6939,
      "success": 6940,
      "Indent</w>": 6941,
      "setCursor</w>": 6942,
      "2f</w>": 6943,
      "Ou": 6944,
      "pot": 6945,
      "Br": 6946,
      "rer": 6947,
      "mut": 6948,
      "ports</w>": 6949,
      "setActionCommand</w>": 6950,
      "ix</w>": 6951,
      "Acceler": 6952,
      "eval": 6953,
      "Wait</w>": 6954,
      "VIS": 6955,
      "vm": 6956,
      "person</w>": 6957,
      "ArrayIndexOutOfBoundsException</w>": 6958,
      "sorted": 6959,
      "Sound": 6960,
      "mc</w>": 6961,
      "require": 6962,
      "Capability": 6963,
      "UP_": 6964,
      "Reply": 6965,
      "Off</w>": 6966,
      "Private": 6967,
      "Resid": 6968,
      "Files": 6969,
      "contentType</w>": 6970,
      "resp</w>": 6971,
      "Processor": 6972,
      "signature</w>": 6973,
      "ERROR_MESSAGE</w>": 6974,
      "Rendering": 6975,
      "Translation</w>": 6976,
      "Spectr": 6977,
      "HK": 6978,
      "Sorted": 6979,
      "eval</w>": 6980,
      "lat": 6981,
      "Receiver</w>": 6982,
      "closed</w>": 6983,
      "popup</w>": 6984,
      "Em": 6985,
      "WIN": 6986,
      "getResult": 6987,
      "TreeModel</w>": 6988,
      "Marsh": 6989,
      "IStatus</w>": 6990,
      "cn": 6991,
      "Height": 6992,
      "Mappings</w>": 6993,
      "Quantity</w>": 6994,
      "trl</w>": 6995,
      "Design": 6996,
      "umbn": 6997,
      "SET_": 6998,
      "ital": 6999,
      "pip": 7000,
      "bum</w>": 7001,
      "getActionCommand</w>": 7002,
      "Enabled": 7003,
      "Cach": 7004,
      "URE_": 7005,
      "light": 7006,
      "prefix": 7007,
      "Prefs</w>": 7008,
      "Branch": 7009,
      "FER": 7010,
      "legate": 7011,
      "saved": 7012,
      "plot": 7013,
      "blo": 7014,
      "Extensions</w>": 7015,
      "Complete": 7016,
      "Paragrap": 7017,
      "beans</w>": 7018,
      "maximum": 7019,
      "collection": 7020,
      "fer</w>": 7021,
      "rm</w>": 7022,
      "setFocus</w>": 7023,
      "Percent": 7024,
      "_h": 7025,
      "ErrorHandler</w>": 7026,
      "PARAME": 7027,
      "ca</w>": 7028,
      "stics": 7029,
      "17": 7030,
      "adwords</w>": 7031,
      "Generator": 7032,
      "fos</w>": 7033,
      "UND</w>": 7034,
      "Comparis": 7035,
      "MIN_VALUE</w>": 7036,
      "definition</w>": 7037,
      "removeFrom": 7038,
      "getMap": 7039,
      "Ui": 7040,
      "Zoom</w>": 7041,
      "concat</w>": 7042,
      "Respon": 7043,
      "TestCase</w>": 7044,
      "links</w>": 7045,
      "Styles</w>": 7046,
      "cos</w>": 7047,
      "formul": 7048,
      "da</w>": 7049,
      "divid": 7050,
      "implem": 7051,
      "Temp</w>": 7052,
      "ich": 7053,
      "nu": 7054,
      "tf</w>": 7055,
      "getIdentifier</w>": 7056,
      "setStyle": 7057,
      "UNKNO": 7058,
      "BUTT": 7059,
      "propertyChangeSupport</w>": 7060,
      "Without": 7061,
      "erence</w>": 7062,
      "ON</w>": 7063,
      "ck": 7064,
      "ACCE": 7065,
      "storage</w>": 7066,
      "BadLocationException</w>": 7067,
      "tearDown</w>": 7068,
      "isRunning</w>": 7069,
      "Resources": 7070,
      "ilar": 7071,
      "activate": 7072,
      "seconds</w>": 7073,
      "getInitial": 7074,
      "addTab</w>": 7075,
      "assertSame</w>": 7076,
      "expect": 7077,
      "DOC": 7078,
      "Side": 7079,
      "getHeader": 7080,
      "eh": 7081,
      "fit": 7082,
      "getIcon": 7083,
      "Numbers</w>": 7084,
      "Face": 7085,
      "Permissions</w>": 7086,
      "DED</w>": 7087,
      "Variant</w>": 7088,
      "CHEC": 7089,
      "Specification</w>": 7090,
      "getClassName</w>": 7091,
      "Exit": 7092,
      "Compound": 7093,
      "numer": 7094,
      "JSONException</w>": 7095,
      "Sdai": 7096,
      "sf</w>": 7097,
      "dataSource</w>": 7098,
      "formation</w>": 7099,
      "Year": 7100,
      "unregister": 7101,
      "Painter</w>": 7102,
      "atures</w>": 7103,
      "tabs</w>": 7104,
      "getJava": 7105,
      "diagno": 7106,
      "Begin</w>": 7107,
      "sessionId</w>": 7108,
      "PDF": 7109,
      "atts</w>": 7110,
      "extra": 7111,
      "LABE": 7112,
      "cour": 7113,
      "90</w>": 7114,
      "d1</w>": 7115,
      "Cells</w>": 7116,
      "Refresh": 7117,
      "SecurityException</w>": 7118,
      "Machine</w>": 7119,
      "SING": 7120,
      "Vo": 7121,
      "environ": 7122,
      "generator</w>": 7123,
      "Ocl": 7124,
      "before</w>": 7125,
      "rapped": 7126,
      "system</w>": 7127,
      "additional": 7128,
      "sFrom": 7129,
      "setDirty</w>": 7130,
      "removed": 7131,
      "COP": 7132,
      "figure</w>": 7133,
      "CI": 7134,
      "password": 7135,
      "Texture": 7136,
      "container": 7137,
      "Username</w>": 7138,
      "cards</w>": 7139,
      "CAT": 7140,
      "images</w>": 7141,
      "Employe": 7142,
      "progress</w>": 7143,
      "art": 7144,
      "lecule</w>": 7145,
      "FORMA": 7146,
      "dump": 7147,
      "subtr": 7148,
      "OFF": 7149,
      "Logging": 7150,
      "Rotation</w>": 7151,
      "Failed</w>": 7152,
      "keyCode</w>": 7153,
      "bose</w>": 7154,
      "setUse": 7155,
      "getCause</w>": 7156,
      "ENTI": 7157,
      "Volume</w>": 7158,
      "getApp": 7159,
      "repository": 7160,
      "Texture</w>": 7161,
      "Ims": 7162,
      "serialize</w>": 7163,
      "stitution": 7164,
      "getButton": 7165,
      "lision": 7166,
      "Connect</w>": 7167,
      "gridBagConstraint": 7168,
      "rer</w>": 7169,
      "Remote</w>": 7170,
      "defined": 7171,
      "256</w>": 7172,
      "argument</w>": 7173,
      "Destro": 7174,
      "jText": 7175,
      "note</w>": 7176,
      "Cards</w>": 7177,
      "Show</w>": 7178,
      "Operations</w>": 7179,
      "getDefaultToolkit</w>": 7180,
      "jsx": 7181,
      "rep": 7182,
      "topic</w>": 7183,
      "Runner</w>": 7184,
      "ze": 7185,
      "subscrib": 7186,
      "Destination</w>": 7187,
      "recei": 7188,
      "labor": 7189,
      "Atc": 7190,
      "clip</w>": 7191,
      "weight": 7192,
      "Seq</w>": 7193,
      "reload": 7194,
      "Shif": 7195,
      "na": 7196,
      "annotation": 7197,
      "Require": 7198,
      "RGB</w>": 7199,
      ">>></w>": 7200,
      "Typed": 7201,
      "Meta</w>": 7202,
      "LAY": 7203,
      "Environment": 7204,
      "fol": 7205,
      "loaded": 7206,
      "Reply</w>": 7207,
      "AXIS</w>": 7208,
      "tasks</w>": 7209,
      "dst</w>": 7210,
      "pid</w>": 7211,
      "ro</w>": 7212,
      "Mail</w>": 7213,
      "language": 7214,
      "Jax": 7215,
      "addMouseListener</w>": 7216,
      "Begin": 7217,
      "LENGTH</w>": 7218,
      "Entities</w>": 7219,
      "Platform": 7220,
      "uler": 7221,
      "bility": 7222,
      "Other": 7223,
      "DataSet</w>": 7224,
      "tested</w>": 7225,
      "Batch</w>": 7226,
      "Resolution</w>": 7227,
      "Authentication": 7228,
      "Additional": 7229,
      "way</w>": 7230,
      "verage</w>": 7231,
      "plitPane</w>": 7232,
      "download": 7233,
      "getService</w>": 7234,
      "setWidth</w>": 7235,
      "izable</w>": 7236,
      "round": 7237,
      "Certificate</w>": 7238,
      "Identifier": 7239,
      "Wizard</w>": 7240,
      "getPrimary": 7241,
      "MAN": 7242,
      "PrimaryKey</w>": 7243,
      "Behavior</w>": 7244,
      "lob</w>": 7245,
      "InputSource</w>": 7246,
      "vt": 7247,
      "TEM": 7248,
      "getPr": 7249,
      "Needed</w>": 7250,
      "ial</w>": 7251,
      "finish</w>": 7252,
      "Subscrib": 7253,
      "Checker</w>": 7254,
      "SHOR": 7255,
      "addPropertyChangeListener</w>": 7256,
      "FacesContext</w>": 7257,
      "CANCE": 7258,
      "isClosed</w>": 7259,
      "Relationship": 7260,
      "dirty</w>": 7261,
      "Received</w>": 7262,
      "Office": 7263,
      "Under": 7264,
      "activity</w>": 7265,
      "Loggable</w>": 7266,
      "Usage</w>": 7267,
      "ES_": 7268,
      "_values</w>": 7269,
      "jdbc": 7270,
      "Env</w>": 7271,
      "HexString</w>": 7272,
      "getResourceAsStream</w>": 7273,
      "setRow": 7274,
      "indows</w>": 7275,
      "DATE_": 7276,
      "Members</w>": 7277,
      "IFile</w>": 7278,
      "ging</w>": 7279,
      "pair": 7280,
      "oto</w>": 7281,
      "Alpha": 7282,
      "ItemListener</w>": 7283,
      "ROO": 7284,
      "controller": 7285,
      "Instruction": 7286,
      "getHeader</w>": 7287,
      "neg": 7288,
      "background</w>": 7289,
      "Reflec": 7290,
      "Dom": 7291,
      "rop</w>": 7292,
      "setDisplay": 7293,
      "character</w>": 7294,
      "errMsg</w>": 7295,
      "Dst</w>": 7296,
      "wal": 7297,
      "Completed</w>": 7298,
      "bottom": 7299,
      "pose": 7300,
      "safe": 7301,
      "removeListener</w>": 7302,
      "Capability</w>": 7303,
      "invalid": 7304,
      "roles</w>": 7305,
      "getPort": 7306,
      "Subject": 7307,
      "buttons</w>": 7308,
      "Post</w>": 7309,
      "ified</w>": 7310,
      "Deli": 7311,
      "Json": 7312,
      "rma": 7313,
      "DataModel</w>": 7314,
      "StringSTAttribute</w>": 7315,
      "interfaces</w>": 7316,
      "CharArray</w>": 7317,
      "Submit": 7318,
      "Locked</w>": 7319,
      "Validator": 7320,
      "getDest": 7321,
      "ility</w>": 7322,
      "preferred": 7323,
      "AN</w>": 7324,
      "wd</w>": 7325,
      "AND_": 7326,
      "000</w>": 7327,
      "MAR": 7328,
      "fact": 7329,
      "Loader": 7330,
      "IGHT_": 7331,
      "LIM": 7332,
      "getPlayer": 7333,
      "activity": 7334,
      "Actor": 7335,
      "newM": 7336,
      "PropertyName</w>": 7337,
      "configuration": 7338,
      "segment</w>": 7339,
      "YEAR</w>": 7340,
      "artif": 7341,
      "Assertion": 7342,
      "getReal": 7343,
      "GRAP": 7344,
      "setPosition</w>": 7345,
      "DataChanged</w>": 7346,
      "listIterator</w>": 7347,
      "Preferences": 7348,
      "HKY": 7349,
      "Cause</w>": 7350,
      "Fault</w>": 7351,
      "textField</w>": 7352,
      "Multiple": 7353,
      "Ct": 7354,
      "si</w>": 7355,
      "tw": 7356,
      "tical</w>": 7357,
      "Patient": 7358,
      "ling": 7359,
      "Increment</w>": 7360,
      "textArea</w>": 7361,
      "Fault": 7362,
      "Players</w>": 7363,
      "Ship": 7364,
      "Convers": 7365,
      "SHO": 7366,
      "conn": 7367,
      "formation": 7368,
      "BY": 7369,
      "Dto</w>": 7370,
      "MAT": 7371,
      "_logger</w>": 7372,
      "Author": 7373,
      "ChangedEvent</w>": 7374,
      "EVENT_": 7375,
      "Esc": 7376,
      "Sa": 7377,
      "ze</w>": 7378,
      "post</w>": 7379,
      "Zero</w>": 7380,
      "Indicator</w>": 7381,
      "Gen</w>": 7382,
      "jax": 7383,
      "align</w>": 7384,
      "Setup</w>": 7385,
      "opt</w>": 7386,
      "original</w>": 7387,
      "bundle": 7388,
      "getTop": 7389,
      "Dependency</w>": 7390,
      "cret": 7391,
      "sb": 7392,
      "quo": 7393,
      "Compiled</w>": 7394,
      "sym</w>": 7395,
      "SUC": 7396,
      "DO</w>": 7397,
      "setDi": 7398,
      "loop</w>": 7399,
      "cred": 7400,
      "getRow</w>": 7401,
      "Cl": 7402,
      "V_": 7403,
      "ListIterator</w>": 7404,
      "notifyListeners</w>": 7405,
      "Light": 7406,
      "m1</w>": 7407,
      "getEntry</w>": 7408,
      "atom</w>": 7409,
      "amb": 7410,
      "come": 7411,
      "putAll</w>": 7412,
      "serial": 7413,
      "Sender</w>": 7414,
      "Bug": 7415,
      "DateTime": 7416,
      "cancelButton</w>": 7417,
      "BA": 7418,
      "Extra": 7419,
      "TargetException</w>": 7420,
      "getPlugin": 7421,
      "AttributeSet</w>": 7422,
      "adow": 7423,
      "ORDER</w>": 7424,
      "_set</w>": 7425,
      "y_": 7426,
      "final": 7427,
      "BOOLEAN_VALUE_IMAGE</w>": 7428,
      "processor</w>": 7429,
      "ErrorReason</w>": 7430,
      "ITI": 7431,
      "Preference</w>": 7432,
      "Equal": 7433,
      "Hints</w>": 7434,
      "SUCCE": 7435,
      "EObject</w>": 7436,
      "getResponse</w>": 7437,
      "acion</w>": 7438,
      "Models</w>": 7439,
      "children": 7440,
      "capt": 7441,
      "vious</w>": 7442,
      "Summary": 7443,
      "FIELD_": 7444,
      "GL_": 7445,
      "uri": 7446,
      "Envelope</w>": 7447,
      "Assignment</w>": 7448,
      "length": 7449,
      "rest": 7450,
      "Moved</w>": 7451,
      "EncodingException</w>": 7452,
      "mock": 7453,
      "getApplication": 7454,
      "getEdit": 7455,
      "layers</w>": 7456,
      "classname</w>": 7457,
      "getEntityManager</w>": 7458,
      "Sig": 7459,
      "rel": 7460,
      "getRemote": 7461,
      "getLong": 7462,
      "isRe": 7463,
      "Phone": 7464,
      "PAS": 7465,
      "ItemEvent</w>": 7466,
      "getPh": 7467,
      "Capabilities</w>": 7468,
      "Modified": 7469,
      "Lifec": 7470,
      "description": 7471,
      "Palette": 7472,
      "READ</w>": 7473,
      "Trigger</w>": 7474,
      "ber": 7475,
      "terms</w>": 7476,
      "tence</w>": 7477,
      "STE": 7478,
      "propName</w>": 7479,
      "getCode</w>": 7480,
      "setString": 7481,
      "network": 7482,
      "Geometry": 7483,
      "Revision</w>": 7484,
      "ole</w>": 7485,
      "KeyStroke</w>": 7486,
      "TITLE</w>": 7487,
      "Jdbc": 7488,
      "ry</w>": 7489,
      "CONNECT": 7490,
      "JText": 7491,
      "Rec</w>": 7492,
      "liter": 7493,
      "startIndex</w>": 7494,
      "fn</w>": 7495,
      "gram": 7496,
      "Datat": 7497,
      "TAG_": 7498,
      "rpc</w>": 7499,
      "getBean": 7500,
      "Sever": 7501,
      "andom": 7502,
      "readInt</w>": 7503,
      "World": 7504,
      "RAN": 7505,
      "repe": 7506,
      "getConfig": 7507,
      "setLabel": 7508,
      "ONLY</w>": 7509,
      "lang": 7510,
      "acked": 7511,
      "rain": 7512,
      "Fro": 7513,
      "d_": 7514,
      "gap</w>": 7515,
      "getBean</w>": 7516,
      "BOLD</w>": 7517,
      "Scale": 7518,
      "Hit": 7519,
      "rb": 7520,
      "proble": 7521,
      "tax</w>": 7522,
      "Sip": 7523,
      "tagName</w>": 7524,
      "paletteContainer</w>": 7525,
      "rate</w>": 7526,
      "xpath</w>": 7527,
      "NEW": 7528,
      "stud": 7529,
      "tro": 7530,
      "particip": 7531,
      "break": 7532,
      "Disabled</w>": 7533,
      "Register</w>": 7534,
      "Sql</w>": 7535,
      "reser": 7536,
      "GU": 7537,
      "Association</w>": 7538,
      "AI": 7539,
      "pr</w>": 7540,
      "getURL</w>": 7541,
      "cript": 7542,
      "Roll": 7543,
      "jComboBox": 7544,
      "Execute": 7545,
      "Loop</w>": 7546,
      "Sort</w>": 7547,
      "fis</w>": 7548,
      "ia": 7549,
      "recur": 7550,
      "home": 7551,
      "JSplitPane</w>": 7552,
      "DC": 7553,
      "_log</w>": 7554,
      "getCol": 7555,
      "getHost</w>": 7556,
      "pear": 7557,
      "Imm": 7558,
      "Tip</w>": 7559,
      "acces": 7560,
      "ized</w>": 7561,
      "paque</w>": 7562,
      "forward</w>": 7563,
      "distance": 7564,
      "END</w>": 7565,
      "peer": 7566,
      "Owner": 7567,
      "Fragment": 7568,
      "Normal": 7569,
      "f1</w>": 7570,
      "getNext</w>": 7571,
      "Cons": 7572,
      "Scroll</w>": 7573,
      "NODE_": 7574,
      "UIManager</w>": 7575,
      "multiply</w>": 7576,
      "cn</w>": 7577,
      "setKey": 7578,
      "product</w>": 7579,
      "Procedure</w>": 7580,
      "black</w>": 7581,
      "getLog</w>": 7582,
      "elap": 7583,
      "coord</w>": 7584,
      "Selector": 7585,
      "minimum": 7586,
      "getUsername</w>": 7587,
      "stroke</w>": 7588,
      "MenuManager</w>": 7589,
      "EventHandler</w>": 7590,
      "leton</w>": 7591,
      "menuItem</w>": 7592,
      "Mes": 7593,
      "TableName</w>": 7594,
      "REQUE": 7595,
      "KEY": 7596,
      "TABLE_": 7597,
      "vert": 7598,
      "SOAP": 7599,
      "static": 7600,
      "tail</w>": 7601,
      "NamePropertyDescriptor</w>": 7602,
      "Phase</w>": 7603,
      "Photo": 7604,
      "dot": 7605,
      "ORY_": 7606,
      "getFa": 7607,
      "tabbedPane</w>": 7608,
      "throwable</w>": 7609,
      "Logging</w>": 7610,
      "f_": 7611,
      "ping</w>": 7612,
      "construct": 7613,
      "Accept": 7614,
      "23": 7615,
      "direct</w>": 7616,
      "texts</w>": 7617,
      "IS1BamBL": 7618,
      "testIs": 7619,
      "HibernateUtil</w>": 7620,
      "k_": 7621,
      "InvocationTargetException</w>": 7622,
      "PER_": 7623,
      "mach": 7624,
      "getLocale</w>": 7625,
      "addProperty</w>": 7626,
      "frames</w>": 7627,
      "setTime": 7628,
      "Lead": 7629,
      "_cTracker</w>": 7630,
      "casFeat": 7631,
      "ON_CLOSE</w>": 7632,
      "ProgressMonitor</w>": 7633,
      "grees</w>": 7634,
      "Phase": 7635,
      "white</w>": 7636,
      "Defined": 7637,
      "CloseOperation</w>": 7638,
      "inv": 7639,
      "getScreen": 7640,
      "EndpointAddress</w>": 7641,
      "02</w>": 7642,
      "LON": 7643,
      "400</w>": 7644,
      "ited": 7645,
      "tod": 7646,
      "added": 7647,
      "normalize</w>": 7648,
      "blue</w>": 7649,
      "getXML": 7650,
      "ally": 7651,
      "EventType</w>": 7652,
      "getTarget": 7653,
      "High": 7654,
      "Sing": 7655,
      "getShort": 7656,
      "TAL</w>": 7657,
      "EMPTY</w>": 7658,
      "Whitespace</w>": 7659,
      "extensions</w>": 7660,
      "FL": 7661,
      "categories</w>": 7662,
      "KA": 7663,
      "Round": 7664,
      "Motion": 7665,
      "Drawing": 7666,
      "onym": 7667,
      "Stat</w>": 7668,
      "edit</w>": 7669,
      "gt": 7670,
      "pd</w>": 7671,
      "interpret": 7672,
      "buttonPanel</w>": 7673,
      "dump</w>": 7674,
      "Old": 7675,
      "Exec</w>": 7676,
      "concept": 7677,
      "Serializer</w>": 7678,
      "needs": 7679,
      "setLength</w>": 7680,
      "testAdd": 7681,
      "isNaN</w>": 7682,
      "lots</w>": 7683,
      "sin</w>": 7684,
      "DEFIN": 7685,
      "okButton</w>": 7686,
      "ChangedListener</w>": 7687,
      "World</w>": 7688,
      "Occur": 7689,
      "mes": 7690,
      "ision": 7691,
      "removeAttribute</w>": 7692,
      "extension": 7693,
      "setContent</w>": 7694,
      "Processing": 7695,
      "Push": 7696,
      "convertTo": 7697,
      "':": 7698,
      "Ctx</w>": 7699,
      "jButton1</w>": 7700,
      "':'</w>": 7701,
      "getStyle": 7702,
      "getDis": 7703,
      "getContainer</w>": 7704,
      "ested</w>": 7705,
      "Logical": 7706,
      "Usu": 7707,
      "org": 7708,
      "STO": 7709,
      "45</w>": 7710,
      "MODI": 7711,
      "Clone</w>": 7712,
      "uby": 7713,
      "PTION_": 7714,
      "Animation": 7715,
      "Evaluator</w>": 7716,
      "PLAIN</w>": 7717,
      "fatal</w>": 7718,
      "getList</w>": 7719,
      "ness": 7720,
      "coe": 7721,
      "views</w>": 7722,
      "Marker": 7723,
      "n1</w>": 7724,
      "pointer</w>": 7725,
      "Results": 7726,
      "phone": 7727,
      "WINDO": 7728,
      "51</w>": 7729,
      "wrapper</w>": 7730,
      "zoom</w>": 7731,
      "click": 7732,
      "getNamespace": 7733,
      "pur": 7734,
      "setAl": 7735,
      "interface": 7736,
      "Flavor</w>": 7737,
      "JDBC": 7738,
      "be</w>": 7739,
      "ZERO</w>": 7740,
      "Me</w>": 7741,
      "css": 7742,
      "ToolBar": 7743,
      "getCapability</w>": 7744,
      "GRE": 7745,
      "COMPON": 7746,
      "mpt</w>": 7747,
      "Over</w>": 7748,
      "cut</w>": 7749,
      "getGraph": 7750,
      "thes": 7751,
      "ascending</w>": 7752,
      "lash</w>": 7753,
      "RU": 7754,
      "getCoun": 7755,
      "Builder": 7756,
      "ification": 7757,
      "VERSION</w>": 7758,
      "Dimension": 7759,
      "d2</w>": 7760,
      "getNe": 7761,
      "setPage": 7762,
      "cket</w>": 7763,
      "Scheme</w>": 7764,
      "Route</w>": 7765,
      "_p</w>": 7766,
      "ges": 7767,
      "verify</w>": 7768,
      "drawImage</w>": 7769,
      "getDatabase": 7770,
      "FILL</w>": 7771,
      "Numeric": 7772,
      "getConfiguration</w>": 7773,
      "ense": 7774,
      "Insert</w>": 7775,
      "policy</w>": 7776,
      "caug": 7777,
      "ickness</w>": 7778,
      "LiveOr": 7779,
      "newNode</w>": 7780,
      "Appear": 7781,
      "normal": 7782,
      "preferences</w>": 7783,
      "Book</w>": 7784,
      "elementName</w>": 7785,
      "SSF": 7786,
      "Primitive": 7787,
      "isLoggable</w>": 7788,
      "StringReader</w>": 7789,
      "after</w>": 7790,
      "_NAME</w>": 7791,
      "imal": 7792,
      "UserName</w>": 7793,
      "segment": 7794,
      "collectNew": 7795,
      "abstr": 7796,
      "collectNewChildDescriptors</w>": 7797,
      "Diff</w>": 7798,
      "FileFilter</w>": 7799,
      "Suite</w>": 7800,
      "beginTransaction</w>": 7801,
      "LiveOrCompiled</w>": 7802,
      "Edi": 7803,
      "JTabbedPane</w>": 7804,
      "Words</w>": 7805,
      "tRes</w>": 7806,
      "strings</w>": 7807,
      "rank</w>": 7808,
      "BitSet</w>": 7809,
      "owledge": 7810,
      "getInter": 7811,
      "options": 7812,
      "typedDst</w>": 7813,
      "hal": 7814,
      "x_": 7815,
      "generate</w>": 7816,
      "aValue</w>": 7817,
      "getSign": 7818,
      "menuBar</w>": 7819,
      "setDefaultCloseOperation</w>": 7820,
      "binary": 7821,
      "Ast": 7822,
      "Shutd": 7823,
      "XMLElement</w>": 7824,
      "come</w>": 7825,
      "reg</w>": 7826,
      "proced": 7827,
      "Reader": 7828,
      "Square</w>": 7829,
      "ouch": 7830,
      "Turn</w>": 7831,
      "jTextField</w>": 7832,
      "percent": 7833,
      "engine": 7834,
      "ands</w>": 7835,
      "mento</w>": 7836,
      "Smart": 7837,
      "verti": 7838,
      "getCal": 7839,
      "scanner</w>": 7840,
      "JMSException</w>": 7841,
      "otype</w>": 7842,
      "Bindings</w>": 7843,
      "jjt": 7844,
      "Hyper": 7845,
      "getOptions</w>": 7846,
      "setLabel</w>": 7847,
      "forward": 7848,
      "Closing</w>": 7849,
      "Train": 7850,
      "END_": 7851,
      "_size</w>": 7852,
      "vs</w>": 7853,
      "setTo": 7854,
      "setDate</w>": 7855,
      "setNew": 7856,
      "rong": 7857,
      "Clip</w>": 7858,
      "SPEC": 7859,
      "VERTICAL</w>": 7860,
      "persist</w>": 7861,
      "DS": 7862,
      "MIL": 7863,
      "StringUtil</w>": 7864,
      "Clear": 7865,
      "CapabilityNotSetException</w>": 7866,
      "ang</w>": 7867,
      "Attachment</w>": 7868,
      "Ontology</w>": 7869,
      "YES_": 7870,
      "Estim": 7871,
      "sChanged</w>": 7872,
      "getResponse": 7873,
      "setList": 7874,
      "declar": 7875,
      "Oid</w>": 7876,
      "du": 7877,
      "getLong</w>": 7878,
      "Bud": 7879,
      "SSION_": 7880,
      "DatabaseException</w>": 7881,
      "\"'</w>": 7882,
      "2D": 7883,
      "Voc": 7884,
      "marker</w>": 7885,
      "workbench</w>": 7886,
      "poly": 7887,
      "severe</w>": 7888,
      "getMap</w>": 7889,
      "getOut": 7890,
      "Optim": 7891,
      "span</w>": 7892,
      "Sprite</w>": 7893,
      "bg": 7894,
      "isShow": 7895,
      "colors</w>": 7896,
      "Hex</w>": 7897,
      "ReadOnly": 7898,
      "Pass</w>": 7899,
      "stor</w>": 7900,
      "upload": 7901,
      "checkFor": 7902,
      "Sources</w>": 7903,
      "rv</w>": 7904,
      "Vertices</w>": 7905,
      "fireEvent</w>": 7906,
      "FEREN": 7907,
      "BACK": 7908,
      "IST": 7909,
      "Messages": 7910,
      "Appro": 7911,
      "steps</w>": 7912,
      "revalidate</w>": 7913,
      "DataException</w>": 7914,
      "COUNT</w>": 7915,
      "70</w>": 7916,
      "cd": 7917,
      "pan": 7918,
      "Completion": 7919,
      "UnsupportedEncodingException</w>": 7920,
      "_list</w>": 7921,
      "foo": 7922,
      "sample</w>": 7923,
      "setInput</w>": 7924,
      "sOf": 7925,
      "getFileName</w>": 7926,
      "conf": 7927,
      "ential": 7928,
      "Synchroniz": 7929,
      "packet": 7930,
      "DESCRIPTION</w>": 7931,
      "mo</w>": 7932,
      "plet": 7933,
      "Generate": 7934,
      "getAv": 7935,
      "Ps": 7936,
      "drawLine</w>": 7937,
      "Primitive</w>": 7938,
      "toHexString</w>": 7939,
      "getSuper": 7940,
      "Conflic": 7941,
      "UserId</w>": 7942,
      "mapper</w>": 7943,
      "Formula": 7944,
      "character": 7945,
      "getBackground</w>": 7946,
      "getPro": 7947,
      "Matrix2D</w>": 7948,
      "SCH": 7949,
      "VAR": 7950,
      "XS": 7951,
      "pages</w>": 7952,
      "isOpen</w>": 7953,
      "Neur": 7954,
      "PORT</w>": 7955,
      "IWorkbench": 7956,
      "LD": 7957,
      "dim": 7958,
      "cos": 7959,
      "aller": 7960,
      "cleanup</w>": 7961,
      "cepts</w>": 7962,
      "setSelectedItem</w>": 7963,
      "Bal": 7964,
      "sWith": 7965,
      "ous</w>": 7966,
      "Team</w>": 7967,
      "Centr": 7968,
      "jo</w>": 7969,
      "getColor": 7970,
      "1024</w>": 7971,
      "ERROR_INVALID_": 7972,
      "Privile": 7973,
      "RT": 7974,
      "fm</w>": 7975,
      "her</w>": 7976,
      "getNumber</w>": 7977,
      "isLiveOrCompiled</w>": 7978,
      "Api": 7979,
      "Validate</w>": 7980,
      "UMLPackage</w>": 7981,
      "ime</w>": 7982,
      "entities</w>": 7983,
      "VM": 7984,
      "bb</w>": 7985,
      "Console": 7986,
      "toCharArray</w>": 7987,
      "Keep": 7988,
      "ude": 7989,
      "ingType</w>": 7990,
      "ignore</w>": 7991,
      "tableModel</w>": 7992,
      "cookie</w>": 7993,
      "squ": 7994,
      "START</w>": 7995,
      "FC": 7996,
      "pick": 7997,
      "score": 7998,
      "getParameters</w>": 7999,
      "ros": 8000,
      "Fact</w>": 8001,
      "Aux": 8002,
      "Support": 8003,
      "STATE</w>": 8004,
      "Effect</w>": 8005,
      "receiver</w>": 8006,
      "Children": 8007,
      "Locale": 8008,
      "indexOf": 8009,
      "Master": 8010,
      "ome": 8011,
      "Ext": 8012,
      "radio": 8013,
      "Identity": 8014,
      "alized</w>": 8015,
      "Projects</w>": 8016,
      "lastModified</w>": 8017,
      "ganis": 8018,
      "Candid": 8019,
      "getPubl": 8020,
      "Unsigned": 8021,
      "Metric</w>": 8022,
      "resolver</w>": 8023,
      "yna": 8024,
      "my</w>": 8025,
      "rb</w>": 8026,
      "launch": 8027,
      "gui": 8028,
      "getRecord": 8029,
      "help</w>": 8030,
      "diagnostics</w>": 8031,
      "eq</w>": 8032,
      "Invocation</w>": 8033,
      "Failure": 8034,
      "ImageDescriptor</w>": 8035,
      "Framework": 8036,
      "Equals": 8037,
      "turn": 8038,
      "Issu": 8039,
      "alignment</w>": 8040,
      "setSource": 8041,
      "author</w>": 8042,
      "world": 8043,
      "Customer": 8044,
      "i2</w>": 8045,
      "TimeUnit</w>": 8046,
      "getDouble</w>": 8047,
      "individ": 8048,
      "ndi": 8049,
      "setOutput": 8050,
      "Connector": 8051,
      "charset</w>": 8052,
      "modifiable": 8053,
      "moveTo": 8054,
      "DN": 8055,
      "omat": 8056,
      "TypeId</w>": 8057,
      "Second": 8058,
      "EJBException</w>": 8059,
      "OS": 8060,
      "mgr</w>": 8061,
      "inding</w>": 8062,
      "getInit": 8063,
      "Room": 8064,
      "Cycle": 8065,
      "ooth": 8066,
      "TableColumn</w>": 8067,
      "EXTEN": 8068,
      "paths</w>": 8069,
      "Switch": 8070,
      "Cases</w>": 8071,
      "nm</w>": 8072,
      "pp</w>": 8073,
      "Callback": 8074,
      "targets</w>": 8075,
      "Watch": 8076,
      "created": 8077,
      "CHANGED</w>": 8078,
      "cfg</w>": 8079,
      "WRITE</w>": 8080,
      "LAN": 8081,
      "Tech": 8082,
      "XPath</w>": 8083,
      "Panels</w>": 8084,
      "ndx</w>": 8085,
      "world</w>": 8086,
      "getOwner": 8087,
      "setX</w>": 8088,
      "Binary</w>": 8089,
      "PUT_": 8090,
      "Deployment": 8091,
      "batch": 8092,
      "references</w>": 8093,
      "Days</w>": 8094,
      "Navigation": 8095,
      "_current": 8096,
      "UND": 8097,
      "cc": 8098,
      "projectName</w>": 8099,
      "aemon</w>": 8100,
      "Pur": 8101,
      "Cost": 8102,
      "Arr</w>": 8103,
      "DIR</w>": 8104,
      "Frequency</w>": 8105,
      "Rank</w>": 8106,
      "Exist</w>": 8107,
      "Conditions</w>": 8108,
      "tables</w>": 8109,
      "setSub": 8110,
      "asyn": 8111,
      "Canvas": 8112,
      "pkg</w>": 8113,
      "Management": 8114,
      "rgb</w>": 8115,
      "Ari": 8116,
      "stat": 8117,
      "getInstance": 8118,
      "Channels</w>": 8119,
      "handlers</w>": 8120,
      "times</w>": 8121,
      "expan": 8122,
      "BOD": 8123,
      "Const</w>": 8124,
      "changed": 8125,
      "Need": 8126,
      "Scene</w>": 8127,
      "OPER": 8128,
      "ln": 8129,
      "tool</w>": 8130,
      "Gate": 8131,
      "mag": 8132,
      "abul": 8133,
      "submit": 8134,
      "listFiles</w>": 8135,
      "getUserObject</w>": 8136,
      "Ban": 8137,
      "DD": 8138,
      "Foreground</w>": 8139,
      "orted": 8140,
      "amaz": 8141,
      "recipi": 8142,
      "handler": 8143,
      "jSeparatorHKY": 8144,
      "bal": 8145,
      "rename": 8146,
      "createChild": 8147,
      "getCustom": 8148,
      "maining": 8149,
      "Portlet": 8150,
      "Global</w>": 8151,
      "Relationship</w>": 8152,
      "SVN": 8153,
      "win</w>": 8154,
      "getNamespace</w>": 8155,
      "getHibernate": 8156,
      "getSte": 8157,
      "INITI": 8158,
      "argument": 8159,
      "cast</w>": 8160,
      "ename": 8161,
      "addValue</w>": 8162,
      "lank</w>": 8163,
      "typedSrc</w>": 8164,
      "Servlet</w>": 8165,
      "getMatch": 8166,
      "getCanonical": 8167,
      "co</w>": 8168,
      "RED</w>": 8169,
      "BUFF": 8170,
      "resolve</w>": 8171,
      "getConfig</w>": 8172,
      "ched": 8173,
      "Terms</w>": 8174,
      "veloc": 8175,
      "Propag": 8176,
      "mbedded": 8177,
      "MID": 8178,
      "getLeft": 8179,
      "addField</w>": 8180,
      "Finder": 8181,
      "VER</w>": 8182,
      "relate": 8183,
      "setAttribute": 8184,
      "records</w>": 8185,
      "ws": 8186,
      "Cod": 8187,
      "subject": 8188,
      "train": 8189,
      "lipse</w>": 8190,
      "Har": 8191,
      "asy": 8192,
      "ague": 8193,
      "omin": 8194,
      "ValidationException</w>": 8195,
      "Triple</w>": 8196,
      "Payment": 8197,
      "subtract</w>": 8198,
      "trl": 8199,
      "setCommand": 8200,
      "ication": 8201,
      "Adj": 8202,
      "Parsed": 8203,
      "Dataset": 8204,
      "connections</w>": 8205,
      "sedTime</w>": 8206,
      "ice</w>": 8207,
      "cont</w>": 8208,
      "NULL_ARGUMENT</w>": 8209,
      "ing_": 8210,
      "Credentials</w>": 8211,
      "Alert": 8212,
      "iel": 8213,
      "ology</w>": 8214,
      "tip": 8215,
      "getQu": 8216,
      "setEnd": 8217,
      "ToFile</w>": 8218,
      "aries</w>": 8219,
      "MessageFormat</w>": 8220,
      "getGame": 8221,
      "40": 8222,
      "KI": 8223,
      "Ker": 8224,
      "Reason": 8225,
      "lar</w>": 8226,
      "closing": 8227,
      "Keyword</w>": 8228,
      "arge</w>": 8229,
      "getMemb": 8230,
      "MILLI": 8231,
      "ycle</w>": 8232,
      "loop": 8233,
      "propertyChange</w>": 8234,
      "Mone": 8235,
      "modifiers</w>": 8236,
      "120</w>": 8237,
      "Recent": 8238,
      "Legend": 8239,
      "_c</w>": 8240,
      "invalidate": 8241,
      "setParent": 8242,
      "compil": 8243,
      "Stere": 8244,
      "mx": 8245,
      "uzz": 8246,
      "Coord": 8247,
      "currentNode</w>": 8248,
      "Week": 8249,
      "Steps</w>": 8250,
      "PP": 8251,
      "getCommand</w>": 8252,
      "dos</w>": 8253,
      "Cmd": 8254,
      "GW": 8255,
      "MIS": 8256,
      "cmp</w>": 8257,
      "pass": 8258,
      "choice</w>": 8259,
      "JX": 8260,
      "oos</w>": 8261,
      "getLocalizedMessage</w>": 8262,
      "Blog": 8263,
      "Percent</w>": 8264,
      "Gr": 8265,
      "prise</w>": 8266,
      "Weight": 8267,
      "HttpSession</w>": 8268,
      "getNodeName</w>": 8269,
      "NULL</w>": 8270,
      "Soft": 8271,
      "Bottom</w>": 8272,
      "SyntaxException</w>": 8273,
      "aretPosition</w>": 8274,
      "newLine</w>": 8275,
      "changedResources</w>": 8276,
      "Mark</w>": 8277,
      "ump": 8278,
      "Align</w>": 8279,
      "ContentModel</w>": 8280,
      "Limit": 8281,
      "Analysis": 8282,
      "getSett": 8283,
      "URE</w>": 8284,
      "ObjectType</w>": 8285,
      "getDB": 8286,
      "Dependency": 8287,
      "transformer</w>": 8288,
      "getSchema": 8289,
      "existing": 8290,
      "Existing": 8291,
      "Stub</w>": 8292,
      "pot</w>": 8293,
      "createGet": 8294,
      "Times</w>": 8295,
      "PROCE": 8296,
      "NOM": 8297,
      "RESUL": 8298,
      "GRAPH": 8299,
      "Gap</w>": 8300,
      "Items": 8301,
      "When": 8302,
      "Levels</w>": 8303,
      "Iterator": 8304,
      "5f</w>": 8305,
      "master": 8306,
      "cores</w>": 8307,
      "removeChild</w>": 8308,
      "floatValue</w>": 8309,
      "Send</w>": 8310,
      "Zone": 8311,
      "ect": 8312,
      "PROJEC": 8313,
      "Merge": 8314,
      "Expanded</w>": 8315,
      "SdaiException</w>": 8316,
      "tb": 8317,
      "local_": 8318,
      "ied": 8319,
      "getRef": 8320,
      "Inser": 8321,
      "Console</w>": 8322,
      "alization": 8323,
      "jPanel2</w>": 8324,
      "rank": 8325,
      "HEAD": 8326,
      "ne</w>": 8327,
      "yph</w>": 8328,
      "may": 8329,
      "CharSequence</w>": 8330,
      "0x0": 8331,
      "ERROR_NULL_ARGUMENT</w>": 8332,
      "removeAllElements</w>": 8333,
      "SVG": 8334,
      "LB": 8335,
      "Compati": 8336,
      "ValueException</w>": 8337,
      "150</w>": 8338,
      "o_": 8339,
      "odin": 8340,
      "setHorizontalAlignment</w>": 8341,
      "37</w>": 8342,
      "pName</w>": 8343,
      "ExceptionFactory</w>": 8344,
      "sis</w>": 8345,
      "Refresh</w>": 8346,
      "ResponseType</w>": 8347,
      "Missing</w>": 8348,
      "COLOR_": 8349,
      "Probability</w>": 8350,
      "gree</w>": 8351,
      "optim": 8352,
      "Charset</w>": 8353,
      "setCre": 8354,
      "128</w>": 8355,
      "rs": 8356,
      "newEdit": 8357,
      "FieldName</w>": 8358,
      "hide</w>": 8359,
      "Chain": 8360,
      "Delta": 8361,
      "paramName</w>": 8362,
      "CSS": 8363,
      "IJava": 8364,
      "duplic": 8365,
      "resize": 8366,
      "getAn": 8367,
      "ERS</w>": 8368,
      "UND_": 8369,
      "DISPOSED</w>": 8370,
      "Gradi": 8371,
      "JID</w>": 8372,
      "getFrame": 8373,
      "ads</w>": 8374,
      "getJPanel</w>": 8375,
      "Vector3D</w>": 8376,
      "marks</w>": 8377,
      "Problem</w>": 8378,
      "Parse</w>": 8379,
      "rotation</w>": 8380,
      "GridBagLayout</w>": 8381,
      "ject": 8382,
      "sun</w>": 8383,
      "HORIZONTAL</w>": 8384,
      "logError</w>": 8385,
      "setLog": 8386,
      "doGet": 8387,
      "collap": 8388,
      "Mg": 8389,
      "TAS": 8390,
      "vider": 8391,
      "requestFocus</w>": 8392,
      "getColumnName</w>": 8393,
      "romos": 8394,
      "ai</w>": 8395,
      "sue</w>": 8396,
      "pub": 8397,
      "Paren": 8398,
      "Indexes</w>": 8399,
      "rotate": 8400,
      "jLabel</w>": 8401,
      "setY</w>": 8402,
      "DAY</w>": 8403,
      "details</w>": 8404,
      "is_": 8405,
      "uts": 8406,
      "height": 8407,
      "TagName</w>": 8408,
      "COLUMN_": 8409,
      "volume</w>": 8410,
      "enumeration</w>": 8411,
      "cludes</w>": 8412,
      "Camera</w>": 8413,
      "timer": 8414,
      "chunk</w>": 8415,
      "cf</w>": 8416,
      "DOWN</w>": 8417,
      "Endpoint</w>": 8418,
      "tner": 8419,
      "Work</w>": 8420,
      "Learning": 8421,
      "getTag</w>": 8422,
      "notNull</w>": 8423,
      "ustOverride": 8424,
      "runner</w>": 8425,
      "getDefaultExceptionFactory</w>": 8426,
      "getPropertyName</w>": 8427,
      "Scene": 8428,
      "Distribution</w>": 8429,
      "CFLib</w>": 8430,
      "getReturn": 8431,
      "escape": 8432,
      "newMustOverride": 8433,
      "newMustOverrideException</w>": 8434,
      "Cr": 8435,
      "added</w>": 8436,
      "here</w>": 8437,
      "Artifact</w>": 8438,
      "mkdirs</w>": 8439,
      "kill": 8440,
      "ISO": 8441,
      "Sound</w>": 8442,
      "gridLayout</w>": 8443,
      "vm</w>": 8444,
      "erg": 8445,
      "stateChanged</w>": 8446,
      "Analyzer</w>": 8447,
      "PS": 8448,
      "green</w>": 8449,
      "resourceName</w>": 8450,
      "protocol": 8451,
      "qname</w>": 8452,
      "sound": 8453,
      "Enable</w>": 8454,
      "USE": 8455,
      "Join</w>": 8456,
      "PE": 8457,
      "Whe": 8458,
      "qName</w>": 8459,
      "not</w>": 8460,
      "Sync</w>": 8461,
      "mu": 8462,
      "Tester</w>": 8463,
      "cond</w>": 8464,
      "Logic": 8465,
      "ScrollBar</w>": 8466,
      "DOU": 8467,
      "pl</w>": 8468,
      "setup</w>": 8469,
      "redraw</w>": 8470,
      "Country</w>": 8471,
      "Rate": 8472,
      "getFactory</w>": 8473,
      "getStyle</w>": 8474,
      "Criterion</w>": 8475,
      "Catalog</w>": 8476,
      "getPackage": 8477,
      "MF": 8478,
      "getUpdate": 8479,
      "setItem": 8480,
      "Iden": 8481,
      "DAOException</w>": 8482,
      "Wiki": 8483,
      "hex": 8484,
      "pixel": 8485,
      "ving": 8486,
      "DataOutputStream</w>": 8487,
      "logical": 8488,
      "skip</w>": 8489,
      "trigger": 8490,
      "getOrigin": 8491,
      "acqu": 8492,
      "rowCount</w>": 8493,
      "Graphical": 8494,
      "Formats</w>": 8495,
      "ParserException</w>": 8496,
      "Archive</w>": 8497,
      "Bit</w>": 8498,
      "MI": 8499,
      "pause</w>": 8500,
      "getJScrollPane</w>": 8501,
      "INFIN": 8502,
      "HL": 8503,
      "pool": 8504,
      "alization</w>": 8505,
      "AME</w>": 8506,
      "KAON": 8507,
      "photo": 8508,
      "vation</w>": 8509,
      "setJ": 8510,
      "getRight": 8511,
      "maxValue</w>": 8512,
      "Matches</w>": 8513,
      "dlg</w>": 8514,
      "aNumber</w>": 8515,
      "predic": 8516,
      "getExtension</w>": 8517,
      "ong": 8518,
      "29</w>": 8519,
      "ident</w>": 8520,
      "DataInputStream</w>": 8521,
      "setOrientation</w>": 8522,
      "started</w>": 8523,
      "country</w>": 8524,
      "getWeb": 8525,
      "setY": 8526,
      "dbc</w>": 8527,
      "groupName</w>": 8528,
      "Biz": 8529,
      "n2</w>": 8530,
      "quote</w>": 8531,
      "shared": 8532,
      "PropertyValue</w>": 8533,
      "DataAccessException</w>": 8534,
      "gridLayout": 8535,
      "getRole": 8536,
      "Cycle</w>": 8537,
      "widgets</w>": 8538,
      "ador": 8539,
      "Chunk": 8540,
      "dp</w>": 8541,
      "di</w>": 8542,
      "irth": 8543,
      "Visualiz": 8544,
      "Broker</w>": 8545,
      "V1p": 8546,
      "_ID</w>": 8547,
      "cmb": 8548,
      "fw</w>": 8549,
      "Endi": 8550,
      "setNo": 8551,
      "unmodifiable": 8552,
      "parser": 8553,
      "getModule": 8554,
      "Route": 8555,
      "getServletContext</w>": 8556,
      "Mag": 8557,
      "setNum": 8558,
      "EditObj</w>": 8559,
      "getSelectedFile</w>": 8560,
      "MESSAGE_": 8561,
      "TH_": 8562,
      "US</w>": 8563,
      "Desktop</w>": 8564,
      "Article": 8565,
      "SN": 8566,
      "Major": 8567,
      "getFunc": 8568,
      "',": 8569,
      "Millisecon": 8570,
      "Same": 8571,
      "Conf</w>": 8572,
      "Recon": 8573,
      "','</w>": 8574,
      "Side</w>": 8575,
      "_0": 8576,
      "reload</w>": 8577,
      "cho": 8578,
      "instances</w>": 8579,
      "Timeout": 8580,
      "_model</w>": 8581,
      "DATAB": 8582,
      "180</w>": 8583,
      "sure</w>": 8584,
      "Distance": 8585,
      "getRen": 8586,
      "absolute": 8587,
      "PathComponent</w>": 8588,
      "Certificate": 8589,
      "tle": 8590,
      "remaining</w>": 8591,
      "mouseClicked</w>": 8592,
      "newEditInstance</w>": 8593,
      "BackgroundColor</w>": 8594,
      "Center": 8595,
      "VAL_": 8596,
      "Helper": 8597,
      "broker</w>": 8598,
      "NAT": 8599,
      "getSp": 8600,
      "Price": 8601,
      "measure": 8602,
      "area": 8603,
      "pref": 8604,
      "phone</w>": 8605,
      "shutdown": 8606,
      "Zero": 8607,
      "setMessage": 8608,
      "addNode</w>": 8609,
      "getMapp": 8610,
      "BLOC": 8611,
      "Craw": 8612,
      "Dispatch</w>": 8613,
      "LAT": 8614,
      "diction": 8615,
      "team": 8616,
      "Reset</w>": 8617,
      "ItemType</w>": 8618,
      "ipher</w>": 8619,
      "Phrase</w>": 8620,
      "BIN": 8621,
      "Cam": 8622,
      "Ip": 8623,
      "millis</w>": 8624,
      "sforce</w>": 8625,
      "testCreate": 8626,
      "getRead": 8627,
      "socket": 8628,
      "isF": 8629,
      "Solution</w>": 8630,
      "vity</w>": 8631,
      "getFixture</w>": 8632,
      "compile": 8633,
      "ached</w>": 8634,
      "Dist</w>": 8635,
      "jSplitPane</w>": 8636,
      "nr</w>": 8637,
      "Locations</w>": 8638,
      "AME_": 8639,
      "getSelectedRow</w>": 8640,
      "selectAll</w>": 8641,
      "TRANS": 8642,
      "setActive": 8643,
      "LP": 8644,
      "sep</w>": 8645,
      "TypeAdapter</w>": 8646,
      "ContentType</w>": 8647,
      "parseLong</w>": 8648,
      "Activated</w>": 8649,
[...]
