{
  "version": "1.0",
  "truncation": null,
  "padding": null,
  "added_tokens": [
    {
      "id": 0,
      "content": "<pad>",
      "single_word": false,
      "lstrip": false,
      "rstrip": false,
      "normalized": false,
      "special": true
    },
    {
      "id": 1,
      "content": "<unk>",
      "single_word": false,
      "lstrip": false,
      "rstrip": false,
      "normalized": false,
      "special": true
    },
    {
      "id": 2,
      "content": "<s>",
      "single_word": false,
      "lstrip": false,
      "rstrip": false,
      "normalized": false,
      "special": true
    },
    {
      "id": 3,
      "content": "</s>",
      "single_word": false,
      "lstrip": false,
      "rstrip": false,
      "normalized": false,
      "special": true
    },
    {
      "id": 4,
      "content": "\"<str>\"",
      "single_word": false,
      "lstrip": false,
      "rstrip": false,
      "normalized": false,
      "special": true
    },
    {
      "id": 5,
      "content": "<empty>",
      "single_word": false,
      "lstrip": false,
      "rstrip": false,
      "normalized": false,
      "special": true
    }
  ],
  "normalizer": {
    "type": "Sequence",
    "normalizers": [
      {
        "type": "NFD"
      },
      {
        "type": "StripAccents"
      },
      {
        "type": "Strip",
        "strip_left": true,
        "strip_right": true
      }
    ]
  },
  "pre_tokenizer": {
    "type": "Whitespace"
  },
  "post_processor": null,
  "decoder": null,
  "model": {
    "type": "Unigram",
    "unk_id": 1,
    "vocab": [
      [
        "<pad>",
        0.0
      ],
      [
        "<unk>",
        0.0
      ],
      [
        "<s>",
        0.0
      ],
      [
        "</s>",
        0.0
      ],
      [
        "\"<str>\"",
        0.0
      ],
      [
        "<empty>",
        0.0
      ],
      [
        ")",
        -2.3487831582271284
      ],
      [
        "(",
        -2.348793899085919
      ],
      [
        ";",
        -2.855210800558842
      ],
      [
        ".",
        -2.924194092348335
      ],
      [
        "{",
        -3.3906388465849737
      ],
      [
        "}",
        -3.3908665973809153
      ],
      [
        "=",
        -3.469043852920745
      ],
      [
        "\"",
        -3.82150657762646
      ],
      [
        ",",
        -3.9669050120649807
      ],
      [
        "public",
        -4.124744815742533
      ],
      [
        "<",
        -4.299905414481408
      ],
      [
        ">",
        -4.343885352138523
      ],
      [
        "return",
        -4.347628874452003
      ],
      [
        "str",
        -4.48179574692915
      ],
      [
        "void",
        -4.611821875587372
      ],
      [
        "if",
        -4.696176964715573
      ],
      [
        "String",
        -4.8093353556435545
      ],
      [
        "new",
        -4.82669896182475
      ],
      [
        "+",
        -4.839758532496814
      ],
      [
        "this",
        -4.950828971506375
      ],
      [
        "null",
        -4.953236383953216
      ],
      [
        "i",
        -5.088458393149891
      ],
      [
        "int",
        -5.16050101633051
      ],
      [
        "s",
        -5.180654427143255
      ],
      [
        "get",
        -5.313399688161555
      ],
      [
        "0",
        -5.3757229435702545
      ],
      [
        "!",
        -5.59068229170153
      ],
      [
        "e",
        -5.610241801330231
      ],
      [
        "]",
        -5.670385596643859
      ],
      [
        "[",
        -5.670471895894002
      ],
      [
        "Exception",
        -5.676433526314639
      ],
      [
        "1",
        -5.772900707221719
      ],
      [
        "boolean",
        -5.9050296388740655
      ],
      [
        "add",
        -5.916417199001216
      ],
      [
        "&",
        -6.027718175652053
      ],
      [
        "set",
        -6.053108351228319
      ],
      [
        "Object",
        -6.081568802582746
      ],
      [
        "private",
        -6.111350660525689
      ],
      [
        "_",
        -6.124314225328179
      ],
      [
        "throws",
        -6.154659951494095
      ],
      [
        "false",
        -6.200708447498478
      ],
      [
        "true",
        -6.244853339704214
      ],
      [
        "else",
        -6.260725254894471
      ],
      [
        "value",
        -6.29614342343773
      ],
      [
        "for",
        -6.402675774803248
      ],
      [
        "-",
        -6.422349246419303
      ],
      [
        "protected",
        -6.4746765984488075
      ],
      [
        "c",
        -6.47726427104166
      ],
      [
        "List",
        -6.495963940009478
      ],
      [
        ":",
        -6.499040929562117
      ],
      [
        "final",
        -6.502723027980226
      ],
      [
        "|",
        -6.528152047440077
      ],
      [
        "f",
        -6.545244535481745
      ],
      [
        "catch",
        -6.551244115189512
      ],
      [
        "name",
        -6.553707489910185
      ],
      [
        "2",
        -6.557890177339033
      ],
      [
        "try",
        -6.576848525834196
      ],
      [
        "t",
        -6.604315240838158
      ],
      [
        "throw",
        -6.606158982911904
      ],
      [
        "p",
        -6.606346231889532
      ],
      [
        "length",
        -6.617592343173795
      ],
      [
        "x",
        -6.64480965589307
      ],
      [
        "is",
        -6.655495816178696
      ],
      [
        "result",
        -6.679630976323743
      ],
      [
        "Name",
        -6.688515380156234
      ],
      [
        "a",
        -6.702342023191928
      ],
      [
        "m",
        -6.730878307660964
      ],
      [
        "Type",
        -6.804735054261167
      ],
      [
        "size",
        -6.82157275921535
      ],
      [
        "n",
        -6.848678519079689
      ],
      [
        "append",
        -6.852414634593803
      ],
      [
        "File",
        -6.870109076417631
      ],
      [
        "create",
        -6.941639930370831
      ],
      [
        "index",
        -6.943182395770933
      ],
      [
        "equals",
        -6.955938657631718
      ],
      [
        "d",
        -6.980757365074654
      ],
      [
        "out",
        -6.9982340039128825
      ],
      [
        "b",
        -7.001404446108253
      ],
      [
        "key",
        -7.029879162102175
      ],
      [
        "toString",
        -7.034908149587167
      ],
      [
        "r",
        -7.04654070935746
      ],
      [
        "double",
        -7.052033954560349
      ],
      [
        "remove",
        -7.059906873306268
      ],
      [
        "y",
        -7.066038292717067
      ],
      [
        "System",
        -7.077029743224923
      ],
      [
        "Id",
        -7.086071345579224
      ],
      [
        "Value",
        -7.103059501875075
      ],
      [
        "o",
        -7.172690647354795
      ],
      [
        "'",
        -7.1748551197884005
      ],
      [
        "v",
        -7.181376872376465
      ],
      [
        "Node",
        -7.18739147227245
      ],
      [
        "Element",
        -7.201277043291665
      ],
      [
        "id",
        -7.212303683891134
      ],
      [
        "Map",
        -7.234237866273899
      ],
      [
        "m_",
        -7.239902350927601
      ],
      [
        "next",
        -7.251597639682426
      ],
      [
        "I",
        -7.2530257379534415
      ],
      [
        "java",
        -7.2542939239197
      ],
      [
        "IOException",
        -7.284315496232287
      ],
      [
        "data",
        -7.320236581889764
      ],
      [
        "log",
        -7.320774997957681
      ],
      [
        "j",
        -7.341184611346325
      ],
      [
        "println",
        -7.346948056662278
      ],
      [
        "Data",
        -7.350867352527386
      ],
      [
        "type",
        -7.363414657059835
      ],
      [
        "node",
        -7.365419181947971
      ],
      [
        "l",
        -7.377594573498403
      ],
      [
        "Integer",
        -7.39506601331882
      ],
      [
        "put",
        -7.398100577362014
      ],
      [
        "g",
        -7.405059145823422
      ],
      [
        "ID",
        -7.425534145693337
      ],
      [
        "object",
        -7.425638838865503
      ],
      [
        "Class",
        -7.4284973963919345
      ],
      [
        "Set",
        -7.430608244633435
      ],
      [
        "?",
        -7.450069937422407
      ],
      [
        "getName",
        -7.45037421038325
      ],
      [
        "nstanceof",
        -7.469501422931151
      ],
      [
        "Index",
        -7.490560277323787
      ],
      [
        "super",
        -7.492789836501824
      ],
      [
        "event",
        -7.510048071046958
      ],
      [
        "*",
        -7.515284297007341
      ],
      [
        "long",
        -7.5339942772659185
      ],
      [
        "assert",
        -7.54474213611755
      ],
      [
        "while",
        -7.5521440744210935
      ],
      [
        "test",
        -7.554081117625232
      ],
      [
        "getString",
        -7.559363014935421
      ],
      [
        "list",
        -7.564608468581932
      ],
      [
        "Iterator",
        -7.590464374760483
      ],
      [
        "file",
        -7.5958470343775915
      ],
      [
        "case",
        -7.622500043519398
      ],
      [
        "Event",
        -7.624099285493392
      ],
      [
        "current",
        -7.638872589152379
      ],
      [
        "Listener",
        -7.639565978568877
      ],
      [
        "assertEquals",
        -7.651608898966838
      ],
      [
        "Property",
        -7.657957767768082
      ],
      [
        "Panel",
        -7.680467324963596
      ],
      [
        "class",
        -7.685826044822914
      ],
      [
        "start",
        -7.686692322168042
      ],
      [
        "parent",
        -7.700500519363734
      ],
      [
        "3",
        -7.703221707552732
      ],
      [
        "Manager",
        -7.704941783212153
      ],
      [
        "iterator",
        -7.724386220111548
      ],
      [
        "Info",
        -7.727262768396901
      ],
      [
        "Model",
        -7.738058489728321
      ],
      [
        "Count",
        -7.738855770829483
      ],
      [
        "close",
        -7.745851266475034
      ],
      [
        "Text",
        -7.748091056006572
      ],
      [
        "obj",
        -7.752203972746688
      ],
      [
        "Color",
        -7.760685696837033
      ],
      [
        "in",
        -7.7744006873128555
      ],
      [
        "opertyDescriptor",
        -7.77689205937558
      ],
      [
        "ex",
        -7.780651520616104
      ],
      [
        "S",
        -7.78443608860575
      ],
      [
        "text",
        -7.785935981755491
      ],
      [
        "update",
        -7.787075667383569
      ],
      [
        "Context",
        -7.793089839643752
      ],
      [
        "Message",
        -7.797048975882495
      ],
      [
        "Date",
        -7.79992690543193
      ],
      [
        "to",
        -7.802614780385001
      ],
      [
        "Factory",
        -7.822258970462055
      ],
      [
        "message",
        -7.827134159924865
      ],
      [
        "float",
        -7.830747599607431
      ],
      [
        "write",
        -7.834647066898256
      ],
      [
        "setText",
        -7.837129099621869
      ],
      [
        "Vector",
        -7.843788660931994
      ],
      [
        "item",
        -7.845889564731902
      ],
      [
        "w",
        -7.850600595621094
      ],
      [
        "clear",
        -7.85566026439208
      ],
      [
        "hasNext",
        -7.8672698502531695
      ],
      [
        "State",
        -7.874975610192163
      ],
      [
        "Path",
        -7.88247641747836
      ],
      [
        "To",
        -7.885838243206887
      ],
      [
        "X",
        -7.895723473033957
      ],
      [
        "Item",
        -7.897967343640248
      ],
      [
        "sb",
        -7.905502563526515
      ],
      [
        "it",
        -7.9150931765489645
      ],
      [
        "byte",
        -7.919638635902029
      ],
      [
        "Component",
        -7.9301863147613005
      ],
      [
        "max",
        -7.930650210482826
      ],
      [
        "Table",
        -7.93563496483341
      ],
      [
        "/",
        -7.940213456111795
      ],
      [
        "buffer",
        -7.944074963731664
      ],
      [
        "Key",
        -7.9449840419534485
      ],
      [
        "check",
        -7.9452921079176875
      ],
      [
        "element",
        -7.949414938171238
      ],
      [
        "debug",
        -7.959900243153509
      ],
      [
        "path",
        -7.963744173289825
      ],
      [
        "Field",
        -7.964567080336341
      ],
      [
        "Action",
        -7.965349895232276
      ],
      [
        "Size",
        -7.970946403830144
      ],
      [
        "logger",
        -7.97113268241395
      ],
      [
        "row",
        -7.971854556304374
      ],
      [
        "View",
        -7.980847882165607
      ],
      [
        "StringBuffer",
        -7.988897989045059
      ],
      [
        "param",
        -7.991050925967087
      ],
      [
        "h",
        -7.9926508645941325
      ],
      [
        "error",
        -7.993957102872093
      ],
      [
        "context",
        -8.038988347159528
      ],
      [
        "ret",
        -8.053280173860838
      ],
      [
        "break",
        -8.061641281986617
      ],
      [
        "Point",
        -8.06597633253388
      ],
      [
        "user",
        -8.06751541807439
      ],
      [
        "info",
        -8.082527106760763
      ],
      [
        "listener",
        -8.088668198719764
      ],
      [
        "Image",
        -8.092276042705008
      ],
      [
        "Collection",
        -8.10161082663762
      ],
      [
        "Entry",
        -8.103463919438123
      ],
      [
        "getValue",
        -8.105285329299052
      ],
      [
        "model",
        -8.11427071434939
      ],
      [
        "4",
        -8.122052592122795
      ],
      [
        "able",
        -8.128190530495646
      ],
      [
        "init",
        -8.13534675918247
      ],
      [
        "Properties",
        -8.138839364155338
      ],
      [
        "val",
        -8.143028013047804
      ],
      [
        "ArrayList",
        -8.153592651315865
      ],
      [
        "Button",
        -8.155392772068824
      ],
      [
        "instance",
        -8.160516564282817
      ],
      [
        "User",
        -8.161910092459573
      ],
      [
        "width",
        -8.167325201579601
      ],
      [
        "count",
        -8.170134635407704
      ],
      [
        "Service",
        -8.170919536101911
      ],
      [
        "msg",
        -8.173359650123452
      ],
      [
        "URL",
        -8.176554968243192
      ],
      [
        "label",
        -8.19500213555649
      ],
      [
        "Time",
        -8.195127408130505
      ],
      [
        "buf",
        -8.19734836922733
      ],
      [
        "my",
        -8.197698335251292
      ],
      [
        "Y",
        -8.205309788258553
      ],
      [
        "SQLException",
        -8.206128110438032
      ],
      [
        "E",
        -8.206593151833944
      ],
      [
        "Math",
        -8.21082228662544
      ],
      [
        "IllegalArgument",
        -8.211970127527875
      ],
      [
        "Constants",
        -8.212292221158158
      ],
      [
        "local",
        -8.214094551334199
      ],
      [
        "Command",
        -8.214905116807556
      ],
      [
        "old",
        -8.21649405022223
      ],
      [
        "Connection",
        -8.219749602912376
      ],
      [
        "Number",
        -8.222741874807332
      ],
      [
        "map",
        -8.226658154218445
      ],
      [
        "source",
        -8.227287621593526
      ],
      [
        "Document",
        -8.227993720232814
      ],
      [
        "read",
        -8.228311322708697
      ],
      [
        "P",
        -8.229955973387941
      ],
      [
        "request",
        -8.23391661405658
      ],
      [
        "pos",
        -8.234097634331047
      ],
      [
        "target",
        -8.236136605973893
      ],
      [
        "AdapterFactory",
        -8.24117380388786
      ],
      [
        "lang",
        -8.242868323738282
      ],
      [
        "T",
        -8.251258938125634
      ],
      [
        "printStackTrace",
        -8.253255453609965
      ],
      [
        "entry",
        -8.253936987014335
      ],
      [
        "Group",
        -8.254987224159075
      ],
      [
        "Thread",
        -8.256281353754
      ],
      [
        "child",
        -8.257573108247934
      ],
      [
        "getMessage",
        -8.258106898659593
      ],
      [
        "print",
        -8.259065838445798
      ],
      [
        "contains",
        -8.259722253207505
      ],
      [
        "Label",
        -8.265904799198992
      ],
      [
        "True",
        -8.273832050997207
      ],
      [
        "Boolean",
        -8.283195637892085
      ],
      [
        "C",
        -8.283874244697106
      ],
      [
        "line",
        -8.287290776830972
      ],
      [
        "Level",
        -8.293028840982375
      ],
      [
        "getClass",
        -8.294611075079745
      ],
      [
        "show",
        -8.296726812467051
      ],
      [
        "values",
        -8.300218833562779
      ],
      [
        "Request",
        -8.300566411812355
      ],
      [
        "Adapter",
        -8.301326336446476
      ],
      [
        "state",
        -8.302330117726743
      ],
      [
        "height",
        -8.310273663088372
      ],
      [
        "getInstance",
        -8.310355314132147
      ],
      [
        "Double",
        -8.317067071871454
      ],
      [
        "other",
        -8.31816189121661
      ],
      [
        "Package",
        -8.320648173778167
      ],
      [
        "synchronized",
        -8.327566948759278
      ],
      [
        "iter",
        -8.327569032691365
      ],
      [
        "end",
        -8.33185723849625
      ],
      [
        "url",
        -8.336127518669338
      ],
      [
        "5",
        -8.348421035839646
      ],
      [
        "session",
        -8.349503450070017
      ],
      [
        "table",
        -8.349848531513755
      ],
      [
        "Attribute",
        -8.352149263657246
      ],
      [
        "Status",
        -8.354073693301599
      ],
      [
        "char",
        -8.354629624878969
      ],
      [
        "num",
        -8.354993462444243
      ],
      [
        "fire",
        -8.357050512398073
      ],
      [
        "awt",
        -8.365188154492111
      ],
      [
        "A",
        -8.370472472947048
      ],
      [
        "ActionListener",
        -8.377912358776227
      ],
      [
        "Handler",
        -8.380024207864945
      ],
      [
        "Long",
        -8.38082144365992
      ],
      [
        "run",
        -8.383373431105927
      ],
      [
        "Resource",
        -8.384589065453607
      ],
      [
        "min",
        -8.389278958583748
      ],
      [
        "res",
        -8.38986124299941
      ],
      [
        "getText",
        -8.393538613948568
      ],
      [
        "Result",
        -8.39390834482325
      ],
      [
        "ItemPr",
        -8.401885143321115
      ],
      [
        "Array",
        -8.40364800791034
      ],
      [
        "has",
        -8.40922940445823
      ],
      [
        "k",
        -8.41034263477842
      ],
      [
        "column",
        -8.413457183938794
      ],
      [
        "Config",
        -8.421866944279897
      ],
      [
        "getProperty",
        -8.421998393626465
      ],
      [
        "R",
        -8.424235545313762
      ],
      [
        "root",
        -8.426076906240606
      ],
      [
        "load",
        -8.426891387929894
      ],
      [
        "Method",
        -8.434768176019784
      ],
      [
        "format",
        -8.436183906207868
      ],
      [
        "Descriptor",
        -8.441267004098119
      ],
      [
        "Utils",
        -8.449192635059719
      ],
      [
        "ed",
        -8.449250242049917
      ],
      [
        "J",
        -8.455662115968549
      ],
      [
        "Position",
        -8.456785850760312
      ],
      [
        "input",
        -8.457226159479735
      ],
      [
        "handle",
        -8.457492061416435
      ],
      [
        "In",
        -8.457695582332969
      ],
      [
        "D",
        -8.461280089590444
      ],
      [
        "query",
        -8.466702748171533
      ],
      [
        "Session",
        -8.473070325500684
      ],
      [
        "Code",
        -8.473940183775225
      ],
      [
        "delete",
        -8.474233235183709
      ],
      [
        "field",
        -8.477033005334702
      ],
      [
        "ing",
        -8.477225676333624
      ],
      [
        "default",
        -8.481760491693137
      ],
      [
        "Page",
        -8.481972593634202
      ],
      [
        "Log",
        -8.48295427818589
      ],
      [
        "tmp",
        -8.484423823127432
      ],
      [
        "Instance",
        -8.487276791793144
      ],
      [
        "For",
        -8.488124323412878
      ],
      [
        "parse",
        -8.49036822405085
      ],
      [
        "last",
        -8.49465390126668
      ],
      [
        "Dimension",
        -8.496806130513107
      ],
      [
        "Mode",
        -8.510107765606216
      ],
      [
        "action",
        -8.512976882149799
      ],
      [
        "Configuration",
        -8.514462055308364
      ],
      [
        "children",
        -8.52057237985511
      ],
      [
        "Response",
        -8.523464117536351
      ],
      [
        "temp",
        -8.526809835990079
      ],
      [
        "Query",
        -8.53321984916125
      ],
      [
        "Location",
        -8.540757667950551
      ],
      [
        "do",
        -8.542754063534346
      ],
      [
        "Rectangle",
        -8.547329697525049
      ],
      [
        "arg",
        -8.55116732349587
      ],
      [
        "substring",
        -8.554072397397944
      ],
      [
        "rs",
        -8.554572786859188
      ],
      [
        "Container",
        -8.556138147817371
      ],
      [
        "find",
        -8.556248328534407
      ],
      [
        "property",
        -8.558383755488437
      ],
      [
        "setEnabled",
        -8.559789642533861
      ],
      [
        "Filter",
        -8.56884370771451
      ],
      [
        "Bean",
        -8.574487972642444
      ],
      [
        "copy",
        -8.575123550362443
      ],
      [
        "M",
        -8.578363302494306
      ],
      [
        "Tree",
        -8.58157207362314
      ],
      [
        "doc",
        -8.588971031470662
      ],
      [
        "Error",
        -8.589024703973282
      ],
      [
        "Test",
        -8.595245642206491
      ],
      [
        "view",
        -8.595342169993542
      ],
      [
        "getRoot",
        -8.596548522238352
      ],
      [
        "save",
        -8.596702332965753
      ],
      [
        "JButton",
        -8.600638796778226
      ],
      [
        "Line",
        -8.602704829068959
      ],
      [
        "offset",
        -8.603594096405214
      ],
      [
        "InputStream",
        -8.612712206323145
      ],
      [
        "z",
        -8.61474254363569
      ],
      [
        "clone",
        -8.615817311490499
      ],
      [
        "the",
        -8.616923005353982
      ],
      [
        "RuntimeException",
        -8.618943175082268
      ],
      [
        "Util",
        -8.625004640203263
      ],
      [
        "reset",
        -8.62504696405676
      ],
      [
        "JPanel",
        -8.626572919803474
      ],
      [
        "image",
        -8.630805688693874
      ],
      [
        "on",
        -8.632910985224193
      ],
      [
        "getId",
        -8.636054396114645
      ],
      [
        "Frame",
        -8.636571040109018
      ],
      [
        "db",
        -8.645300753822685
      ],
      [
        "Width",
        -8.64662263963729
      ],
      [
        "re",
        -8.646816613021441
      ],
      [
        "Source",
        -8.649619707533327
      ],
      [
        "Elements",
        -8.650516617504879
      ],
      [
        "isEmpty",
        -8.651532015343907
      ],
      [
        "position",
        -8.654992000533797
      ],
      [
        "Impl",
        -8.656213250412646
      ],
      [
        "page",
        -8.658356671441286
      ],
      [
        "col",
        -8.6589034416441
      ],
      [
        "From",
        -8.666410769891629
      ],
      [
        "time",
        -8.667277254973515
      ],
      [
        "setValue",
        -8.674104481258388
      ],
      [
        "ActionEvent",
        -8.678475695122804
      ],
      [
        "fail",
        -8.678793675432248
      ],
      [
        "Content",
        -8.679663900691926
      ],
      [
        "SWT",
        -8.68058369544121
      ],
      [
        "B",
        -8.681055911473818
      ],
      [
        "indexOf",
        -8.694263012165115
      ],
      [
        "Expression",
        -8.695907284583853
      ],
      [
        "Font",
        -8.697617033687925
      ],
      [
        "V",
        -8.69883648824486
      ],
      [
        "string",
        -8.70088396732609
      ],
      [
        "Task",
        -8.70788111225718
      ],
      [
        "Cache",
        -8.708676043066324
      ],
      [
        "color",
        -8.713269411450423
      ],
      [
        "er",
        -8.715032420159444
      ],
      [
        "XML",
        -8.72294564182822
      ],
      [
        "sql",
        -8.72722757802063
      ],
      [
        "resource",
        -8.72819773203684
      ],
      [
        "Tag",
        -8.731808028051676
      ],
      [
        "content",
        -8.736370105679807
      ],
      [
        "execute",
        -8.743002961983716
      ],
      [
        "10",
        -8.747756029047656
      ],
      [
        "Project",
        -8.74903199413793
      ],
      [
        "Length",
        -8.750394046004496
      ],
      [
        "selected",
        -8.75217203369078
      ],
      [
        "component",
        -8.752716847009866
      ],
      [
        "status",
        -8.758343015133839
      ],
      [
        "process",
        -8.758534474022639
      ],
      [
        "err",
        -8.76211912900487
      ],
      [
        "config",
        -8.762892342905184
      ],
      [
        "output",
        -8.763785593681675
      ],
      [
        "connection",
        -8.773741261721376
      ],
      [
        "getType",
        -8.774290998602423
      ],
      [
        "response",
        -8.77577518101627
      ],
      [
        "len",
        -8.776616595735447
      ],
      [
        "Graph",
        -8.776882775108872
      ],
      [
        "Helper",
        -8.783205556379976
      ],
      [
        "Token",
        -8.783599725295547
      ],
      [
        "listeners",
        -8.784064204057445
      ],
      [
        "sub",
        -8.786793659287959
      ],
      [
        "ResourceLocator",
        -8.786908893207993
      ],
      [
        "filter",
        -8.787394685831607
      ],
      [
        "open",
        -8.788907368061569
      ],
      [
        "URI",
        -8.792446366702372
      ],
      [
        "Default",
        -8.794167157148154
      ],
      [
        "Row",
        -8.794636570233207
      ],
      [
        "method",
        -8.795161476366372
      ],
      [
        "group",
        -8.797079844731725
      ],
      [
        "u",
        -8.797622061455103
      ],
      [
        "Buffer",
        -8.80204102027765
      ],
      [
        "Server",
        -8.802821147493015
      ],
      [
        "stop",
        -8.80537130119339
      ],
      [
        "array",
        -8.80873692392677
      ],
      [
        "Column",
        -8.817996359359956
      ],
      [
        "switch",
        -8.818486922442077
      ],
      [
        "Parameter",
        -8.823687819659135
      ],
      [
        "Form",
        -8.82611659619564
      ],
      [
        "title",
        -8.82632526454569
      ],
      [
        "send",
        -8.82676950693228
      ],
      [
        "args",
        -8.829856757633904
      ],
      [
        "Widget",
        -8.83091197801496
      ],
      [
        "Values",
        -8.831758327289618
      ],
      [
        "tag",
        -8.8391997040375
      ],
      [
        "finally",
        -8.84043142835685
      ],
      [
        "Dialog",
        -8.842380880501603
      ],
      [
        "notification",
        -8.843581947482319
      ],
      [
        "actionPerformed",
        -8.843663353813303
      ],
      [
        "Calendar",
        -8.843770367051414
      ],
      [
        "itemPr",
        -8.847747788375054
      ],
      [
        "q",
        -8.85052789668244
      ],
      [
        "writer",
        -8.85495444036718
      ],
      [
        "getDefault",
        -8.855796254351487
      ],
      [
        "Height",
        -8.857036461443203
      ],
      [
        "Throwable",
        -8.857711798015844
      ],
      [
        "Entity",
        -8.858030275137072
      ],
      [
        "Menu",
        -8.858258498132674
      ],
      [
        "Window",
        -8.860943909065
      ],
      [
        "Attributes",
        -8.86235378078897
      ],
      [
        "Dir",
        -8.86301396061191
      ],
      [
        "JTextField",
        -8.865218406174737
      ],
      [
        "date",
        -8.865700563785628
      ],
      [
        "Client",
        -8.870332063649785
      ],
      [
        "command",
        -8.87332255318766
      ],
      [
        "G",
        -8.884089394866995
      ],
      [
        "player",
        -8.884761142320679
      ],
      [
        "getParent",
        -8.885554107914347
      ],
      [
        "validate",
        -8.88870470089431
      ],
      [
        "Link",
        -8.888718490476181
      ],
      [
        "build",
        -8.891635745416622
      ],
      [
        "Selection",
        -8.892443846494054
      ],
      [
        "Input",
        -8.895061698368822
      ],
      [
        "Literals",
        -8.895800507605246
      ],
      [
        "setVisible",
        -8.900405511160162
      ],
      [
        "At",
        -8.900416262566113
      ],
      [
        "xml",
        -8.902067830220016
      ],
      [
        "Reader",
        -8.902271990707542
      ],
      [
        "Controller",
        -8.90381813185903
      ],
      [
        "Control",
        -8.905292708816567
      ],
      [
        "Record",
        -8.906548097403293
      ],
      [
        "visit",
        -8.912803611240715
      ],
      [
        "frame",
        -8.91306259627084
      ],
      [
        "Enabled",
        -8.917865770102889
      ],
      [
        "code",
        -8.919221101033518
      ],
      [
        "OutputStream",
        -8.91950647210208
      ],
      [
        "first",
        -8.919757307830912
      ],
      [
        "Player",
        -8.923527353139377
      ],
      [
        "Editor",
        -8.924974151873831
      ],
      [
        "from",
        -8.931372776194547
      ],
      [
        "Start",
        -8.93148172633988
      ],
      [
        "display",
        -8.935409527634636
      ],
      [
        "Version",
        -8.935515384601722
      ],
      [
        "Compose",
        -8.940472255812637
      ],
      [
        "8",
        -8.940730119527048
      ],
      [
        "Description",
        -8.943199904814064
      ],
      [
        "project",
        -8.943297192341483
      ],
      [
        "F",
        -8.944502139372688
      ],
      [
        "Builder",
        -8.944541868263062
      ],
      [
        "Url",
        -8.944859327918058
      ],
      [
        "Changed",
        -8.945712543813725
      ],
      [
        "Pattern",
        -8.948553662796932
      ],
      [
        "io",
        -8.952113599704155
      ],
      [
        "hashCode",
        -8.957563910961662
      ],
      [
        "service",
        -8.96280532419428
      ],
      [
        "com",
        -8.963868689072909
      ],
      [
        "initialize",
        -8.965584971183807
      ],
      [
        "valueOf",
        -8.96565147285943
      ],
      [
        "document",
        -8.966910586439731
      ],
      [
        "Header",
        -8.96829723213862
      ],
      [
        "elements",
        -8.969408143281644
      ],
      [
        "On",
        -8.973368900136714
      ],
      [
        "Ref",
        -8.97346656302926
      ],
      [
        "dir",
        -8.974623082315482
      ],
      [
        "getAttribute",
        -8.976372736578538
      ],
      [
        "Reference",
        -8.977219098849401
      ],
      [
        "st",
        -8.977858297064222
      ],
      [
        "properties",
        -8.97912642699601
      ],
      [
        "Address",
        -8.98173365115226
      ],
      [
        "TextField",
        -8.983810540104093
      ],
      [
        "Base",
        -8.984556354146651
      ],
      [
        "params",
        -8.98942366875687
      ],
      [
        "make",
        -8.990915496129121
      ],
      [
        "setBounds",
        -8.994587784580412
      ],
      [
        "Transaction",
        -8.995242315253137
      ],
      [
        "Writer",
        -8.998931820008384
      ],
      [
        "Style",
        -9.001115683002167
      ],
      [
        "accept",
        -9.001769310885836
      ],
      [
        "dapterFactory",
        -9.002785375110289
      ],
      [
        "conn",
        -9.00505967871575
      ],
      [
        "button",
        -9.006045910611457
      ],
      [
        "getCurrent",
        -9.00782005563374
      ],
      [
        "Statement",
        -9.009276549962507
      ],
      [
        "task",
        -9.012165403531416
      ],
      [
        "With",
        -9.012515491847259
      ],
      [
        "ch",
        -9.017152575784092
      ],
      [
        "Of",
        -9.017464196794169
      ],
      [
        "short",
        -9.01868681451987
      ],
      [
        "selection",
        -9.01870176708141
      ],
      [
        "idx",
        -9.020885320626537
      ],
      [
        "entity",
        -9.022761555826834
      ],
      [
        "client",
        -9.024069584257518
      ],
      [
        "TreeNode",
        -9.029440164247852
      ],
      [
        "By",
        -9.031159755850316
      ],
      [
        "Format",
        -9.032483078386463
      ],
      [
        "panel",
        -9.033318260497301
      ],
      [
        "stream",
        -9.037173286523736
      ],
      [
        "Logger",
        -9.038315450249613
      ],
      [
        "Template",
        -9.038625389630353
      ],
      [
        "setLayout",
        -9.038814437613478
      ],
      [
        "tree",
        -9.03885295324626
      ],
      [
        "Rule",
        -9.03952416510366
      ],
      [
        "Listeners",
        -9.042716017896225
      ],
      [
        "Abstract",
        -9.048218267305085
      ],
      [
        "Range",
        -9.048275353182722
      ],
      [
        "Stream",
        -9.049752331367051
      ],
      [
        "evt",
        -9.050403391244311
      ],
      [
        "Tracker",
        -9.050549878637925
      ],
      [
        "L",
        -9.051593838838084
      ],
      [
        "BorderLayout",
        -9.051791527138175
      ],
      [
        "comp",
        -9.052379148613692
      ],
      [
        "End",
        -9.054276409776447
      ],
      [
        "server",
        -9.055275749579385
      ],
      [
        "prop",
        -9.061321842819728
      ],
      [
        "N",
        -9.062729926670132
      ],
      [
        "store",
        -9.06345165617679
      ],
      [
        "containsKey",
        -9.064001417572433
      ],
      [
        "trim",
        -9.065157281980623
      ],
      [
        "getX",
        -9.065837413038778
      ],
      [
        "And",
        -9.06735485981211
      ],
      [
        "MenuItem",
        -9.067959788488793
      ],
      [
        "uri",
        -9.06815909044402
      ],
      [
        "newValue",
        -9.069199868093927
      ],
      [
        "Update",
        -9.073591471204555
      ],
      [
        "menu",
        -9.076667506773585
      ],
      [
        "draw",
        -9.084480200843654
      ],
      [
        "DB",
        -9.085427660334894
      ],
      [
        "BigDecimal",
        -9.088725163721673
      ],
      [
        "Cell",
        -9.096418991224613
      ],
      [
        "filename",
        -9.096485374359721
      ],
      [
        "jPanel",
        -9.098983262921347
      ],
      [
        "base",
        -9.100363443183893
      ],
      [
        "@",
        -9.102066313504416
      ],
      [
        "HashMap",
        -9.102220005492493
      ],
      [
        "No",
        -9.107280913259936
      ],
      [
        "org",
        -9.10744927925044
      ],
      [
        "Val",
        -9.11295870272351
      ],
      [
        "src",
        -9.11448525374687
      ],
      [
        "attribute",
        -9.116032414655253
      ],
      [
        "Block",
        -9.117894034177926
      ],
      [
        "Enumeration",
        -9.118213875023793
      ],
      [
        "stmt",
        -9.119527861280941
      ],
      [
        "Unit",
        -9.123921522110587
      ],
      [
        "left",
        -9.124317680431323
      ],
      [
        "Offset",
        -9.127278119227407
      ],
      [
        "Types",
        -9.127855264768044
      ],
      [
        "All",
        -9.12897113224241
      ],
      [
        "6",
        -9.129501279506412
      ],
      [
        "Str",
        -9.130007584833097
      ],
      [
        "insert",
        -9.130129768786961
      ],
      [
        "cache",
        -9.13251963325412
      ],
      [
        "Root",
        -9.139868253694235
      ],
      [
        "Icon",
        -9.142023350040185
      ],
      [
        "Stack",
        -9.142359100906765
      ],
      [
        "Messages",
        -9.142951196472957
      ],
      [
        "Float",
        -9.146472203842613
      ],
      [
        "setAttribute",
        -9.14691123043507
      ],
      [
        "ref",
        -9.14692102314713
      ],
      [
        "Display",
        -9.15027533656322
      ],
      [
        "select",
        -9.152832453744553
      ],
      [
        "Target",
        -9.160890009476576
      ],
      [
        "StringBuilder",
        -9.16224733700222
      ],
      [
        "_IMAGE",
        -9.162938833703146
      ],
      [
        "token",
        -9.165149453776444
      ],
      [
        "repaint",
        -9.166693446456375
      ],
      [
        "port",
        -9.166698655995921
      ],
      [
        "all",
        -9.16837223537944
      ],
      [
        "header",
        -9.1721687257949
      ],
      [
        "Parser",
        -9.176412148282623
      ],
      [
        "getImage",
        -9.177446673137746
      ],
      [
        "setProperty",
        -9.177927002428982
      ],
      [
        "prefix",
        -9.180903083479622
      ],
      [
        "location",
        -9.181404465418687
      ],
      [
        "Settings",
        -9.181564115437427
      ],
      [
        "Provider",
        -9.181871027231528
      ],
      [
        "compareTo",
        -9.182290861234293
      ],
      [
        "exception",
        -9.183314089231684
      ],
      [
        "IllegalState",
        -9.185921925024434
      ],
      [
        "right",
        -9.186133086303476
      ],
      [
        "Folder",
        -9.187970233711182
      ],
      [
        "dispose",
        -9.188045012710155
      ],
      [
        "H",
        -9.189004514102345
      ],
      [
        "cmd",
        -9.196635157148116
      ],
      [
        "Pos",
        -9.19814530412446
      ],
      [
        "ChangeListener",
        -9.198316544510453
      ],
      [
        "Application",
        -9.198704908220353
      ],
      [
        "lock",
        -9.199347794031063
      ],
      [
        "Obj",
        -9.201258317148168
      ],
      [
        "cell",
        -9.202759359435825
      ],
      [
        "point",
        -9.202931761714567
      ],
      [
        "style",
        -9.204815497694801
      ],
      [
        "Get",
        -9.205804102634655
      ],
      [
        "getY",
        -9.2068198721491
      ],
      [
        "factory",
        -9.207637658524458
      ],
      [
        "setSize",
        -9.207788656199845
      ],
      [
        "fileName",
        -9.20793046677603
      ],
      [
        "Variable",
        -9.209268709338403
      ],
      [
        "Database",
        -9.213444773054906
      ],
      [
        "20",
        -9.214924537548853
      ],
      [
        "Category",
        -9.216349867009864
      ],
      [
        "Int",
        -9.217518573995283
      ],
      [
        "Output",
        -9.219872264157855
      ],
      [
        "Names",
        -9.223076222480518
      ],
      [
        "Box",
        -9.223919654333331
      ],
      [
        "Features",
        -9.225089990235446
      ],
      [
        "con",
        -9.225100117866635
      ],
      [
        "Area",
        -9.225899369550893
      ],
      [
        "getSource",
        -9.227353222934486
      ],
      [
        "total",
        -9.228148631460458
      ],
      [
        "hasMore",
        -9.228347955605255
      ],
      [
        "Num",
        -9.228553207983904
      ],
      [
        "Selected",
        -9.234680473556269
      ],
      [
        "PropertyChange",
        -9.234684681968112
      ],
      [
        "attributes",
        -9.235372790224352
      ],
      [
        "Layout",
        -9.236759936301679
      ],
      [
        "Edge",
        -9.236778446492792
      ],
      [
        "refresh",
        -9.23703315268506
      ],
      [
        "level",
        -9.238019554322683
      ],
      [
        "Options",
        -9.238032602758098
      ],
      [
        "Title",
        -9.239378814170015
      ],
      [
        "bean",
        -9.241404003603503
      ],
      [
        "UI",
        -9.243064764076001
      ],
      [
        "New",
        -9.243525537181876
      ],
      [
        "Port",
        -9.24564309952585
      ],
      [
        "K",
        -9.2457568607261
      ],
      [
        "OS",
        -9.247933462347545
      ],
      [
        "_VALUE",
        -9.255249338175046
      ],
      [
        "Function",
        -9.25577456816507
      ],
      [
        "addElement",
        -9.256098538264979
      ],
      [
        "getModel",
        -9.256709339405925
      ],
      [
        "LOG",
        -9.259996811594368
      ],
      [
        "handler",
        -9.260090231621232
      ],
      [
        "Parameters",
        -9.26220222533673
      ],
      [
        "Plugin",
        -9.263259690164848
      ],
      [
        "register",
        -9.26477517514446
      ],
      [
        "Change",
        -9.26479355800834
      ],
      [
        "un",
        -9.265839907975836
      ],
      [
        "graph",
        -9.268717306276587
      ],
      [
        "DAO",
        -9.270119987329815
      ],
      [
        "Option",
        -9.270422165825245
      ],
      [
        "flush",
        -9.271885495415388
      ],
      [
        "use",
        -9.272495393049756
      ],
      [
        "Lock",
        -9.274573701019582
      ],
      [
        "Grid",
        -9.27643390017021
      ],
      [
        "Order",
        -9.28231015586254
      ],
      [
        "Part",
        -9.284114087196325
      ],
      [
        "search",
        -9.284345130861055
      ],
      [
        "address",
        -9.28525654534409
      ],
      [
        "Interface",
        -9.28732464987135
      ],
      [
        "replace",
        -9.29098085881678
      ],
      [
        "grid",
        -9.29129581201958
      ],
      [
        "number",
        -9.292456464632917
      ],
      [
        "os",
        -9.293135357289492
      ],
      [
        "items",
        -9.295600258001974
      ],
      [
        "Channel",
        -9.296992890250934
      ],
      [
        "Null",
        -9.297544786239023
      ],
      [
        "link",
        -9.297870934098775
      ],
      [
        "Local",
        -9.298342821244796
      ],
      [
        "JOptionPane",
        -9.300546524476976
      ],
      [
        "getResource",
        -9.302420583671564
      ],
      [
        "Directory",
        -9.303116798496402
      ],
      [
        "Search",
        -9.303470373061074
      ],
      [
        "Notification",
        -9.303658839257517
      ],
      [
        "font",
        -9.306877839794103
      ],
      [
        "Param",
        -9.307361583921077
      ],
      [
        "record",
        -9.308003703543713
      ],
      [
        "Sequence",
        -9.310780028128281
      ],
      [
        "expected",
        -9.311111926701358
      ],
      [
        "layout",
        -9.311772422192528
      ],
      [
        "100",
        -9.315484982690402
      ],
      [
        "container",
        -9.320056375391363
      ],
      [
        "Queue",
        -9.320970050363563
      ],
      [
        "Process",
        -9.321282865062482
      ],
      [
        "INSTANCE",
        -9.32148981746974
      ],
      [
        "setName",
        -9.324833472239748
      ],
      [
        "Locale",
        -9.324957516670434
      ],
      [
        "txt",
        -9.32850622149354
      ],
      [
        "Graphics",
        -9.330119953686884
      ],
      [
        "testGet",
        -9.331257174032027
      ],
      [
        "static",
        -9.332538170044245
      ],
      [
        "ps",
        -9.33305109144088
      ],
      [
        "attr",
        -9.33308628767324
      ],
      [
        "editor",
        -9.338825819634486
      ],
      [
        "Definition",
        -9.340269287243098
      ],
      [
        "Store",
        -9.340406262426399
      ],
      [
        "util",
        -9.342256776075816
      ],
      [
        "generate",
        -9.342702243297865
      ],
      [
        "mode",
        -9.34408952056033
      ],
      [
        "Matrix",
        -9.34412365280557
      ],
      [
        "elementAt",
        -9.348434646095471
      ],
      [
        "setSelected",
        -9.349309395291613
      ],
      [
        "form",
        -9.351052188951407
      ],
      [
        "cur",
        -9.35203270050035
      ],
      [
        "dialog",
        -9.355435510957673
      ],
      [
        "Operation",
        -9.3613382292593
      ],
      [
        "reader",
        -9.363848472231004
      ],
      [
        "Pane",
        -9.364386436601931
      ],
      [
        "Items",
        -9.364897263043956
      ],
      [
        "scale",
        -9.366571143013172
      ],
      [
        "keys",
        -9.371409423554493
      ],
      [
        "Viewer",
        -9.372625631331552
      ],
      [
        "description",
        -9.373864768267081
      ],
      [
        "top",
        -9.37409531922444
      ],
      [
        "ByteArray",
        -9.37561336320887
      ],
      [
        "notify",
        -9.379942312568451
      ],
      [
        "host",
        -9.3844219367685
      ],
      [
        "parameters",
        -9.386985059616237
      ],
      [
        "password",
        -9.38832056771221
      ],
      [
        "7",
        -9.392037122248954
      ],
      [
        "getWidth",
        -9.392145245491523
      ],
      [
        "getKey",
        -9.39513765896256
      ],
      [
        "Msg",
        -9.395779673507308
      ],
      [
        "Repository",
        -9.397645372912477
      ],
      [
        "getData",
        -9.399163035435539
      ],
      [
        "Composite",
        -9.400700497971396
      ],
      [
        "getComponent",
        -9.401110580776756
      ],
      [
        "props",
        -9.402184842284859
      ],
      [
        "Or",
        -9.40258881785
      ],
      [
        "no",
        -9.403675393736323
      ],
      [
        "paint",
        -9.406623221314147
      ],
      [
        "window",
        -9.408893714216475
      ],
      [
        "al",
        -9.410023108643566
      ],
      [
        "hash",
        -9.412366347751089
      ],
      [
        "Def",
        -9.413755258093659
      ],
      [
        "Out",
        -9.414566733997676
      ],
      [
        "jButton",
        -9.414750442214839
      ],
      [
        "Utilities",
        -9.416354366039403
      ],
      [
        "Doc",
        -9.416447626703233
      ],
      [
        "Term",
        -9.417233328961386
      ],
      [
        "Cursor",
        -9.418579055981922
      ],
      [
        "fill",
        -9.419077528834414
      ],
      [
        "options",
        -9.41983268098641
      ],
      [
        "className",
        -9.422103557544611
      ],
      [
        "qualsIgnoreCase",
        -9.423050592738738
      ],
      [
        "invoke",
        -9.425324210904849
      ],
      [
        "removeAll",
        -9.427602123656246
      ],
      [
        "var",
        -9.428581712473779
      ],
      [
        "Override",
        -9.430330934220537
      ],
      [
        "getHeight",
        -9.430346577054566
      ],
      [
        "exit",
        -9.435281298904416
      ],
      [
        "manager",
        -9.43924163539827
      ],
      [
        "ResultSet",
        -9.439766770224388
      ],
      [
        "active",
        -9.440450034264284
      ],
      [
        "getSize",
        -9.441686384887184
      ],
      [
        "Module",
        -9.442529780590053
      ],
      [
        "app",
        -9.44302193224042
      ],
      [
        "Proxy",
        -9.446298553261519
      ],
      [
        "exists",
        -9.4470641559295
      ],
      [
        "intValue",
        -9.448304543040614
      ],
      [
        "Schema",
        -9.448747512857228
      ],
      [
        "tab",
        -9.449845592810458
      ],
      [
        "body",
        -9.451375627496867
      ],
      [
        "Tab",
        -9.458181496247105
      ],
      [
        "parameter",
        -9.458402207153982
      ],
      [
        "Parent",
        -9.460530829569533
      ],
      [
        "control",
        -9.46166384990666
      ],
      [
        "Assert",
        -9.461834452220717
      ],
      [
        "getTime",
        -9.462304722438232
      ],
      [
        "MouseEvent",
        -9.46906633854775
      ],
      [
        "nextElement",
        -9.469400971993025
      ],
      [
        "Descriptors",
        -9.472210142707713
      ],
      [
        "Role",
        -9.472985597950052
      ],
      [
        "Character",
        -9.473118468847062
      ],
      [
        "parseInt",
        -9.47343551869526
      ],
      [
        "game",
        -9.473983119915017
      ],
      [
        "Child",
        -9.474392344892806
      ],
      [
        "elem",
        -9.47482401292667
      ],
      [
        "SQL",
        -9.475740835215664
      ],
      [
        "edge",
        -9.475751922720294
      ],
      [
        "trace",
        -9.476745228365637
      ],
      [
        "Card",
        -9.477547353221867
      ],
      [
        "Max",
        -9.480340090824402
      ],
      [
        "version",
        -9.483726875516245
      ],
      [
        "pattern",
        -9.483750615897241
      ],
      [
        "change",
        -9.485119842246615
      ],
      [
        "Shape",
        -9.488433997587553
      ],
      [
        "rows",
        -9.489351440986063
      ],
      [
        "unit",
        -9.489438062825913
      ],
      [
        "op",
        -9.492280996291207
      ],
      [
        "Wrapper",
        -9.492475112519418
      ],
      [
        "Runnable",
        -9.494116053529636
      ],
      [
        "Mapping",
        -9.495004545007008
      ],
      [
        "call",
        -9.496277304722824
      ],
      [
        "Xml",
        -9.496678279484316
      ],
      [
        "GENERIC",
        -9.49957913864152
      ],
      [
        "O",
        -9.500569740693912
      ],
      [
        "getSelected",
        -9.501521534955122
      ],
      [
        "builder",
        -9.505513743034681
      ],
      [
        "Add",
        -9.507187792781801
      ],
      [
        "es",
        -9.507467267413471
      ],
      [
        "owner",
        -9.508577888058754
      ],
      [
        "sort",
        -9.50924602318505
      ],
      [
        "Bounds",
        -9.509671773689147
      ],
      [
        "Interrupted",
        -9.510749367395697
      ],
      [
        "Game",
        -9.510836895149092
      ],
      [
        "match",
        -9.512560537402509
      ],
      [
        "enable",
        -9.513348665131797
      ],
      [
        "Fields",
        -9.517810189260587
      ],
      [
        "16",
        -9.517874428438278
      ],
      [
        "Edit",
        -9.520934721531
      ],
      [
        "Feature",
        -9.522696028573828
      ],
      [
        "getChildren",
        -9.532882739385268
      ],
      [
        "addAll",
        -9.532923660197566
      ],
      [
        "startsWith",
        -9.533050437576575
      ],
      [
        "Identifier",
        -9.535444935772293
      ],
      [
        "FileName",
        -9.537174455573002
      ],
      [
        "Debug",
        -9.538869900064133
      ],
      [
        "U",
        -9.540883460492385
      ],
      [
        "JMenuItem",
        -9.540895612418668
      ],
      [
        "username",
        -9.54253817670865
      ],
      [
        "move",
        -9.546737591533198
      ],
      [
        "dest",
        -9.548900654832188
      ],
      [
        "\\",
        -9.551582704971478
      ],
      [
        "channel",
        -9.553007658881947
      ],
      [
        "jContentPane",
        -9.553915254808768
      ],
      [
        "Visible",
        -9.556563562771311
      ],
      [
        "Char",
        -9.558152320785931
      ],
      [
        "Renderer",
        -9.558609478522687
      ],
      [
        "xpResult",
        -9.56245228707871
      ],
      [
        "rule",
        -9.56311732949094
      ],
      [
        "setTitle",
        -9.564214303747269
      ],
      [
        "icon",
        -9.5645241042075
      ],
      [
        "False",
        -9.567579623637528
      ],
      [
        "parser",
        -9.568802890496542
      ],
      [
        "locale",
        -9.569886038200764
      ],
      [
        "Sub",
        -9.569996005612598
      ],
      [
        "Simple",
        -9.570691764184668
      ],
      [
        "Border",
        -9.571734553656801
      ],
      [
        "As",
        -9.571840021201345
      ],
      [
        "Domain",
        -9.572312083060817
      ],
      [
        "Children",
        -9.574353656933367
      ],
      [
        "cm",
        -9.575948507824496
      ],
      [
        "NullPointer",
        -9.582833019009957
      ],
      [
        "Password",
        -9.586577686682844
      ],
      [
        "Open",
        -9.587139839108389
      ],
      [
        "req",
        -9.587472651156439
      ],
      [
        "Agent",
        -9.587526211612435
      ],
      [
        "Nodes",
        -9.588172390022608
      ],
      [
        "Job",
        -9.588367315267481
      ],
      [
        "flag",
        -9.588516176972316
      ],
      [
        "compare",
        -9.588748105324498
      ],
      [
        "W",
        -9.589144118023334
      ],
      [
        "Annotation",
        -9.589945806577765
      ],
      [
        "that",
        -9.59030063061035
      ],
      [
        "getElement",
        -9.591082114735933
      ],
      [
        "DebugEnabled",
        -9.591115990507303
      ],
      [
        "Report",
        -9.592276393076014
      ],
      [
        "Check",
        -9.595050486367272
      ],
      [
        "Hashtable",
        -9.595583674365628
      ],
      [
        "Handle",
        -9.597069281528764
      ],
      [
        "Packet",
        -9.599400993196335
      ],
      [
        "as",
        -9.602231794069173
      ],
      [
        "JScrollPane",
        -9.60271033461174
      ],
      [
        "getPath",
        -9.607064726288701
      ],
      [
        "Basic",
        -9.608376176805974
      ],
      [
        "main",
        -9.608580307895693
      ],
      [
        "gl",
        -9.609525170826943
      ],
      [
        "btn",
        -9.610017860527995
      ],
      [
        "begin",
        -9.615801765154329
      ],
      [
        "getConnection",
        -9.617754885308461
      ],
      [
        "Call",
        -9.617834166170125
      ],
      [
        "Prefix",
        -9.618211664619801
      ],
      [
        "fields",
        -9.619137565167986
      ],
      [
        "Step",
        -9.620045102443646
      ],
      [
        "HttpServlet",
        -9.621301519550313
      ],
      [
        "jTextField",
        -9.62480011850338
      ],
      [
        "Bytes",
        -9.625241878959644
      ],
      [
        "Layer",
        -9.625865099454568
      ],
      [
        "def",
        -9.62612675675508
      ],
      [
        "Z",
        -9.626835110190362
      ],
      [
        "setLocation",
        -9.629584370695797
      ],
      [
        "clazz",
        -9.629890089006267
      ],
      [
        "TimeMillis",
        -9.631228928951277
      ],
      [
        "report",
        -9.634168126237013
      ],
      [
        "att",
        -9.636292459653255
      ],
      [
        "thread",
        -9.636770145960115
      ],
      [
        "part",
        -9.637101486759853
      ],
      [
        "previous",
        -9.637288017076026
      ],
      [
        "Byte",
        -9.638373466845058
      ],
      [
        "block",
        -9.640488608525597
      ],
      [
        "results",
        -9.640709150478195
      ],
      [
        "Params",
        -9.641504851372913
      ],
      [
        "Files",
        -9.64193391559557
      ],
      [
        "Activity",
        -9.642072246244192
      ],
      [
        "Profile",
        -9.642452766533914
      ],
      [
        "found",
        -9.644335766302751
      ],
      [
        "Interval",
        -9.644558655110187
      ],
      [
        "newInstance",
        -9.646067788697435
      ],
      [
        "Swing",
        -9.647684213885423
      ],
      [
        "step",
        -9.647769755233346
      ],
      [
        "release",
        -9.648020148616748
      ],
      [
        "post",
        -9.650097629630972
      ],
      [
        "bounds",
        -9.65703832814649
      ],
      [
        "stack",
        -9.658418000329362
      ],
      [
        "category",
        -9.661124706264626
      ],
      [
        "RemoteException",
        -9.661256429741206
      ],
      [
        "actual",
        -9.663027012406994
      ],
      [
        "curr",
        -9.664872731159237
      ],
      [
        "Db",
        -9.66532239136754
      ],
      [
        "History",
        -9.66599705684282
      ],
      [
        "convert",
        -9.666564039820335
      ],
      [
        "en",
        -9.667076391533037
      ],
      [
        "files",
        -9.667924139260668
      ],
      [
        "nodes",
        -9.669655227890326
      ],
      [
        "_id",
        -9.671387394236005
      ],
      [
        "warn",
        -9.67202247466919
      ],
      [
        "loc",
        -9.672399659705473
      ],
      [
        "getFile",
        -9.673214338260433
      ],
      [
        "ctx",
        -9.67436484079458
      ],
      [
        "Uri",
        -9.675438347651552
      ],
      [
        "Expr",
        -9.677589043391837
      ],
      [
        "Rect",
        -9.68047235732147
      ],
      [
        "apply",
        -9.680732101852154
      ],
      [
        "Vertex",
        -9.682652481932463
      ],
      [
        "ds",
        -9.682839483758057
      ],
      [
        "isValid",
        -9.685139027714655
      ],
      [
        "ClassName",
        -9.685683800837117
      ],
      [
        "ERROR",
        -9.68576234943513
      ],
      [
        "Account",
        -9.688615103170648
      ],
      [
        "Resources",
        -9.690424517033305
      ],
      [
        "getMax",
        -9.69102480082163
      ],
      [
        "CENTER",
        -9.691446953300385
      ],
      [
        "Space",
        -9.695657842358692
      ],
      [
        "role",
        -9.695746015309277
      ],
      [
        "push",
        -9.69736675878774
      ],
      [
        "order",
        -9.698235586690968
      ],
      [
        "Policy",
        -9.699598810352327
      ],
      [
        "Registry",
        -9.705705259738073
      ],
      [
        "Scope",
        -9.708776056727546
      ],
      [
        "axis",
        -9.710329697076169
      ],
      [
        "Support",
        -9.71038711487278
      ],
      [
        "Selector",
        -9.711505448781505
      ],
      [
        "OK",
        -9.711924203771003
      ],
      [
        "oldValue",
        -9.71378780270266
      ],
      [
        "getLength",
        -9.714234588681931
      ],
      [
        "Select",
        -9.714251585582446
      ],
      [
        "Script",
        -9.714646813019788
      ],
      [
        "GUI",
        -9.714814528923293
      ],
      [
        "Flag",
        -9.71530848494313
      ],
      [
        "JLabel",
        -9.71573787261229
      ],
      [
        "Information",
        -9.71583171475857
      ],
      [
        "template",
        -9.716273340114379
      ],
      [
        "Constraint",
        -9.717508191432477
      ],
      [
        "App",
        -9.718143150673113
      ],
      [
        "queue",
        -9.719400221789497
      ],
      [
        "split",
        -9.719977805160363
      ],
      [
        "getInt",
        -9.721531663132824
      ],
      [
        "Word",
        -9.724280908532636
      ],
      [
        "enabled",
        -9.73015660060393
      ],
      [
        "getSession",
        -9.730276463193645
      ],
      [
        "Left",
        -9.731563209421616
      ],
      [
        "range",
        -9.731637095076799
      ],
      [
        "getColumn",
        -9.733400725360541
      ],
      [
        "rect",
        -9.734881916371144
      ],
      [
        "Body",
        -9.737296101160426
      ],
      [
        "cp",
        -9.737632436221677
      ],
      [
        "oLowerCase",
        -9.738250632629367
      ],
      [
        "render",
        -9.738993651351747
      ],
      [
        "Device",
        -9.739449592717579
      ],
      [
        "Keys",
        -9.73978779940771
      ],
      [
        "commit",
        -9.740276352824715
      ],
      [
        "off",
        -9.742210688977483
      ],
      [
        "DEFAULT_",
        -9.74377162377712
      ],
      [
        "Host",
        -9.744224900701372
      ],
      [
        "pt",
        -9.744492325705187
      ],
      [
        "Pool",
        -9.745752468872794
      ],
      [
        "exp",
        -9.745800621531039
      ],
      [
        "word",
        -9.749280809473607
      ],
      [
        "isSelected",
        -9.749474087551354
      ],
      [
        "getLast",
        -9.751504208464727
      ],
      [
        "job",
        -9.754582779858627
      ],
      [
        "ChangeEvent",
        -9.755561628450739
      ],
      [
        "getUser",
        -9.756154747316621
      ],
      [
        "Binding",
        -9.756772929217579
      ],
      [
        "HashSet",
        -9.757496743127698
      ],
      [
        "getNext",
        -9.757798121459262
      ],
      [
        "Condition",
        -9.758264737669993
      ],
      [
        "Internal",
        -9.758710784536165
      ],
      [
        "configuration",
        -9.759651138343598
      ],
      [
        "el",
        -9.762503026906227
      ],
      [
        "prev",
        -9.763404035577196
      ],
      [
        "Converter",
        -9.763905065562795
      ],
      [
        "Visitor",
        -9.76397089221728
      ],
      [
        "setDefault",
        -9.764427001771796
      ],
      [
        "transform",
        -9.764999514724039
      ],
      [
        "Section",
        -9.76963884460584
      ],
      [
        "Main",
        -9.770461990905202
      ],
      [
        "cancel",
        -9.771262562657059
      ],
      [
        "img",
        -9.772603632121227
      ],
      [
        "Socket",
        -9.77280552048566
      ],
      [
        "getDocument",
        -9.774852177841542
      ],
      [
        "Match",
        -9.775764146233287
      ],
      [
        "Generator",
        -9.777121357755279
      ],
      [
        "ns",
        -9.779170582425774
      ],
      [
        "ssertNotNull",
        -9.779990365176246
      ],
      [
        "Var",
        -9.780612455649363
      ],
      [
        "Namespace",
        -9.782661904938536
      ],
      [
        "pop",
        -9.785025511304335
      ],
      [
        "sum",
        -9.785667728779249
      ],
      [
        "edit",
        -9.787273306251654
      ],
      [
        "bytes",
        -9.788127157327484
      ],
      [
        "me",
        -9.78825279154984
      ],
      [
        "cl",
        -9.79177392639677
      ],
      [
        "Access",
        -9.794997882967923
      ],
      [
        "visible",
        -9.797491798035738
      ],
      [
        "Trace",
        -9.799965630945785
      ],
      [
        "HTML",
        -9.799996318445332
      ],
      [
        "Engine",
        -9.80255867912876
      ],
      [
        "Results",
        -9.803803444444492
      ],
      [
        "Enum",
        -9.803837799387862
      ],
      [
        "Hash",
        -9.804847192431517
      ],
      [
        "g2",
        -9.805220207155585
      ],
      [
        "setColor",
        -9.806150500122452
      ],
      [
        "controller",
        -9.80731851665282
      ],
      [
        "Language",
        -9.810132949560082
      ],
      [
        "propertyName",
        -9.813413261659122
      ],
      [
        "plugin",
        -9.813812926889826
      ],
      [
        "KeyEvent",
        -9.814019025205123
      ],
      [
        "erationException",
        -9.814662977645902
      ],
      [
        "soap",
        -9.816228864302149
      ],
      [
        "UnsupportedOp",
        -9.817283460918143
      ],
      [
        "%",
        -9.81778466312016
      ],
      [
        "names",
        -9.818367283017476
      ],
      [
        "can",
        -9.818750085573063
      ],
      [
        "Screen",
        -9.819296061205542
      ],
      [
        "2D",
        -9.819962005532027
      ],
      [
        "Min",
        -9.820342903937776
      ],
      [
        "Extension",
        -9.821895840981565
      ],
      [
        "setBackground",
        -9.82560521626837
      ],
      [
        "random",
        -9.825773094147507
      ],
      [
        "schema",
        -9.831643626696106
      ],
      [
        "columnIndex",
        -9.83294891700505
      ],
      [
        "lookup",
        -9.834296007569746
      ],
      [
        "getAll",
        -9.834420397881091
      ],
      [
        "Member",
        -9.834604218749313
      ],
      [
        "Collections",
        -9.8377019378311
      ],
      [
        "getSelection",
        -9.840470502548413
      ],
      [
        "getChild",
        -9.840847331146577
      ],
      [
        "sleep",
        -9.84102200450532
      ],
      [
        "net",
        -9.842098457965983
      ],
      [
        "modified",
        -9.843271080071945
      ],
      [
        "option",
        -9.844138011188635
      ],
      [
        "Spec",
        -9.846211608307627
      ],
      [
        "Comment",
        -9.84643207366973
      ],
      [
        "9",
        -9.847575208876862
      ],
      [
        "box",
        -9.849319357158247
      ],
      [
        "1000",
        -9.849826129569598
      ],
      [
        "Symbol",
        -9.85049520395545
      ],
      [
        "defaultValue",
        -9.850509430661287
      ],
      [
        "Delete",
        -9.851806128763474
      ],
      [
        "Metadata",
        -9.85221472914901
      ],
      [
        "or",
        -9.853348791529655
      ],
      [
        "getDescription",
        -9.854837385297666
      ],
      [
        "Timer",
        -9.855012020380759
      ],
      [
        "getID",
        -9.855084372029765
      ],
      [
        "Read",
        -9.858397426463721
      ],
      [
        "at",
        -9.859305072488445
      ],
      [
        "12",
        -9.860784001933377
      ],
      [
        "connect",
        -9.861089976466939
      ],
      [
        "Next",
        -9.861546800457251
      ],
      [
        "series",
        -9.8619877999481
      ],
      [
        "Invalid",
        -9.86486829688898
      ],
      [
        "tx",
        -9.866293956558598
      ],
      [
        "Current",
        -9.867783502574072
      ],
      [
        "Points",
        -9.868071991485234
      ],
      [
        "expr",
        -9.870530205717326
      ],
      [
        "Empty",
        -9.870793504774525
      ],
      [
        "Region",
        -9.871586301074453
      ],
      [
        "Short",
        -9.87220430316722
      ],
      [
        "Active",
        -9.873125765038159
      ],
      [
        "socket",
        -9.873694837596236
      ],
      [
        "pc",
        -9.873856496244839
      ],
      [
        "Load",
        -9.87541107693447
      ],
      [
        "indent",
        -9.87688282410352
      ],
      [
        "getNode",
        -9.878431471763847
      ],
      [
        "Paint",
        -9.878687903720808
      ],
      [
        "calculate",
        -9.878723676372937
      ],
      [
        "getParameter",
        -9.878821758817528
      ],
      [
        "cls",
        -9.879725746589891
      ],
      [
        "getTarget",
        -9.88132198620455
      ],
      [
        "setFont",
        -9.882837619701128
      ],
      [
        "Counter",
        -9.883558656981641
      ],
      [
        "evaluate",
        -9.88643008348228
      ],
      [
        "login",
        -9.886726246221286
      ],
      [
        "widget",
        -9.88743765137793
      ],
      [
        "Desc",
        -9.888094294794936
      ],
      [
        "term",
        -9.88964489672848
      ],
      [
        "Combo",
        -9.891178459505262
      ],
      [
        "continue",
        -9.893279041241485
      ],
      [
        "32",
        -9.895715093578772
      ],
      [
        "Tool",
        -9.895866883020771
      ],
      [
        "Objects",
        -9.895925297741018
      ],
      [
        "jScrollPane",
        -9.896839117203422
      ],
      [
        "getItem",
        -9.89721931576539
      ],
      [
        "Protocol",
        -9.89817032716887
      ],
      [
        "Q",
        -9.898879756400394
      ],
      [
        "Move",
        -9.899367349366125
      ],
      [
        "comment",
        -9.899567855198251
      ],
      [
        "desc",
        -9.900155452498808
      ],
      [
        "cal",
        -9.900713707903568
      ],
      [
        "Transform",
        -9.9017520820116
      ],
      [
        "Figure",
        -9.90186267572058
      ],
      [
        "matches",
        -9.901967751240823
      ],
      [
        "abs",
        -9.901984734975947
      ],
      [
        "Arrays",
        -9.902317170944729
      ],
      [
        "Processor",
        -9.903580583735993
      ],
      [
        "One",
        -9.903622009941804
      ],
      [
        "etPreferredSize",
        -9.904143561165977
      ],
      [
        "Preferences",
        -9.90517528984558
      ],
      [
        "getObject",
        -9.905530777811498
      ],
      [
        "domain",
        -9.908373973997454
      ],
      [
        "PrintWriter",
        -9.910548496797565
      ],
      [
        "Scale",
        -9.91181319155442
      ],
      [
        "statement",
        -9.9118513959957
      ],
      [
        "newVal",
        -9.912408885306569
      ],
      [
        "fieldName",
        -9.91496610318651
      ],
      [
        "points",
        -9.915941733792291
      ],
      [
        "NS",
        -9.916612453857638
      ],
      [
        "getProject",
        -9.917179471360306
      ],
      [
        "ui",
        -9.91852087492835
      ],
      [
        "ParseException",
        -9.918812102400459
      ],
      [
        "LinkedList",
        -9.919707014056755
      ],
      [
        "valid",
        -9.91983809463406
      ],
      [
        "Product",
        -9.92044034943393
      ],
      [
        "Details",
        -9.921993417202485
      ],
      [
        "counter",
        -9.923197173466562
      ],
      [
        "Columns",
        -9.924441489684485
      ],
      [
        "Right",
        -9.924663806351981
      ],
      [
        "columns",
        -9.924722524492058
      ],
      [
        "NotNull",
        -9.926338066096394
      ],
      [
        "INFO",
        -9.92686758233566
      ],
      [
        "module",
        -9.929068004228744
      ],
      [
        "viewer",
        -9.931847646024243
      ],
      [
        "md",
        -9.932134349604977
      ],
      [
        "expression",
        -9.933706010235085
      ],
      [
        "numberOf",
        -9.936009605327415
      ],
      [
        "entries",
        -9.941188573090164
      ],
      [
        "direction",
        -9.941372392918886
      ],
      [
        "TableModel",
        -9.943913728977764
      ],
      [
        "compute",
        -9.944165595448707
      ],
      [
        "cursor",
        -9.946705328255238
      ],
      [
        "Pair",
        -9.94671704671009
      ],
      [
        "original",
        -9.949269479953703
      ],
      [
        "charA",
        -9.94993924522154
      ],
      [
        "GL",
        -9.954475443847594
      ],
      [
        "settings",
        -9.956025974968309
      ],
      [
        "ar",
        -9.956364394035976
      ],
      [
        "card",
        -9.95646424148906
      ],
      [
        "DEBUG",
        -9.957061685040404
      ],
      [
        "BigInteger",
        -9.958209386408097
      ],
      [
        "ImageIcon",
        -9.95845460572069
      ],
      [
        "Create",
        -9.958474244996308
      ],
      [
        "folder",
        -9.96067912239298
      ],
      [
        "DataStore",
        -9.960815629590735
      ],
      [
        "cb",
        -9.961276781293268
      ],
      [
        "NAME",
        -9.962078830386147
      ],
      [
        "Alignment",
        -9.964090933170553
      ],
      [
        "BagConstraints",
        -9.964091401462419
      ],
      [
        "Entries",
        -9.964539409504086
      ],
      [
        "Bundle",
        -9.965707330424348
      ],
      [
        "DOM",
        -9.966680568405737
      ],
      [
        "Un",
        -9.966918889143116
      ],
      [
        "types",
        -9.969354128904154
      ],
      [
        "_NAME",
        -9.97143371112648
      ],
      [
        "center",
        -9.973614705189034
      ],
      [
        "gc",
        -9.973725850996788
      ],
      [
        "an",
        -9.973818326057069
      ],
      [
        "matcher",
        -9.975166661833919
      ],
      [
        "addr",
        -9.979123511736748
      ],
      [
        "Re",
        -9.979483920204046
      ],
      [
        "setup",
        -9.980095986962334
      ],
      [
        "destination",
        -9.980109764538014
      ],
      [
        "getField",
        -9.981222252028116
      ],
      [
        "NumberFormat",
        -9.982026632678588
      ],
      [
        "Login",
        -9.98498949199489
      ],
      [
        "encode",
        -9.985426453567651
      ],
      [
        "delta",
        -9.985495475196302
      ],
      [
        "Score",
        -9.985579397537215
      ],
      [
        "Last",
        -9.986577783440028
      ],
      [
        "IndexOutOfBounds",
        -9.987945914791274
      ],
      [
        "trans",
        -9.988772748653279
      ],
      [
        "First",
        -9.989078215016134
      ],
      [
        "Relation",
        -9.98935793197055
      ],
      [
        "Axis",
        -9.989391810583664
      ],
      [
        "setField",
        -9.990987578825422
      ],
      [
        "Copy",
        -9.990997288572387
      ],
      [
        "Html",
        -9.99229951424776
      ],
      [
        "device",
        -9.992657302725801
      ],
      [
        "Canvas",
        -9.992849020405073
      ],
      [
        "tr",
        -9.992867866320692
      ],
      [
        "Contact",
        -9.99345682837929
      ],
      [
        "Home",
        -9.995512338744424
      ],
      [
        "Loader",
        -9.9967825848124
      ],
      [
        "Direction",
        -9.997411361202458
      ],
      [
        "engine",
        -9.997647735919106
      ],
      [
        "Events",
        -9.998254301856397
      ],
      [
        "Remove",
        -9.998263202957922
      ],
      [
        "destroy",
        -9.99846283674352
      ],
      [
        "getJ",
        -9.999591851653028
      ],
      [
        "Rows",
        -10.001675789543679
      ],
      [
        "Tile",
        -10.002842997723228
      ],
      [
        "pool",
        -10.003338241727059
      ],
      [
        "head",
        -10.005693296144674
      ],
      [
        "separator",
        -10.005716965303606
      ],
      [
        "proxy",
        -10.00620027780166
      ],
      [
        "Dao",
        -10.006970839369785
      ],
      [
        "Mock",
        -10.007305897882954
      ],
      [
        "extension",
        -10.008136358304272
      ],
      [
        "NoSuch",
        -10.010271351254168
      ],
      [
        "setCurrent",
        -10.010393571772827
      ],
      [
        "getLogger",
        -10.01224391845769
      ],
      [
        "de",
        -10.014676292523022
      ],
      [
        "amount",
        -10.014796678717591
      ],
      [
        "Instruction",
        -10.015184798059055
      ],
      [
        "pre",
        -10.015288568186449
      ],
      [
        "system",
        -10.017174214917317
      ],
      [
        "Return",
        -10.01720368460309
      ],
      [
        "3D",
        -10.017811792780382
      ],
      [
        "GridData",
        -10.0188564970369
      ],
      [
        "endsWith",
        -10.020658486637366
      ],
      [
        "env",
        -10.020970253229434
      ],
      [
        "Up",
        -10.021332244304077
      ],
      [
        "matrix",
        -10.021514592160374
      ],
      [
        "Timestamp",
        -10.023400557362857
      ],
      [
        "JComponent",
        -10.023415349646701
      ],
      [
        "collection",
        -10.023540080316453
      ],
      [
        "SAXException",
        -10.023831349261457
      ],
      [
        "sel",
        -10.024208342287011
      ],
      [
        "25",
        -10.024517367444354
      ],
      [
        "mark",
        -10.02649128957711
      ],
      [
        "Person",
        -10.027931653914816
      ],
      [
        "monitor",
        -10.030237854708204
      ],
      [
        "Meta",
        -10.030491302041998
      ],
      [
        "IO",
        -10.032266957438278
      ],
      [
        "reference",
        -10.032688529449546
      ],
      [
        "getContext",
        -10.032699025814507
      ],
      [
        "language",
        -10.033756535241416
      ],
      [
        "BufferedReader",
        -10.033907929605283
      ],
      [
        "changed",
        -10.034713094846644
      ],
      [
        "sp",
        -10.037135438740927
      ],
      [
        "html",
        -10.037895765668384
      ],
      [
        "Run",
        -10.038272150141482
      ],
      [
        "Not",
        -10.039088966589468
      ],
      [
        "getLabel",
        -10.039100418172877
      ],
      [
        "script",
        -10.041546633432537
      ],
      [
        "distance",
        -10.04159132626334
      ],
      [
        "bundle",
        -10.042036214610489
      ],
      [
        "api",
        -10.042251535369932
      ],
      [
        "gen",
        -10.042449235268906
      ],
      [
        "Core",
        -10.043257637450909
      ],
      [
        "getIndex",
        -10.044234394779641
      ],
      [
        "translate",
        -10.044592414062311
      ],
      [
        "setIcon",
        -10.045937919436662
      ],
      [
        "TYPE_",
        -10.046259017034432
      ],
      [
        "resolve",
        -10.047727046140167
      ],
      [
        "Validation",
        -10.048101914723246
      ],
      [
        "Limit",
        -10.048273432669044
      ],
      [
        "cc",
        -10.04928776949999
      ],
      [
        "up",
        -10.05097345958818
      ],
      [
        "p1",
        -10.052758088788606
      ],
      [
        "join",
        -10.0531358365432
      ],
      [
        "Segment",
        -10.05503792301651
      ],
      [
        "Network",
        -10.055915083838888
      ],
      [
        "Components",
        -10.05706970568108
      ],
      [
        "Cms",
        -10.058491159053377
      ],
      [
        "sample",
        -10.058722169862035
      ],
      [
        "notifyChanged",
        -10.058868096852471
      ],
      [
        "Permission",
        -10.059422489294805
      ],
      [
        "bit",
        -10.059835729646435
      ],
      [
        "database",
        -10.061009125321807
      ],
      [
        "Rate",
        -10.06341018662689
      ],
      [
        "shape",
        -10.064393596059027
      ],
      [
        "Environment",
        -10.064846271963951
      ],
      [
        "Comparator",
        -10.06497875322384
      ],
      [
        "Lines",
        -10.06540030445641
      ],
      [
        "Declaration",
        -10.066016227240057
      ],
      [
        "namespace",
        -10.06617969789411
      ],
      [
        "nl",
        -10.066241641801351
      ],
      [
        "Mgr",
        -10.068624906910694
      ],
      [
        "_KEY",
        -10.069942057764777
      ],
      [
        "Actions",
        -10.06996691881202
      ],
      [
        "15",
        -10.070137341023823
      ],
      [
        "Java",
        -10.071988549306438
      ],
      [
        "Col",
        -10.073311731962734
      ],
      [
        "ComboBox",
        -10.073519673000913
      ],
      [
        "Attr",
        -10.074552615398463
      ],
      [
        "dim",
        -10.07536417953363
      ],
      [
        "CheckBox",
        -10.077552818732887
      ],
      [
        "utils",
        -10.078503474605018
      ],
      [
        "getAbsolutePath",
        -10.079525074021458
      ],
      [
        "getContent",
        -10.079631553139402
      ],
      [
        "toArray",
        -10.07966733461421
      ],
      [
        "auto",
        -10.082479192178665
      ],
      [
        "email",
        -10.084164315421004
      ],
      [
        "board",
        -10.084377064940334
      ],
      [
        "Idx",
        -10.085167324789424
      ],
      [
        "help",
        -10.086007845591281
      ],
      [
        "Bar",
        -10.086227222580488
      ],
      [
        "setParent",
        -10.086252798130527
      ],
      [
        "getView",
        -10.086423492366386
      ],
      [
        "feature",
        -10.087330874118493
      ],
      [
        "account",
        -10.087410607320624
      ],
      [
        "agent",
        -10.087772093030635
      ],
      [
        "StringTokenizer",
        -10.088279208943387
      ],
      [
        "Toolkit",
        -10.088388236517545
      ],
      [
        "operation",
        -10.08853802454761
      ],
      [
        "lastIndexOf",
        -10.08959123870304
      ],
      [
        "_name",
        -10.090063261009295
      ],
      [
        "subject",
        -10.091450633424973
      ],
      [
        "Holder",
        -10.091533159869893
      ],
      [
        "application",
        -10.0926842542855
      ],
      [
        "getLocation",
        -10.093873231454733
      ],
      [
        "Transition",
        -10.094298252919016
      ],
      [
        "screen",
        -10.095101592000717
      ],
      [
        "Constant",
        -10.095852004190153
      ],
      [
        "nextToken",
        -10.09708699131424
      ],
      [
        "calendar",
        -10.097577742168173
      ],
      [
        "verify",
        -10.097997636312321
      ],
      [
        "Save",
        -10.098042781706685
      ],
      [
        "transaction",
        -10.098231988540324
      ],
      [
        "scope",
        -10.098500850855237
      ],
      [
        "timer",
        -10.099070806196563
      ],
      [
        "Validator",
        -10.100186884107979
      ],
      [
        "p2",
        -10.100369894245578
      ],
      [
        "ok",
        -10.100797742014144
      ],
      [
        "Day",
        -10.104564326879403
      ],
      [
        "shell",
        -10.104998157895775
      ],
      [
        "Point2D",
        -10.105151990262609
      ],
      [
        "reparedStatement",
        -10.10644294252233
      ],
      [
        "Remote",
        -10.10669621032529
      ],
      [
        "chart",
        -10.107544656529878
      ],
      [
        "Classes",
        -10.107600278975674
      ],
      [
        "setBorder",
        -10.10887524411118
      ],
      [
        "JComboBox",
        -10.109386053529475
      ],
      [
        "timeout",
        -10.10943468659775
      ],
      [
        "variable",
        -10.111040195578637
      ],
      [
        "wait",
        -10.111361748111332
      ],
      [
        "Structure",
        -10.111514349829353
      ],
      [
        "Only",
        -10.111544009563312
      ],
      [
        "setUp",
        -10.112043193560337
      ],
      [
        "getBytes",
        -10.112538952521005
      ],
      [
        "Concept",
        -10.112835115688743
      ],
      [
        "contact",
        -10.115158595853
      ],
      [
        "real",
        -10.116058288975903
      ],
      [
        "ext",
        -10.11606947482057
      ],
      [
        "Operator",
        -10.11641905303958
      ],
      [
        "adapter",
        -10.116859073657427
      ],
      [
        "Observer",
        -10.117051594613306
      ],
      [
        "weight",
        -10.117626356372348
      ],
      [
        "TYPE",
        -10.117739658981135
      ],
      [
        "Instances",
        -10.118063142509836
      ],
      [
        "getTitle",
        -10.118937043188582
      ],
      [
        "errors",
        -10.119445107121512
      ],
      [
        "setSelection",
        -10.119465698741893
      ],
      [
        "Monitor",
        -10.120197833512547
      ],
      [
        "getFirst",
        -10.123903938665851
      ],
      [
        "tile",
        -10.12461609245058
      ],
      [
        "packet",
        -10.125924094789577
      ],
      [
        "My",
        -10.126407851818092
      ],
      [
        "JMenu",
        -10.126838747881486
      ],
      [
        "LOGGER",
        -10.127071043033174
      ],
      [
        "day",
        -10.127255870875553
      ],
      [
        "Added",
        -10.129823848162772
      ],
      [
        "angle",
        -10.129942254026144
      ],
      [
        "Sample",
        -10.132268166352306
      ],
      [
        "Timeout",
        -10.132320804684268
      ],
      [
        "Security",
        -10.13268313207784
      ],
      [
        "Global",
        -10.133220857888773
      ],
      [
        "canvas",
        -10.134509675159496
      ],
      [
        "bar",
        -10.134837894094396
      ],
      [
        "ClassLoader",
        -10.136762506758881
      ],
      [
        "global",
        -10.13836423620438
      ],
      [
        "am",
        -10.13943601916808
      ],
      [
        "getNum",
        -10.141304186718013
      ],
      [
        "gui",
        -10.141427928008046
      ],
      [
        "EventListener",
        -10.14183373119968
      ],
      [
        "getState",
        -10.142141857675933
      ],
      [
        "Distance",
        -10.142822089201582
      ],
      [
        "JCheckBox",
        -10.14308823497357
      ],
      [
        "Email",
        -10.143418409556165
      ],
      [
        "shutdown",
        -10.146128896298592
      ],
      [
        "increment",
        -10.146325340347486
      ],
      [
        "Clone",
        -10.14858085151453
      ],
      [
        "ww",
        -10.148598878579275
      ],
      [
        "Tokens",
        -10.148764630066179
      ],
      [
        "renderer",
        -10.14956884351377
      ],
      [
        "FileOutputStream",
        -10.15291238969184
      ],
      [
        "AST",
        -10.15603925728375
      ],
      [
        "200",
        -10.156824920907289
      ],
      [
        "MetaData",
        -10.157036285200672
      ],
      [
        "layer",
        -10.157137353025602
      ],
      [
        "30",
        -10.158751472591327
      ],
      [
        "Total",
        -10.159437579420699
      ],
      [
        "success",
        -10.16005591829511
      ],
      [
        "After",
        -10.160185968378107
      ],
      [
        "Shell",
        -10.16020237982824
      ],
      [
        "Focus",
        -10.160265416504899
      ],
      [
        "Board",
        -10.160910437860508
      ],
      [
        "Props",
        -10.163712756412957
      ],
      [
        "getRequest",
        -10.163932798023776
      ],
      [
        "jca",
        -10.16399052447201
      ],
      [
        "year",
        -10.164250743527589
      ],
      [
        "Admin",
        -10.164980846378374
      ],
      [
        "section",
        -10.166638765252017
      ],
      [
        "empty",
        -10.166839424854093
      ],
      [
        "mapping",
        -10.16685458707072
      ],
      [
        "Top",
        -10.167170942112246
      ],
      [
        "Common",
        -10.168984356967837
      ],
      [
        "Callback",
        -10.169550062502488
      ],
      [
        "rec",
        -10.169852449331739
      ],
      [
        "Close",
        -10.170409545534294
      ],
      [
        "Algorithm",
        -10.171841504327457
      ],
      [
        "Note",
        -10.172822060339293
      ],
      [
        "condition",
        -10.172885660498736
      ],
      [
        "Period",
        -10.173425144076079
      ],
      [
        "peer",
        -10.176563080901442
      ],
      [
        "swing",
        -10.176930113818532
      ],
      [
        "getStart",
        -10.177386833256163
      ],
      [
        "cat",
        -10.178114131933544
      ],
      [
        "11",
        -10.179393638597201
      ],
      [
        "initial",
        -10.180714705127155
      ],
      [
        "Ok",
        -10.181426828042204
      ],
      [
        "seq",
        -10.181540145789818
      ],
      [
        "df",
        -10.182560341215133
      ],
      [
        "skip",
        -10.183139645384374
      ],
      [
        "Angle",
        -10.1833995162777
      ],
      [
        "ByName",
        -10.184599393933025
      ],
      [
        "Summary",
        -10.184795551779214
      ],
      [
        "KEY_",
        -10.186057771156797
      ],
      [
        "vertex",
        -10.186976635624811
      ],
      [
        "function",
        -10.187250267173999
      ],
      [
        "_is_",
        -10.187583710134376
      ],
      [
        "em",
        -10.187692302580293
      ],
      [
        "Plot",
        -10.188334036969211
      ],
      [
        "Transformer",
        -10.188927545550952
      ],
      [
        "ad",
        -10.189379709991508
      ],
      [
        "Literal",
        -10.189955799554735
      ],
      [
        "Peer",
        -10.19018117304867
      ],
      [
        "Net",
        -10.190182399436388
      ],
      [
        "prepare",
        -10.190244089224812
      ],
      [
        "Encoding",
        -10.19141581408028
      ],
      [
        "Flags",
        -10.193639622480484
      ],
      [
        "DTO",
        -10.194286329725541
      ],
      [
        "sequence",
        -10.1948354206902
      ],
      [
        "configure",
        -10.195572524061081
      ],
      [
        "NONE",
        -10.195672280882455
      ],
      [
        "Dictionary",
        -10.196705793451464
      ],
      [
        "raw",
        -10.197297981492488
      ],
      [
        "one",
        -10.197432880911155
      ],
      [
        "DataSource",
        -10.197487899867703
      ],
      [
        "BufferedImage",
        -10.199609818040665
      ],
      [
        "Write",
        -10.200028363361337
      ],
      [
        "DefaultMutable",
        -10.200362095545463
      ],
      [
        "getStatus",
        -10.201234809863523
      ],
      [
        "Weight",
        -10.201951835350506
      ],
      [
        "testSet",
        -10.202214739355881
      ],
      [
        "Sql",
        -10.204468953749368
      ],
      [
        "Op",
        -10.204505538484906
      ],
      [
        "Random",
        -10.206156172450845
      ],
      [
        "repository",
        -10.207141850912226
      ],
      [
        "Exp",
        -10.207234078650563
      ],
      [
        "impl",
        -10.209679603098472
      ],
      [
        "FileInputStream",
        -10.209701735023932
      ],
      [
        "Insets",
        -10.211071775464475
      ],
      [
        "se",
        -10.212175354032196
      ],
      [
        "QName",
        -10.213619712145388
      ],
      [
        "sType",
        -10.214080219108315
      ],
      [
        "Mask",
        -10.214127448712363
      ],
      [
        "undo",
        -10.21575026610818
      ],
      [
        "dao",
        -10.216370172554493
      ],
      [
        "extends",
        -10.217310476448025
      ],
      [
        "full",
        -10.217576293803967
      ],
      [
        "Marker",
        -10.217580687200355
      ],
      [
        "Valid",
        -10.21993126423961
      ],
      [
        "flags",
        -10.220900610462461
      ],
      [
        "Flow",
        -10.221114146408805
      ],
      [
        "Iter",
        -10.221239375225537
      ],
      [
        "Matcher",
        -10.2219534391659
      ],
      [
        "RowCount",
        -10.222595710997977
      ],
      [
        "Storage",
        -10.222637799066478
      ],
      [
        "getFieldValue",
        -10.222957782649447
      ],
      [
        "meta",
        -10.223838662928566
      ],
      [
        "back",
        -10.226520907156772
      ],
      [
        "Connector",
        -10.22823439151621
      ],
      [
        "Graphics2D",
        -10.23180245158303
      ],
      [
        "binding",
        -10.232634039104369
      ],
      [
        "merge",
        -10.233318802817434
      ],
      [
        "_ID",
        -10.23400170564202
      ],
      [
        "Import",
        -10.234562506874123
      ],
      [
        "include",
        -10.235165692115114
      ],
      [
        "mask",
        -10.236345709862745
      ],
      [
        "mod",
        -10.236396203039451
      ],
      [
        "getNumberOf",
        -10.236398214172588
      ],
      [
        "depth",
        -10.237046163926015
      ],
      [
        "Bits",
        -10.237795138949627
      ],
      [
        "area",
        -10.238560805724383
      ],
      [
        "vector",
        -10.238983403006529
      ],
      [
        "profile",
        -10.239186427805608
      ],
      [
        "setData",
        -10.24104505016424
      ],
      [
        "_TYPE",
        -10.241505041006947
      ],
      [
        "plot",
        -10.241863492767935
      ],
      [
        "addItem",
        -10.24251380762775
      ],
      [
        "bind",
        -10.243079564146134
      ],
      [
        "lPackage",
        -10.24324187394156
      ],
      [
        "Resolver",
        -10.244682637660125
      ],
      [
        "Init",
        -10.244796110317662
      ],
      [
        "second",
        -10.24593029343599
      ],
      [
        "ED",
        -10.24755533245044
      ],
      [
        "play",
        -10.247769117699729
      ],
      [
        "Generic",
        -10.248019862469098
      ],
      [
        "member",
        -10.249374059938255
      ],
      [
        "Duration",
        -10.251139301567271
      ],
      [
        "pack",
        -10.251878264621592
      ],
      [
        "ScrollPane",
        -10.252385942801478
      ],
      [
        "history",
        -10.25379059049063
      ],
      [
        "24",
        -10.253822775522558
      ],
      [
        "space",
        -10.253834261448112
      ],
      [
        "Year",
        -10.25470863704259
      ],
      [
        "doubleValue",
        -10.25612569291214
      ],
      [
        "Detail",
        -10.256157010145643
      ],
      [
        "directory",
        -10.257461796183083
      ],
      [
        "readLine",
        -10.259073225976687
      ],
      [
        "Choice",
        -10.259422407360859
      ],
      [
        "pw",
        -10.2604233405604
      ],
      [
        "ac",
        -10.260644018939534
      ],
      [
        "product",
        -10.260712843501535
      ],
      [
        "decode",
        -10.261075259743649
      ],
      [
        "getColor",
        -10.26112648787357
      ],
      [
        "getPage",
        -10.262573013561425
      ],
      [
        "orig",
        -10.263083938033319
      ],
      [
        "conf",
        -10.26317114359839
      ],
      [
        "provider",
        -10.264572065426272
      ],
      [
        "limit",
        -10.264626692280293
      ],
      [
        "work",
        -10.264760996075466
      ],
      [
        "Background",
        -10.266620855195788
      ],
      [
        "setId",
        -10.266809011466842
      ],
      [
        "Separator",
        -10.267246739066994
      ],
      [
        "identifier",
        -10.267394992813529
      ],
      [
        "Removed",
        -10.267539526253938
      ],
      [
        "Gen",
        -10.267788222755835
      ],
      [
        "objects",
        -10.268739328365356
      ],
      [
        "remote",
        -10.269097598061778
      ],
      [
        "score",
        -10.269142471821283
      ],
      [
        "hide",
        -10.269253257397036
      ],
      [
        "addTo",
        -10.27127472571082
      ],
      [
        "setModel",
        -10.271284010485429
      ],
      [
        "Cmd",
        -10.271288931787135
      ],
      [
        "reg",
        -10.271352650060061
      ],
      [
        "Cluster",
        -10.27168948092838
      ],
      [
        "Amount",
        -10.272465276568749
      ],
      [
        "spec",
        -10.273305779406918
      ],
      [
        "buff",
        -10.27332835173413
      ],
      [
        "rc",
        -10.275048090944235
      ],
      [
        "getActive",
        -10.275511307126587
      ],
      [
        "reason",
        -10.275597287288152
      ],
      [
        "internal",
        -10.275902553536651
      ],
      [
        "bottom",
        -10.276525804649348
      ],
      [
        "Ids",
        -10.278419113322242
      ],
      [
        "3d",
        -10.278513149969728
      ],
      [
        "Args",
        -10.278653235423032
      ],
      [
        "setString",
        -10.278679344296284
      ],
      [
        "Tuple",
        -10.279413194947988
      ],
      [
        "Allowed",
        -10.279441156945898
      ],
      [
        "Depth",
        -10.280142191446535
      ],
      [
        "Tools",
        -10.280283662010584
      ],
      [
        "NotFound",
        -10.281172997424452
      ],
      [
        "Factor",
        -10.282032061513373
      ],
      [
        "month",
        -10.282938570278015
      ],
      [
        "Seq",
        -10.28298035850723
      ],
      [
        "executeQuery",
        -10.283353082970082
      ],
      [
        "perform",
        -10.285901428935373
      ],
      [
        "Atom",
        -10.286778207664776
      ],
      [
        "getDisplay",
        -10.28710739548834
      ],
      [
        "Down",
        -10.287820362252537
      ],
      [
        "setType",
        -10.28802812832237
      ],
      [
        "Contents",
        -10.28849188215888
      ],
      [
        "delegate",
        -10.288920246458954
      ],
      [
        "Speed",
        -10.289336520934066
      ],
      [
        "Formatter",
        -10.289351420632258
      ],
      [
        "Browser",
        -10.289516724880219
      ],
      [
        "warning",
        -10.289658420012524
      ],
      [
        "resources",
        -10.290236448346528
      ],
      [
        "isEnabled",
        -10.291070507459393
      ],
      [
        "Groups",
        -10.29137811006
      ],
      [
        "pnl",
        -10.291569423204049
      ],
      [
        "scroll",
        -10.291595987565502
      ],
      [
        "Lib",
        -10.292127260136816
      ],
      [
        "Help",
        -10.292317021595297
      ],
      [
        "50",
        -10.292529640421465
      ],
      [
        "Standard",
        -10.292779459023434
      ],
      [
        "getRow",
        -10.294354562988621
      ],
      [
        "Before",
        -10.294418364732246
      ],
      [
        "Price",
        -10.294811088228759
      ],
      [
        "ignore",
        -10.294905863401636
      ],
      [
        "Criteria",
        -10.295878135140184
      ],
      [
        "zoom",
        -10.296785115692396
      ],
      [
        "userName",
        -10.297423092410755
      ],
      [
        "Memory",
        -10.298282089438125
      ],
      [
        "Sheet",
        -10.29935359716825
      ],
      [
        "symbol",
        -10.30064614722409
      ],
      [
        "ev",
        -10.300926472131872
      ],
      [
        "JMenuBar",
        -10.301139453617893
      ],
      [
        "getJPanel",
        -10.301531389412677
      ],
      [
        "Mapper",
        -10.301883498761622
      ],
      [
        "alias",
        -10.301967073724827
      ],
      [
        "Closed",
        -10.302579236798614
      ],
      [
        "contents",
        -10.30546853447346
      ],
      [
        "diff",
        -10.306488286100905
      ],
      [
        "ct",
        -10.306542912119951
      ],
      [
        "Coordinate",
        -10.30821210206488
      ],
      [
        "Arg",
        -10.308227077695548
      ],
      [
        "invalidate",
        -10.30916910716011
      ],
      [
        "exc",
        -10.309641895870348
      ],
      [
        "gov",
        -10.309752843952557
      ],
      [
        "mi",
        -10.310462123525568
      ],
      [
        "Strategy",
        -10.311191060001761
      ],
      [
        "BuildException",
        -10.313226146289177
      ],
      [
        "callback",
        -10.314198084384143
      ],
      [
        "Runtime",
        -10.31432455261053
      ],
      [
        "br",
        -10.314448593946201
      ],
      [
        "round",
        -10.31610571302083
      ],
      [
        "_data",
        -10.316428774147186
      ],
      [
        "getProperties",
        -10.318065298317343
      ],
      [
        "Capacity",
        -10.31809217449218
      ],
      [
        "XY",
        -10.318790017560785
      ],
      [
        "getPosition",
        -10.319502460966154
      ],
      [
        "exec",
        -10.322057357682125
      ],
      [
        "setMax",
        -10.323631228416723
      ],
      [
        "region",
        -10.324561367679017
      ],
      [
        "Subject",
        -10.325815052469746
      ],
      [
        "Owner",
        -10.326049075583894
      ],
      [
        "protocol",
        -10.32745407948048
      ],
      [
        "getDate",
        -10.327747656570379
      ],
      [
        "available",
        -10.327841481295623
      ],
      [
        "getJContentPane",
        -10.329137576752487
      ],
      [
        "Bad",
        -10.329237701256039
      ],
      [
        "__",
        -10.329580652352396
      ],
      [
        "Exit",
        -10.330347923387817
      ],
      [
        "DateTime",
        -10.330936277081172
      ],
      [
        "setEditable",
        -10.332734077871274
      ],
      [
        "Priority",
        -10.332989617763767
      ],
      [
        "Predicate",
        -10.333596019087931
      ],
      [
        "web",
        -10.33372134919683
      ],
      [
        "core",
        -10.333872302451931
      ],
      [
        "import",
        -10.334083588232838
      ],
      [
        "Ext",
        -10.33427937206672
      ],
      [
        "export",
        -10.334844926647973
      ],
      [
        "EntityManager",
        -10.335303948693303
      ],
      [
        "fixture",
        -10.335665074811095
      ],
      [
        "Rules",
        -10.336862553121556
      ],
      [
        "nsets",
        -10.33694501118934
      ],
      [
        "Site",
        -10.337648199402295
      ],
      [
        "sync",
        -10.337973230669313
      ],
      [
        "Tags",
        -10.33930902988887
      ],
      [
        "before",
        -10.339435093192876
      ],
      [
        "force",
        -10.339719341208081
      ],
      [
        "Len",
        -10.34101984278293
      ],
      [
        "Stop",
        -10.34149139572028
      ],
      [
        "dx",
        -10.34340162858048
      ],
      [
        "Driver",
        -10.343421096893714
      ],
      [
        "duration",
        -10.344294295692281
      ],
      [
        "Capability",
        -10.345082392211442
      ],
      [
        "Work",
        -10.345412441047522
      ],
      [
        "TRUE",
        -10.345830247679281
      ],
      [
        "getOwner",
        -10.3460044118859
      ],
      [
        "JRadioButton",
        -10.34617488702238
      ],
      [
        "Pdf",
        -10.34645698789074
      ],
      [
        "ce",
        -10.348094287440492
      ],
      [
        "components",
        -10.348282319021457
      ],
      [
        "Series",
        -10.349416433260586
      ],
      [
        "getTable",
        -10.350302497605822
      ],
      [
        "BO",
        -10.350594959928522
      ],
      [
        "LEFT",
        -10.351220764020647
      ],
      [
        "getS",
        -10.351717012697545
      ],
      [
        "cr",
        -10.352075383561932
      ],
      [
        "after",
        -10.352548883317631
      ],
      [
        "ById",
        -10.352729517738643
      ],
      [
        "setToolTipText",
        -10.35333067636814
      ],
      [
        "Stats",
        -10.35588735754268
      ],
      [
        "dom",
        -10.356114071073332
      ],
      [
        "methodName",
        -10.357092232767753
      ],
      [
        "Web",
        -10.357197419451758
      ],
      [
        "Execution",
        -10.35794399122267
      ],
      [
        "metadata",
        -10.35825404081407
      ],
      [
        "ws",
        -10.359600734380624
      ],
      [
        "ly",
        -10.359843883030011
      ],
      [
        "addProperty",
        -10.36024813291587
      ],
      [
        "Post",
        -10.360598957348234
      ],
      [
        "getService",
        -10.362186289865617
      ],
      [
        "loader",
        -10.363180310376704
      ],
      [
        "addAttribute",
        -10.364843452170465
      ],
      [
        "Prop",
        -10.365420675953375
      ],
      [
        "initialized",
        -10.365796709176772
      ],
      [
        "Syntax",
        -10.365834494449581
      ],
      [
        "Persistence",
        -10.365946238530338
      ],
      [
        "lines",
        -10.366264908966484
      ],
      [
        "appendChild",
        -10.36733200488358
      ],
      [
        "Program",
        -10.36763518209593
      ],
      [
        "StringUtils",
        -10.36841284639598
      ],
      [
        "Chart",
        -10.37063407543067
      ],
      [
        "55",
        -10.370967043676384
      ],
      [
        "now",
        -10.372691822108031
      ],
      [
        "Case",
        -10.372835779754169
      ],
      [
        "Preference",
        -10.372975995014107
      ],
      [
        "descriptor",
        -10.374201017902083
      ],
      [
        "columnName",
        -10.374476778247212
      ],
      [
        "Media",
        -10.374699843858581
      ],
      [
        "pass",
        -10.376127389054654
      ],
      [
        "Binary",
        -10.37627122155119
      ],
      [
        "ActionCommand",
        -10.376694995239758
      ],
      [
        "setStatus",
        -10.378116517575549
      ],
      [
        "encoding",
        -10.378127519739563
      ],
      [
        "booleanValue",
        -10.378594042402511
      ],
      [
        "Dx",
        -10.37965203872034
      ],
      [
        "border",
        -10.379756934160024
      ],
      [
        "sender",
        -10.379905531273543
      ],
      [
        "Complex",
        -10.38010953832099
      ],
      [
        "Multi",
        -10.380519172270356
      ],
      [
        "bits",
        -10.381128719354873
      ],
      [
        "cached",
        -10.381183011879346
      ],
      [
        "driver",
        -10.382217901595345
      ],
      [
        "removed",
        -10.38266315538968
      ],
      [
        "Elem",
        -10.383883715396225
      ],
      [
        "words",
        -10.384032129994125
      ],
      [
        "access",
        -10.385324537845717
      ],
      [
        "Signature",
        -10.385910989336521
      ],
      [
        "MAX_VALUE",
        -10.386775228365416
      ],
      [
        "Filename",
        -10.387287338269998
      ],
      [
        "Sort",
        -10.388235769262735
      ],
      [
        "Gui",
        -10.3893087304551
      ],
      [
        "peek",
        -10.389547797179354
      ],
      [
        "Geo",
        -10.390817420371594
      ],
      [
        "Library",
        -10.391654842441849
      ],
      [
        "MAX_",
        -10.392768027055906
      ],
      [
        "Delay",
        -10.39291678248554
      ],
      [
        "getAction",
        -10.393232755278733
      ],
      [
        "getFont",
        -10.39333690461828
      ],
      [
        "Available",
        -10.393924948828415
      ],
      [
        "Locator",
        -10.394017725412754
      ],
      [
        "ServiceException",
        -10.394918863617963
      ],
      [
        "messages",
        -10.395351271501916
      ],
      [
        "replaceAll",
        -10.396808873649572
      ],
      [
        "60",
        -10.398219843685991
      ],
      [
        "setContentPane",
        -10.399700527874927
      ],
      [
        "extract",
        -10.400296106658725
      ],
      [
        "compile",
        -10.400317794584303
      ],
      [
        "o2",
        -10.40119348801366
      ],
      [
        "Insert",
        -10.401249391627257
      ],
      [
        "Facade",
        -10.40205831936019
      ],
      [
        "Jsp",
        -10.402906215166247
      ],
      [
        "Progress",
        -10.403106546399993
      ],
      [
        "Exists",
        -10.40322905972404
      ],
      [
        "rt",
        -10.404511192404797
      ],
      [
        "o1",
        -10.405452587327169
      ],
      [
        "Units",
        -10.405629079538269
      ],
      [
        "Single",
        -10.40599816933355
      ],
      [
        "newChild",
        -10.406841467913306
      ],
      [
        "act",
        -10.408484140725387
      ],
      [
        "Use",
        -10.408932791397724
      ],
      [
        "ToString",
        -10.409728416842757
      ],
      [
        "IP",
        -10.40973218262813
      ],
      [
        "itr",
        -10.409886166274646
      ],
      [
        "getBounds",
        -10.409903788903055
      ],
      [
        "Custom",
        -10.409957673003909
      ],
      [
        "Required",
        -10.41074763995396
      ],
      [
        "ClassNotFound",
        -10.410943574732048
      ],
      [
        "Feed",
        -10.411097424281657
      ],
      [
        "ResourceBundle",
        -10.411179145660814
      ],
      [
        "topic",
        -10.411887222213657
      ],
      [
        "Scanner",
        -10.412069141056554
      ],
      [
        "tokens",
        -10.412333411689945
      ],
      [
        "delay",
        -10.413186279250631
      ],
      [
        "schedule",
        -10.414565370349024
      ],
      [
        "Variables",
        -10.414789029737303
      ],
      [
        "Lookup",
        -10.415144160548916
      ],
      [
        "ms",
        -10.41853637243503
      ],
      [
        "NotSupported",
        -10.419130141565464
      ],
      [
        "getLocal",
        -10.422195629417931
      ],
      [
        "not",
        -10.422256252198888
      ],
      [
        "th",
        -10.422328650568144
      ],
      [
        "Real",
        -10.423319121944214
      ],
      [
        "isVisible",
        -10.42332336364155
      ],
      [
        "composite",
        -10.423811969804504
      ],
      [
        "answer",
        -10.424878825167443
      ],
      [
        "dataset",
        -10.425915640605794
      ],
      [
        "executeUpdate",
        -10.426514508274579
      ],
      [
        "Center",
        -10.426943750343948
      ],
      [
        "isDirectory",
        -10.427915875095241
      ],
      [
        "Auto",
        -10.428036863128193
      ],
      [
        "im",
        -10.429511719705392
      ],
      [
        "x1",
        -10.429835236187499
      ],
      [
        "getMin",
        -10.431416355973376
      ],
      [
        "dump",
        -10.431917238602262
      ],
      [
        "DEFAULT",
        -10.432127914393266
      ],
      [
        "enum",
        -10.433016282067644
      ],
      [
        "Non",
        -10.434648124231853
      ],
      [
        "v2",
        -10.43469665147299
      ],
      [
        "Kind",
        -10.435129760707968
      ],
      [
        "calc",
        -10.435828660287205
      ],
      [
        "Mail",
        -10.435965691157833
      ],
      [
        "ncbi",
        -10.437725435497729
      ],
      [
        "pr",
        -10.43970002131104
      ],
      [
        "mouse",
        -10.439984272763404
      ],
      [
        "finish",
        -10.440677722252317
      ],
      [
        "pe",
        -10.441755870788667
      ],
      [
        "jLabel",
        -10.443038138016393
      ],
      [
        "getIcon",
        -10.443477578939302
      ],
      [
        "origin",
        -10.444099027538293
      ],
      [
        "VO",
        -10.444528247166302
      ],
      [
        "wrap",
        -10.44511873018017
      ],
      [
        "Show",
        -10.44556456398553
      ],
      [
        "Hibernate",
        -10.44576683863803
      ],
      [
        "attrs",
        -10.446110174568044
      ],
      [
        "Sync",
        -10.447023052843559
      ],
      [
        "Modifier",
        -10.447637088361216
      ],
      [
        "JFrame",
        -10.447715697296008
      ],
      [
        "getNew",
        -10.449783428284162
      ],
      [
        "Formula",
        -10.450157823059044
      ],
      [
        "Pointer",
        -10.450730716362235
      ],
      [
        "Parse",
        -10.451624589899826
      ],
      [
        "clip",
        -10.451648248792022
      ],
      [
        "progress",
        -10.451691067773316
      ],
      [
        "Comp",
        -10.452055636449636
      ],
      [
        "Delegate",
        -10.453205124191246
      ],
      [
        "vec",
        -10.4535855966046
      ],
      [
        "allow",
        -10.453911621068636
      ],
      [
        "Actor",
        -10.454092121266429
      ],
      [
        "Buttons",
        -10.455185935454065
      ],
      [
        "Http",
        -10.45589536188803
      ],
      [
        "getBoolean",
        -10.456419082551278
      ],
      [
        "Loc",
        -10.456591550512499
      ],
      [
        "Finder",
        -10.456592754496885
      ],
      [
        "home",
        -10.457582966923507
      ],
      [
        "Ex",
        -10.458341264187023
      ],
      [
        "addChild",
        -10.458682422559267
      ],
      [
        "person",
        -10.458897312076829
      ],
      [
        "getC",
        -10.459255213597267
      ],
      [
        "If",
        -10.459333686228153
      ],
      [
        "arguments",
        -10.460034077647476
      ],
      [
        "auth",
        -10.460725368086266
      ],
      [
        "Topic",
        -10.46111655259456
      ],
      [
        "Print",
        -10.461725146292295
      ],
      [
        "pad",
        -10.462333638671378
      ],
      [
        "Plan",
        -10.462386249664096
      ],
      [
        "ca",
        -10.46252864749448
      ],
      [
        "getMethod",
        -10.46323342223948
      ],
      [
        "Slot",
        -10.463733496398628
      ],
      [
        "red",
        -10.465292988996183
      ],
      [
        "Build",
        -10.465895805751696
      ],
      [
        "Authentication",
        -10.46610827535918
      ],
      [
        "with",
        -10.46812995259603
      ],
      [
        "userId",
        -10.468985235684352
      ],
      [
        "Errors",
        -10.469120503212984
      ],
      [
        "activity",
        -10.469361599942378
      ],
      [
        "SEVER",
        -10.469895389120582
      ],
      [
        "Batch",
        -10.4700559433284
      ],
      [
        "JSON",
        -10.470110176795973
      ],
      [
        "_OPTION",
        -10.470362246328111
      ],
      [
        "dy",
        -10.470832742944504
      ],
      [
        "ensure",
        -10.471673732921108
      ],
      [
        "combo",
        -10.472355653896857
      ],
      [
        "install",
        -10.473032178443958
      ],
      [
        "Disposed",
        -10.475327501754567
      ],
      [
        "co",
        -10.478113188354442
      ],
      [
        "annotation",
        -10.478192663322487
      ],
      [
        "Stroke",
        -10.478264392995149
      ],
      [
        "Phase",
        -10.479478259718732
      ],
      [
        "dimension",
        -10.480117919686268
      ],
      [
        "Ims",
        -10.480127064573638
      ],
      [
        "howMessageDialog",
        -10.481265975937912
      ],
      [
        "ByteBuffer",
        -10.481351312778674
      ],
      [
        "Wire",
        -10.481815312530568
      ],
      [
        "alpha",
        -10.48197939435127
      ],
      [
        "Wizard",
        -10.482404039531652
      ],
      [
        "prepareStatement",
        -10.482616449514584
      ],
      [
        "Diagram",
        -10.482846550046936
      ],
      [
        "sys",
        -10.483894680753401
      ],
      [
        "x2",
        -10.48482210763214
      ],
      [
        "It",
        -10.484929687004122
      ],
      [
        "AsString",
        -10.485463791182642
      ],
      [
        "NO",
        -10.486065092325667
      ],
      [
        "Animation",
        -10.487045739208934
      ],
      [
        "Constructor",
        -10.487532044482922
      ],
      [
        "ING",
        -10.488161215860341
      ],
      [
        "Connect",
        -10.488619709967718
      ],
      [
        "getAttributes",
        -10.488975983773265
      ],
      [
        "setState",
        -10.490171828238022
      ],
      [
        "self",
        -10.490421052615396
      ],
      [
        "Team",
        -10.491142073771709
      ],
      [
        "EMPTY",
        -10.491406969205958
      ],
      [
        "tool",
        -10.491924015561843
      ],
      [
        "visitor",
        -10.492667949875027
      ],
      [
        "TextArea",
        -10.493127308309838
      ],
      [
        "_att_",
        -10.493196952400284
      ],
      [
        "Argument",
        -10.49328035250631
      ],
      [
        "Equals",
        -10.49432064895148
      ],
      [
        "eval",
        -10.494668457877069
      ],
      [
        "disconnect",
        -10.495628181513535
      ],
      [
        "getResult",
        -10.496073503338662
      ],
      [
        "pm",
        -10.497448974115498
      ],
      [
        "Track",
        -10.497867119910033
      ],
      [
        "efetch",
        -10.498002161063805
      ],
      [
        "EClass",
        -10.498478009261648
      ],
      [
        "Register",
        -10.500529113134485
      ],
      [
        "_type",
        -10.500636289105824
      ],
      [
        "TreePath",
        -10.502020871649087
      ],
      [
        "constraint",
        -10.502392660433351
      ],
      [
        "DBException",
        -10.503237014042647
      ],
      [
        "r2",
        -10.505277855740975
      ],
      [
        "Export",
        -10.505820156142285
      ],
      [
        "Failure",
        -10.506196923255079
      ],
      [
        "Back",
        -10.506551284325191
      ],
      [
        "focus",
        -10.509178353605666
      ],
      [
        "Users",
        -10.509471030822624
      ],
      [
        "Labels",
        -10.50947851004555
      ],
      [
        "atom",
        -10.510084389926863
      ],
      [
        "Extended",
        -10.510481748152316
      ],
      [
        "note",
        -10.511810276218316
      ],
      [
        "Diagnostic",
        -10.512143991977972
      ],
      [
        "argu",
        -10.512359076327295
      ],
      [
        "Cookie",
        -10.51248041875089
      ],
      [
        "track",
        -10.513023968846221
      ],
      [
        "Trans",
        -10.513179635940027
      ],
      [
        "setMessage",
        -10.51335867407279
      ],
      [
        "Modified",
        -10.516554333199322
      ],
      [
        "done",
        -10.51655519295983
      ],
      [
        "writeObject",
        -10.517008036344397
      ],
      [
        "expand",
        -10.519397726095637
      ],
      [
        "JFileChooser",
        -10.519846425579804
      ],
      [
        "Chain",
        -10.520307702602189
      ],
      [
        "Popup",
        -10.520394062271386
      ],
      [
        "OM",
        -10.521220401770893
      ],
      [
        "free",
        -10.522044247770351
      ],
      [
        "fetch",
        -10.524524314898674
      ],
      [
        "Mutable",
        -10.524669780165814
      ],
      [
        "slot",
        -10.525555786597831
      ],
      [
        "Month",
        -10.525701260814222
      ],
      [
        "google",
        -10.526586065467523
      ],
      [
        "Free",
        -10.528572206227814
      ],
      [
        "forward",
        -10.530602464548792
      ],
      [
        "getJButton",
        -10.530856710243832
      ],
      [
        "pane",
        -10.531191383854683
      ],
      [
        "setInput",
        -10.53264891338766
      ],
      [
        "restore",
        -10.53268115692429
      ],
      [
        "S_",
        -10.532974243281199
      ],
      [
        "popup",
        -10.533134100411797
      ],
      [
        "reload",
        -10.534684622928568
      ],
      [
        "Temp",
        -10.53475835309775
      ],
      [
        "getSelectedIndex",
        -10.535713692688299
      ],
      [
        "Res",
        -10.535943906532562
      ],
      [
        "segment",
        -10.538335472974461
      ],
      [
        "ant",
        -10.538585075852716
      ],
      [
        "Delta",
        -10.538739081482932
      ],
      [
        "CML",
        -10.539160570950681
      ],
      [
        "Threshold",
        -10.53931201291391
      ],
      [
        "VK_",
        -10.54050512896874
      ],
      [
        "GridLayout",
        -10.540989711448137
      ],
      [
        "maximum",
        -10.542504020579944
      ],
      [
        "dist",
        -10.542698184517771
      ],
      [
        "Chunk",
        -10.543257476650716
      ],
      [
        "Vec",
        -10.543440616786558
      ],
      [
        "users",
        -10.545436868891315
      ],
      [
        "unlock",
        -10.54625020339287
      ],
      [
        "Draw",
        -10.5474164452594
      ],
      [
        "priority",
        -10.547848763765515
      ],
      [
        "constraints",
        -10.548060878089277
      ],
      [
        "argument",
        -10.549002169605686
      ],
      [
        "Dirty",
        -10.549278328871495
      ],
      [
        "jMenu",
        -10.549735898750056
      ],
      [
        "actions",
        -10.550167779559587
      ],
      [
        "oUpperCase",
        -10.551270996908551
      ],
      [
        "background",
        -10.553181610186728
      ],
      [
        "Supported",
        -10.553728184744678
      ],
      [
        "admin",
        -10.5537301080101
      ],
      [
        "SIZE",
        -10.554071253614385
      ],
      [
        "scan",
        -10.554337058205968
      ],
      [
        "s2",
        -10.554538411975663
      ],
      [
        "Alias",
        -10.55469873004893
      ],
      [
        "tableName",
        -10.555331500498353
      ],
      [
        "setInt",
        -10.5558916770084
      ],
      [
        "interval",
        -10.55593784684335
      ],
      [
        "anchor",
        -10.556480108504786
      ],
      [
        "Texture",
        -10.55692270608133
      ],
      [
        "0xff",
        -10.557628738062704
      ],
      [
        "NaN",
        -10.557690027735438
      ],
      [
        "Buffered",
        -10.557741052562246
      ],
      [
        "reply",
        -10.557884652103555
      ],
      [
        "getHost",
        -10.558221196174124
      ],
      [
        "waitFor",
        -10.55832706035661
      ],
      [
        "rowIndex",
        -10.559794386589708
      ],
      [
        "PI",
        -10.559908569757361
      ],
      [
        "getSelectedItem",
        -10.55992028975314
      ],
      [
        "groups",
        -10.559929137975416
      ],
      [
        "Malformed",
        -10.5612198763992
      ],
      [
        "External",
        -10.561606603764334
      ],
      [
        "getEnd",
        -10.562662864995616
      ],
      [
        "getSub",
        -10.5636552609255
      ],
      [
        "y1",
        -10.564950466926724
      ],
      [
        "required",
        -10.56507367588869
      ],
      [
        "arr",
        -10.566332970358822
      ],
      [
        "XPath",
        -10.568537887971384
      ],
      [
        "PROPERTY_",
        -10.568584424209757
      ],
      [
        "setImage",
        -10.569206427814827
      ],
      [
        "Chat",
        -10.569797248144905
      ],
      [
        "low",
        -10.569926010717493
      ],
      [
        "FileNotFound",
        -10.571451997194437
      ],
      [
        "Stmt",
        -10.57201861832451
      ],
      [
        "simple",
        -10.572201001112226
      ],
      [
        "getP",
        -10.574067732362465
      ],
      [
        "Question",
        -10.574270242750217
      ],
      [
        "period",
        -10.574882475554144
      ],
      [
        "Mouse",
        -10.575199261108121
      ],
      [
        "_value",
        -10.575325022803565
      ],
      [
        "getNotifier",
        -10.575871475127713
      ],
      [
        "RIGHT",
        -10.57623318480969
      ],
      [
        "where",
        -10.576400961965987
      ],
      [
        "Identity",
        -10.576428742970933
      ],
      [
        "pl",
        -10.57657134445363
      ],
      [
        "tm",
        -10.57664132630873
      ],
      [
        "speed",
        -10.576984807863496
      ],
      [
        "Scroll",
        -10.578160715662
      ],
      [
        "startTime",
        -10.578359670195336
      ],
      [
        "Diff",
        -10.578730124452534
      ],
      [
        "DataType",
        -10.579209954528316
      ],
      [
        "Span",
        -10.579766341301303
      ],
      [
        "classes",
        -10.579820243667445
      ],
      [
        "media",
        -10.580921354501939
      ],
      [
        "De",
        -10.582248476149381
      ],
      [
        "cause",
        -10.58236986934824
      ],
      [
        "minimum",
        -10.58376509140064
      ],
      [
        "graphics",
        -10.584189805541081
      ],
      [
        "factor",
        -10.585313816730407
      ],
      [
        "r1",
        -10.585654409261995
      ],
      [
        "te",
        -10.585760082473467
      ],
      [
        "Serializable",
        -10.58639671307416
      ],
      [
        "v1",
        -10.586665933344829
      ],
      [
        "getTotal",
        -10.588730964584425
      ],
      [
        "running",
        -10.588734424594445
      ],
      [
        "WARNING",
        -10.588918174602323
      ],
      [
        "Vector3f",
        -10.589018466716698
      ],
      [
        "States",
        -10.589513189108377
      ],
      [
        "Buf",
        -10.592053066940123
      ],
      [
        "rel",
        -10.592334645648046
      ],
      [
        "createStatement",
        -10.592885629852837
      ],
      [
        "JTable",
        -10.593530054814826
      ],
      [
        "fireN",
        -10.593646546154883
      ],
      [
        "inst",
        -10.594438288487678
      ],
      [
        "sw",
        -10.594523089378594
      ],
      [
        "setUser",
        -10.594641895405141
      ],
      [
        "otifyChanged",
        -10.595188359057108
      ],
      [
        "Constraints",
        -10.595711055409994
      ],
      [
        "_SIZE",
        -10.596334618464887
      ],
      [
        "31",
        -10.599089696606988
      ],
      [
        "normalize",
        -10.599236522564974
      ],
      [
        "Indices",
        -10.600055435036772
      ],
      [
        "clean",
        -10.600582265678586
      ],
      [
        "Reply",
        -10.600741845726855
      ],
      [
        "vo",
        -10.600924029876756
      ],
      [
        "cluster",
        -10.601499604034412
      ],
      [
        "getHeader",
        -10.60184856630897
      ],
      [
        "I18N",
        -10.602033767600759
      ],
      [
        "go",
        -10.603266156671605
      ],
      [
        "Setup",
        -10.60353739375565
      ],
      [
        "Fragment",
        -10.604129108967857
      ],
      [
        "oid",
        -10.60427813283887
      ],
      [
        "Principal",
        -10.604642282824337
      ],
      [
        "populate",
        -10.606178941883513
      ],
      [
        "Methods",
        -10.606947846076837
      ],
      [
        "opt",
        -10.607470099680235
      ],
      [
        "loop",
        -10.607950750388635
      ],
      [
        "Place",
        -10.608220330195024
      ],
      [
        "headers",
        -10.60864161025779
      ],
      [
        "tags",
        -10.608916862541863
      ],
      [
        "world",
        -10.610369565657344
      ],
      [
        "complete",
        -10.610885713559735
      ],
      [
        "Polygon",
        -10.611123014385107
      ],
      [
        "overlay",
        -10.611408377700613
      ],
      [
        "relation",
        -10.611595005283574
      ],
      [
        "collect",
        -10.611635211140538
      ],
      [
        "40",
        -10.61428565209129
      ],
      [
        "getLog",
        -10.615483631316899
      ],
      [
        "Complete",
        -10.616208720859394
      ],
      [
        "y2",
        -10.616213889485351
      ],
      [
        "Records",
        -10.617179814518028
      ],
      [
        "Links",
        -10.617371897836515
      ],
      [
        "PrintStream",
        -10.618087358237602
      ],
      [
        "14",
        -10.618529801392349
      ],
      [
        "li",
        -10.61893723030856
      ],
      [
        "le",
        -10.619455593050109
      ],
      [
        "TAG",
        -10.619646467476652
      ],
      [
        "gridData",
        -10.62010058344626
      ],
      [
        "TO",
        -10.620359634398866
      ],
      [
        "currentThread",
        -10.620618533304722
      ],
      [
        "custom",
        -10.620766321086954
      ],
      [
        "network",
        -10.621185590473612
      ],
      [
        "events",
        -10.621821325224527
      ],
      [
        "getServer",
        -10.62212385918978
      ],
      [
        "Headers",
        -10.622786577141625
      ],
      [
        "Intent",
        -10.62291476946272
      ],
      [
        "Send",
        -10.62294522172347
      ],
      [
        "supports",
        -10.623940973349733
      ],
      [
        "Sound",
        -10.624072949364688
      ],
      [
        "Classifier",
        -10.624811862131587
      ],
      [
        "horizontal",
        -10.625402095433543
      ],
      [
        "Geometry",
        -10.625554503616463
      ],
      [
        "chars",
        -10.625668930832331
      ],
      [
        "setForeground",
        -10.625911966642215
      ],
      [
        "SelectionModel",
        -10.626502414418969
      ],
      [
        "^",
        -10.627092355280567
      ],
      [
        "align",
        -10.627673214815315
      ],
      [
        "prefs",
        -10.627997650490343
      ],
      [
        "Btn",
        -10.630962321954417
      ],
      [
        "Started",
        -10.63155437747401
      ],
      [
        "package",
        -10.631576593484326
      ],
      [
        "radius",
        -10.631781655164481
      ],
      [
        "Statistics",
        -10.633451846305205
      ],
      [
        "http",
        -10.63370767431272
      ],
      [
        "setViewport",
        -10.633896176922685
      ],
      [
        "Processing",
        -10.634150426235871
      ],
      [
        "retrieve",
        -10.635415184860067
      ],
      [
        "Catalog",
        -10.635650565687502
      ],
      [
        "Route",
        -10.637687102664666
      ],
      [
        "Zoom",
        -10.638083533076106
      ],
      [
        "flow",
        -10.638350739093424
      ],
      [
        "dot",
        -10.638608741050845
      ],
      [
        "Notify",
        -10.638619209778401
      ],
      [
        "listenerList",
        -10.638824248935574
      ],
      [
        "dst",
        -10.638980485724685
      ],
      [
        "KEY",
        -10.639585822340234
      ],
      [
        "Warning",
        -10.639875103674733
      ],
      [
        "equal",
        -10.639956193127688
      ],
      [
        "mail",
        -10.640266685958633
      ],
      [
        "Creator",
        -10.640617492725525
      ],
      [
        "nt",
        -10.641278467537344
      ],
      [
        "Full",
        -10.64129617664516
      ],
      [
        "Fault",
        -10.642121816242053
      ],
      [
        "stat",
        -10.642186340572088
      ],
      [
        "apache",
        -10.642434675384765
      ],
      [
        "jMenuItem",
        -10.642937179307985
      ],
      [
        "getClient",
        -10.643522502489537
      ],
      [
        "storage",
        -10.64523623614792
      ],
      [
        "getInput",
        -10.645843538045842
      ],
      [
        "players",
        -10.646493265431715
      ],
      [
        "uid",
        -10.646710248556662
      ],
      [
        "Forward",
        -10.646774763017184
      ],
      [
        "PK",
        -10.647010647991358
      ],
      [
        "rules",
        -10.647192020739531
      ],
      [
        "selector",
        -10.648275815010496
      ],
      [
        "should",
        -10.648528120763983
      ],
      [
        "UUID",
        -10.648651042563825
      ],
      [
        "JSeparator",
        -10.649027084623722
      ],
      [
        "inner",
        -10.649566270832569
      ],
      [
        "Later",
        -10.650358385831758
      ],
      [
        "Workflow",
        -10.650807969228062
      ],
      [
        "ARGUMENT",
        -10.650870811531679
      ],
      [
        "operator",
        -10.651497948629679
      ],
      [
        "Revision",
        -10.652467456177256
      ],
      [
        "Bit",
        -10.65313535877735
      ],
      [
        "Certificate",
        -10.653290510276374
      ],
      [
        "_c",
        -10.654196503217516
      ],
      [
        "typeName",
        -10.654608193440621
      ],
      [
        "Orientation",
        -10.655019171616022
      ],
      [
        "World",
        -10.655263893135366
      ],
      [
        "added",
        -10.655526762675485
      ],
      [
        "age",
        -10.656094931067766
      ],
      [
        "lo",
        -10.656179563928848
      ],
      [
        "iv",
        -10.656405588570774
      ],
      [
        "sTo",
        -10.65646582017827
      ],
      [
        "ToolBar",
        -10.657424438285336
      ],
      [
        "13",
        -10.657671540116025
      ],
      [
        "and",
        -10.658425256590665
      ],
      [
        "getInputStream",
        -10.658450089828747
      ],
      [
        "Dependency",
        -10.658817812994368
      ],
      [
        "Off",
        -10.65894442991248
      ],
      [
        "Customer",
        -10.659345132877807
      ],
      [
        "API",
        -10.660345795045199
      ],
      [
        "Bound",
        -10.660817526563992
      ],
      [
        "ST",
        -10.660885339292165
      ],
      [
        "criteria",
        -10.661074792782074
      ],
      [
        "IN",
        -10.661271327059229
      ],
      [
        "Pre",
        -10.66172422403633
      ],
      [
        "room",
        -10.663954758452011
      ],
      [
        "assign",
        -10.664014256176632
      ],
      [
        "Transport",
        -10.664836574392279
      ],
      [
        "Render",
        -10.66487522050066
      ],
      [
        "Failed",
        -10.665113740552922
      ],
      [
        "DateFormat",
        -10.665369816581936
      ],
      [
        "Changes",
        -10.666498661219892
      ],
      [
        "states",
        -10.667130655612317
      ],
      [
        "Comparable",
        -10.667218812461986
      ],
      [
        "DataSet",
        -10.66736067754973
      ],
      [
        "Ontology",
        -10.669251658410216
      ],
      [
        "p_",
        -10.669371276149723
      ],
      [
        "Piece",
        -10.669616687166414
      ],
      [
        "policy",
        -10.669863462624367
      ],
      [
        "ids",
        -10.670700212933596
      ],
      [
        "getBase",
        -10.671012930840046
      ],
      [
        "expect",
        -10.671712468116128
      ],
      [
        "tok",
        -10.671979279511485
      ],
      [
        "getMap",
        -10.67251462602958
      ],
      [
        "Setting",
        -10.672822821642905
      ],
      [
        "click",
        -10.674014683224602
      ],
      [
        "getApplication",
        -10.674371553458696
      ],
      [
        "TreeModel",
        -10.67587887905135
      ],
      [
        "textField",
        -10.676560452365358
      ],
      [
        "ind",
        -10.67675808747299
      ],
      [
        "character",
        -10.677390660905013
      ],
      [
        "_p",
        -10.67835093982718
      ],
      [
        "addListener",
        -10.678931692211815
      ],
      [
        "chunk",
        -10.679215131641827
      ],
      [
        "FileWriter",
        -10.679530605391133
      ],
      [
        "Missing",
        -10.679948054689163
      ],
      [
        "Fast",
        -10.68021882270881
      ],
      [
        "setParameter",
        -10.680959068809187
      ],
      [
        "getA",
        -10.681072309564975
      ],
      [
        "setDescription",
        -10.682339087456015
      ],
      [
        "security",
        -10.682494245976027
      ],
      [
        "dSelection",
        -10.682562514094279
      ],
      [
        "StringWriter",
        -10.683414755033372
      ],
      [
        "getShell",
        -10.68392555348446
      ],
      [
        "site",
        -10.684614648964363
      ],
      [
        "Rectangle2D",
        -10.685898532915127
      ],
      [
        "FlowLayout",
        -10.686037345416901
      ],
      [
        "cnt",
        -10.686194400113283
      ],
      [
        "Usage",
        -10.687567089675177
      ],
      [
        "getVersion",
        -10.688422781970328
      ],
      [
        "getPort",
        -10.688948817998384
      ],
      [
        "regorianCalendar",
        -10.68916165038259
      ],
      [
        "AS",
        -10.6892048433272
      ],
      [
        "orientation",
        -10.689932182101739
      ],
      [
        "asList",
        -10.690657731604745
      ],
      [
        "UML",
        -10.691091581445562
      ],
      [
        "Find",
        -10.691273539943118
      ],
      [
        "menuItem",
        -10.691595560701113
      ],
      [
        "getT",
        -10.692228082095369
      ],
      [
        "cos",
        -10.692603559164908
      ],
      [
        "win",
        -10.692806023440532
      ],
      [
        "23",
        -10.69370793241813
      ],
      [
        "Endpoint",
        -10.694152869967825
      ],
      [
        "registry",
        -10.694444783499872
      ],
      [
        "consume",
        -10.694494337867436
      ],
      [
        "WindowEvent",
        -10.694523962346207
      ],
      [
        "ta",
        -10.694684656002075
      ],
      [
        "sig",
        -10.695006524329724
      ],
      [
        "ent",
        -10.695407469532562
      ],
      [
        "of",
        -10.69627137285334
      ],
      [
        "timestamp",
        -10.69638675859343
      ],
      [
        "Console",
        -10.696444933657101
      ],
      [
        "sendMessage",
        -10.696679968417202
      ],
      [
        "ServletContext",
        -10.696869514584067
      ],
      [
        "Join",
        -10.69690293015621
      ],
      [
        "Click",
        -10.697701832248246
      ],
      [
        "setTarget",
        -10.697984625612104
      ],
      [
        "Per",
        -10.699506138853264
      ],
      [
        "Room",
        -10.700013378040898
      ],
      [
        "Alert",
        -10.700498788808288
      ],
      [
        "CoreException",
        -10.701033050845039
      ],
      [
        "Services",
        -10.701247300737514
      ],
      [
        "IResource",
        -10.701905125426943
      ],
      [
        "Auth",
        -10.702828368506676
      ],
      [
        "setSelectedIndex",
        -10.703307571922608
      ],
      [
        "activate",
        -10.703478102333182
      ],
      [
        "cols",
        -10.704500124912311
      ],
      [
        "zone",
        -10.704743591270201
      ],
      [
        "Other",
        -10.706382649602137
      ],
      [
        "Worker",
        -10.707176209158803
      ],
      [
        "rollback",
        -10.707178264621305
      ],
      [
        "26",
        -10.707480643290506
      ],
      [
        "setTime",
        -10.708224208724264
      ],
      [
        "getCell",
        -10.70831423484749
      ],
      [
        "TAttribute",
        -10.708629131479324
      ],
      [
        "Archive",
        -10.708962787421695
      ],
      [
        "signature",
        -10.709030176122377
      ],
      [
        "setContent",
        -10.709328181011843
      ],
      [
        "getCommand",
        -10.711062715422216
      ],
      [
        "getLine",
        -10.711212352077489
      ],
      [
        "Transfer",
        -10.71188289162978
      ],
      [
        "DO",
        -10.712746900994937
      ],
      [
        "c2",
        -10.715185314604106
      ],
      [
        "getBean",
        -10.71545165802863
      ],
      [
        "getB",
        -10.715786082825392
      ],
      [
        "Conn",
        -10.716011054311313
      ],
      [
        "receive",
        -10.716068568783356
      ],
      [
        "Chars",
        -10.716137831355802
      ],
      [
        "parts",
        -10.717487575133585
      ],
      [
        "Cancel",
        -10.71830498692999
      ],
      [
        "interrupt",
        -10.718494310846689
      ],
      [
        "lower",
        -10.720520020467163
      ],
      [
        "book",
        -10.721956005147456
      ],
      [
        "Messaging",
        -10.722897124320887
      ],
      [
        "getAddress",
        -10.723188023896462
      ],
      [
        "Clause",
        -10.724300514826623
      ],
      [
        "sym",
        -10.725082643453575
      ],
      [
        "Cost",
        -10.725696160186859
      ],
      [
        "Logging",
        -10.72633402300815
      ],
      [
        "Rec",
        -10.726789204711569
      ],
      [
        "Addr",
        -10.726859235443827
      ],
      [
        "dis",
        -10.728151904681672
      ],
      [
        "300",
        -10.728194531503197
      ],
      [
        "best",
        -10.728495873921638
      ],
      [
        "Loop",
        -10.729646902227776
      ],
      [
        "Co",
        -10.729652101581387
      ],
      [
        "Src",
        -10.73011842350197
      ],
      [
        "18",
        -10.730377845427064
      ],
      [
        "Used",
        -10.73161851466061
      ],
      [
        "ation",
        -10.733700122162919
      ],
      [
        "Colors",
        -10.734276722306904
      ],
      [
        "Refresh",
        -10.735906063921611
      ],
      [
        "17",
        -10.73740161737932
      ],
      [
        "EJB",
        -10.737983627798632
      ],
      [
        "ap",
        -10.738269473490552
      ],
      [
        "alert",
        -10.738379901433923
      ],
      [
        "Static",
        -10.738481720395232
      ],
      [
        "getResponse",
        -10.738633509022687
      ],
      [
        "getControl",
        -10.7387954554872
      ],
      [
        "Conversion",
        -10.738882444335086
      ],
      [
        "Servlet",
        -10.738939455795446
      ],
      [
        "Tasks",
        -10.739742688897003
      ],
      [
        "converter",
        -10.7399550909051
      ],
      [
        "setSource",
        -10.740223783002158
      ],
      [
        "OID",
        -10.7404835282308
      ],
      [
        "Specification",
        -10.742348043806981
      ],
      [
        "getFrame",
        -10.742570688154263
      ],
      [
        "SimpleDateFormat",
        -10.74286121625332
      ],
      [
        "Sum",
        -10.743377066572668
      ],
      [
        "ServletException",
        -10.744169067635259
      ],
      [
        "Dataset",
        -10.74460339721514
      ],
      [
        "ClassCast",
        -10.744772465734322
      ],
      [
        "Stat",
        -10.747483472165456
      ],
      [
        "Pass",
        -10.747594276451329
      ],
      [
        "Found",
        -10.74771309794395
      ],
      [
        "ElementAt",
        -10.748041206605324
      ],
      [
        "dataSource",
        -10.748186178959905
      ],
      [
        "Dynamic",
        -10.748561672916683
      ],
      [
        "Sim",
        -10.748614802267594
      ],
      [
        "normal",
        -10.748797864826894
      ],
      [
        "TreeItem",
        -10.749213137923928
      ],
      [
        "21",
        -10.749294048245204
      ],
      [
        "portName",
        -10.749755533426622
      ],
      [
        "Relationship",
        -10.750065181023292
      ],
      [
        "pause",
        -10.750520218561183
      ],
      [
        "Categories",
        -10.750693183011911
      ],
      [
        "comparator",
        -10.752650317548838
      ],
      [
        "setLabel",
        -10.754290115754866
      ],
      [
        "Attachment",
        -10.75517340484349
      ],
      [
        "setC",
        -10.755470269647166
      ],
      [
        "64",
        -10.755882746543623
      ],
      [
        "inputStream",
        -10.756084030120302
      ],
      [
        "getTag",
        -10.756621006088274
      ],
      [
        "trigger",
        -10.756885440519692
      ],
      [
        "ra",
        -10.756970758824476
      ],
      [
        "getPreferredSize",
        -10.757293361765404
      ],
      [
        "Indicator",
        -10.75731585818038
      ],
      [
        "margin",
        -10.757623767556918
      ],
      [
        "light",
        -10.757784307959536
      ],
      [
        "par",
        -10.758077545608376
      ],
      [
        "Anchor",
        -10.758401122248605
      ],
      [
        "Ast",
        -10.75981180331925
      ],
      [
        "Edges",
        -10.760013091418903
      ],
      [
        "pref",
        -10.76041244935994
      ],
      [
        "22",
        -10.76064550154971
      ],
      [
        "pair",
        -10.761149170018966
      ],
      [
        "UN",
        -10.76284449682527
      ],
      [
        "Connections",
        -10.763103264432976
      ],
      [
        "formatter",
        -10.763375213968157
      ],
      [
        "Assignment",
        -10.763545707369538
      ],
      [
        "createElement",
        -10.764286010551704
      ],
      [
        "figure",
        -10.764541860623321
      ],
      [
        "sign",
        -10.764665673889166
      ],
      [
        "Jar",
        -10.765298470328744
      ],
      [
        "Head",
        -10.765345373440296
      ],
      [
        "quote",
        -10.765528446811661
      ],
      [
        "Mark",
        -10.76568956147672
      ],
      [
        "cookie",
        -10.76611078484284
      ],
      [
        "Finished",
        -10.76627962867156
      ],
      [
        "was",
        -10.766738498515178
      ],
      [
        "Scene",
        -10.767477430643353
      ],
      [
        "Running",
        -10.767776272241147
      ],
      [
        "Millis",
        -10.770769977248525
      ],
      [
        "pd",
        -10.77097416659732
      ],
      [
        "predicate",
        -10.772054472385793
      ],
      [
        "Translation",
        -10.772199662573009
      ],
      [
        "createNew",
        -10.772927023598223
      ],
      [
        "jRadioButton",
        -10.773769558249978
      ],
      [
        "Images",
        -10.774591846358557
      ],
      [
        "rank",
        -10.774852206775563
      ],
      [
        "helper",
        -10.775958144270716
      ],
      [
        "Download",
        -10.776170081866534
      ],
      [
        "ActionPerformed",
        -10.776279394721497
      ],
      [
        "ls",
        -10.776554647184689
      ],
      [
        "upper",
        -10.776608470937505
      ],
      [
        "mp",
        -10.77768113337282
      ],
      [
        "TestCase",
        -10.777936606402665
      ],
      [
        "_Proc",
        -10.778292877698796
      ],
      [
        "updateChildren",
        -10.778298475002149
      ],
      [
        "_MESSAGE",
        -10.778586921991563
      ],
      [
        "getContentPane",
        -10.778606531074757
      ],
      [
        "disable",
        -10.779221410644759
      ],
      [
        "Updated",
        -10.780030008318635
      ],
      [
        "Raw",
        -10.780078784373236
      ],
      [
        "getPassword",
        -10.780092138990444
      ],
      [
        "Utility",
        -10.780418568122045
      ],
      [
        "ba",
        -10.78091651718043
      ],
      [
        "observer",
        -10.781102065599647
      ],
      [
        "Undo",
        -10.78148596075116
      ],
      [
        "getM",
        -10.782044847412985
      ],
      [
        "Platform",
        -10.783983372596062
      ],
      [
        "dirty",
        -10.784221591649121
      ],
      [
        "Suffix",
        -10.784287232685365
      ],
      [
        "variables",
        -10.784371214023732
      ],
      [
        "getConfig",
        -10.784375921806852
      ],
      [
        "This",
        -10.78448887263566
      ],
      [
        "Representation",
        -10.785398622177217
      ],
      [
        "filters",
        -10.785518120469263
      ],
      [
        "vm",
        -10.785707876745303
      ],
      [
        "high",
        -10.786018191093037
      ],
      [
        "Master",
        -10.786026296980895
      ],
      [
        "tokenizer",
        -10.78603556726566
      ],
      [
        "pk",
        -10.786761073139694
      ],
      [
        "customer",
        -10.786763314071072
      ],
      [
        "Camera",
        -10.787204752498031
      ],
      [
        "Threads",
        -10.789453698463774
      ],
      [
        "Destination",
        -10.79116331450323
      ],
      [
        "JTextArea",
        -10.791639807458822
      ],
      [
        "RadioButton",
        -10.791790499456837
      ],
      [
        "Pr",
        -10.792136383143081
      ],
      [
        "Association",
        -10.793020587870915
      ],
      [
        "about",
        -10.794790061576618
      ],
      [
        "Split",
        -10.7952527607832
      ],
      [
        "Workspace",
        -10.795555389480132
      ],
      [
        "Editable",
        -10.796074885782302
      ],
      [
        "writeInt",
        -10.79646339670552
      ],
      [
        "Old",
        -10.797167496361649
      ],
      [
        "getURI",
        -10.797589664236307
      ],
      [
        "uc",
        -10.797831646610309
      ],
      [
        "0xFF",
        -10.797945859313785
      ],
      [
        "rate",
        -10.79803406345607
      ],
      [
        "getCode",
        -10.798238800782817
      ],
      [
        "concept",
        -10.798578644825625
      ],
      [
        "dr",
        -10.798841608242853
      ],
      [
        "STATE_",
        -10.799373137991562
      ],
      [
        "stats",
        -10.800455014312433
      ],
      [
        "typed",
        -10.800866716582323
      ],
      [
        "Individual",
        -10.80152622508927
      ],
      [
        "Gap",
        -10.801599317028604
      ],
      [
        "us",
        -10.801898820273376
      ],
      [
        "getPoint",
        -10.802228686590453
      ],
      [
        "FALSE",
        -10.802795987554791
      ],
      [
        "Book",
        -10.803077015370896
      ],
      [
        "CF",
        -10.803119428063082
      ],
      [
        "sorted",
        -10.803163586627157
      ],
      [
        "Nr",
        -10.804041716127442
      ],
      [
        "marker",
        -10.804237318190053
      ],
      [
        "Py",
        -10.804974847699274
      ],
      [
        "getEntry",
        -10.806051063922853
      ],
      [
        "unregister",
        -10.80608999488264
      ],
      [
        "Reg",
        -10.806214528919352
      ],
      [
        "EditPart",
        -10.807438050177932
      ],
      [
        "coord",
        -10.807794407534718
      ],
      [
        "ListModel",
        -10.808275280322782
      ],
      [
        "isActive",
        -10.809196853025224
      ],
      [
        "resultSet",
        -10.810011958218576
      ],
      [
        "setHorizontal",
        -10.810028208257748
      ],
      [
        "Zone",
        -10.810182502060822
      ],
      [
        "Turn",
        -10.810965218186455
      ],
      [
        "let",
        -10.81157090738127
      ],
      [
        "bin",
        -10.81236015268616
      ],
      [
        "setActive",
        -10.81247010086176
      ],
      [
        "errorMessage",
        -10.81276428010528
      ],
      [
        "_MASK",
        -10.812802144134688
      ],
      [
        "VERTICAL",
        -10.81289183132744
      ],
      [
        "getPlayer",
        -10.813678411645164
      ],
      [
        "ejb",
        -10.813928792605694
      ],
      [
        "jj_",
        -10.814446096256969
      ],
      [
        "RE",
        -10.814579899410699
      ],
      [
        "TEXT",
        -10.815678059803567
      ],
      [
        "pow",
        -10.815867409041658
      ],
      [
        "resp",
        -10.817451955554187
      ],
      [
        "used",
        -10.818557803947273
      ],
      [
        "author",
        -10.818656061150548
      ],
      [
        "FacesContext",
        -10.819496546825937
      ],
      [
        "Grammar",
        -10.820040183925737
      ],
      [
        "Variant",
        -10.820318897104588
      ],
      [
        "getGroup",
        -10.820678008360808
      ],
      [
        "setDate",
        -10.82068816233168
      ],
      [
        "lat",
        -10.821477018779387
      ],
      [
        "setFocus",
        -10.82182363733002
      ],
      [
        "Chooser",
        -10.822435128436892
      ],
      [
        "Management",
        -10.822657074087479
      ],
      [
        "Procedure",
        -10.822667660652801
      ],
      [
        "Mod",
        -10.824203871201732
      ],
      [
        "getValueAt",
        -10.824440095851624
      ],
      [
        "getBundle",
        -10.826454822637924
      ],
      [
        "mb",
        -10.827414752271348
      ],
      [
        "Zero",
        -10.827678363298961
      ],
      [
        "fine",
        -10.828352067987911
      ],
      [
        "inc",
        -10.828419186611173
      ],
      [
        "modify",
        -10.828656735890327
      ],
      [
        "addCommand",
        -10.829298583787036
      ],
      [
        "201",
        -10.82952681180807
      ],
      [
        "getList",
        -10.82987287529221
      ],
      [
        "Rotation",
        -10.830472616967498
      ],
      [
        "500",
        -10.830643184362877
      ],
      [
        "_PROPERTY",
        -10.83089356036132
      ],
      [
        "Done",
        -10.830929638279292
      ],
      [
        "FilePath",
        -10.830999116010755
      ],
      [
        "sh",
        -10.832835878692151
      ],
      [
        "_Type",
        -10.833596694704136
      ],
      [
        "resize",
        -10.833748686607912
      ],
      [
        "saved",
        -10.834046877295998
      ],
      [
        "WS",
        -10.834291209424084
      ],
      [
        "jCheckBox",
        -10.834327476307955
      ],
      [
        "servlet",
        -10.834340723407806
      ],
      [
        "Creation",
        -10.834535900094508
      ],
      [
        "IS",
        -10.834546190319667
      ],
      [
        "validator",
        -10.834914892487049
      ],
      [
        "locator",
        -10.834950639352844
      ],
      [
        "pp",
        -10.835229046950108
      ],
      [
        "Paths",
        -10.835461186847875
      ],
      [
        "Execute",
        -10.83547953251988
      ],
      [
        "palette",
        -10.835594433018496
      ],
      [
        "General",
        -10.83565855871023
      ],
      [
        "nextInt",
        -10.835824264672048
      ],
      [
        "IStructure",
        -10.8374046360955
      ],
      [
        "JAXB",
        -10.83832564485659
      ],
      [
        "Env",
        -10.838573606888097
      ],
      [
        "Fixture",
        -10.83905751329657
      ],
      [
        "Coord",
        -10.839156332157295
      ],
      [
        "persist",
        -10.839211986337787
      ],
      [
        "Pages",
        -10.84046393102275
      ],
      [
        "ScrollBar",
        -10.840585867651187
      ],
      [
        "aux",
        -10.840632347296834
      ],
      [
        "getLong",
        -10.840727482176144
      ],
      [
        "NORTH",
        -10.840817538918515
      ],
      [
        "lst",
        -10.840830587042
      ],
      [
        "Illegal",
        -10.840874267084992
      ],
      [
        "getEvent",
        -10.841389691700726
      ],
      [
        "capacity",
        -10.842389848299778
      ],
      [
        "rotate",
        -10.842512399651016
      ],
      [
        "getNumber",
        -10.844225979271023
      ],
      [
        "methods",
        -10.845002075572218
      ],
      [
        "attributeName",
        -10.845409827943556
      ],
      [
        "stroke",
        -10.846916334559019
      ],
      [
        "Bus",
        -10.847447256031192
      ],
      [
        "ml",
        -10.84816031949094
      ],
      [
        "getQuery",
        -10.848616338608124
      ],
      [
        "butt",
        -10.849111302401912
      ],
      [
        "getDatabase",
        -10.849151164460553
      ],
      [
        "Behavior",
        -10.849498776898866
      ],
      [
        "gap",
        -10.849568229270222
      ],
      [
        "Const",
        -10.849806304521103
      ],
      [
        "getOffset",
        -10.850150965102252
      ],
      [
        "isIn",
        -10.850825818469074
      ],
      [
        "getConfiguration",
        -10.85172172556814
      ],
      [
        "lm",
        -10.851783821618445
      ],
      [
        "JList",
        -10.85228457953844
      ],
      [
        "indices",
        -10.853449882110109
      ],
      [
        "extra",
        -10.853990811441808
      ],
      [
        "Switch",
        -10.855689127890166
      ],
      [
        "Square",
        -10.856786098353915
      ],
      [
        "sheet",
        -10.85746122830789
      ],
      [
        "Phone",
        -10.858031983873426
      ],
      [
        "NodeList",
        -10.858502467509371
      ],
      [
        "pkg",
        -10.8586682718426
      ],
      [
        "BoxLayout",
        -10.859317559168103
      ],
      [
        "place",
        -10.859443000238834
      ],
      [
        "master",
        -10.859886915976414
      ],
      [
        "Loaded",
        -10.860096342591035
      ],
      [
        "Fill",
        -10.860647227737296
      ],
      [
        "bb",
        -10.860972892734392
      ],
      [
        "setCursor",
        -10.861251815443662
      ],
      [
        "lbl",
        -10.862324991841344
      ],
      [
        "connected",
        -10.862767379598765
      ],
      [
        "getTest",
        -10.863876224965384
      ],
      [
        "cleanup",
        -10.864186850469931
      ],
      [
        "adjust",
        -10.864336999533403
      ],
      [
        "Commands",
        -10.864867312362703
      ],
      [
        "question",
        -10.864923000511363
      ],
      [
        "getR",
        -10.865140992838963
      ],
      [
        "Received",
        -10.865865620109751
      ],
      [
        "Parts",
        -10.86626841481459
      ],
      [
        "texture",
        -10.866932934929046
      ],
      [
        "IF",
        -10.867402647260931
      ],
      [
        "Answer",
        -10.867472114228914
      ],
      [
        "drop",
        -10.867631393151363
      ],
      [
        "Hierarchy",
        -10.868377134932922
      ],
      [
        "Encoder",
        -10.868393949992893
      ],
      [
        "Slider",
        -10.86900642027118
      ],
      [
        "setShow",
        -10.870274866911428
      ],
      [
        "filePath",
        -10.87071087947874
      ],
      [
        "Indent",
        -10.871312713310495
      ],
      [
        "addContent",
        -10.871406094007313
      ],
      [
        "Material",
        -10.871972358118875
      ],
      [
        "common",
        -10.872097713987854
      ],
      [
        "Ratio",
        -10.872414928089867
      ],
      [
        "blog",
        -10.872511824674511
      ],
      [
        "Theme",
        -10.872724755196298
      ],
      [
        "Country",
        -10.87304201742971
      ],
      [
        "suffix",
        -10.873959168610366
      ],
      [
        "vars",
        -10.875215916454138
      ],
      [
        "isConnected",
        -10.87590199221414
      ],
      [
        "generator",
        -10.875994431872618
      ],
      [
        "ion",
        -10.87644945657204
      ],
      [
        "PDF",
        -10.876887987255508
      ],
      [
        "program",
        -10.877310909027045
      ],
      [
        "Definitions",
        -10.877680471942178
      ],
      [
        "black",
        -10.878071439717715
      ],
      [
        "Begin",
        -10.879833828985753
      ],
      [
        "Audio",
        -10.880196812194336
      ],
      [
        "Branch",
        -10.880550198740627
      ],
      [
        "external",
        -10.881133660190383
      ],
      [
        "_index",
        -10.881383057280907
      ],
      [
        "attach",
        -10.881865100980367
      ],
      [
        "FeatureID",
        -10.881978108139258
      ],
      [
        "UID",
        -10.882420464753057
      ],
      [
        "SelectionEvent",
        -10.882506313044326
      ],
      [
        "sqrt",
        -10.883175311824685
      ],
      [
        "RGB",
        -10.884223998281117
      ],
      [
        "lc",
        -10.884346892988178
      ],
      [
        "setIs",
        -10.88475337972216
      ],
      [
        "Operand",
        -10.884838906690721
      ],
      [
        "setX",
        -10.885946314381936
      ],
      [
        "dl",
        -10.886033979404303
      ],
      [
        "units",
        -10.886064126298661
      ],
      [
        "readObject",
        -10.886091870673528
      ],
      [
        "HORIZONTAL",
        -10.886405548188488
      ],
      [
        "Align",
        -10.886585637255394
      ],
      [
        "jPanel1",
        -10.887752858679956
      ],
      [
        "Completed",
        -10.888377198161187
      ],
      [
        "kind",
        -10.888953882360578
      ],
      [
        "19",
        -10.889068995164218
      ],
      [
        "DataObject",
        -10.889116815905473
      ],
      [
        "mock",
        -10.889864436291752
      ],
      [
        "URLException",
        -10.890158631045452
      ],
      [
        "camera",
        -10.891299732348598
      ],
      [
        "feed",
        -10.891466614934629
      ],
      [
        "Runner",
        -10.891685449320562
      ],
      [
        "WCM",
        -10.891993951235403
      ],
      [
        "jar",
        -10.893187462077409
      ],
      [
        "RDF",
        -10.893751446876852
      ],
      [
        "Has",
        -10.894301526303934
      ],
      [
        "PC",
        -10.894569432568538
      ],
      [
        "di",
        -10.896205017901817
      ],
      [
        "Completion",
        -10.896315545539704
      ],
      [
        "Horizontal",
        -10.89653084644397
      ],
      [
        "white",
        -10.896713005006855
      ],
      [
        "$",
        -10.896821371317774
      ],
      [
        "chooser",
        -10.897945220580068
      ],
      [
        "per",
        -10.898764371865642
      ],
      [
        "Bin",
        -10.898996103863805
      ],
      [
        "Accessor",
        -10.899336029775927
      ],
      [
        "Tokenizer",
        -10.899342229729864
      ],
      [
        "xpath",
        -10.899419514895891
      ],
      [
        "Resolution",
        -10.899420091979593
      ],
      [
        "Unknown",
        -10.899671959950354
      ],
      [
        "dto",
        -10.900378188470285
      ],
      [
        "TimeZone",
        -10.90068691255523
      ],
      [
        "definition",
        -10.901488845298019
      ],
      [
        "js",
        -10.901595094784529
      ],
      [
        "Functions",
        -10.901674072451957
      ],
      [
        "setChanged",
        -10.902138493693261
      ],
      [
        "shared",
        -10.902392774689721
      ],
      [
        "multi",
        -10.902457404694687
      ],
      [
        "setAction",
        -10.902788504908258
      ],
      [
        "AT",
        -10.902832550102424
      ],
      [
        "buttons",
        -10.902967950554068
      ],
      [
        "choice",
        -10.903105069125413
      ],
      [
        "Sensor",
        -10.903282242672415
      ],
      [
        "Reset",
        -10.903514103699013
      ],
      [
        "Registration",
        -10.904742701946152
      ],
      [
        "Deleted",
        -10.905386472182448
      ],
      [
        "Hint",
        -10.905626329438718
      ],
      [
        "Me",
        -10.905794231607587
      ],
      [
        "tail",
        -10.907066840248007
      ],
      [
        "Retained",
        -10.907626092095349
      ],
      [
        "setS",
        -10.908239529332906
      ],
      [
        "packageName",
        -10.908959378788971
      ],
      [
        "Volume",
        -10.908981548670031
      ],
      [
        "cmp",
        -10.909055021974712
      ],
      [
        "CSS",
        -10.909189090293175
      ],
      [
        "Validate",
        -10.910189974245945
      ],
      [
        "pointer",
        -10.910952368860741
      ],
      [
        "chk",
        -10.911282131382652
      ],
      [
        "Play",
        -10.911575911145757
      ],
      [
        "35",
        -10.912065220240711
      ],
      [
        "bc",
        -10.912977821034719
      ],
      [
        "mo",
        -10.913903574063566
      ],
      [
        "Keyword",
        -10.914443783188855
      ],
      [
        "setHeader",
        -10.914564331446181
      ],
      [
        "NotSet",
        -10.914865744084452
      ],
      [
        "Scheme",
        -10.915705965162399
      ],
      [
        "getTree",
        -10.915750385765723
      ],
      [
        "func",
        -10.91577704803844
      ],
      [
        "ReadOnly",
        -10.915815963270584
      ],
      [
        "non",
        -10.915930528809833
      ],
      [
        "Native",
        -10.916842545368018
      ],
      [
        "chat",
        -10.917556534585115
      ],
      [
        "OR",
        -10.917822317819684
      ],
      [
        "Effect",
        -10.9178659024541
      ],
      [
        "toggle",
        -10.918481958790188
      ],
      [
        "GP",
        -10.919242507174076
      ],
      [
        "rd",
        -10.919486043848092
      ],
      [
        "existing",
        -10.91992904850493
      ],
      [
        "oObj",
        -10.920555562927504
      ],
      [
        "Dd",
        -10.920885616575415
      ],
      [
        "Problem",
        -10.922048568255493
      ],
      [
        "download",
        -10.922726619647305
      ],
      [
        "team",
        -10.92332022705413
      ],
      [
        "MONTH",
        -10.923767677652625
      ],
      [
        "single",
        -10.924407043861672
      ],
      [
        "Palette",
        -10.926115872706259
      ],
      [
        "jComboBox",
        -10.926170542605092
      ],
      [
        "AffineTransform",
        -10.926469553601017
      ],
      [
        "JMS",
        -10.926837601408906
      ],
      [
        "Vars",
        -10.926918675288068
      ],
      [
        "getGraph",
        -10.927341757038711
      ],
      [
        "CharArray",
        -10.9280646104525
      ],
      [
        "Photo",
        -10.928117319461554
      ],
      [
        "operand",
        -10.928338761241019
      ],
      [
        "shift",
        -10.92835995016306
      ],
      [
        "0x0",
        -10.92867566179731
      ],
      [
        "down",
        -10.928719668829062
      ],
      [
        "Logic",
        -10.92934347908927
      ],
      [
        "getContainer",
        -10.929771232577574
      ],
      [
        "Album",
        -10.93031361978655
      ],
      [
        "FINE",
        -10.93058388530333
      ],
      [
        "del",
        -10.932671447858947
      ],
      [
        "memory",
        -10.932915424902905
      ],
      [
        "rhs",
        -10.93376191698506
      ],
      [
        "ma",
        -10.933765014970064
      ],
      [
        "ne",
        -10.933817987631734
      ],
      [
        "closed",
        -10.934104857671308
      ],
      [
        "wrapper",
        -10.93430839547274
      ],
      [
        "ul",
        -10.934424476560928
      ],
      [
        "getEditor",
        -10.935067645080084
      ],
      [
        "rep",
        -10.935286477618144
      ],
      [
        "Coords",
        -10.935649228854045
      ],
      [
        "phase",
        -10.935675169991264
      ],
      [
        "Rank",
        -10.935702310633056
      ],
      [
        "poll",
        -10.935940066448136
      ],
      [
        "edges",
        -10.936561505928744
      ],
      [
        "Author",
        -10.93666999375965
      ],
      [
        "eq",
        -10.936717392734938
      ],
      [
        "getReference",
        -10.936851517013412
      ],
      [
        "Prefs",
        -10.936881831553855
      ],
      [
        "Hex",
        -10.936924508195219
      ],
      [
        "removeElement",
        -10.936940944495586
      ],
      [
        "lib",
        -10.9370652058332
      ],
      [
        "Fixed",
        -10.937272575015687
      ],
      [
        "propertyChange",
        -10.93749915683992
      ],
      [
        "Named",
        -10.937623298601178
      ],
      [
        "Radius",
        -10.938072981360026
      ],
      [
        "Evaluation",
        -10.938429497559863
      ],
      [
        "rpc",
        -10.938708256805876
      ],
      [
        "cost",
        -10.939077067684856
      ],
      [
        "ColumnCount",
        -10.939220934784634
      ],
      [
        "ld",
        -10.939922633711875
      ],
      [
        "InetAddress",
        -10.94017905227184
      ],
      [
        "Accessible",
        -10.940437623746512
      ],
      [
        "Wait",
        -10.941142750901513
      ],
      [
        "getOutput",
        -10.941813641583515
      ],
      [
        "_log",
        -10.943861344751886
      ],
      [
        "Arguments",
        -10.944127122660332
      ],
      [
        "browser",
        -10.944246742096771
      ],
      [
        "Extent",
        -10.944306091566268
      ],
      [
        "TitledBorder",
        -10.944505714174841
      ],
      [
        "getN",
        -10.945005282735416
      ],
      [
        "IFile",
        -10.945044463238322
      ],
      [
        "rotation",
        -10.945080974566736
      ],
      [
        "rv",
        -10.945353824225904
      ],
      [
        "Cached",
        -10.946175441237603
      ],
      [
        "Receiver",
        -10.946391561495492
      ],
      [
        "DS",
        -10.946667530908766
      ],
      [
        "Tables",
        -10.94711520150899
      ],
      [
        "IllegalAccess",
        -10.947290594566805
      ],
      [
        "desktop",
        -10.94796365702584
      ],
      [
        "Comments",
        -10.948134293363175
      ],
      [
        "NULL",
        -10.948674927289762
      ],
      [
        "pid",
        -10.948888945363677
      ],
      [
        "digest",
        -10.949153759445739
      ],
      [
        "setFile",
        -10.949455608363266
      ],
      [
        "getError",
        -10.949678652014484
      ],
      [
        "KeyListener",
        -10.949979405306365
      ],
      [
        "CellRenderer",
        -10.950108360327977
      ],
      [
        "DATE",
        -10.950191241749845
      ],
      [
        "Trigger",
        -10.950336906343265
      ],
      [
        "DC",
        -10.95046834554757
      ],
      [
        "get_",
        -10.950568173138148
      ],
      [
        "Dispatcher",
        -10.950580150525616
      ],
      [
        "audio",
        -10.950892715283722
      ],
      [
        "Normal",
        -10.951179223005687
      ],
      [
        "Initialized",
        -10.951350013100933
      ],
      [
        "FileReader",
        -10.951447875739245
      ],
      [
        "blue",
        -10.951486199173392
      ],
      [
        "Enable",
        -10.951956733255093
      ],
      [
        "Clear",
        -10.952180438827803
      ],
      [
        "enter",
        -10.952577928387326
      ],
      [
        "basic",
        -10.952715142226342
      ],
      [
        "actor",
        -10.952853399113714
      ],
      [
        "Modify",
        -10.9530938914226
      ],
      [
        "serialize",
        -10.953565641336425
      ],
      [
        "contentType",
        -10.953704016311463
      ],
      [
        "FileFilter",
        -10.954137255931114
      ],
      [
        "Painter",
        -10.954511186244964
      ],
      [
        "Compiled",
        -10.954890024659605
      ],
      [
        "sound",
        -10.954897404403141
      ],
      [
        "fatal",
        -10.95497588395827
      ],
      [
        "notifyObservers",
        -10.955008968663762
      ],
      [
        "a_",
        -10.955506221108418
      ],
      [
        "hex",
        -10.955689297818582
      ],
      [
        "Participant",
        -10.957082385177786
      ],
      [
        "preferences",
        -10.957805806869672
      ],
      [
        "Ui",
        -10.958107046677926
      ],
      [
        "_list",
        -10.958213140900586
      ],
      [
        "Invocation",
        -10.95921653830873
      ],
      [
        "SOUTH",
        -10.960271248209871
      ],
      [
        "Conf",
        -10.960583116288547
      ],
      [
        "cap",
        -10.960583563324436
      ],
      [
        "concat",
        -10.961098630152883
      ],
      [
        "coords",
        -10.961231344783425
      ],
      [
        "Interpreter",
        -10.96146803028348
      ],
      [
        "STATUS_",
        -10.961989876905454
      ],
      [
        "ER",
        -10.962477373159821
      ],
      [
        "Two",
        -10.963076847565397
      ],
      [
        "Spacing",
        -10.963259049373768
      ],
      [
        "mainPanel",
        -10.963972774465278
      ],
      [
        "unique",
        -10.964574725650637
      ],
      [
        "Drop",
        -10.965365605200212
      ],
      [
        "bo",
        -10.966239490771883
      ],
      [
        "Metric",
        -10.966432137339961
      ],
      [
        "css",
        -10.966960508322746
      ],
      [
        "Curve",
        -10.967097971295251
      ],
      [
        "ro",
        -10.967999679510076
      ],
      [
        "Dispatch",
        -10.968303617540371
      ],
      [
        "members",
        -10.968701930538773
      ],
      [
        "Extra",
        -10.969111707182904
      ],
      [
        "Assertion",
        -10.969126034687163
      ],
      [
        "_ret",
        -10.969334743668199
      ],
      [
        "RP",
        -10.969943631296744
      ],
      [
        "IDs",
        -10.970742624021447
      ],
      [
        "getForm",
        -10.971179567711122
      ],
      [
        "transition",
        -10.971311241540066
      ],
      [
        "ObjectName",
        -10.971327204746084
      ],
      [
        "jSplitPane",
        -10.97200768003023
      ],
      [
        "native",
        -10.972184777566955
      ],
      [
        "localName",
        -10.97223046095543
      ],
      [
        "sim",
        -10.97223922572893
      ],
      [
        "Success",
        -10.972635784017383
      ],
      [
        "dec",
        -10.9727314245401
      ],
      [
        "Experiment",
        -10.973240778385968
      ],
      [
        "dm",
        -10.973261824177683
      ],
      [
        "Artifact",
        -10.973642462676992
      ],
      [
        "processor",
        -10.974579986063599
      ],
      [
        "Navigation",
        -10.974623307174706
      ],
      [
        "FILE",
        -10.9756731724624
      ],
      [
        "vals",
        -10.975682946811714
      ],
      [
        "ob",
        -10.975984415957212
      ],
      [
        "Business",
        -10.976034540377295
      ],
      [
        "signal",
        -10.976530859061057
      ],
      [
        "any",
        -10.977144539381177
      ],
      [
        "getNamespace",
        -10.977964715293446
      ],
      [
        "Solution",
        -10.978387403579559
      ],
      [
        "Light",
        -10.978738738877343
      ],
      [
        "remaining",
        -10.978798075358462
      ],
      [
        "Cells",
        -10.978922517612702
      ],
      [
        "AttributeValue",
        -10.979113500511794
      ],
      [
        "isLive",
        -10.97934488293539
      ],
      [
        "mgr",
        -10.979700650647011
      ],
      [
        "commands",
        -10.980852243437392
      ],
      [
        "getIdentifier",
        -10.981043164322408
      ],
      [
        "rootNode",
        -10.981094268095891
      ],
      [
        "gridLayout",
        -10.981334661079378
      ],
      [
        "detail",
        -10.981446631457441
      ],
      [
        "TS",
        -10.981674685526627
      ],
      [
        "Metrics",
        -10.982089262293346
      ],
      [
        "getOutputStream",
        -10.982964094306283
      ],
      [
        "cont",
        -10.982972247814828
      ],
      [
        "Signal",
        -10.983223565414804
      ],
      [
        "ACTION_",
        -10.983403323843838
      ],
      [
        "getMaximum",
        -10.983983908807872
      ],
      [
        "sFor",
        -10.984273189086101
      ],
      [
        "vertices",
        -10.985369704859295
      ],
      [
        "getJScrollPane",
        -10.98657562523304
      ],
      [
        "Implementation",
        -10.986583255252084
      ],
      [
        "JSONObject",
        -10.986782884960814
      ],
      [
        "cells",
        -10.9872983650122
      ],
      [
        "getCount",
        -10.987452340570506
      ],
      [
        "fix",
        -10.988070980798891
      ],
      [
        "structure",
        -10.988833192001554
      ],
      [
        "ErrorHandler",
        -10.989001185947682
      ],
      [
        "References",
        -10.989651540025386
      ],
      [
        "Mappings",
        -10.989860611643408
      ],
      [
        "DataModel",
        -10.990113518399028
      ],
      [
        "37",
        -10.990197281982429
      ],
      [
        "setMaximum",
        -10.990838150125791
      ],
      [
        "MenuBar",
        -10.991605765422602
      ],
      [
        "primary",
        -10.99197112031537
      ],
      [
        "lt",
        -10.992213600910336
      ],
      [
        "geo",
        -10.992897936992025
      ],
      [
        "ImageDescriptor",
        -10.993082900901609
      ],
      [
        "drag",
        -10.993474177015269
      ],
      [
        "rgb",
        -10.993612721037444
      ],
      [
        "seconds",
        -10.994222967842177
      ],
      [
        "Shared",
        -10.994259189449712
      ],
      [
        "side",
        -10.99429056268948
      ],
      [
        "archive",
        -10.994756585678672
      ],
      [
        "dispatch",
        -10.9956530093448
      ],
      [
        "wizard",
        -10.995711077820257
      ],
      [
        "he",
        -10.995872345318412
      ],
      [
        "setPosition",
        -10.995927609430963
      ],
      [
        "Alpha",
        -10.996134559135015
      ],
      [
        "jButton1",
        -10.996229830197233
      ],
      [
        "proc",
        -10.99628114418816
      ],
      [
        "Dto",
        -10.996437578190822
      ],
      [
        "construct",
        -10.997117947148332
      ],
      [
        "permission",
        -10.9972989677716
      ],
      [
        "Course",
        -10.997531423854511
      ],
      [
        "worker",
        -10.997783340658728
      ],
      [
        "Executor",
        -10.99808370489096
      ],
      [
        "turn",
        -10.998351917169332
      ],
      [
        "Persistent",
        -10.998659514846937
      ],
      [
        "getEntity",
        -10.999087648756266
      ],
      [
        "SP",
        -10.999442076226106
      ],
      [
        "volume",
        -10.999630600618213
      ],
      [
        "json",
        -10.999772681785455
      ],
      [
        "GC",
        -11.000013337887113
      ],
      [
        "ES",
        -11.000201678000813
      ],
      [
        "InternalFrame",
        -11.000316065133294
      ],
      [
        "returnValue",
        -11.000611351532994
      ],
      [
        "outputStream",
        -11.000648778688337
      ],
      [
        "roles",
        -11.000733387805962
      ],
      [
        "UP",
        -11.001025350000024
      ],
      [
        "om",
        -11.001265425069551
      ],
      [
        "price",
        -11.001872605253642
      ],
      [
        "Drawable",
        -11.003118174745449
      ],
      [
        "Do",
        -11.003398164659282
      ],
      [
        "transfer",
        -11.003527434423365
      ],
      [
        "ge",
        -11.004167160176072
      ],
      [
        "PreferenceStore",
        -11.004284391885566
      ],
      [
        "ChangeSupport",
        -11.005046089465715
      ],
      [
        "__c",
        -11.005100018595893
      ],
      [
        "Generation",
        -11.00514120914919
      ],
      [
        "pixel",
        -11.005516058425979
      ],
      [
        "Roles",
        -11.005595893141354
      ],
      [
        "man",
        -11.00658820919004
      ],
      [
        "Created",
        -11.006671646843028
      ],
      [
        "Phrase",
        -11.006837848135381
      ],
      [
        "route",
        -11.007316683292203
      ],
      [
        "Decl",
        -11.007405323424429
      ],
      [
        "Bottom",
        -11.007698071092637
      ],
      [
        "rename",
        -11.00775199969261
      ],
      [
        "nm",
        -11.008444458374253
      ],
      [
        "Pressed",
        -11.009190962696518
      ],
      [
        "jj",
        -11.009736230245528
      ],
      [
        "getTab",
        -11.009988221513126
      ],
      [
        "FS",
        -11.0106225887242
      ],
      [
        "Arc",
        -11.010981179715273
      ],
      [
        "ll_",
        -11.011408912347406
      ],
      [
        "sAssignableFrom",
        -11.011768510522426
      ],
      [
        "TableColumn",
        -11.011873113500156
      ],
      [
        "HttpSession",
        -11.01198789955213
      ],
      [
        "48",
        -11.012631359634849
      ],
      [
        "cfg",
        -11.013120369331036
      ],
      [
        "Analysis",
        -11.013174899900879
      ],
      [
        "Capabilities",
        -11.013683884153433
      ],
      [
        "Measure",
        -11.01377983691756
      ],
      [
        "Pending",
        -11.014516585071313
      ],
      [
        "Img",
        -11.014630720114962
      ],
      [
        "scene",
        -11.015640482648106
      ],
      [
        "getTask",
        -11.015959425541224
      ],
      [
        "Hit",
        -11.016041583535138
      ],
      [
        "handleException",
        -11.016653132304238
      ],
      [
        "Ctx",
        -11.017253064558737
      ],
      [
        "getClassLoader",
        -11.0173140393538
      ],
      [
        "Positions",
        -11.017966390468747
      ],
      [
        "span",
        -11.01820738064946
      ],
      [
        "Compound",
        -11.018377462902864
      ],
      [
        "Commit",
        -11.01838558547334
      ],
      [
        "Vertical",
        -11.019014585458837
      ],
      [
        "getURL",
        -11.019101179995088
      ],
      [
        "getD",
        -11.019431276727882
      ],
      [
        "getTransaction",
        -11.019852504595477
      ],
      [
        "Schedule",
        -11.020709685026034
      ],
      [
        "getButton",
        -11.020717642035283
      ],
      [
        "Margin",
        -11.021537932673132
      ],
      [
        "etained",
        -11.021779229712472
      ],
      [
        "Operations",
        -11.02236264479092
      ],
      [
        "Over",
        -11.022507143603722
      ],
      [
        "textArea",
        -11.02263528866391
      ],
      [
        "Sprite",
        -11.022849651188679
      ],
      [
        "issue",
        -11.02300140605612
      ],
      [
        "receiver",
        -11.024085785805717
      ],
      [
        "Annotations",
        -11.025158606081447
      ],
      [
        "validation",
        -11.025379025723204
      ],
      [
        "Coordinates",
        -11.025960071444256
      ],
      [
        "JS",
        -11.026055571636626
      ],
      [
        "Dst",
        -11.026913739998676
      ],
      [
        "cas",
        -11.027185799362618
      ],
      [
        "multiply",
        -11.02739010277093
      ],
      [
        "la",
        -11.027399653864887
      ],
      [
        "deleted",
        -11.027530569862003
      ],
      [
        "rm",
        -11.027553122948394
      ],
      [
        "au",
        -11.028275945977374
      ],
      [
        "Surface",
        -11.02885671964516
      ],
      [
        "sessionId",
        -11.028968112892485
      ],
      [
        "AL",
        -11.029526771816208
      ],
      [
        "Snapshot",
        -11.029527570057754
      ],
      [
        "fl",
        -11.03053106300326
      ],
      [
        "27",
        -11.030654020315806
      ],
      [
        "slice",
        -11.030949265999071
      ],
      [
        "country",
        -11.031778184032472
      ],
      [
        "ItemCount",
        -11.03180068220139
      ],
      [
        "Into",
        -11.0321384587421
      ],
      [
        "Framework",
        -11.032277322559839
      ],
      [
        "images",
        -11.032891984673633
      ],
      [
        "escape",
        -11.032894428936691
      ],
      [
        "define",
        -11.034028077184075
      ],
      [
        "failure",
        -11.03479777151176
      ],
      [
        "Distribution",
        -11.034844916934567
      ],
      [
        "services",
        -11.035011987302113
      ],
      [
        "inv",
        -11.035132153179703
      ],
      [
        "Printer",
        -11.035779325023565
      ],
      [
        "holder",
        -11.036121488768817
      ],
      [
        "tabs",
        -11.036472187003884
      ],
      [
        "EventHandler",
        -11.036651470213883
      ],
      [
        "isRunning",
        -11.036816192494854
      ],
      [
        "Cards",
        -11.037087908622345
      ],
      [
        "keyCode",
        -11.037896150739316
      ],
      [
        "parseDouble",
        -11.038135501574516
      ],
      [
        "Frequency",
        -11.039032550093083
      ],
      [
        "hit",
        -11.039081011640501
      ],
      [
        "getLeft",
        -11.039533048384286
      ],
      [
        "labels",
        -11.040028104255715
      ],
      [
        "getStyle",
        -11.04022117862407
      ],
      [
        "Goal",
        -11.040362882671737
      ],
      [
        "51",
        -11.040618019393113
      ],
      [
        "tearDown",
        -11.04073204689226
      ],
      [
        "Ctrl",
        -11.040899028047162
      ],
      [
        "Eval",
        -11.04186151132668
      ],
      [
        "Hand",
        -11.04229366110249
      ],
      [
        "Checker",
        -11.04241934754945
      ],
      [
        "PLAIN",
        -11.043097493885085
      ],
      [
        "addTab",
        -11.043331940735113
      ],
      [
        "tasks",
        -11.044161017665186
      ],
      [
        "getExtension",
        -11.044226457418494
      ],
      [
        "Days",
        -11.045292406115085
      ],
      [
        "InputSource",
        -11.047288779767863
      ],
      [
        "NamingException",
        -11.049850293079963
      ],
      [
        "Entities",
        -11.050642841125551
      ],
      [
        "ness",
        -11.051085052143634
      ],
      [
        "STRING",
        -11.051821476028419
      ],
      [
        "details",
        -11.051872273213739
      ],
      [
        "algorithm",
        -11.051957148170182
      ],
      [
        "YEAR",
        -11.052417672152046
      ],
      [
        "assertSame",
        -11.052661798947597
      ],
      [
        "t2",
        -11.05270093709128
      ],
      [
        "batch",
        -11.052785206434216
      ],
      [
        "Dom",
        -11.053818214556141
      ],
      [
        "ResourceAsStream",
        -11.05392942841317
      ],
      [
        "mat",
        -11.05462507529076
      ],
      [
        "About",
        -11.054811660131103
      ],
      [
        "m2",
        -11.054880660547806
      ],
      [
        "setY",
        -11.05521509991775
      ],
      [
        "tk",
        -11.055630632811427
      ],
      [
        "categories",
        -11.056017723267813
      ],
      [
        "CIM",
        -11.056098256078908
      ],
      [
        "Serial",
        -11.056110179376336
      ],
      [
        "Clip",
        -11.05658542361795
      ],
      [
        "Typed",
        -11.056717272588909
      ],
      [
        "TypeName",
        -11.057243719889867
      ],
      [
        "Con",
        -11.057416634493864
      ],
      [
        "Filters",
        -11.057975501559866
      ],
      [
        "ans",
        -11.05885875726224
      ],
      [
        "finished",
        -11.059059035598306
      ],
      [
        "Fact",
        -11.061438355333927
      ],
      [
        "IStatus",
        -11.061495387587135
      ],
      [
        "Overlay",
        -11.062415778360545
      ],
      [
        "Finish",
        -11.06250929082662
      ],
      [
        "Increment",
        -11.062861819821293
      ],
      [
        "launch",
        -11.063103013850174
      ],
      [
        "setLast",
        -11.063236403596454
      ],
      [
        "Percent",
        -11.063330973519879
      ],
      [
        "_logger",
        -11.063397892372727
      ],
      [
        "Drag",
        -11.063534392589869
      ],
      [
        "mean",
        -11.064610543251575
      ],
      [
        "ins",
        -11.064616397602382
      ],
      [
        "JDBC",
        -11.0652590253444
      ],
      [
        "summary",
        -11.065305102793776
      ],
      [
        "setP",
        -11.065456755263781
      ],
      [
        "highlight",
        -11.065969866993541
      ],
      [
        "ll",
        -11.065991360781794
      ],
      [
        "beans",
        -11.065995332470525
      ],
      [
        "getMenu",
        -11.06664126083481
      ],
      [
        "alignment",
        -11.066688144890776
      ],
      [
        "29",
        -11.067116643941802
      ],
      [
        "ERROR_MESSAGE",
        -11.067117930771662
      ],
      [
        "keyword",
        -11.067138570290787
      ],
      [
        "setUse",
        -11.067299214838744
      ],
      [
        "Replace",
        -11.067631483980861
      ],
      [
        "Broker",
        -11.0683304968004
      ],
      [
        "256",
        -11.068448146064828
      ],
      [
        "Oid",
        -11.068702991035906
      ],
      [
        "Primitive",
        -11.068783614182427
      ],
      [
        "environment",
        -11.069277594783822
      ],
      [
        "phone",
        -11.069413656111678
      ],
      [
        "sin",
        -11.069954107320882
      ],
      [
        "ContentType",
        -11.070146602982588
      ],
      [
        "getF",
        -11.070269587276776
      ],
      [
        "submit",
        -11.071100176659462
      ],
      [
        "Sdai",
        -11.071681506849465
      ],
      [
        "El",
        -11.072238297346315
      ],
      [
        "setDirty",
        -11.072670926542791
      ],
      [
        "addValue",
        -11.074247014086993
      ],
      [
        "Visibility",
        -11.074613714109699
      ],
      [
        "chain",
        -11.074932494591666
      ],
      [
        "80",
        -11.075143643557151
      ],
      [
        "Spinner",
        -11.075310723341769
      ],
      [
        "Evaluator",
        -11.075826665202943
      ],
      [
        "cancelButton",
        -11.07593688551458
      ],
      [
        "green",
        -11.076065122024433
      ],
      [
[...]
