{
  "version": "1.0",
  "truncation": null,
  "padding": null,
  "added_tokens": [
    {
      "id": 0,
      "content": "<pad>",
      "single_word": false,
      "lstrip": false,
      "rstrip": false,
      "normalized": false,
      "special": true
    },
    {
      "id": 1,
      "content": "<unk>",
      "single_word": false,
      "lstrip": false,
      "rstrip": false,
      "normalized": false,
      "special": true
    },
    {
      "id": 2,
      "content": "<s>",
      "single_word": false,
      "lstrip": false,
      "rstrip": false,
      "normalized": false,
      "special": true
    },
    {
      "id": 3,
      "content": "</s>",
      "single_word": false,
      "lstrip": false,
      "rstrip": false,
      "normalized": false,
      "special": true
    },
    {
      "id": 4,
      "content": "\"<str>\"",
      "single_word": false,
      "lstrip": false,
      "rstrip": false,
      "normalized": false,
      "special": true
    }
  ],
  "normalizer": {
    "type": "Sequence",
    "normalizers": [
      {
        "type": "NFD"
      },
      {
        "type": "StripAccents"
      },
      {
        "type": "Strip",
        "strip_left": true,
        "strip_right": true
      }
    ]
  },
  "pre_tokenizer": {
    "type": "Whitespace"
  },
  "post_processor": null,
  "decoder": null,
  "model": {
    "type": "BPE",
    "dropout": null,
    "unk_token": "<unk>",
    "continuing_subword_prefix": null,
    "end_of_word_suffix": "</w>",
    "fuse_unk": false,
    "vocab": {
      "<pad>": 0,
      "<unk>": 1,
      "<s>": 2,
      "</s>": 3,
      "\"<str>\"": 4,
      "0": 5,
      "1": 6,
      "2": 7,
      "3": 8,
      "4": 9,
      "5": 10,
      "6": 11,
      "7": 12,
      "8": 13,
      "9": 14,
      "a": 15,
      "b": 16,
      "c": 17,
      "d": 18,
      "e": 19,
      "f": 20,
      "g": 21,
      "h": 22,
      "i": 23,
      "j": 24,
      "k": 25,
      "l": 26,
      "m": 27,
      "n": 28,
      "o": 29,
      "p": 30,
      "q": 31,
      "r": 32,
      "s": 33,
      "t": 34,
      "u": 35,
      "v": 36,
      "w": 37,
      "x": 38,
      "y": 39,
      "z": 40,
      "s</w>": 41,
      "a</w>": 42,
      "g</w>": 43,
      "3</w>": 44,
      "o</w>": 45,
      "t</w>": 46,
      "1</w>": 47,
      "2</w>": 48,
      "r</w>": 49,
      "y</w>": 50,
      "l</w>": 51,
      "p</w>": 52,
      "e</w>": 53,
      "n</w>": 54,
      "d</w>": 55,
      "m</w>": 56,
      "8</w>": 57,
      "i</w>": 58,
      "x</w>": 59,
      "j</w>": 60,
      "h</w>": 61,
      "c</w>": 62,
      "u</w>": 63,
      "v</w>": 64,
      "w</w>": 65,
      "5</w>": 66,
      "0</w>": 67,
      "f</w>": 68,
      "b</w>": 69,
      "7</w>": 70,
      "q</w>": 71,
      "k</w>": 72,
      "6</w>": 73,
      "z</w>": 74,
      "4</w>": 75,
      "9</w>": 76,
      "th": 77,
      "the</w>": 78,
      "re": 79,
      "in": 80,
      "te": 81,
      "se": 82,
      "ti": 83,
      "co": 84,
      "is</w>": 85,
      "ur": 86,
      "al": 87,
      "me": 88,
      "of</w>": 89,
      "ts</w>": 90,
      "on</w>": 91,
      "or</w>": 92,
      "an": 93,
      "ro": 94,
      "ec": 95,
      "this</w>": 96,
      "at": 97,
      "to</w>": 98,
      "er": 99,
      "ret": 100,
      "de": 101,
      "ge": 102,
      "st": 103,
      "tion</w>": 104,
      "retur": 105,
      "ns</w>": 106,
      "fi": 107,
      "ing</w>": 108,
      "ar": 109,
      "for</w>": 110,
      "es</w>": 111,
      "nt</w>": 112,
      "returns</w>": 113,
      "or": 114,
      "er</w>": 115,
      "ac": 116,
      "ri": 117,
      "de</w>": 118,
      "ed</w>": 119,
      "tho": 120,
      "la": 121,
      "metho": 122,
      "le</w>": 123,
      "method</w>": 124,
      "is": 125,
      "ue</w>": 126,
      "val": 127,
      "pro": 128,
      "con": 129,
      "sets</w>": 130,
      "in</w>": 131,
      "en</w>": 132,
      "ad": 133,
      "le": 134,
      "lo": 135,
      "ch": 136,
      "per": 137,
      "an</w>": 138,
      "en": 139,
      "code</w>": 140,
      "ta": 141,
      "value</w>": 142,
      "si": 143,
      "ty</w>": 144,
      "ate": 145,
      "me</w>": 146,
      "po": 147,
      "mo": 148,
      "ate</w>": 149,
      "set</w>": 150,
      "ma": 151,
      "ce</w>": 152,
      "wi": 153,
      "st</w>": 154,
      "ne": 155,
      "jec": 156,
      "ter</w>": 157,
      "na": 158,
      "at</w>": 159,
      "ob": 160,
      "iv": 161,
      "wh": 162,
      "get</w>": 163,
      "and</w>": 164,
      "sp": 165,
      "no": 166,
      "proper": 167,
      "objec": 168,
      "di": 169,
      "ds</w>": 170,
      "if</w>": 171,
      "bu": 172,
      "as": 173,
      "th</w>": 174,
      "ge</w>": 175,
      "com": 176,
      "un": 177,
      "property</w>": 178,
      "object</w>": 179,
      "giv": 180,
      "ra": 181,
      "ss</w>": 182,
      "ul": 183,
      "gets</w>": 184,
      "given</w>": 185,
      "cre": 186,
      "fro": 187,
      "from</w>": 188,
      "lis": 189,
      "tr": 190,
      "li": 191,
      "ex": 192,
      "ce": 193,
      "ter": 194,
      "ment</w>": 195,
      "te</w>": 196,
      "spec": 197,
      "str": 198,
      "ini": 199,
      "as</w>": 200,
      "ifi": 201,
      "that</w>": 202,
      "ation</w>": 203,
      "use": 204,
      "so": 205,
      "ali": 206,
      "with</w>": 207,
      "ted</w>": 208,
      "qu": 209,
      "vi": 210,
      "specifi": 211,
      "um": 212,
      "name</w>": 213,
      "ble</w>": 214,
      "ates</w>": 215,
      "cal": 216,
      "do": 217,
      "ve</w>": 218,
      "be": 219,
      "pre": 220,
      "for": 221,
      "cur": 222,
      "cla": 223,
      "par": 224,
      "initi": 225,
      "aliz": 226,
      "dat": 227,
      "by</w>": 228,
      "sa": 229,
      "sc": 230,
      "all</w>": 231,
      "se</w>": 232,
      "yp": 233,
      "specified</w>": 234,
      "sh": 235,
      "xt</w>": 236,
      "al</w>": 237,
      "ver": 238,
      "return</w>": 239,
      "curre": 240,
      "ap": 241,
      "ly</w>": 242,
      "ut</w>": 243,
      "typ": 244,
      "su": 245,
      "men": 246,
      "mp": 247,
      "string</w>": 248,
      "initializ": 249,
      "class</w>": 250,
      "list</w>": 251,
      "ther</w>": 252,
      "stan": 253,
      "tri": 254,
      "on": 255,
      "new</w>": 256,
      "lec": 257,
      "test</w>": 258,
      "adds</w>": 259,
      "col": 260,
      "el": 261,
      "type</w>": 262,
      "be</w>": 263,
      "bo": 264,
      "ser": 265,
      "file</w>": 266,
      "it</w>": 267,
      "ated</w>": 268,
      "pa": 269,
      "ch</w>": 270,
      "scri": 271,
      "id</w>": 272,
      "to": 273,
      "ev": 274,
      "text</w>": 275,
      "remo": 276,
      "ber</w>": 277,
      "current</w>": 278,
      "chec": 279,
      "fe": 280,
      "tter</w>": 281,
      "tor</w>": 282,
      "initializes</w>": 283,
      "num": 284,
      "ten": 285,
      "data</w>": 286,
      "descri": 287,
      "number</w>": 288,
      "ke": 289,
      "instan": 290,
      "der</w>": 291,
      "tes</w>": 292,
      "ele": 293,
      "tribu": 294,
      "sen": 295,
      "rea": 296,
      "attribu": 297,
      "call": 298,
      "tio": 299,
      "il": 300,
      "cu": 301,
      "ure</w>": 302,
      "whe": 303,
      "ent</w>": 304,
      "ab": 305,
      "up": 306,
      "whether</w>": 307,
      "descrip": 308,
      "sion</w>": 309,
      "red</w>": 310,
      "selec": 311,
      "def": 312,
      "res": 313,
      "used</w>": 314,
      "creates</w>": 315,
      "instance</w>": 316,
      "ks</w>": 317,
      "tt": 318,
      "add</w>": 319,
      "dis": 320,
      "pla": 321,
      "ll</w>": 322,
      "loc": 323,
      "mes": 324,
      "tation</w>": 325,
      "chan": 326,
      "fiel": 327,
      "node</w>": 328,
      "compo": 329,
      "ci": 330,
      "messa": 331,
      "when</w>": 332,
      "ite": 333,
      "ou": 334,
      "gen": 335,
      "ase</w>": 336,
      "attribute</w>": 337,
      "sho": 338,
      "lin": 339,
      "cor": 340,
      "tions</w>": 341,
      "user</w>": 342,
      "ves</w>": 343,
      "int</w>": 344,
      "up</w>": 345,
      "create</w>": 346,
      "ult</w>": 347,
      "date</w>": 348,
      "element</w>": 349,
      "put</w>": 350,
      "ers</w>": 351,
      "sour": 352,
      "ding</w>": 353,
      "op": 354,
      "not</w>": 355,
      "les</w>": 356,
      "true</w>": 357,
      "ren": 358,
      "has</w>": 359,
      "gener": 360,
      "message</w>": 361,
      "ses</w>": 362,
      "au": 363,
      "pan": 364,
      "ory</w>": 365,
      "sed</w>": 366,
      "inde": 367,
      "inter": 368,
      "table</w>": 369,
      "setter</w>": 370,
      "el</w>": 371,
      "field</w>": 372,
      "pp": 373,
      "ction</w>": 374,
      "whi": 375,
      "listen": 376,
      "nec": 377,
      "and": 378,
      "que": 379,
      "tain": 380,
      "wor": 381,
      "called</w>": 382,
      "its</w>": 383,
      "action</w>": 384,
      "app": 385,
      "source</w>": 386,
      "nent</w>": 387,
      "ded</w>": 388,
      "ace</w>": 389,
      "para": 390,
      "imp": 391,
      "star": 392,
      "component</w>": 393,
      "fo": 394,
      "hand": 395,
      "which</w>": 396,
      "use</w>": 397,
      "presen": 398,
      "ar</w>": 399,
      "are</w>": 400,
      "lu": 401,
      "event</w>": 402,
      "ver</w>": 403,
      "connec": 404,
      "forma": 405,
      "sing</w>": 406,
      "key</w>": 407,
      "tran": 408,
      "index</w>": 409,
      "able</w>": 410,
      "posi": 411,
      "contain": 412,
      "pat": 413,
      "mode": 414,
      "item</w>": 415,
      "reg": 416,
      "rec": 417,
      "represen": 418,
      "removes</w>": 419,
      "ort</w>": 420,
      "wri": 421,
      "ting</w>": 422,
      "ments</w>": 423,
      "gra": 424,
      "mu": 425,
      "checks</w>": 426,
      "min": 427,
      "vie": 428,
      "gh": 429,
      "retri": 430,
      "time</w>": 431,
      "model</w>": 432,
      "parame": 433,
      "gu": 434,
      "colum": 435,
      "ms</w>": 436,
      "tifi": 437,
      "ima": 438,
      "res</w>": 439,
      "play": 440,
      "cation</w>": 441,
      "valu": 442,
      "one</w>": 443,
      "description</w>": 444,
      "state</w>": 445,
      "ws</w>": 446,
      "defa": 447,
      "ator</w>": 448,
      "ges</w>": 449,
      "confi": 450,
      "ere</w>": 451,
      "uc": 452,
      "mat": 453,
      "soci": 454,
      "clo": 455,
      "comm": 456,
      "tive</w>": 457,
      "he": 458,
      "sto": 459,
      "associ": 460,
      "nal</w>": 461,
      "imple": 462,
      "default</w>": 463,
      "read</w>": 464,
      "proce": 465,
      "sub": 466,
      "sts</w>": 467,
      "check</w>": 468,
      "gro": 469,
      "pu": 470,
      "gs</w>": 471,
      "ho": 472,
      "into</w>": 473,
      "av": 474,
      "ssion</w>": 475,
      "ces</w>": 476,
      "trans": 477,
      "form</w>": 478,
      "ters</w>": 479,
      "ature</w>": 480,
      "will</w>": 481,
      "butt": 482,
      "feren": 483,
      "line</w>": 484,
      "ff": 485,
      "tory</w>": 486,
      "ger</w>": 487,
      "acce": 488,
      "ml</w>": 489,
      "man": 490,
      "docu": 491,
      "sy": 492,
      "reque": 493,
      "uld</w>": 494,
      "pi": 495,
      "ack</w>": 496,
      "tent</w>": 497,
      "listener</w>": 498,
      "column</w>": 499,
      "mi": 500,
      "termin": 501,
      "position</w>": 502,
      "fun": 503,
      "vis": 504,
      "we": 505,
      "cont": 506,
      "siz": 507,
      "ls</w>": 508,
      "hi": 509,
      "getter</w>": 510,
      "button</w>": 511,
      "selected</w>": 512,
      "out": 513,
      "map</w>": 514,
      "dele": 515,
      "ari": 516,
      "loa": 517,
      "ary</w>": 518,
      "ach": 519,
      "pon": 520,
      "fin": 521,
      "ori": 522,
      "strea": 523,
      "should</w>": 524,
      "des</w>": 525,
      "ree</w>": 526,
      "edi": 527,
      "path</w>": 528,
      "values</w>": 529,
      "read": 530,
      "input</w>": 531,
      "us</w>": 532,
      "arra": 533,
      "associated</w>": 534,
      "remove</w>": 535,
      "ard</w>": 536,
      "cli": 537,
      "feature</w>": 538,
      "dic": 539,
      "respon": 540,
      "tests</w>": 541,
      "pr": 542,
      "und</w>": 543,
      "try</w>": 544,
      "view</w>": 545,
      "tt</w>": 546,
      "vice</w>": 547,
      "size</w>": 548,
      "den": 549,
      "rep": 550,
      "vo": 551,
      "stream</w>": 552,
      "out</w>": 553,
      "image</w>": 554,
      "array</w>": 555,
      "tly</w>": 556,
      "ste": 557,
      "panel</w>": 558,
      "sig": 559,
      "server</w>": 560,
      "ull</w>": 561,
      "enti": 562,
      "descriptor</w>": 563,
      "fir": 564,
      "char": 565,
      "document</w>": 566,
      "determin": 567,
      "unt</w>": 568,
      "any</w>": 569,
      "point</w>": 570,
      "function</w>": 571,
      "pri": 572,
      "ght</w>": 573,
      "can</w>": 574,
      "ties</w>": 575,
      "end</w>": 576,
      "over": 577,
      "adap": 578,
      "content</w>": 579,
      "ecu": 580,
      "oper": 581,
      "generated</w>": 582,
      "execu": 583,
      "tu": 584,
      "connection</w>": 585,
      "pas": 586,
      "ack": 587,
      "ba": 588,
      "collec": 589,
      "parameter</w>": 590,
      "ss": 591,
      "representation</w>": 592,
      "datab": 593,
      "ents</w>": 594,
      "direc": 595,
      "rela": 596,
      "chil": 597,
      "fil": 598,
      "cep": 599,
      "ru": 600,
      "grap": 601,
      "row</w>": 602,
      "been</w>": 603,
      "name": 604,
      "struc": 605,
      "labe": 606,
      "ler</w>": 607,
      "update</w>": 608,
      "start</w>": 609,
      "tree</w>": 610,
      "ran": 611,
      "implemen": 612,
      "fac": 613,
      "dates</w>": 614,
      "rece": 615,
      "database</w>": 616,
      "wn</w>": 617,
      "request</w>": 618,
      "conver": 619,
      "using</w>": 620,
      "age</w>": 621,
      "regis": 622,
      "vari": 623,
      "ca": 624,
      "cle": 625,
      "formation</w>": 626,
      "objects</w>": 627,
      "referen": 628,
      "contro": 629,
      "ore</w>": 630,
      "dra": 631,
      "log": 632,
      "output</w>": 633,
      "color</w>": 634,
      "page</w>": 635,
      "dre": 636,
      "supp": 637,
      "ha": 638,
      "appli": 639,
      "auto</w>": 640,
      "menu</w>": 641,
      "equ": 642,
      "receiv": 643,
      "resource</w>": 644,
      "inser": 645,
      "retriev": 646,
      "first</w>": 647,
      "gle</w>": 648,
      "next</w>": 649,
      "xml</w>": 650,
      "curren": 651,
      "fra": 652,
      "ked</w>": 653,
      "provi": 654,
      "context</w>": 655,
      "indic": 656,
      "play</w>": 657,
      "group</w>": 658,
      "change</w>": 659,
      "ror</w>": 660,
      "do</w>": 661,
      "quer": 662,
      "stat": 663,
      "command</w>": 664,
      "service</w>": 665,
      "collection</w>": 666,
      "entry</w>": 667,
      "ints</w>": 668,
      "config": 669,
      "error</w>": 670,
      "information</w>": 671,
      "uration</w>": 672,
      "ence</w>": 673,
      "buil": 674,
      "sin": 675,
      "ga": 676,
      "label</w>": 677,
      "status</w>": 678,
      "ged</w>": 679,
      "by": 680,
      "sear": 681,
      "recor": 682,
      "other</w>": 683,
      "notifi": 684,
      "per</w>": 685,
      "null</w>": 686,
      "mum</w>": 687,
      "ke</w>": 688,
      "wid": 689,
      "win": 690,
      "only</w>": 691,
      "vali": 692,
      "mana": 693,
      "last</w>": 694,
      "result</w>": 695,
      "load</w>": 696,
      "rent</w>": 697,
      "the": 698,
      "retrieves</w>": 699,
      "iden": 700,
      "clas": 701,
      "alo": 702,
      "properties</w>": 703,
      "invo": 704,
      "charac": 705,
      "excep": 706,
      "clu": 707,
      "led</w>": 708,
      "implementation</w>": 709,
      "cop": 710,
      "cach": 711,
      "url</w>": 712,
      "count</w>": 713,
      "mar": 714,
      "display</w>": 715,
      "din": 716,
      "windo": 717,
      "query</w>": 718,
      "af": 719,
      "updates</w>": 720,
      "ed": 721,
      "log</w>": 722,
      "location</w>": 723,
      "visi": 724,
      "overri": 725,
      "was</w>": 726,
      "ject</w>": 727,
      "adapter</w>": 728,
      "comp": 729,
      "fla": 730,
      "defin": 731,
      "order</w>": 732,
      "alog</w>": 733,
      "der": 734,
      "lev": 735,
      "currently</w>": 736,
      "tw": 737,
      "expre": 738,
      "hea": 739,
      "wa": 740,
      "reference</w>": 741,
      "jav": 742,
      "temp": 743,
      "configuration</w>": 744,
      "ning</w>": 745,
      "main</w>": 746,
      "inf": 747,
      "allo": 748,
      "face</w>": 749,
      "ors</w>": 750,
      "bi": 751,
      "xi": 752,
      "ings</w>": 753,
      "process</w>": 754,
      "write</w>": 755,
      "ys</w>": 756,
      "session</w>": 757,
      "tic": 758,
      "back</w>": 759,
      "box</w>": 760,
      "sign": 761,
      "sett": 762,
      "tas": 763,
      "boo": 764,
      "after</w>": 765,
      "elements</w>": 766,
      "window</w>": 767,
      "selection</w>": 768,
      "call</w>": 769,
      "ture</w>": 770,
      "two</w>": 771,
      "tag</w>": 772,
      "display": 773,
      "eve</w>": 774,
      "ating</w>": 775,
      "dec": 776,
      "syste": 777,
      "cula": 778,
      "no</w>": 779,
      "thread</w>": 780,
      "graph</w>": 781,
      "du": 782,
      "retrieve</w>": 783,
      "determines</w>": 784,
      "time": 785,
      "tar": 786,
      "info</w>": 787,
      "coor": 788,
      "entity</w>": 789,
      "space</w>": 790,
      "vec": 791,
      "buff": 792,
      "exception</w>": 793,
      "child</w>": 794,
      "fy</w>": 795,
      "dialog</w>": 796,
      "based</w>": 797,
      "we</w>": 798,
      "da": 799,
      "lay": 800,
      "have</w>": 801,
      "changes</w>": 802,
      "mem": 803,
      "modi": 804,
      "inte": 805,
      "gin": 806,
      "system</w>": 807,
      "format</w>": 808,
      "can": 809,
      "level</w>": 810,
      "store</w>": 811,
      "version</w>": 812,
      "hel": 813,
      "expression</w>": 814,
      "tal</w>": 815,
      "qui": 816,
      "specific</w>": 817,
      "act</w>": 818,
      "exp": 819,
      "parent</w>": 820,
      "thro": 821,
      "application</w>": 822,
      "ai": 823,
      "roo": 824,
      "ng": 825,
      "mul": 826,
      "handler</w>": 827,
      "frame</w>": 828,
      "seri": 829,
      "construc": 830,
      "search</w>": 831,
      "rs</w>": 832,
      "load": 833,
      "interface</w>": 834,
      "lock</w>": 835,
      "coordin": 836,
      "directory</w>": 837,
      "ach</w>": 838,
      "mple</w>": 839,
      "identifi": 840,
      "has": 841,
      "sch": 842,
      "variable</w>": 843,
      "acti": 844,
      "emp": 845,
      "gin</w>": 846,
      "filter</w>": 847,
      "buffer</w>": 848,
      "mode</w>": 849,
      "bean</w>": 850,
      "listeners</w>": 851,
      "ps</w>": 852,
      "java</w>": 853,
      "bin": 854,
      "manager</w>": 855,
      "sting</w>": 856,
      "word</w>": 857,
      "ni": 858,
      "target</w>": 859,
      "dress</w>": 860,
      "header</w>": 861,
      "loo": 862,
      "address</w>": 863,
      "project</w>": 864,
      "cell</w>": 865,
      "operation</w>": 866,
      "lity</w>": 867,
      "sta": 868,
      "client</w>": 869,
      "sty": 870,
      "vector</w>": 871,
      "internal</w>": 872,
      "maxi": 873,
      "king</w>": 874,
      "task</w>": 875,
      "state": 876,
      "cache</w>": 877,
      "ying</w>": 878,
      "unit</w>": 879,
      "pl": 880,
      "record</w>": 881,
      "ve": 882,
      "tered</w>": 883,
      "our</w>": 884,
      "ven": 885,
      "insert</w>": 886,
      "comple": 887,
      "ol</w>": 888,
      "ved</w>": 889,
      "attributes</w>": 890,
      "flag</w>": 891,
      "handles</w>": 892,
      "case</w>": 893,
      "tit": 894,
      "ables</w>": 895,
      "ket</w>": 896,
      "parameters</w>": 897,
      "fol": 898,
      "part</w>": 899,
      "uni": 900,
      "classes</w>": 901,
      "wer</w>": 902,
      "reads</w>": 903,
      "argu": 904,
      "valid</w>": 905,
      "bar</w>": 906,
      "contains</w>": 907,
      "maximum</w>": 908,
      "ches</w>": 909,
      "tional</w>": 910,
      "files</w>": 911,
      "methods</w>": 912,
      "pane</w>": 913,
      "bet": 914,
      "writes</w>": 915,
      "dep": 916,
      "ars</w>": 917,
      "mapp": 918,
      "character</w>": 919,
      "nodes</w>": 920,
      "modifi": 921,
      "ref": 922,
      "changed</w>": 923,
      "ph": 924,
      "il</w>": 925,
      "copy</w>": 926,
      "ween</w>": 927,
      "perfor": 928,
      "each</w>": 929,
      "between</w>": 930,
      "leng": 931,
      "ons</w>": 932,
      "show</w>": 933,
      "let</w>": 934,
      "delete</w>": 935,
      "lon": 936,
      "here</w>": 937,
      "work</w>": 938,
      "player</w>": 939,
      "length</w>": 940,
      "events</w>": 941,
      "ight</w>": 942,
      "exis": 943,
      "so</w>": 944,
      "back": 945,
      "response</w>": 946,
      "proces": 947,
      "sequ": 948,
      "save</w>": 949,
      "items</w>": 950,
      "are": 951,
      "width</w>": 952,
      "base</w>": 953,
      "title</w>": 954,
      "mouse</w>": 955,
      "find</w>": 956,
      "empty</w>": 957,
      "ser</w>": 958,
      "pt</w>": 959,
      "requi": 960,
      "orted</w>": 961,
      "editor</w>": 962,
      "correspon": 963,
      "lable</w>": 964,
      "tion": 965,
      "another</w>": 966,
      "does</w>": 967,
      "oc": 968,
      "ner</w>": 969,
      "factory</w>": 970,
      "style</w>": 971,
      "kes</w>": 972,
      "local</w>": 973,
      "abo": 974,
      "exten": 975,
      "root</w>": 976,
      "flo": 977,
      "handle</w>": 978,
      "active</w>": 979,
      "stra": 980,
      "tual</w>": 981,
      "control</w>": 982,
      "secon": 983,
      "fore</w>": 984,
      "ally</w>": 985,
      "jo": 986,
      "inclu": 987,
      "single</w>": 988,
      "down</w>": 989,
      "ir</w>": 990,
      "created</w>": 991,
      "access</w>": 992,
      "wing</w>": 993,
      "range</w>": 994,
      "container</w>": 995,
      "ken</w>": 996,
      "before</w>": 997,
      "open</w>": 998,
      "ssi": 999,
      "indicates</w>": 1000,
      "port</w>": 1001,
      "ssor</w>": 1002,
      "link</w>": 1003,
      "ateg": 1004,
      "ld</w>": 1005,
      "fa": 1006,
      "print</w>": 1007,
      "there</w>": 1008,
      "close</w>": 1009,
      "statement</w>": 1010,
      "dom</w>": 1011,
      "cy</w>": 1012,
      "pers": 1013,
      "em": 1014,
      "zed</w>": 1015,
      "conven": 1016,
      "font</w>": 1017,
      "with": 1018,
      "lea": 1019,
      "fields</w>": 1020,
      "go": 1021,
      "parti": 1022,
      "compu": 1023,
      "sq": 1024,
      "avai": 1025,
      "iter": 1026,
      "loads</w>": 1027,
      "compa": 1028,
      "et</w>": 1029,
      "where</w>": 1030,
      "byte</w>": 1031,
      "calls</w>": 1032,
      "late</w>": 1033,
      "duc": 1034,
      "coun": 1035,
      "within</w>": 1036,
      "names</w>": 1037,
      "wra": 1038,
      "abled</w>": 1039,
      "sent</w>": 1040,
      "cen": 1041,
      "ne</w>": 1042,
      "integer</w>": 1043,
      "ax": 1044,
      "defined</w>": 1045,
      "repl": 1046,
      "initialize</w>": 1047,
      "plu": 1048,
      "ft</w>": 1049,
      "mis": 1050,
      "ju": 1051,
      "passed</w>": 1052,
      "invoked</w>": 1053,
      "area</w>": 1054,
      "conveni": 1055,
      "run</w>": 1056,
      "ip</w>": 1057,
      "send</w>": 1058,
      "being</w>": 1059,
      "some</w>": 1060,
      "hash</w>": 1061,
      "conten": 1062,
      "regi": 1063,
      "calcula": 1064,
      "mini": 1065,
      "als</w>": 1066,
      "about</w>": 1067,
      "met": 1068,
      "tra": 1069,
      "boole": 1070,
      "containing</w>": 1071,
      "compar": 1072,
      "same</w>": 1073,
      "lan": 1074,
      "available</w>": 1075,
      "contents</w>": 1076,
      "boolean</w>": 1077,
      "lation</w>": 1078,
      "convenience</w>": 1079,
      "sends</w>": 1080,
      "sequence</w>": 1081,
      "scre": 1082,
      "ging</w>": 1083,
      "game</w>": 1084,
      "gre": 1085,
      "re</w>": 1086,
      "ality</w>": 1087,
      "off": 1088,
      "viou": 1089,
      "compon": 1090,
      "token</w>": 1091,
      "corresponding</w>": 1092,
      "ico": 1093,
      "previou": 1094,
      "auth": 1095,
      "related</w>": 1096,
      "custo": 1097,
      "tors</w>": 1098,
      "block</w>": 1099,
      "sources</w>": 1100,
      "starts</w>": 1101,
      "ends</w>": 1102,
      "scro": 1103,
      "make</w>": 1104,
      "matri": 1105,
      "under": 1106,
      "pack": 1107,
      "total</w>": 1108,
      "components</w>": 1109,
      "produc": 1110,
      "tic</w>": 1111,
      "ck</w>": 1112,
      "sql</w>": 1113,
      "stack</w>": 1114,
      "ations</w>": 1115,
      "tain</w>": 1116,
      "determine</w>": 1117,
      "override</w>": 1118,
      "screen</w>": 1119,
      "queue</w>": 1120,
      "sure</w>": 1121,
      "sted</w>": 1122,
      "tries</w>": 1123,
      "gh</w>": 1124,
      "helper</w>": 1125,
      "ff</w>": 1126,
      "ling</w>": 1127,
      "orts</w>": 1128,
      "select</w>": 1129,
      "run": 1130,
      "lying</w>": 1131,
      "ready</w>": 1132,
      "height</w>": 1133,
      "ht": 1134,
      "uri</w>": 1135,
      "top</w>": 1136,
      "setting</w>": 1137,
      "fix": 1138,
      "categ": 1139,
      "stored</w>": 1140,
      "speci": 1141,
      "bytes</w>": 1142,
      "cal</w>": 1143,
      "cho": 1144,
      "equal</w>": 1145,
      "see</w>": 1146,
      "clears</w>": 1147,
      "tex": 1148,
      "converts</w>": 1149,
      "identifier</w>": 1150,
      "cale</w>": 1151,
      "boun": 1152,
      "end": 1153,
      "work": 1154,
      "pub": 1155,
      "register</w>": 1156,
      "dy</w>": 1157,
      "patter": 1158,
      "option</w>": 1159,
      "nor": 1160,
      "stru": 1161,
      "condi": 1162,
      "right</w>": 1163,
      "channe": 1164,
      "required</w>": 1165,
      "matrix</w>": 1166,
      "transaction</w>": 1167,
      "childre": 1168,
      "angle</w>": 1169,
      "att": 1170,
      "ant</w>": 1171,
      "registered</w>": 1172,
      "argument</w>": 1173,
      "compares</w>": 1174,
      "icon</w>": 1175,
      "children</w>": 1176,
      "cap": 1177,
      "exists</w>": 1178,
      "mer": 1179,
      "extr": 1180,
      "exi": 1181,
      "rule</w>": 1182,
      "stri": 1183,
      "anno": 1184,
      "lls</w>": 1185,
      "dest": 1186,
      "added</w>": 1187,
      "multi": 1188,
      "side</w>": 1189,
      "convert</w>": 1190,
      "messages</w>": 1191,
      "ity</w>": 1192,
      "enabled</w>": 1193,
      "thing</w>": 1194,
      "template</w>": 1195,
      "ned</w>": 1196,
      "provided</w>": 1197,
      "build</w>": 1198,
      "pass": 1199,
      "constra": 1200,
      "stop</w>": 1201,
      "resul": 1202,
      "comment</w>": 1203,
      "defini": 1204,
      "layout</w>": 1205,
      "displayed</w>": 1206,
      "tab</w>": 1207,
      "underlying</w>": 1208,
      "clear</w>": 1209,
      "reset</w>": 1210,
      "control": 1211,
      "html</w>": 1212,
      "syn": 1213,
      "receiver</w>": 1214,
      "cally</w>": 1215,
      "ground</w>": 1216,
      "dou": 1217,
      "wrapp": 1218,
      "resources</w>": 1219,
      "war": 1220,
      "serv": 1221,
      "amo": 1222,
      "fix</w>": 1223,
      "aces</w>": 1224,
      "prints</w>": 1225,
      "mail</w>": 1226,
      "fal": 1227,
      "cs</w>": 1228,
      "iterator</w>": 1229,
      "serializ": 1230,
      "pres": 1231,
      "um</w>": 1232,
      "coordinate</w>": 1233,
      "parse</w>": 1234,
      "visible</w>": 1235,
      "suppli": 1236,
      "sor</w>": 1237,
      "correc": 1238,
      "over</w>": 1239,
      "resets</w>": 1240,
      "ration</w>": 1241,
      "definition</w>": 1242,
      "deletes</w>": 1243,
      "contained</w>": 1244,
      "closes</w>": 1245,
      "activ": 1246,
      "pattern</w>": 1247,
      "calling</w>": 1248,
      "non</w>": 1249,
      "nee": 1250,
      "settings</w>": 1251,
      "simple</w>": 1252,
      "move</w>": 1253,
      "left</w>": 1254,
      "password</w>": 1255,
      "debu": 1256,
      "stand": 1257,
      "channel</w>": 1258,
      "named</w>": 1259,
      "htt": 1260,
      "val</w>": 1261,
      "axis</w>": 1262,
      "gram</w>": 1263,
      "package</w>": 1264,
      "long</w>": 1265,
      "tto": 1266,
      "persis": 1267,
      "reso": 1268,
      "background</w>": 1269,
      "execute</w>": 1270,
      "supported</w>": 1271,
      "double</w>": 1272,
      "modu": 1273,
      "enco": 1274,
      "types</w>": 1275,
      "accessor</w>": 1276,
      "match</w>": 1277,
      "mary</w>": 1278,
      "evalu": 1279,
      "gri": 1280,
      "witho": 1281,
      "pe": 1282,
      "medi": 1283,
      "generate</w>": 1284,
      "subclasses</w>": 1285,
      "without</w>": 1286,
      "que</w>": 1287,
      "edge</w>": 1288,
      "performs</w>": 1289,
      "den</w>": 1290,
      "minimum</w>": 1291,
      "actions</w>": 1292,
      "max</w>": 1293,
      "calculates</w>": 1294,
      "module</w>": 1295,
      "supplied</w>": 1296,
      "perform</w>": 1297,
      "separ": 1298,
      "ise</w>": 1299,
      "cer": 1300,
      "how</w>": 1301,
      "false</w>": 1302,
      "just</w>": 1303,
      "users</w>": 1304,
      "initili": 1305,
      "peri": 1306,
      "report</w>": 1307,
      "appro": 1308,
      "notification</w>": 1309,
      "incre": 1310,
      "amount</w>": 1311,
      "folder</w>": 1312,
      "edit</w>": 1313,
      "points</w>": 1314,
      "stores</w>": 1315,
      "sti": 1316,
      "existing</w>": 1317,
      "offset</w>": 1318,
      "mapping</w>": 1319,
      "uses</w>": 1320,
      "must</w>": 1321,
      "tab": 1322,
      "options</w>": 1323,
      "cations</w>": 1324,
      "initilia": 1325,
      "doc</w>": 1326,
      "initiliazed</w>": 1327,
      "cance": 1328,
      "representing</w>": 1329,
      "ulate</w>": 1330,
      "med</w>": 1331,
      "mp</w>": 1332,
      "standard</w>": 1333,
      "pop": 1334,
      "rows</w>": 1335,
      "graphi": 1336,
      "sub</w>": 1337,
      "already</w>": 1338,
      "saves</w>": 1339,
      "generates</w>": 1340,
      "adi": 1341,
      "kno": 1342,
      "stop": 1343,
      "ape</w>": 1344,
      "bro": 1345,
      "accor": 1346,
      "category</w>": 1347,
      "http</w>": 1348,
      "lar": 1349,
      "wed</w>": 1350,
      "describ": 1351,
      "ugh</w>": 1352,
      "body</w>": 1353,
      "preferen": 1354,
      "relative</w>": 1355,
      "depen": 1356,
      "shows</w>": 1357,
      "domain</w>": 1358,
      "script</w>": 1359,
      "car": 1360,
      "ders</w>": 1361,
      "ow": 1362,
      "pac": 1363,
      "controller</w>": 1364,
      "key": 1365,
      "initial</w>": 1366,
      "notifies</w>": 1367,
      "sk": 1368,
      "specifies</w>": 1369,
      "noti": 1370,
      "actual</w>": 1371,
      "tur": 1372,
      "ster</w>": 1373,
      "ching</w>": 1374,
      "host</w>": 1375,
      "pool</w>": 1376,
      "ic</w>": 1377,
      "loaded</w>": 1378,
      "parses</w>": 1379,
      "widget</w>": 1380,
      "board</w>": 1381,
      "device</w>": 1382,
      "draw</w>": 1383,
      "data": 1384,
      "executes</w>": 1385,
      "card</w>": 1386,
      "section</w>": 1387,
      "ok</w>": 1388,
      "auto": 1389,
      "columns</w>": 1390,
      "results</w>": 1391,
      "ume": 1392,
      "deleg": 1393,
      "ema</w>": 1394,
      "pressed</w>": 1395,
      "through</w>": 1396,
      "multip": 1397,
      "net": 1398,
      "coordinates</w>": 1399,
      "remote</w>": 1400,
      "ance</w>": 1401,
      "struction</w>": 1402,
      "core</w>": 1403,
      "member</w>": 1404,
      "file": 1405,
      "adapted</w>": 1406,
      "cular</w>": 1407,
      "nment</w>": 1408,
      "tch</w>": 1409,
      "gent</w>": 1410,
      "schema</w>": 1411,
      "deta": 1412,
      "ine</w>": 1413,
      "constan": 1414,
      "radi": 1415,
      "but</w>": 1416,
      "present</w>": 1417,
      "according</w>": 1418,
      "config</w>": 1419,
      "ans</w>": 1420,
      "extension</w>": 1421,
      "im": 1422,
      "langu": 1423,
      "then</w>": 1424,
      "registers</w>": 1425,
      "ref</w>": 1426,
      "gui</w>": 1427,
      "grid</w>": 1428,
      "inserts</w>": 1429,
      "tup</w>": 1430,
      "scroll</w>": 1431,
      "round</w>": 1432,
      "tool</w>": 1433,
      "cket</w>": 1434,
      "site</w>": 1435,
      "constructor</w>": 1436,
      "div": 1437,
      "ut": 1438,
      "cri": 1439,
      "stance</w>": 1440,
      "callback</w>": 1441,
      "abi": 1442,
      "sym": 1443,
      "seconds</w>": 1444,
      "vity</w>": 1445,
      "too": 1446,
      "who": 1447,
      "finds</w>": 1448,
      "chro": 1449,
      "min</w>": 1450,
      "spe": 1451,
      "appends</w>": 1452,
      "mes</w>": 1453,
      "unique</w>": 1454,
      "cursor</w>": 1455,
      "pix": 1456,
      "displays</w>": 1457,
      "entries</w>": 1458,
      "configu": 1459,
      "job</w>": 1460,
      "implements</w>": 1461,
      "valid": 1462,
      "gment</w>": 1463,
      "found</w>": 1464,
      "rende": 1465,
      "por": 1466,
      "agent</w>": 1467,
      "full</w>": 1468,
      "role</w>": 1469,
      "todo</w>": 1470,
      "dro": 1471,
      "ssible</w>": 1472,
      "dle</w>": 1473,
      "characters</w>": 1474,
      "plugin</w>": 1475,
      "particular</w>": 1476,
      "calc": 1477,
      "arch": 1478,
      "processing</w>": 1479,
      "reposi": 1480,
      "resol": 1481,
      "ules</w>": 1482,
      "condition</w>": 1483,
      "om</w>": 1484,
      "paint</w>": 1485,
      "prin": 1486,
      "language</w>": 1487,
      "rect": 1488,
      "bit</w>": 1489,
      "sions</w>": 1490,
      "format": 1491,
      "namespace</w>": 1492,
      "validate</w>": 1493,
      "equality</w>": 1494,
      "account</w>": 1495,
      "step</w>": 1496,
      "rer</w>": 1497,
      "publi": 1498,
      "previous</w>": 1499,
      "ving</w>": 1500,
      "their</w>": 1501,
      "comb": 1502,
      "finis": 1503,
      "br": 1504,
      "random</w>": 1505,
      "instances</w>": 1506,
      "short</w>": 1507,
      "cus</w>": 1508,
      "network</w>": 1509,
      "db</w>": 1510,
      "asser": 1511,
      "ig": 1512,
      "dif": 1513,
      "your</w>": 1514,
      "em</w>": 1515,
      "makes</w>": 1516,
      "begin</w>": 1517,
      "els</w>": 1518,
      "product</w>": 1519,
      "uti": 1520,
      "more</w>": 1521,
      "sh</w>": 1522,
      "fail": 1523,
      "structure</w>": 1524,
      "modified</w>": 1525,
      "very</w>": 1526,
      "db": 1527,
      "execution</w>": 1528,
      "day</w>": 1529,
      "mil": 1530,
      "stor": 1531,
      "rection</w>": 1532,
      "ans": 1533,
      "appropri": 1534,
      "symbo": 1535,
      "notify</w>": 1536,
      "distance</w>": 1537,
      "tting</w>": 1538,
      "ker</w>": 1539,
      "layer</w>": 1540,
      "origin": 1541,
      "dden</w>": 1542,
      "tical</w>": 1543,
      "variables</w>": 1544,
      "gress</w>": 1545,
      "dimen": 1546,
      "allow</w>": 1547,
      "allows</w>": 1548,
      "repository</w>": 1549,
      "represents</w>": 1550,
      "teri": 1551,
      "progress</w>": 1552,
      "lates</w>": 1553,
      "memory</w>": 1554,
      "needed</w>": 1555,
      "custom</w>": 1556,
      "may</w>": 1557,
      "allowed</w>": 1558,
      "focus</w>": 1559,
      "sic</w>": 1560,
      "she": 1561,
      "od</w>": 1562,
      "moves</w>": 1563,
      "bers</w>": 1564,
      "uring</w>": 1565,
      "ten</w>": 1566,
      "lob": 1567,
      "optional</w>": 1568,
      "builds</w>": 1569,
      "ffec": 1570,
      "flow</w>": 1571,
      "lar</w>": 1572,
      "matches</w>": 1573,
      "parser</w>": 1574,
      "draws</w>": 1575,
      "ion</w>": 1576,
      "lines</w>": 1577,
      "proto": 1578,
      "ear</w>": 1579,
      "story</w>": 1580,
      "starting</w>": 1581,
      "direction</w>": 1582,
      "appropriate</w>": 1583,
      "sly</w>": 1584,
      "socket</w>": 1585,
      "ens</w>": 1586,
      "mark</w>": 1587,
      "suc": 1588,
      "solu": 1589,
      "annotation</w>": 1590,
      "addi": 1591,
      "xy</w>": 1592,
      "shape</w>": 1593,
      "prefix</w>": 1594,
      "attach": 1595,
      "throws</w>": 1596,
      "provider</w>": 1597,
      "compare</w>": 1598,
      "running</w>": 1599,
      "signed</w>": 1600,
      "implement</w>": 1601,
      "oriz": 1602,
      "succe": 1603,
      "fer": 1604,
      "web</w>": 1605,
      "activity</w>": 1606,
      "mer</w>": 1607,
      "attemp": 1608,
      "series</w>": 1609,
      "note</w>": 1610,
      "selects</w>": 1611,
      "constraint</w>": 1612,
      "mit</w>": 1613,
      "sel": 1614,
      "writer</w>": 1615,
      "pair</w>": 1616,
      "adat": 1617,
      "butto": 1618,
      "sched": 1619,
      "adding</w>": 1620,
      "accep": 1621,
      "poin": 1622,
      "constant</w>": 1623,
      "validation</w>": 1624,
      "transform</w>": 1625,
      "servlet</w>": 1626,
      "clic": 1627,
      "divi": 1628,
      "buttons</w>": 1629,
      "lic": 1630,
      "append</w>": 1631,
      "packet</w>": 1632,
      "it": 1633,
      "tex</w>": 1634,
      "copi": 1635,
      "high": 1636,
      "bun": 1637,
      "interval</w>": 1638,
      "destin": 1639,
      "instruction</w>": 1640,
      "transi": 1641,
      "bound</w>": 1642,
      "metadat": 1643,
      "login</w>": 1644,
      "returned</w>": 1645,
      "fu": 1646,
      "rectangle</w>": 1647,
      "prob": 1648,
      "scop": 1649,
      "ess": 1650,
      "puts</w>": 1651,
      "calculate</w>": 1652,
      "meta</w>": 1653,
      "bility</w>": 1654,
      "operator</w>": 1655,
      "mon": 1656,
      "hol": 1657,
      "shes</w>": 1658,
      "term</w>": 1659,
      "declar": 1660,
      "ui</w>": 1661,
      "connect</w>": 1662,
      "metadata</w>": 1663,
      "combo</w>": 1664,
      "border</w>": 1665,
      "col</w>": 1666,
      "proxy</w>": 1667,
      "ensure</w>": 1668,
      "sort</w>": 1669,
      "sum": 1670,
      "stops</w>": 1671,
      "validates</w>": 1672,
      "keys</w>": 1673,
      "history</w>": 1674,
      "glob": 1675,
      "ive</w>": 1676,
      "inst": 1677,
      "visits</w>": 1678,
      "hed</w>": 1679,
      "exter": 1680,
      "correct</w>": 1681,
      "tis": 1682,
      "during</w>": 1683,
      "brow": 1684,
      "email</w>": 1685,
      "second</w>": 1686,
      "provides</w>": 1687,
      "ad</w>": 1688,
      "yo": 1689,
      "profile</w>": 1690,
      "reader</w>": 1691,
      "dow": 1692,
      "primary</w>": 1693,
      "alg": 1694,
      "abstr": 1695,
      "computes</w>": 1696,
      "than</w>": 1697,
      "clone</w>": 1698,
      "possible</w>": 1699,
      "engin": 1700,
      "permis": 1701,
      "index": 1702,
      "necess": 1703,
      "original</w>": 1704,
      "cr": 1705,
      "sign</w>": 1706,
      "viewer</w>": 1707,
      "records</w>": 1708,
      "ep</w>": 1709,
      "ast</w>": 1710,
      "ful": 1711,
      "public</w>": 1712,
      "arguments</w>": 1713,
      "off</w>": 1714,
      "tip</w>": 1715,
      "atch</w>": 1716,
      "lot</w>": 1717,
      "locale</w>": 1718,
      "support</w>": 1719,
      "necessary</w>": 1720,
      "authenti": 1721,
      "algori": 1722,
      "ero</w>": 1723,
      "what</w>": 1724,
      "verifi": 1725,
      "down": 1726,
      "vertex</w>": 1727,
      "lease</w>": 1728,
      "tells</w>": 1729,
      "wrapper</w>": 1730,
      "popup</w>": 1731,
      "thm</w>": 1732,
      "pur": 1733,
      "dri": 1734,
      "aga": 1735,
      "gg": 1736,
      "tically</w>": 1737,
      "relation</w>": 1738,
      "acts</w>": 1739,
      "tool": 1740,
      "expec": 1741,
      "alig": 1742,
      "notifications</w>": 1743,
      "mal</w>": 1744,
      "received</w>": 1745,
      "tile</w>": 1746,
      "global</w>": 1747,
      "init</w>": 1748,
      "complete</w>": 1749,
      "destination</w>": 1750,
      "ways</w>": 1751,
      "moni": 1752,
      "my</w>": 1753,
      "ils</w>": 1754,
      "beha": 1755,
      "bounds</w>": 1756,
      "sheet</w>": 1757,
      "br</w>": 1758,
      "visu": 1759,
      "func": 1760,
      "enable</w>": 1761,
      "del": 1762,
      "abstract</w>": 1763,
      "ward</w>": 1764,
      "cancel</w>": 1765,
      "engine</w>": 1766,
      "automa": 1767,
      "you</w>": 1768,
      "follo": 1769,
      "sample</w>": 1770,
      "enables</w>": 1771,
      "scale</w>": 1772,
      "swi": 1773,
      "contact</w>": 1774,
      "resh</w>": 1775,
      "opens</w>": 1776,
      "dering</w>": 1777,
      "et": 1778,
      "render</w>": 1779,
      "utility</w>": 1780,
      "zero</w>": 1781,
      "stu": 1782,
      "design": 1783,
      "post</w>": 1784,
      "matching</w>": 1785,
      "removed</w>": 1786,
      "runs</w>": 1787,
      "head": 1788,
      "float</w>": 1789,
      "sli": 1790,
      "org</w>": 1791,
      "initialization</w>": 1792,
      "behavi": 1793,
      "exa": 1794,
      "scen": 1795,
      "kup</w>": 1796,
      "setup</w>": 1797,
      "help</w>": 1798,
      "chart</w>": 1799,
      "pol": 1800,
      "sha": 1801,
      "always</w>": 1802,
      "priv": 1803,
      "ice</w>": 1804,
      "group": 1805,
      "indicating</w>": 1806,
      "hash": 1807,
      "algorithm</w>": 1808,
      "ories</w>": 1809,
      "check": 1810,
      "creation</w>": 1811,
      "connected</w>": 1812,
      "identi": 1813,
      "bundle</w>": 1814,
      "click</w>": 1815,
      "ei": 1816,
      "reas": 1817,
      "distri": 1818,
      "defines</w>": 1819,
      "envi": 1820,
      "closed</w>": 1821,
      "external</w>": 1822,
      "scope</w>": 1823,
      "dia": 1824,
      "requested</w>": 1825,
      "ability</w>": 1826,
      "place</w>": 1827,
      "copies</w>": 1828,
      "es": 1829,
      "effec": 1830,
      "forms</w>": 1831,
      "debug</w>": 1832,
      "compute</w>": 1833,
      "drop</w>": 1834,
      "cle</w>": 1835,
      "ferred</w>": 1836,
      "ship</w>": 1837,
      "poli": 1838,
      "audi": 1839,
      "receive</w>": 1840,
      "qual": 1841,
      "known</w>": 1842,
      "need</w>": 1843,
      "criteri": 1844,
      "basic</w>": 1845,
      "timer</w>": 1846,
      "fixture</w>": 1847,
      "qualifi": 1848,
      "controls</w>": 1849,
      "scal": 1850,
      "choo": 1851,
      "recur": 1852,
      "sures</w>": 1853,
      "ause</w>": 1854,
      "saved</w>": 1855,
      "ids</w>": 1856,
      "filename</w>": 1857,
      "simu": 1858,
      "oth": 1859,
      "protocol</w>": 1860,
      "pose</w>": 1861,
      "go</w>": 1862,
      "initialized</w>": 1863,
      "fill</w>": 1864,
      "milli": 1865,
      "storage</w>": 1866,
      "equals</w>": 1867,
      "ell</w>": 1868,
      "apply</w>": 1869,
      "processes</w>": 1870,
      "secur": 1871,
      "stamp</w>": 1872,
      "distribu": 1873,
      "creating</w>": 1874,
      "program</w>": 1875,
      "cached</w>": 1876,
      "replaces</w>": 1877,
      "answer</w>": 1878,
      "ority</w>": 1879,
      "them</w>": 1880,
      "configured</w>": 1881,
      "previously</w>": 1882,
      "wise</w>": 1883,
      "region</w>": 1884,
      "enviro": 1885,
      "builder</w>": 1886,
      "renderer</w>": 1887,
      "js": 1888,
      "symbol</w>": 1889,
      "ced</w>": 1890,
      "ring</w>": 1891,
      "most</w>": 1892,
      "including</w>": 1893,
      "til</w>": 1894,
      "constructs</w>": 1895,
      "private</w>": 1896,
      "replace</w>": 1897,
      "loading</w>": 1898,
      "every</w>": 1899,
      "ml": 1900,
      "preferred</w>": 1901,
      "fre": 1902,
      "net</w>": 1903,
      "classi": 1904,
      "inside</w>": 1905,
      "describing</w>": 1906,
      "ti</w>": 1907,
      "ensures</w>": 1908,
      "until</w>": 1909,
      "refresh</w>": 1910,
      "score</w>": 1911,
      "wiz": 1912,
      "strings</w>": 1913,
      "gging</w>": 1914,
      "persistent</w>": 1915,
      "horiz": 1916,
      "designated</w>": 1917,
      "way</w>": 1918,
      "trace</w>": 1919,
      "fully</w>": 1920,
      "bloc": 1921,
      "quo": 1922,
      "connections</w>": 1923,
      "norm": 1924,
      "anima": 1925,
      "alized</w>": 1926,
      "either</w>": 1927,
      "ng</w>": 1928,
      "ess</w>": 1929,
      "main": 1930,
      "binding</w>": 1931,
      "user": 1932,
      "receivers</w>": 1933,
      "enume": 1934,
      "look</w>": 1935,
      "declaration</w>": 1936,
      "inst</w>": 1937,
      "relea": 1938,
      "horizon": 1939,
      "getting</w>": 1940,
      "since</w>": 1941,
      "visitor</w>": 1942,
      "release</w>": 1943,
      "erro": 1944,
      "enumeration</w>": 1945,
      "pe</w>": 1946,
      "lated</w>": 1947,
      "loader</w>": 1948,
      "wizard</w>": 1949,
      "anal": 1950,
      "ical</w>": 1951,
      "tec": 1952,
      "generic</w>": 1953,
      "self</w>": 1954,
      "light</w>": 1955,
      "logs</w>": 1956,
      "visit</w>": 1957,
      "rou": 1958,
      "ming</w>": 1959,
      "meas": 1960,
      "ever</w>": 1961,
      "poses</w>": 1962,
      "testing</w>": 1963,
      "ands</w>": 1964,
      "implemented</w>": 1965,
      "pen": 1966,
      "environment</w>": 1967,
      "mentation</w>": 1968,
      "executed</w>": 1969,
      "char</w>": 1970,
      "requests</w>": 1971,
      "zo": 1972,
      "represented</w>": 1973,
      "tics</w>": 1974,
      "encoding</w>": 1975,
      "id": 1976,
      "analy": 1977,
      "less</w>": 1978,
      "performed</w>": 1979,
      "classifi": 1980,
      "pic": 1981,
      "registr": 1982,
      "shi": 1983,
      "applies</w>": 1984,
      "separator</w>": 1985,
      "tags</w>": 1986,
      "pass</w>": 1987,
      "overrides</w>": 1988,
      "policy</w>": 1989,
      "against</w>": 1990,
      "igh": 1991,
      "fires</w>": 1992,
      "ferent</w>": 1993,
      "drawing</w>": 1994,
      "under</w>": 1995,
      "calend": 1996,
      "canv": 1997,
      "vers</w>": 1998,
      "dum": 1999,
      "they</w>": 2000,
      "preferences</w>": 2001,
      "popu": 2002,
      "upd": 2003,
      "shown</w>": 2004,
      "flu": 2005,
      "equi": 2006,
      "lookup</w>": 2007,
      "whose</w>": 2008,
      "wait</w>": 2009,
      "rate</w>": 2010,
      "details</w>": 2011,
      "native</w>": 2012,
      "sui": 2013,
      "verse</w>": 2014,
      "owner</w>": 2015,
      "certain</w>": 2016,
      "delegate</w>": 2017,
      "sive</w>": 2018,
      "exit</w>": 2019,
      "overridden</w>": 2020,
      "concep": 2021,
      "fire</w>": 2022,
      "rules</w>": 2023,
      "begin": 2024,
      "instanti": 2025,
      "segment</w>": 2026,
      "destro": 2027,
      "started</w>": 2028,
      "factor</w>": 2029,
      "person</w>": 2030,
      "vig": 2031,
      "errors</w>": 2032,
      "done</w>": 2033,
      "stro": 2034,
      "formatted</w>": 2035,
      "both</w>": 2036,
      "subscri": 2037,
      "center</w>": 2038,
      "tence</w>": 2039,
      "different</w>": 2040,
      "ies</w>": 2041,
      "prepa": 2042,
      "sm": 2043,
      "ques": 2044,
      "duration</w>": 2045,
      "tations</w>": 2046,
      "additional</w>": 2047,
      "absolu": 2048,
      "dataset</w>": 2049,
      "multiple</w>": 2050,
      "spli": 2051,
      "dispat": 2052,
      "expected</w>": 2053,
      "references</w>": 2054,
      "timeout</w>": 2055,
      "parsing</w>": 2056,
      "units</w>": 2057,
      "df</w>": 2058,
      "ber": 2059,
      "logy</w>": 2060,
      "graphics</w>": 2061,
      "indivi": 2062,
      "nothing</w>": 2063,
      "tables</w>": 2064,
      "dent</w>": 2065,
      "geo": 2066,
      "navig": 2067,
      "horizontal</w>": 2068,
      "lay</w>": 2069,
      "mod": 2070,
      "individu": 2071,
      "ace": 2072,
      "book</w>": 2073,
      "canvas</w>": 2074,
      "real</w>": 2075,
      "absolute</w>": 2076,
      "labels</w>": 2077,
      "vertical</w>": 2078,
      "sur": 2079,
      "players</w>": 2080,
      "searches</w>": 2081,
      "automatically</w>": 2082,
      "statis": 2083,
      "veri": 2084,
      "static</w>": 2085,
      "preference</w>": 2086,
      "verifies</w>": 2087,
      "cat": 2088,
      "cher</w>": 2089,
      "other": 2090,
      "animation</w>": 2091,
      "media</w>": 2092,
      "priority</w>": 2093,
      "like</w>": 2094,
      "views</w>": 2095,
      "calendar</w>": 2096,
      "occu": 2097,
      "open": 2098,
      "mb": 2099,
      "zation</w>": 2100,
      "period</w>": 2101,
      "obtain": 2102,
      "signature</w>": 2103,
      "ched</w>": 2104,
      "primi": 2105,
      "vely</w>": 2106,
      "import</w>": 2107,
      "security</w>": 2108,
      "indicate</w>": 2109,
      "ll": 2110,
      "browser</w>": 2111,
      "imal</w>": 2112,
      "registry</w>": 2113,
      "selector</w>": 2114,
      "construct</w>": 2115,
      "libr": 2116,
      "operations</w>": 2117,
      "binary</w>": 2118,
      "dered</w>": 2119,
      "poly": 2120,
      "ta</w>": 2121,
      "provide</w>": 2122,
      "turn</w>": 2123,
      "instal": 2124,
      "tax</w>": 2125,
      "exclu": 2126,
      "vices</w>": 2127,
      "direct</w>": 2128,
      "groups</w>": 2129,
      "were</w>": 2130,
      "com</w>": 2131,
      "ie</w>": 2132,
      "coming</w>": 2133,
      "normal</w>": 2134,
      "track</w>": 2135,
      "forward</w>": 2136,
      "via</w>": 2137,
      "otherwise</w>": 2138,
      "composite</w>": 2139,
      "acces": 2140,
      "disables</w>": 2141,
      "warning</w>": 2142,
      "multi</w>": 2143,
      "sible</w>": 2144,
      "occur": 2145,
      "month</w>": 2146,
      "pointer</w>": 2147,
      "year</w>": 2148,
      "metri": 2149,
      "generator</w>": 2150,
      "transf": 2151,
      "old</w>": 2152,
      "when": 2153,
      "paints</w>": 2154,
      "ms": 2155,
      "predic": 2156,
      "synchro": 2157,
      "documentation</w>": 2158,
      "tempor": 2159,
      "marks</w>": 2160,
      "many</w>": 2161,
      "whenever</w>": 2162,
      "api</w>": 2163,
      "ral</w>": 2164,
      "cluster</w>": 2165,
      "dependen": 2166,
      "gives</w>": 2167,
      "ze</w>": 2168,
      "managed</w>": 2169,
      "clause</w>": 2170,
      "projec": 2171,
      "links</w>": 2172,
      "fills</w>": 2173,
      "dy": 2174,
      "pixel</w>": 2175,
      "special</w>": 2176,
      "cha": 2177,
      "verage</w>": 2178,
      "expan": 2179,
      "diction": 2180,
      "low</w>": 2181,
      "topi": 2182,
      "milliseconds</w>": 2183,
      "limit</w>": 2184,
      "sum</w>": 2185,
      "gan": 2186,
      "transp": 2187,
      "verify</w>": 2188,
      "mach": 2189,
      "ado": 2190,
      "some": 2191,
      "transition</w>": 2192,
      "wrapped</w>": 2193,
      "debugging</w>": 2194,
      "pixels</w>": 2195,
      "mid": 2196,
      "export</w>": 2197,
      "tre": 2198,
      "specify</w>": 2199,
      "subject</w>": 2200,
      "ffi": 2201,
      "loy": 2202,
      "tude</w>": 2203,
      "describe</w>": 2204,
      "tten</w>": 2205,
      "takes</w>": 2206,
      "refre": 2207,
      "dimension</w>": 2208,
      "cy": 2209,
      "mut": 2210,
      "confir": 2211,
      "counter</w>": 2212,
      "username</w>": 2213,
      "cro": 2214,
      "world</w>": 2215,
      "timestamp</w>": 2216,
      "publis": 2217,
      "cate</w>": 2218,
      "rendering</w>": 2219,
      "fig": 2220,
      "parsed</w>": 2221,
      "threads</w>": 2222,
      "sec": 2223,
      "gram": 2224,
      "trig": 2225,
      "tures</w>": 2226,
      "fetch</w>": 2227,
      "mic</w>": 2228,
      "tor": 2229,
      "ok": 2230,
      "piec": 2231,
      "updated</w>": 2232,
      "primitive</w>": 2233,
      "loop</w>": 2234,
      "driver</w>": 2235,
      "finished</w>": 2236,
      "audio</w>": 2237,
      "ators</w>": 2238,
      "ness</w>": 2239,
      "gl": 2240,
      "cells</w>": 2241,
      "weight</w>": 2242,
      "view": 2243,
      "include</w>": 2244,
      "images</w>": 2245,
      "tasks</w>": 2246,
      "endpoint</w>": 2247,
      "ur</w>": 2248,
      "inner</w>": 2249,
      "ligh": 2250,
      "written</w>": 2251,
      "permission</w>": 2252,
      "figure</w>": 2253,
      "maps</w>": 2254,
      "ful</w>": 2255,
      "logger</w>": 2256,
      "vir": 2257,
      "directly</w>": 2258,
      "conc": 2259,
      "obtain</w>": 2260,
      "pages</w>": 2261,
      "longs</w>": 2262,
      "example</w>": 2263,
      "times</w>": 2264,
      "disable</w>": 2265,
      "lt</w>": 2266,
      "define</w>": 2267,
      "super</w>": 2268,
      "accept</w>": 2269,
      "summary</w>": 2270,
      "deco": 2271,
      "actor</w>": 2272,
      "words</w>": 2273,
      "processor</w>": 2274,
      "simulation</w>": 2275,
      "tp</w>": 2276,
      "tted</w>": 2277,
      "exist</w>": 2278,
      "commands</w>": 2279,
      "ind</w>": 2280,
      "laun": 2281,
      "logging</w>": 2282,
      "extract</w>": 2283,
      "ssions</w>": 2284,
      "new": 2285,
      "speed</w>": 2286,
      "behavior</w>": 2287,
      "dictionary</w>": 2288,
      "junit</w>": 2289,
      "force</w>": 2290,
      "texture</w>": 2291,
      "nested</w>": 2292,
      "readable</w>": 2293,
      "peer</w>": 2294,
      "lite": 2295,
      "her": 2296,
      "txt</w>": 2297,
      "qualified</w>": 2298,
      "am</w>": 2299,
      "ths</w>": 2300,
      "mas": 2301,
      "works</w>": 2302,
      "cast</w>": 2303,
      "library</w>": 2304,
      "ins</w>": 2305,
      "closing</w>": 2306,
      "clicked</w>": 2307,
      "assigned</w>": 2308,
      "plan": 2309,
      "free</w>": 2310,
      "association</w>": 2311,
      "drag</w>": 2312,
      "head</w>": 2313,
      "working</w>": 2314,
      "admin</w>": 2315,
      "invalid</w>": 2316,
      "radio</w>": 2317,
      "criteria</w>": 2318,
      "upper</w>": 2319,
      "missing</w>": 2320,
      "raw</w>": 2321,
      "attempts</w>": 2322,
      "alignment</w>": 2323,
      "reading</w>": 2324,
      "pay": 2325,
      "individual</w>": 2326,
      "following</w>": 2327,
      "belongs</w>": 2328,
      "squ": 2329,
      "busin": 2330,
      "transformation</w>": 2331,
      "machine</w>": 2332,
      "tc": 2333,
      "lower</w>": 2334,
      "ule</w>": 2335,
      "literal</w>": 2336,
      "authentication</w>": 2337,
      "expi": 2338,
      "responsible</w>": 2339,
      "concept</w>": 2340,
      "nume": 2341,
      "stitu": 2342,
      "distribution</w>": 2343,
      "usa": 2344,
      "conso": 2345,
      "question</w>": 2346,
      "bec": 2347,
      "reply</w>": 2348,
      "success": 2349,
      "visual</w>": 2350,
      "virtual</w>": 2351,
      "fying</w>": 2352,
      "reason</w>": 2353,
      "bt": 2354,
      "iss": 2355,
      "identified</w>": 2356,
      "num</w>": 2357,
      "contain</w>": 2358,
      "jdb": 2359,
      "descriptors</w>": 2360,
      "track": 2361,
      "accepts</w>": 2362,
      "zoom</w>": 2363,
      "editing</w>": 2364,
      "communi": 2365,
      "equival": 2366,
      "brea": 2367,
      "organ": 2368,
      "experi": 2369,
      "choice</w>": 2370,
      "constraints</w>": 2371,
      "download</w>": 2372,
      "super": 2373,
      "headers</w>": 2374,
      "simp": 2375,
      "limi": 2376,
      "such</w>": 2377,
      "depending</w>": 2378,
      "actu": 2379,
      "incoming</w>": 2380,
      "depth</w>": 2381,
      "mera</w>": 2382,
      "members</w>": 2383,
      "ous</w>": 2384,
      "handling</w>": 2385,
      "hier": 2386,
      "camera</w>": 2387,
      "transfer</w>": 2388,
      "switch</w>": 2389,
      "because</w>": 2390,
      "acing</w>": 2391,
      "zone</w>": 2392,
      "tches</w>": 2393,
      "orting</w>": 2394,
      "returning</w>": 2395,
      "undo</w>": 2396,
      "hum": 2397,
      "clean</w>": 2398,
      "chat</w>": 2399,
      "partici": 2400,
      "disk</w>": 2401,
      "botto": 2402,
      "business</w>": 2403,
      "oid</w>": 2404,
      "sound</w>": 2405,
      "common</w>": 2406,
      "flags</w>": 2407,
      "occurren": 2408,
      "arti": 2409,
      "ticle</w>": 2410,
      "phone</w>": 2411,
      "complex</w>": 2412,
      "zer</w>": 2413,
      "visibility</w>": 2414,
      "lists</w>": 2415,
      "documents</w>": 2416,
      "dont</w>": 2417,
      "invoke</w>": 2418,
      "nate</w>": 2419,
      "plot</w>": 2420,
      "topic</w>": 2421,
      "mutator</w>": 2422,
      "counts</w>": 2423,
      "relation": 2424,
      "home</w>": 2425,
      "bottom</w>": 2426,
      "param</w>": 2427,
      "numeri": 2428,
      "yet</w>": 2429,
      "while</w>": 2430,
      "going</w>": 2431,
      "bl": 2432,
      "bounding</w>": 2433,
      "shared</w>": 2434,
      "shor": 2435,
      "cryp": 2436,
      "hierarch": 2437,
      "certifi": 2438,
      "made</w>": 2439,
      "writing</w>": 2440,
      "shut": 2441,
      "occurs</w>": 2442,
      "tup": 2443,
      "room</w>": 2444,
      "temporary</w>": 2445,
      "split</w>": 2446,
      "fixed</w>": 2447,
      "does": 2448,
      "once</w>": 2449,
      "pre</w>": 2450,
      "invokes</w>": 2451,
      "console</w>": 2452,
      "immedi": 2453,
      "correctly</w>": 2454,
      "dyna": 2455,
      "compil": 2456,
      "jar</w>": 2457,
      "specification</w>": 2458,
      "removing</w>": 2459,
      "00": 2460,
      "filters</w>": 2461,
      "reco": 2462,
      "edges</w>": 2463,
      "phy": 2464,
      "doesnt</w>": 2465,
      "dir</w>": 2466,
      "beginning</w>": 2467,
      "synchroni": 2468,
      "chun": 2469,
      "inher": 2470,
      "repe": 2471,
      "atom</w>": 2472,
      "modify</w>": 2473,
      "monitor</w>": 2474,
      "lap": 2475,
      "ir": 2476,
      "ases</w>": 2477,
      "fact</w>": 2478,
      "combin": 2479,
      "tering</w>": 2480,
      "human</w>": 2481,
      "cm": 2482,
      "mime</w>": 2483,
      "mapped</w>": 2484,
      "ures</w>": 2485,
      "deliv": 2486,
      "alias</w>": 2487,
      "identity</w>": 2488,
      "restore</w>": 2489,
      "piece</w>": 2490,
      "xml": 2491,
      "ately</w>": 2492,
      "validat": 2493,
      "btn</w>": 2494,
      "commit</w>": 2495,
      "fe</w>": 2496,
      "fragment</w>": 2497,
      "servers</w>": 2498,
      "entire</w>": 2499,
      "increment</w>": 2500,
      "checked</w>": 2501,
      "numbers</w>": 2502,
      "add": 2503,
      "sis</w>": 2504,
      "rement</w>": 2505,
      "completed</w>": 2506,
      "services</w>": 2507,
      "alloc": 2508,
      "upon</w>": 2509,
      "refreshes</w>": 2510,
      "statistics</w>": 2511,
      "cook": 2512,
      "onto</w>": 2513,
      "foreg": 2514,
      "jdbc</w>": 2515,
      "connects</w>": 2516,
      "rotation</w>": 2517,
      "price</w>": 2518,
      "produ": 2519,
      "signal</w>": 2520,
      "scene</w>": 2521,
      "assig": 2522,
      "ision</w>": 2523,
      "deleted</w>": 2524,
      "bot</w>": 2525,
      "hook</w>": 2526,
      "iteration</w>": 2527,
      "decla": 2528,
      "shutdown</w>": 2529,
      "foreground</w>": 2530,
      "itself</w>": 2531,
      "zi": 2532,
      "ything</w>": 2533,
      "button": 2534,
      "bits</w>": 2535,
      "supports</w>": 2536,
      "ler": 2537,
      "toolbar</w>": 2538,
      "gest</w>": 2539,
      "whole</w>": 2540,
      "metry</w>": 2541,
      "effect</w>": 2542,
      "applet</w>": 2543,
      "void</w>": 2544,
      "marker</w>": 2545,
      "dao</w>": 2546,
      "equivalent</w>": 2547,
      "checking</w>": 2548,
      "ference</w>": 2549,
      "entities</w>": 2550,
      "final</w>": 2551,
      "detail</w>": 2552,
      "needs</w>": 2553,
      "around</w>": 2554,
      "ath</w>": 2555,
      "onto": 2556,
      "tial</w>": 2557,
      "customer</w>": 2558,
      "serialization</w>": 2559,
      "sively</w>": 2560,
      "pho": 2561,
      "processed</w>": 2562,
      "consi": 2563,
      "big</w>": 2564,
      "batch</w>": 2565,
      "kind</w>": 2566,
      "also</w>": 2567,
      "tories</w>": 2568,
      "issue</w>": 2569,
      "comparis": 2570,
      "pping</w>": 2571,
      "assign": 2572,
      "alization</w>": 2573,
      "spaces</w>": 2574,
      "reports</w>": 2575,
      "least</w>": 2576,
      "wable</w>": 2577,
      "anti": 2578,
      "ater</w>": 2579,
      "included</w>": 2580,
      "schedul": 2581,
      "proble": 2582,
      "sche": 2583,
      "ular</w>": 2584,
      "reci": 2585,
      "physi": 2586,
      "orien": 2587,
      "join</w>": 2588,
      "initial": 2589,
      "restri": 2590,
      "feed</w>": 2591,
      "compi": 2592,
      "gramma": 2593,
      "states</w>": 2594,
      "xs": 2595,
      "detec": 2596,
      "renders</w>": 2597,
      "phase</w>": 2598,
      "consu": 2599,
      "assign</w>": 2600,
      "comments</w>": 2601,
      "strateg": 2602,
      "sna": 2603,
      "ordered</w>": 2604,
      "proced": 2605,
      "indexed</w>": 2606,
      "disabled</w>": 2607,
      "contin": 2608,
      "usage</w>": 2609,
      "average</w>": 2610,
      "configure</w>": 2611,
      "tage</w>": 2612,
      "ep": 2613,
      "obtains</w>": 2614,
      "author</w>": 2615,
      "encoded</w>": 2616,
      "cs": 2617,
      "cas": 2618,
      "volu": 2619,
      "os</w>": 2620,
      "tell</w>": 2621,
      "referenced</w>": 2622,
      "actually</w>": 2623,
      "app</w>": 2624,
      "activation</w>": 2625,
      "ton</w>": 2626,
      "est": 2627,
      "cards</w>": 2628,
      "predicate</w>": 2629,
      "long": 2630,
      "asserts</w>": 2631,
      "ats</w>": 2632,
      "procedure</w>": 2633,
      "colo": 2634,
      "aving</w>": 2635,
      "who</w>": 2636,
      "mappings</w>": 2637,
      "kets</w>": 2638,
      "plug</w>": 2639,
      "encryp": 2640,
      "sw": 2641,
      "activated</w>": 2642,
      "port": 2643,
      "asse": 2644,
      "fered</w>": 2645,
      "bran": 2646,
      "co</w>": 2647,
      "diagram</w>": 2648,
      "recursively</w>": 2649,
      "blocks</w>": 2650,
      "entered</w>": 2651,
      "archive</w>": 2652,
      "chain</w>": 2653,
      "applied</w>": 2654,
      "rest</w>": 2655,
      "evaluate</w>": 2656,
      "css</w>": 2657,
      "delay</w>": 2658,
      "bor": 2659,
      "modification</w>": 2660,
      "edited</w>": 2661,
      "take</w>": 2662,
      "indi": 2663,
      "decimal</w>": 2664,
      "classifier</w>": 2665,
      "polyg": 2666,
      "vide": 2667,
      "attached</w>": 2668,
      "samp": 2669,
      "thre": 2670,
      "generation</w>": 2671,
      "frame": 2672,
      "bed</w>": 2673,
      "alter": 2674,
      "mask</w>": 2675,
      "delegates</w>": 2676,
      "looks</w>": 2677,
      "multipli": 2678,
      "configures</w>": 2679,
      "none</w>": 2680,
      "extracts</w>": 2681,
      "translation</w>": 2682,
      "catalog</w>": 2683,
      "ption</w>": 2684,
      "kens</w>": 2685,
      "portion</w>": 2686,
      "wo": 2687,
      "startup</w>": 2688,
      "windows</w>": 2689,
      "statements</w>": 2690,
      "formats</w>": 2691,
      "logical</w>": 2692,
      "tokens</w>": 2693,
      "comparison</w>": 2694,
      "numeric</w>": 2695,
      "lers</w>": 2696,
      "ontology</w>": 2697,
      "alon": 2698,
      "pain": 2699,
      "impl</w>": 2700,
      "gt</w>": 2701,
      "sorted</w>": 2702,
      "vm</w>": 2703,
      "failed</w>": 2704,
      "metric</w>": 2705,
      "agen": 2706,
      "dup": 2707,
      "ear": 2708,
      "uid</w>": 2709,
      "ants</w>": 2710,
      "clients</w>": 2711,
      "bind</w>": 2712,
      "quen": 2713,
      "wee": 2714,
      "notified</w>": 2715,
      "participan": 2716,
      "iff</w>": 2717,
      "prepar": 2718,
      "esc": 2719,
      "adv": 2720,
      "now</w>": 2721,
      "alle": 2722,
      "conversion</w>": 2723,
      "sending</w>": 2724,
      "am": 2725,
      "cip": 2726,
      "cir": 2727,
      "evaluates</w>": 2728,
      "along</w>": 2729,
      "minu": 2730,
      "queries</w>": 2731,
      "har": 2732,
      "city</w>": 2733,
      "ario</w>": 2734,
      "workflow</w>": 2735,
      "represent</w>": 2736,
      "finish</w>": 2737,
      "ct</w>": 2738,
      "rout": 2739,
      "highligh": 2740,
      "seq</w>": 2741,
      "video</w>": 2742,
      "spri": 2743,
      "leg": 2744,
      "verti": 2745,
      "acity</w>": 2746,
      "opti": 2747,
      "hierarchy</w>": 2748,
      "strategy</w>": 2749,
      "field": 2750,
      "anch": 2751,
      "assert</w>": 2752,
      "lities</w>": 2753,
      "certificate</w>": 2754,
      "na</w>": 2755,
      "holder</w>": 2756,
      "relationship</w>": 2757,
      "parts</w>": 2758,
      "neigh": 2759,
      "scan": 2760,
      "failure</w>": 2761,
      "geometry</w>": 2762,
      "extra</w>": 2763,
      "hide</w>": 2764,
      "mani": 2765,
      "deriv": 2766,
      "sis": 2767,
      "percen": 2768,
      "drawn</w>": 2769,
      "editable</w>": 2770,
      "textual</w>": 2771,
      "spect</w>": 2772,
      "wai": 2773,
      "opened</w>": 2774,
      "country</w>": 2775,
      "det": 2776,
      "hashtable</w>": 2777,
      "resiz": 2778,
      "tick</w>": 2779,
      "var</w>": 2780,
      "instruc": 2781,
      "want</w>": 2782,
      "cost</w>": 2783,
      "resolve</w>": 2784,
      "organi": 2785,
      "adju": 2786,
      "post": 2787,
      "route</w>": 2788,
      "trigger</w>": 2789,
      "span</w>": 2790,
      "ej": 2791,
      "rup": 2792,
      "gni": 2793,
      "ones</w>": 2794,
      "wards</w>": 2795,
      "dig": 2796,
      "models</w>": 2797,
      "thresho": 2798,
      "rete</w>": 2799,
      "part": 2800,
      "scan</w>": 2801,
      "volume</w>": 2802,
      "general</w>": 2803,
      "regular</w>": 2804,
      "declared</w>": 2805,
      "frequen": 2806,
      "esti": 2807,
      "tro": 2808,
      "vision</w>": 2809,
      "deep</w>": 2810,
      "perso": 2811,
      "observer</w>": 2812,
      "prepared</w>": 2813,
      "pending</w>": 2814,
      "ban": 2815,
      "nega": 2816,
      "conditions</w>": 2817,
      "attempt</w>": 2818,
      "reflec": 2819,
      "registra": 2820,
      "chooser</w>": 2821,
      "releases</w>": 2822,
      "suitable</w>": 2823,
      "come</w>": 2824,
      "leaf</w>": 2825,
      "function": 2826,
      "dary</w>": 2827,
      "throw</w>": 2828,
      "clean": 2829,
      "colors</w>": 2830,
      "paren": 2831,
      "occurrence</w>": 2832,
      "ck": 2833,
      "fs</w>": 2834,
      "dl</w>": 2835,
      "est</w>": 2836,
      "prec": 2837,
      "something</w>": 2838,
      "hand</w>": 2839,
      "ws": 2840,
      "converter</w>": 2841,
      "hs</w>": 2842,
      "dynamic</w>": 2843,
      "la</w>": 2844,
      "asy": 2845,
      "delimi": 2846,
      "box": 2847,
      "routine</w>": 2848,
      "acqui": 2849,
      "functions</w>": 2850,
      "positions</w>": 2851,
      "shell</w>": 2852,
      "indicator</w>": 2853,
      "linked</w>": 2854,
      "ining</w>": 2855,
      "veloc": 2856,
      "framework</w>": 2857,
      "dge</w>": 2858,
      "syntax</w>": 2859,
      "alph": 2860,
      "percentage</w>": 2861,
      "schedule</w>": 2862,
      "chunk</w>": 2863,
      "cour": 2864,
      "cies</w>": 2865,
      "exceptions</w>": 2866,
      "pped</w>": 2867,
      "negative</w>": 2868,
      "hy": 2869,
      "sc</w>": 2870,
      "nally</w>": 2871,
      "master</w>": 2872,
      "bug</w>": 2873,
      "ill</w>": 2874,
      "etc</w>": 2875,
      "terms</w>": 2876,
      "extended</w>": 2877,
      "spath</w>": 2878,
      "stroke</w>": 2879,
      "probability</w>": 2880,
      "defaul": 2881,
      "aler": 2882,
      "spring</w>": 2883,
      "destroy</w>": 2884,
      "due</w>": 2885,
      "pc</w>": 2886,
      "resu": 2887,
      "dd</w>": 2888,
      "ffered</w>": 2889,
      "showing</w>": 2890,
      "dependency</w>": 2891,
      "beans</w>": 2892,
      "faces</w>": 2893,
      "origin</w>": 2894,
      "days</w>": 2895,
      "separated</w>": 2896,
      "serialize</w>": 2897,
      "tuple</w>": 2898,
      "fore": 2899,
      "glyp": 2900,
      "orientation</w>": 2901,
      "shot</w>": 2902,
      "interpre": 2903,
      "dimensions</w>": 2904,
      "nable</w>": 2905,
      "plan</w>": 2906,
      "ns": 2907,
      "00</w>": 2908,
      "observ": 2909,
      "threshold</w>": 2910,
      "bitr": 2911,
      "waiting</w>": 2912,
      "atures</w>": 2913,
      "xpath</w>": 2914,
      "classpath</w>": 2915,
      "duplic": 2916,
      "released</w>": 2917,
      "asyn": 2918,
      "desi": 2919,
      "spec</w>": 2920,
      "invocation</w>": 2921,
      "worker</w>": 2922,
      "experiment</w>": 2923,
      "immediately</w>": 2924,
      "assigns</w>": 2925,
      "pag": 2926,
      "cookie</w>": 2927,
      "runtime</w>": 2928,
      "formul": 2929,
      "editors</w>": 2930,
      "marsh": 2931,
      "acks</w>": 2932,
      "estim": 2933,
      "web": 2934,
      "hit</w>": 2935,
      "slider</w>": 2936,
      "agg": 2937,
      "panel": 2938,
      "mate": 2939,
      "assignment</w>": 2940,
      "velocity</w>": 2941,
      "bri": 2942,
      "anchor</w>": 2943,
      "manu": 2944,
      "sity</w>": 2945,
      "princip": 2946,
      "validator</w>": 2947,
      "alpha</w>": 2948,
      "embe": 2949,
      "hold</w>": 2950,
      "mitted</w>": 2951,
      "logged</w>": 2952,
      "chrono": 2953,
      "purposes</w>": 2954,
      "measu": 2955,
      "graphic</w>": 2956,
      "pdf</w>": 2957,
      "inten": 2958,
      "annotations</w>": 2959,
      "checkbox</w>": 2960,
      "sal": 2961,
      "those</w>": 2962,
      "class": 2963,
      "transfor": 2964,
      "these</w>": 2965,
      "hidden</w>": 2966,
      "flush</w>": 2967,
      "ato": 2968,
      "functionality</w>": 2969,
      "ited</w>": 2970,
      "remain": 2971,
      "sen</w>": 2972,
      "merge</w>": 2973,
      "grammar</w>": 2974,
      "square</w>": 2975,
      "aw": 2976,
      "propag": 2977,
      "describes</w>": 2978,
      "keyword</w>": 2979,
      "transport</w>": 2980,
      "frequency</w>": 2981,
      "increments</w>": 2982,
      "stopp": 2983,
      "branch</w>": 2984,
      "formula</w>": 2985,
      "ap</w>": 2986,
      "best</w>": 2987,
      "categories</w>": 2988,
      "materi": 2989,
      "cum": 2990,
      "ever": 2991,
      "initiali": 2992,
      "team</w>": 2993,
      "lution</w>": 2994,
      "fri": 2995,
      "desc": 2996,
      "push</w>": 2997,
      "velo": 2998,
      "ao</w>": 2999,
      "revision</w>": 3000,
      "comparator</w>": 3001,
      "pai": 3002,
      "abilities</w>": 3003,
      "ffici": 3004,
      "arbitr": 3005,
      "activate</w>": 3006,
      "attachment</w>": 3007,
      "moved</w>": 3008,
      "shu": 3009,
      "building</w>": 3010,
      "persistence</w>": 3011,
      "connector</w>": 3012,
      "logic</w>": 3013,
      "compati": 3014,
      "prepare</w>": 3015,
      "da</w>": 3016,
      "notes</w>": 3017,
      "slot</w>": 3018,
      "sr": 3019,
      "sorts</w>": 3020,
      "polygon</w>": 3021,
      "desired</w>": 3022,
      "nes</w>": 3023,
      "ending</w>": 3024,
      "directories</w>": 3025,
      "ma</w>": 3026,
      "populate</w>": 3027,
      "zip</w>": 3028,
      "sever": 3029,
      "picture</w>": 3030,
      "alize</w>": 3031,
      "capacity</w>": 3032,
      "text": 3033,
      "problem</w>": 3034,
      "plat": 3035,
      "buffered</w>": 3036,
      "widgets</w>": 3037,
      "completion</w>": 3038,
      "navigation</w>": 3039,
      "positive</w>": 3040,
      "quanti": 3041,
      "keep</w>": 3042,
      "outline</w>": 3043,
      "corresponds</w>": 3044,
      "purpose</w>": 3045,
      "gr": 3046,
      "white": 3047,
      "urs</w>": 3048,
      "gged</w>": 3049,
      "pati": 3050,
      "paths</w>": 3051,
      "frames</w>": 3052,
      "addres": 3053,
      "embed": 3054,
      "ign": 3055,
      "dump</w>": 3056,
      "give</w>": 3057,
      "own</w>": 3058,
      "hes</w>": 3059,
      "dings</w>": 3060,
      "arbitrary</w>": 3061,
      "usu": 3062,
      "permissions</w>": 3063,
      "scheme</w>": 3064,
      "posed</w>": 3065,
      "ended</w>": 3066,
      "aggreg": 3067,
      "resi": 3068,
      "sensor</w>": 3069,
      "disposes</w>": 3070,
      "listening</w>": 3071,
      "still</w>": 3072,
      "sprite</w>": 3073,
      "di</w>": 3074,
      "creden": 3075,
      "json</w>": 3076,
      "ech": 3077,
      "iso": 3078,
      "analysis</w>": 3079,
      "gement</w>": 3080,
      "acement</w>": 3081,
      "op</w>": 3082,
      "pos</w>": 3083,
      "exp</w>": 3084,
      "uml</w>": 3085,
      "translate</w>": 3086,
      "rendered</w>": 3087,
      "ro</w>": 3088,
      "upload</w>": 3089,
      "igno": 3090,
      "snap": 3091,
      "pop</w>": 3092,
      "sol": 3093,
      "serialized</w>": 3094,
      "tf</w>": 3095,
      "gins</w>": 3096,
      "ignore</w>": 3097,
      "pal": 3098,
      "terminal</w>": 3099,
      "thrown</w>": 3100,
      "umer": 3101,
      "lets</w>": 3102,
      "assemb": 3103,
      "causes</w>": 3104,
      "physical</w>": 3105,
      "pret": 3106,
      "roles</w>": 3107,
      "ben": 3108,
      "cg": 3109,
      "inverse</w>": 3110,
      "params</w>": 3111,
      "workspace</w>": 3112,
      "ages</w>": 3113,
      "simply</w>": 3114,
      "legal</w>": 3115,
      "defaults</w>": 3116,
      "subtr": 3117,
      "receives</w>": 3118,
      "cycle</w>": 3119,
      "dc": 3120,
      "registration</w>": 3121,
      "definiti": 3122,
      "hiber": 3123,
      "zes</w>": 3124,
      "thum": 3125,
      "fired</w>": 3126,
      "gene</w>": 3127,
      "comma</w>": 3128,
      "deploy": 3129,
      "aced</w>": 3130,
      "foo": 3131,
      "mac": 3132,
      "ablis": 3133,
      "f0</w>": 3134,
      "roun": 3135,
      "contr": 3136,
      "blog</w>": 3137,
      "internally</w>": 3138,
      "disco": 3139,
      "hides</w>": 3140,
      "reach": 3141,
      "dir": 3142,
      "orter</w>": 3143,
      "modifier</w>": 3144,
      "solution</w>": 3145,
      "dt": 3146,
      "subclass</w>": 3147,
      "ggle</w>": 3148,
      "inherited</w>": 3149,
      "promp": 3150,
      "cannot</w>": 3151,
      "ign</w>": 3152,
      "confirm</w>": 3153,
      "leton</w>": 3154,
      "high</w>": 3155,
      "keyboard</w>": 3156,
      "principal</w>": 3157,
      "wal": 3158,
      "def</w>": 3159,
      "ism</w>": 3160,
      "consis": 3161,
      "traver": 3162,
      "wers</w>": 3163,
      "platform</w>": 3164,
      "spo": 3165,
      "panels</w>": 3166,
      "having</w>": 3167,
      "sv": 3168,
      "albu": 3169,
      "cf": 3170,
      "translates</w>": 3171,
      "passes</w>": 3172,
      "scrol": 3173,
      "populates</w>": 3174,
      "surface</w>": 3175,
      "steps</w>": 3176,
      "definitions</w>": 3177,
      "tely</w>": 3178,
      "establis": 3179,
      "mo</w>": 3180,
      "sal</w>": 3181,
      "fetches</w>": 3182,
      "clones</w>": 3183,
      "displaying</w>": 3184,
      "updat": 3185,
      "goo": 3186,
      "colour</w>": 3187,
      "foreign</w>": 3188,
      "hibernate</w>": 3189,
      "launch</w>": 3190,
      "indicated</w>": 3191,
      "theme</w>": 3192,
      "son": 3193,
      "toggle</w>": 3194,
      "playlist</w>": 3195,
      "robot</w>": 3196,
      "localized</w>": 3197,
      "msg</w>": 3198,
      "recent</w>": 3199,
      "well</w>": 3200,
      "sync</w>": 3201,
      "bit": 3202,
      "un</w>": 3203,
      "bul": 3204,
      "expressions</w>": 3205,
      "sequen": 3206,
      "difference</w>": 3207,
      "obs</w>": 3208,
      "spectr": 3209,
      "lear": 3210,
      "evaluation</w>": 3211,
      "substitu": 3212,
      "inserted</w>": 3213,
      "tabbed</w>": 3214,
      "optimi": 3215,
      "our": 3216,
      "wle": 3217,
      "ado</w>": 3218,
      "properly</w>": 3219,
      "listen</w>": 3220,
      "features</w>": 3221,
      "serial</w>": 3222,
      "stats</w>": 3223,
      "superclass</w>": 3224,
      "radius</w>": 3225,
      "initialise</w>": 3226,
      "cra": 3227,
      "served</w>": 3228,
      "base": 3229,
      "blan": 3230,
      "enum</w>": 3231,
      "playing</w>": 3232,
      "transforms</w>": 3233,
      "embedded</w>": 3234,
      "dispose</w>": 3235,
      "ejb</w>": 3236,
      "gers</w>": 3237,
      "cent</w>": 3238,
      "places</w>": 3239,
      "cause</w>": 3240,
      "installs</w>": 3241,
      "move": 3242,
      "sing": 3243,
      "course</w>": 3244,
      "compan": 3245,
      "mutable</w>": 3246,
      "recogni": 3247,
      "could</w>": 3248,
      "prepares</w>": 3249,
      "lici": 3250,
      "intercep": 3251,
      "bly</w>": 3252,
      "ide</w>": 3253,
      "above</w>": 3254,
      "trip": 3255,
      "indices</w>": 3256,
      "would</w>": 3257,
      "submit</w>": 3258,
      "station</w>": 3259,
      "article</w>": 3260,
      "changing</w>": 3261,
      "alert</w>": 3262,
      "informs</w>": 3263,
      "turns</w>": 3264,
      "suf": 3265,
      "sender</w>": 3266,
      "configur": 3267,
      "described</w>": 3268,
      "tooltip</w>": 3269,
      "saving</w>": 3270,
      "install</w>": 3271,
      "ry</w>": 3272,
      "presentation</w>": 3273,
      "pairs</w>": 3274,
      "operand</w>": 3275,
      "marked</w>": 3276,
      "vertices</w>": 3277,
      "mission</w>": 3278,
      "rg": 3279,
      "streams</w>": 3280,
      "modifies</w>": 3281,
      "power</w>": 3282,
      "interrup": 3283,
      "ined</w>": 3284,
      "terminate</w>": 3285,
      "resolution</w>": 3286,
      "clicks</w>": 3287,
      "effici": 3288,
      "queu": 3289,
      "modules</w>": 3290,
      "accesses</w>": 3291,
      "10</w>": 3292,
      "employ": 3293,
      "skip</w>": 3294,
      "holds</w>": 3295,
      "issu": 3296,
      "motion</w>": 3297,
      "held</w>": 3298,
      "chosen</w>": 3299,
      "projects</w>": 3300,
      "wea": 3301,
      "cp": 3302,
      "west</w>": 3303,
      "plugins</w>": 3304,
      "margin</w>": 3305,
      "wether</w>": 3306,
      "activates</w>": 3307,
      "deliver": 3308,
      "dirty</w>": 3309,
      "sorting</w>": 3310,
      "curve</w>": 3311,
      "weigh": 3312,
      "ski": 3313,
      "updating</w>": 3314,
      "mean</w>": 3315,
      "handlers</w>": 3316,
      "measure</w>": 3317,
      "seman": 3318,
      "cases</w>": 3319,
      "swing</w>": 3320,
      "fit</w>": 3321,
      "arity</w>": 3322,
      "glyph</w>": 3323,
      "snapshot</w>": 3324,
      "tax": 3325,
      "inden": 3326,
      "except</w>": 3327,
      "graphical</w>": 3328,
      "desk": 3329,
      "latest</w>": 3330,
      "corner</w>": 3331,
      "variant</w>": 3332,
      "remaining</w>": 3333,
      "quantity</w>": 3334,
      "ca</w>": 3335,
      "mento</w>": 3336,
      "ask</w>": 3337,
      "material</w>": 3338,
      "accepted</w>": 3339,
      "portlet</w>": 3340,
      "bal": 3341,
      "front</w>": 3342,
      "waits</w>": 3343,
      "outputs</w>": 3344,
      "resolver</w>": 3345,
      "suite</w>": 3346,
      "test": 3347,
      "titude</w>": 3348,
      "ance": 3349,
      "know</w>": 3350,
      "bon": 3351,
      "fr": 3352,
      "locator</w>": 3353,
      "accessible</w>": 3354,
      "enter</w>": 3355,
      "dt</w>": 3356,
      "associates</w>": 3357,
      "mi</w>": 3358,
      "instantiate</w>": 3359,
      "ret</w>": 3360,
      "forces</w>": 3361,
      "collap": 3362,
      "axis": 3363,
      "obj</w>": 3364,
      "bus</w>": 3365,
      "sensi": 3366,
      "legen": 3367,
      "rect</w>": 3368,
      "calculated</w>": 3369,
      "everything</w>": 3370,
      "arc</w>": 3371,
      "patient</w>": 3372,
      "ently</w>": 3373,
      "isation</w>": 3374,
      "communication</w>": 3375,
      "construction</w>": 3376,
      "simul": 3377,
      "possi": 3378,
      "dity</w>": 3379,
      "photo</w>": 3380,
      "suffix</w>": 3381,
      "population</w>": 3382,
      "palet": 3383,
      "axis2</w>": 3384,
      "ja": 3385,
      "relev": 3386,
      "desktop</w>": 3387,
      "interest</w>": 3388,
      "tcut</w>": 3389,
      "inste": 3390,
      "lex": 3391,
      "answers</w>": 3392,
      "agents</w>": 3393,
      "blank</w>": 3394,
      "built</w>": 3395,
      "max": 3396,
      "curred</w>": 3397,
      "expanded</w>": 3398,
      "proper</w>": 3399,
      "licit</w>": 3400,
      "authentic": 3401,
      "instead</w>": 3402,
      "mbean</w>": 3403,
      "organization</w>": 3404,
      "mits</w>": 3405,
      "ype</w>": 3406,
      "tness</w>": 3407,
      "ing": 3408,
      "roll": 3409,
      "decor": 3410,
      "refers</w>": 3411,
      "constants</w>": 3412,
      "11</w>": 3413,
      "feed": 3414,
      "produce</w>": 3415,
      "whitespace</w>": 3416,
      "gments</w>": 3417,
      "preview</w>": 3418,
      "arrays</w>": 3419,
      "delta</w>": 3420,
      "stor</w>": 3421,
      "tan": 3422,
      "lement</w>": 3423,
      "eni": 3424,
      "clip</w>": 3425,
      "jobs</w>": 3426,
      "matched</w>": 3427,
      "happ": 3428,
      "inform</w>": 3429,
      "week</w>": 3430,
      "encode</w>": 3431,
      "goal</w>": 3432,
      "grees</w>": 3433,
      "auth</w>": 3434,
      "asynchrono": 3435,
      "lat": 3436,
      "contribu": 3437,
      "clip": 3438,
      "album</w>": 3439,
      "palette</w>": 3440,
      "bud": 3441,
      "alizes</w>": 3442,
      "legend</w>": 3443,
      "throwable</w>": 3444,
      "ignored</w>": 3445,
      "reverse</w>": 3446,
      "regar": 3447,
      "encoun": 3448,
      "dist": 3449,
      "satis": 3450,
      "currency</w>": 3451,
      "expand</w>": 3452,
      "fami": 3453,
      "stopped</w>": 3454,
      "edu</w>": 3455,
      "assu": 3456,
      "sax</w>": 3457,
      "restores</w>": 3458,
      "protec": 3459,
      "list": 3460,
      "overriden</w>": 3461,
      "ading</w>": 3462,
      "inits</w>": 3463,
      "tabs</w>": 3464,
      "fai": 3465,
      "safe</w>": 3466,
      "filled</w>": 3467,
      "includes</w>": 3468,
      "greater</w>": 3469,
      "formatter</w>": 3470,
      "spa": 3471,
      "book": 3472,
      "scalar</w>": 3473,
      "press</w>": 3474,
      "plane</w>": 3475,
      "pd": 3476,
      "disconnect</w>": 3477,
      "gular</w>": 3478,
      "outgoing</w>": 3479,
      "customi": 3480,
      "newly</w>": 3481,
      "cleanup</w>": 3482,
      "tio</w>": 3483,
      "degrees</w>": 3484,
      "wrap</w>": 3485,
      "texts</w>": 3486,
      "rase</w>": 3487,
      "validity</w>": 3488,
      "sessions</w>": 3489,
      "filtered</w>": 3490,
      "rever": 3491,
      "subscription</w>": 3492,
      "participant</w>": 3493,
      "arrow</w>": 3494,
      "occurred</w>": 3495,
      "extensions</w>": 3496,
      "form": 3497,
      "identifies</w>": 3498,
      "artifact</w>": 3499,
      "compilation</w>": 3500,
      "cumu": 3501,
      "initialises</w>": 3502,
      "urls</w>": 3503,
      "maj": 3504,
      "never</w>": 3505,
      "invi": 3506,
      "mapper</w>": 3507,
      "break</w>": 3508,
      "locked</w>": 3509,
      "viewport</w>": 3510,
      "continu": 3511,
      "nl</w>": 3512,
      "fault</w>": 3513,
      "hex</w>": 3514,
      "dence</w>": 3515,
      "calculation</w>": 3516,
      "minutes</w>": 3517,
      "src</w>": 3518,
      "ftp</w>": 3519,
      "lies</w>": 3520,
      "successfully</w>": 3521,
      "pushes</w>": 3522,
      "passing</w>": 3523,
      "togg": 3524,
      "mail": 3525,
      "line": 3526,
      "intersec": 3527,
      "capabilities</w>": 3528,
      "neighb": 3529,
      "arri": 3530,
      "movi": 3531,
      "else</w>": 3532,
      "tos</w>": 3533,
      "successful</w>": 3534,
      "longer</w>": 3535,
      "ker": 3536,
      "po</w>": 3537,
      "unknown</w>": 3538,
      "cleans</w>": 3539,
      "retrieved</w>": 3540,
      "singleton</w>": 3541,
      "non": 3542,
      "dom": 3543,
      "binds</w>": 3544,
      "shift</w>": 3545,
      "pause</w>": 3546,
      "vectors</w>": 3547,
      "spectrum</w>": 3548,
      "comes</w>": 3549,
      "apes</w>": 3550,
      "addition</w>": 3551,
      "highlight</w>": 3552,
      "shortcut</w>": 3553,
      "io</w>": 3554,
      "nome</w>": 3555,
      "concrete</w>": 3556,
      "clock</w>": 3557,
      "cancels</w>": 3558,
      "distin": 3559,
      "typed</w>": 3560,
      "paragraph</w>": 3561,
      "dispatch</w>": 3562,
      "clipboard</w>": 3563,
      "resize</w>": 3564,
      "geo</w>": 3565,
      "implementing</w>": 3566,
      "management</w>": 3567,
      "company</w>": 3568,
      "instru": 3569,
      "increases</w>": 3570,
      "criterion</w>": 3571,
      "acion</w>": 3572,
      "handled</w>": 3573,
      "pip": 3574,
      "recipi": 3575,
      "movement</w>": 3576,
      "codes</w>": 3577,
      "datat": 3578,
      "tok": 3579,
      "ears</w>": 3580,
      "collis": 3581,
      "samples</w>": 3582,
      "major</w>": 3583,
      "sup": 3584,
      "requires</w>": 3585,
      "bars</w>": 3586,
      "caret</w>": 3587,
      "parents</w>": 3588,
      "bp": 3589,
      "padding</w>": 3590,
      "repaint</w>": 3591,
      "compound</w>": 3592,
      "cross</w>": 3593,
      "feedback</w>": 3594,
      "intersection</w>": 3595,
      "fails</w>": 3596,
      "derived</w>": 3597,
      "redo</w>": 3598,
      "tials</w>": 3599,
      "lexi": 3600,
      "16</w>": 3601,
      "ratio</w>": 3602,
      "advan": 3603,
      "lip": 3604,
      "packets</w>": 3605,
      "behaviour</w>": 3606,
      "hashcode</w>": 3607,
      "unsupported</w>": 3608,
      "credi": 3609,
      "listing</w>": 3610,
      "dependent</w>": 3611,
      "three</w>": 3612,
      "encap": 3613,
      "dot</w>": 3614,
      "executing</w>": 3615,
      "reload</w>": 3616,
      "anim": 3617,
      "locks</w>": 3618,
      "interaction</w>": 3619,
      "cant</w>": 3620,
      "ud": 3621,
      "rota": 3622,
      "located</w>": 3623,
      "converted</w>": 3624,
      "taken</w>": 3625,
      "rank</w>": 3626,
      "applications</w>": 3627,
      "recording</w>": 3628,
      "projection</w>": 3629,
      "payment</w>": 3630,
      "duplicate</w>": 3631,
      "family</w>": 3632,
      "aring</w>": 3633,
      "boundary</w>": 3634,
      "jn": 3635,
      "nings</w>": 3636,
      "hal": 3637,
      "making</w>": 3638,
      "scroll": 3639,
      "broad": 3640,
      "zy</w>": 3641,
      "training</w>": 3642,
      "indexes</w>": 3643,
      "choose</w>": 3644,
      "asing</w>": 3645,
      "str</w>": 3646,
      "composi": 3647,
      "prompt</w>": 3648,
      "ic": 3649,
      "song</w>": 3650,
      "graphs</w>": 3651,
      "tools</w>": 3652,
      "success</w>": 3653,
      "footer</w>": 3654,
      "phrase</w>": 3655,
      "relevant</w>": 3656,
      "susp": 3657,
      "command": 3658,
      "runnable</w>": 3659,
      "gge": 3660,
      "gate</w>": 3661,
      "href</w>": 3662,
      "particle</w>": 3663,
      "soap</w>": 3664,
      "dable</w>": 3665,
      "cart</w>": 3666,
      "resolves</w>": 3667,
      "assembly</w>": 3668,
      "employe": 3669,
      "encodes</w>": 3670,
      "concate": 3671,
      "tionally</w>": 3672,
      "affec": 3673,
      "pc": 3674,
      "useful</w>": 3675,
      "tracker</w>": 3676,
      "scanner</w>": 3677,
      "dto</w>": 3678,
      "fur": 3679,
      "submitted</w>": 3680,
      "informa": 3681,
      "scrip": 3682,
      "java": 3683,
      "fixtures</w>": 3684,
      "attach</w>": 3685,
      "restric": 3686,
      "cing</w>": 3687,
      "ets</w>": 3688,
      "sle": 3689,
      "means</w>": 3690,
      "printing</w>": 3691,
      "ping</w>": 3692,
      "observers</w>": 3693,
      "gi": 3694,
      "acao</w>": 3695,
      "datas": 3696,
      "craw": 3697,
      "md": 3698,
      "hyper": 3699,
      "recursive</w>": 3700,
      "delivery</w>": 3701,
      "spacing</w>": 3702,
      "linear</w>": 3703,
      "receiving</w>": 3704,
      "below</w>": 3705,
      "cloning</w>": 3706,
      "protected</w>": 3707,
      "jo</w>": 3708,
      "len": 3709,
      "item": 3710,
      "date": 3711,
      "sla": 3712,
      "neur": 3713,
      "interfaces</w>": 3714,
      "authoriz": 3715,
      "64</w>": 3716,
      "plain</w>": 3717,
      "instructions</w>": 3718,
      "tokeni": 3719,
      "warnings</w>": 3720,
      "precision</w>": 3721,
      "shuts</w>": 3722,
      "blo": 3723,
      "coeffici": 3724,
      "mechan": 3725,
      "mation</w>": 3726,
      "close": 3727,
      "meter</w>": 3728,
      "channels</w>": 3729,
      "payload</w>": 3730,
      "publish</w>": 3731,
      "ering</w>": 3732,
      "feel</w>": 3733,
      "flushes</w>": 3734,
      "ang": 3735,
      "eds</w>": 3736,
      "wants</w>": 3737,
      "injec": 3738,
      "mag": 3739,
      "goes</w>": 3740,
      "wraps</w>": 3741,
      "compiler</w>": 3742,
      "pha": 3743,
      "mance</w>": 3744,
      "shado": 3745,
      "encountered</w>": 3746,
      "band</w>": 3747,
      "fon": 3748,
      "desc</w>": 3749,
      "moving</w>": 3750,
      "diag": 3751,
      "thumb": 3752,
      "hour</w>": 3753,
      "tate</w>": 3754,
      "adjust</w>": 3755,
      "macro</w>": 3756,
      "32</w>": 3757,
      "ordering</w>": 3758,
      "indent</w>": 3759,
      "small</w>": 3760,
      "possibly</w>": 3761,
      "credentials</w>": 3762,
      "fail</w>": 3763,
      "locations</w>": 3764,
      "copy": 3765,
      "folders</w>": 3766,
      "storing</w>": 3767,
      "ger": 3768,
      "allocated</w>": 3769,
      "fli": 3770,
      "rements</w>": 3771,
      "white</w>": 3772,
      "manife": 3773,
      "angular</w>": 3774,
      "resulting</w>": 3775,
      "strong</w>": 3776,
      "us": 3777,
      "generating</w>": 3778,
      "layers</w>": 3779,
      "explo": 3780,
      "switches</w>": 3781,
      "interpreter</w>": 3782,
      "toggles</w>": 3783,
      "candi": 3784,
      "refer</w>": 3785,
      "structures</w>": 3786,
      "various</w>": 3787,
      "200": 3788,
      "gran": 3789,
      "tb</w>": 3790,
      "tens</w>": 3791,
      "jsp</w>": 3792,
      "live</w>": 3793,
      "caller</w>": 3794,
      "ticket</w>": 3795,
      "gue</w>": 3796,
      "json": 3797,
      "ld": 3798,
      "wat": 3799,
      "backup</w>": 3800,
      "iterate</w>": 3801,
      "highest</w>": 3802,
      "dependencies</w>": 3803,
      "produces</w>": 3804,
      "longi": 3805,
      "bindings</w>": 3806,
      "modal</w>": 3807,
      "addresses</w>": 3808,
      "collision</w>": 3809,
      "overwrite</w>": 3810,
      "buffers</w>": 3811,
      "sco": 3812,
      "asset</w>": 3813,
      "overlay</w>": 3814,
      "identifiers</w>": 3815,
      "dummy</w>": 3816,
      "transactions</w>": 3817,
      "uuid</w>": 3818,
      "gen</w>": 3819,
      "later</w>": 3820,
      "perio": 3821,
      "scaling</w>": 3822,
      "gl</w>": 3823,
      "tele": 3824,
      "targets</w>": 3825,
      "looking</w>": 3826,
      "printer</w>": 3827,
      "ascri": 3828,
      "percent</w>": 3829,
      "trigg": 3830,
      "pi</w>": 3831,
      "sation</w>": 3832,
      "activi": 3833,
      "isnt</w>": 3834,
      "canon": 3835,
      "anything</w>": 3836,
      "wik": 3837,
      "heap</w>": 3838,
      "resolved</w>": 3839,
      "jum": 3840,
      "redu": 3841,
      "code": 3842,
      "sib": 3843,
      "forwards</w>": 3844,
      "measurement</w>": 3845,
      "mass</w>": 3846,
      "browse</w>": 3847,
      "datasour": 3848,
      "exchange</w>": 3849,
      "sensitive</w>": 3850,
      "slo": 3851,
      "replacement</w>": 3852,
      "diagno": 3853,
      "bin</w>": 3854,
      "javascri": 3855,
      "resume</w>": 3856,
      "tiles</w>": 3857,
      "adoc</w>": 3858,
      "escape</w>": 3859,
      "rating</w>": 3860,
      "overla": 3861,
      "publish": 3862,
      "boxes</w>": 3863,
      "marshal": 3864,
      "bs</w>": 3865,
      "ordin": 3866,
      "acer</w>": 3867,
      "tru": 3868,
      "calcul": 3869,
      "javascript</w>": 3870,
      "javadoc</w>": 3871,
      "signals</w>": 3872,
      "chromo": 3873,
      "occured</w>": 3874,
      "unsigned</w>": 3875,
      "hours</w>": 3876,
      "aries</w>": 3877,
      "align</w>": 3878,
      "pression</w>": 3879,
      "minor</w>": 3880,
      "completely</w>": 3881,
      "metrics</w>": 3882,
      "menus</w>": 3883,
      "collections</w>": 3884,
      "increase</w>": 3885,
      "stub</w>": 3886,
      "trigge": 3887,
      "ort": 3888,
      "offer</w>": 3889,
      "aspect</w>": 3890,
      "arg": 3891,
      "bool</w>": 3892,
      "icons</w>": 3893,
      "assertion</w>": 3894,
      "manifest</w>": 3895,
      "triggered</w>": 3896,
      "ea": 3897,
      "far</w>": 3898,
      "mt</w>": 3899,
      "wire</w>": 3900,
      "creator</w>": 3901,
      "letter</w>": 3902,
      "nel</w>": 3903,
      "ash</w>": 3904,
      "unregister</w>": 3905,
      "ment": 3906,
      "patterns</w>": 3907,
      "ners</w>": 3908,
      "rename</w>": 3909,
      "belong": 3910,
      "alternative</w>": 3911,
      "rgb</w>": 3912,
      "pipel": 3913,
      "enumer": 3914,
      "stock</w>": 3915,
      "stuff</w>": 3916,
      "rdf</w>": 3917,
      "dialo": 3918,
      "subset</w>": 3919,
      "destroys</w>": 3920,
      "viewers</w>": 3921,
      "neare": 3922,
      "templates</w>": 3923,
      "partial</w>": 3924,
      "dispatcher</w>": 3925,
      "toring</w>": 3926,
      "considered</w>": 3927,
      "thumbna": 3928,
      "belonging</w>": 3929,
      "gar": 3930,
      "ol": 3931,
      "stname</w>": 3932,
      "keywords</w>": 3933,
      "encapsu": 3934,
      "dl": 3935,
      "gree</w>": 3936,
      "playback</w>": 3937,
      "clus": 3938,
      "caches</w>": 3939,
      "scenario</w>": 3940,
      "stage</w>": 3941,
      "party</w>": 3942,
      "translated</w>": 3943,
      "acquire</w>": 3944,
      "longitude</w>": 3945,
      "nearest</w>": 3946,
      "fat": 3947,
      "orders</w>": 3948,
      "shed</w>": 3949,
      "charge</w>": 3950,
      "relations</w>": 3951,
      "normalized</w>": 3952,
      "news</w>": 3953,
      "music</w>": 3954,
      "filtering</w>": 3955,
      "ty": 3956,
      "serializes</w>": 3957,
      "installed</w>": 3958,
      "doc": 3959,
      "holding</w>": 3960,
      "compatible</w>": 3961,
      "reached</w>": 3962,
      "licitly</w>": 3963,
      "prote": 3964,
      "ascen": 3965,
      "refer": 3966,
      "quality</w>": 3967,
      "datatype</w>": 3968,
      "ative</w>": 3969,
      "mean": 3970,
      "latitude</w>": 3971,
      "associate</w>": 3972,
      "ranges</w>": 3973,
      "usly</w>": 3974,
      "qualifier</w>": 3975,
      "mechanism</w>": 3976,
      "vent</w>": 3977,
      "interes": 3978,
      "poten": 3979,
      "acceler": 3980,
      "indentation</w>": 3981,
      "cable</w>": 3982,
      "associations</w>": 3983,
      "styles</w>": 3984,
      "portal</w>": 3985,
      "gap</w>": 3986,
      "lled</w>": 3987,
      "redirect</w>": 3988,
      "bank</w>": 3989,
      "mm</w>": 3990,
      "arm</w>": 3991,
      "replacing</w>": 3992,
      "contract</w>": 3993,
      "movie</w>": 3994,
      "exce": 3995,
      "compile</w>": 3996,
      "ui": 3997,
      "faci": 3998,
      "symbols</w>": 3999,
      "identify</w>": 4000,
      "sequences</w>": 4001,
      "dor</w>": 4002,
      "hint</w>": 4003,
      "rege": 4004,
      "molec": 4005,
      "digest</w>": 4006,
      "vered</w>": 4007,
      "transpa": 4008,
      "tives</w>": 4009,
      "subtree</w>": 4010,
      "pl</w>": 4011,
      "inven": 4012,
      "design</w>": 4013,
      "sers</w>": 4014,
      "tency</w>": 4015,
      "contacts</w>": 4016,
      "prior</w>": 4017,
      "online</w>": 4018,
      "bar": 4019,
      "vehi": 4020,
      "minimal</w>": 4021,
      "scheduler</w>": 4022,
      "decode</w>": 4023,
      "ives</w>": 4024,
      "fw": 4025,
      "unsaved</w>": 4026,
      "appear</w>": 4027,
      "stere": 4028,
      "style": 4029,
      "deplo": 4030,
      "persist</w>": 4031,
      "partner</w>": 4032,
      "cd</w>": 4033,
      "fo</w>": 4034,
      "stic</w>": 4035,
      "exits</w>": 4036,
      "byte": 4037,
      "blocking</w>": 4038,
      "sn": 4039,
      "unless</w>": 4040,
      "constructed</w>": 4041,
      "authorization</w>": 4042,
      "shadow</w>": 4043,
      "grams</w>": 4044,
      "avoid</w>": 4045,
      "mix": 4046,
      "outside</w>": 4047,
      "restriction</w>": 4048,
      "consumer</w>": 4049,
      "datasource</w>": 4050,
      "han": 4051,
      "extent</w>": 4052,
      "bag</w>": 4053,
      "csv</w>": 4054,
      "kers</w>": 4055,
      "listens</w>": 4056,
      "tech": 4057,
      "tou": 4058,
      "mesh</w>": 4059,
      "imports</w>": 4060,
      "unicode</w>": 4061,
      "schedules</w>": 4062,
      "elap": 4063,
      "listed</w>": 4064,
      "operating</w>": 4065,
      "gradi": 4066,
      "pment</w>": 4067,
      "sentence</w>": 4068,
      "plays</w>": 4069,
      "dragged</w>": 4070,
      "spot</w>": 4071,
      "plo": 4072,
      "watch</w>": 4073,
      "performance</w>": 4074,
      "deployment</w>": 4075,
      "separate</w>": 4076,
      "opening</w>": 4077,
      "midlet</w>": 4078,
      "pops</w>": 4079,
      "ycle</w>": 4080,
      "rotate</w>": 4081,
      "scheduled</w>": 4082,
      "closest</w>": 4083,
      "he</w>": 4084,
      "scaled</w>": 4085,
      "iterates</w>": 4086,
      "vs</w>": 4087,
      "temp</w>": 4088,
      "sugge": 4089,
      "appear": 4090,
      "quot</w>": 4091,
      "gn</w>": 4092,
      "nu": 4093,
      "qname</w>": 4094,
      "played</w>": 4095,
      "dap</w>": 4096,
      "pipeline</w>": 4097,
      "things</w>": 4098,
      "fied</w>": 4099,
      "matcher</w>": 4100,
      "packages</w>": 4101,
      "formatting</w>": 4102,
      "future</w>": 4103,
      "repeat</w>": 4104,
      "employee</w>": 4105,
      "extends</w>": 4106,
      "tcp</w>": 4107,
      "descend": 4108,
      "arg</w>": 4109,
      "levels</w>": 4110,
      "admini": 4111,
      "chars</w>": 4112,
      "wsdl</w>": 4113,
      "unc": 4114,
      "unregisters</w>": 4115,
      "retrieving</w>": 4116,
      "automat": 4117,
      "transformer</w>": 4118,
      "bt</w>": 4119,
      "local": 4120,
      "mod</w>": 4121,
      "path": 4122,
      "fet": 4123,
      "identical</w>": 4124,
      "triple</w>": 4125,
      "rss</w>": 4126,
      "tun": 4127,
      "put": 4128,
      "inclusive</w>": 4129,
      "wledge</w>": 4130,
      "idle</w>": 4131,
      "shall</w>": 4132,
      "circle</w>": 4133,
      "envelo": 4134,
      "again</w>": 4135,
      "ldap</w>": 4136,
      "mm": 4137,
      "retre": 4138,
      "asci": 4139,
      "heading</w>": 4140,
      "digits</w>": 4141,
      "gradient</w>": 4142,
      "20</w>": 4143,
      "ef</w>": 4144,
      "ql</w>": 4145,
      "disconnects</w>": 4146,
      "way": 4147,
      "member": 4148,
      "combination</w>": 4149,
      "inventory</w>": 4150,
      "coverage</w>": 4151,
      "simi": 4152,
      "visited</w>": 4153,
      "skill</w>": 4154,
      "sp</w>": 4155,
      "set": 4156,
      "ney</w>": 4157,
      "spective</w>": 4158,
      "even</w>": 4159,
      "ships</w>": 4160,
      "inline</w>": 4161,
      "formed</w>": 4162,
      "backing</w>": 4163,
      "computed</w>": 4164,
      "elapsed</w>": 4165,
      "bas": 4166,
      "gy</w>": 4167,
      "ink</w>": 4168,
      "tipo</w>": 4169,
      "poo": 4170,
      "fatal</w>": 4171,
      "gps</w>": 4172,
      "modifiers</w>": 4173,
      "owned</w>": 4174,
      "advance</w>": 4175,
      "observation</w>": 4176,
      "camp": 4177,
      "triggers</w>": 4178,
      "cut</w>": 4179,
      "learning</w>": 4180,
      "jndi</w>": 4181,
      "canonical</w>": 4182,
      "nation</w>": 4183,
      "aster</w>": 4184,
      "viation</w>": 4185,
      "outer</w>": 4186,
      "middle</w>": 4187,
      "automatic</w>": 4188,
      "life</w>": 4189,
      "might</w>": 4190,
      "pretty</w>": 4191,
      "semantic</w>": 4192,
      "vo</w>": 4193,
      "pane": 4194,
      "exclusive</w>": 4195,
      "catch</w>": 4196,
      "jax": 4197,
      "inver": 4198,
      "prece": 4199,
      "leave</w>": 4200,
      "ascii</w>": 4201,
      "insets</w>": 4202,
      "flic": 4203,
      "info": 4204,
      "exact</w>": 4205,
      "presence</w>": 4206,
      "pipe</w>": 4207,
      "printable</w>": 4208,
      "cmd</w>": 4209,
      "his</w>": 4210,
      "io": 4211,
      "dest</w>": 4212,
      "mock</w>": 4213,
      "searching</w>": 4214,
      "audit</w>": 4215,
      "svg</w>": 4216,
      "ball</w>": 4217,
      "lo</w>": 4218,
      "tracking</w>": 4219,
      "ware</w>": 4220,
      "alpha": 4221,
      "itera": 4222,
      "quote</w>": 4223,
      "deno": 4224,
      "manage</w>": 4225,
      "extrac": 4226,
      "study</w>": 4227,
      "several</w>": 4228,
      "rollback</w>": 4229,
      "applicable</w>": 4230,
      "checksum</w>": 4231,
      "personal</w>": 4232,
      "maximal</w>": 4233,
      "interested</w>": 4234,
      "ports</w>": 4235,
      "degree</w>": 4236,
      "illegal</w>": 4237,
      "placed</w>": 4238,
      "plus</w>": 4239,
      "simulates</w>": 4240,
      "ancestor</w>": 4241,
      "respond</w>": 4242,
      "alternate</w>": 4243,
      "intended</w>": 4244,
      "real": 4245,
      "confirmation</w>": 4246,
      "thumbnail</w>": 4247,
      "thats</w>": 4248,
      "caption</w>": 4249,
      "expired</w>": 4250,
      "pk</w>": 4251,
      "inputs</w>": 4252,
      "asks</w>": 4253,
      "pea": 4254,
      "datastore</w>": 4255,
      "gp": 4256,
      "simil": 4257,
      "break": 4258,
      "cul": 4259,
      "menu": 4260,
      "iling</w>": 4261,
      "blu": 4262,
      "redirec": 4263,
      "develo": 4264,
      "bucket</w>": 4265,
      "too</w>": 4266,
      "specifying</w>": 4267,
      "production</w>": 4268,
      "segments</w>": 4269,
      "poll</w>": 4270,
      "compression</w>": 4271,
      "large</w>": 4272,
      "printed</w>": 4273,
      "ared</w>": 4274,
      "tested</w>": 4275,
      "assum": 4276,
      "shapes</w>": 4277,
      "good</w>": 4278,
      "fec": 4279,
      "cap</w>": 4280,
      "bir": 4281,
      "composition</w>": 4282,
      "alphabe": 4283,
      "cr</w>": 4284,
      "ater": 4285,
      "voice</w>": 4286,
      "lipse</w>": 4287,
      "really</w>": 4288,
      "lowest</w>": 4289,
      "compressed</w>": 4290,
      "expr</w>": 4291,
      "wiki</w>": 4292,
      "alive</w>": 4293,
      "math</w>": 4294,
      "reported</w>": 4295,
      "credit</w>": 4296,
      "serve</w>": 4297,
      "connecting</w>": 4298,
      "caused</w>": 4299,
      "idl</w>": 4300,
      "pick</w>": 4301,
      "density</w>": 4302,
      "begins</w>": 4303,
      "blob</w>": 4304,
      "removal</w>": 4305,
      "executable</w>": 4306,
      "chromosome</w>": 4307,
      "recently</w>": 4308,
      "explicitly</w>": 4309,
      "ascending</w>": 4310,
      "jvm</w>": 4311,
      "pin</w>": 4312,
      "occur</w>": 4313,
      "detected</w>": 4314,
      "t2</w>": 4315,
      "yed</w>": 4316,
      "contexts</w>": 4317,
      "mor": 4318,
      "sa</w>": 4319,
      "shut</w>": 4320,
      "triangle</w>": 4321,
      "deleting</w>": 4322,
      "atoms</w>": 4323,
      "dtd</w>": 4324,
      "garba": 4325,
      "similar</w>": 4326,
      "mers</w>": 4327,
      "enters</w>": 4328,
      "say</w>": 4329,
      "explicit</w>": 4330,
      "position": 4331,
      "deletion</w>": 4332,
      "pack</w>": 4333,
      "identification</w>": 4334,
      "automaton</w>": 4335,
      "eli": 4336,
      "tively</w>": 4337,
      "verbo": 4338,
      "accessed</w>": 4339,
      "loop": 4340,
      "union</w>": 4341,
      "visualization</w>": 4342,
      "kil": 4343,
      "logout</w>": 4344,
      "hard": 4345,
      "adjusts</w>": 4346,
      "delimited</w>": 4347,
      "garbage</w>": 4348,
      "car</w>": 4349,
      "hits</w>": 4350,
      "ip": 4351,
      "devices</w>": 4352,
      "converting</w>": 4353,
      "requirement</w>": 4354,
      "ai</w>": 4355,
      "acy</w>": 4356,
      "mage</w>": 4357,
      "scape</w>": 4358,
      "ssl</w>": 4359,
      "usually</w>": 4360,
      "coefficient</w>": 4361,
      "retor": 4362,
      "isi": 4363,
      "taking</w>": 4364,
      "charset</w>": 4365,
      "discovery</w>": 4366,
      "weather</w>": 4367,
      "weights</w>": 4368,
      "tys</w>": 4369,
      "institu": 4370,
      "rain</w>": 4371,
      "selecting</w>": 4372,
      "spatial</w>": 4373,
      "eps</w>": 4374,
      "continue</w>": 4375,
      "iver": 4376,
      "onal</w>": 4377,
      "collected</w>": 4378,
      "multiply</w>": 4379,
      "free": 4380,
      "wall</w>": 4381,
      "appears</w>": 4382,
      "adaptor</w>": 4383,
      "classification</w>": 4384,
      "compiled</w>": 4385,
      "ural</w>": 4386,
      "correlation</w>": 4387,
      "imported</w>": 4388,
      "trees</w>": 4389,
      "delimiter</w>": 4390,
      "estimate</w>": 4391,
      "ith</w>": 4392,
      "seen</w>": 4393,
      "exac": 4394,
      "sof": 4395,
      "secondary</w>": 4396,
      "copied</w>": 4397,
      "expands</w>": 4398,
      "casts</w>": 4399,
      "jmenu</w>": 4400,
      "rpc</w>": 4401,
      "aps</w>": 4402,
      "synchronized</w>": 4403,
      "candidate</w>": 4404,
      "yes</w>": 4405,
      "reta": 4406,
      "conversation</w>": 4407,
      "slide</w>": 4408,
      "statistic</w>": 4409,
      "bench</w>": 4410,
      "ade</w>": 4411,
      "reloads</w>": 4412,
      "student</w>": 4413,
      "nul": 4414,
      "seed</w>": 4415,
      "mous</w>": 4416,
      "mental</w>": 4417,
      "quick</w>": 4418,
      "ignor": 4419,
      "harve": 4420,
      "reduce</w>": 4421,
      "url": 4422,
      "button1</w>": 4423,
      "envelope</w>": 4424,
      "probe</w>": 4425,
      "histo": 4426,
      "cardin": 4427,
      "minute</w>": 4428,
      "textfield</w>": 4429,
      "bo</w>": 4430,
      "stre": 4431,
      "tar</w>": 4432,
      "fast</w>": 4433,
      "conditional</w>": 4434,
      "jpanel</w>": 4435,
      "anon": 4436,
      "obo": 4437,
      "validated</w>": 4438,
      "zoo": 4439,
      "painted</w>": 4440,
      "angles</w>": 4441,
      "stat</w>": 4442,
      "evaluator</w>": 4443,
      "fech": 4444,
      "mented</w>": 4445,
      "merges</w>": 4446,
      "publication</w>": 4447,
      "symboli": 4448,
      "bid</w>": 4449,
      "hor": 4450,
      "conflic": 4451,
      "lost</w>": 4452,
      "uploaded</w>": 4453,
      "effective</w>": 4454,
      "severity</w>": 4455,
      "appearance</w>": 4456,
      "ically</w>": 4457,
      "sy</w>": 4458,
      "acro": 4459,
      "deci": 4460,
      "decodes</w>": 4461,
      "exactly</w>": 4462,
      "ud</w>": 4463,
      "alarm</w>": 4464,
      "spla": 4465,
      "flav": 4466,
      "targe": 4467,
      "air": 4468,
      "floating</w>": 4469,
      "effects</w>": 4470,
      "away</w>": 4471,
      "yy": 4472,
      "leading</w>": 4473,
      "vendor</w>": 4474,
      "expiration</w>": 4475,
      "anony": 4476,
      "cles</w>": 4477,
      "naming</w>": 4478,
      "even": 4479,
      "bio": 4480,
      "partition</w>": 4481,
      "filesystem</w>": 4482,
      "encryption</w>": 4483,
      "similarity</w>": 4484,
      "cc</w>": 4485,
      "ect</w>": 4486,
      "forum</w>": 4487,
      "colla": 4488,
      "compe": 4489,
      "extend</w>": 4490,
      "bil": 4491,
      "patch</w>": 4492,
      "hostname</w>": 4493,
      "terminates</w>": 4494,
      "transient</w>": 4495,
      "reflect</w>": 4496,
      "neighbor</w>": 4497,
      "retorna</w>": 4498,
      "une": 4499,
      "args</w>": 4500,
      "commit": 4501,
      "executor</w>": 4502,
      "overriding</w>": 4503,
      "transitions</w>": 4504,
      "rotates</w>": 4505,
      "activities</w>": 4506,
      "molecule</w>": 4507,
      "ergy</w>": 4508,
      "lazy</w>": 4509,
      "gration</w>": 4510,
      "hosts</w>": 4511,
      "ticles</w>": 4512,
      "exports</w>": 4513,
      "skips</w>": 4514,
      "stylesheet</w>": 4515,
      "12</w>": 4516,
      "ste</w>": 4517,
      "cim": 4518,
      "presses</w>": 4519,
      "shader</w>": 4520,
      "recipient</w>": 4521,
      "broadcast</w>": 4522,
      "accounts</w>": 4523,
      "ponent</w>": 4524,
      "interpo": 4525,
      "knowledge</w>": 4526,
      "rf": 4527,
      "rtf</w>": 4528,
      "sizes</w>": 4529,
      "classname</w>": 4530,
      "jm": 4531,
      "foc": 4532,
      "balance</w>": 4533,
      "vehicle</w>": 4534,
      "bre": 4535,
      "cau": 4536,
      "tem": 4537,
      "encrypted</w>": 4538,
      "nsstring</w>": 4539,
      "goods</w>": 4540,
      "interceptor</w>": 4541,
      "adj": 4542,
      "variance</w>": 4543,
      "deploy</w>": 4544,
      "backs</w>": 4545,
      "nat": 4546,
      "reserved</w>": 4547,
      "univer": 4548,
      "workbench</w>": 4549,
      "attaches</w>": 4550,
      "jms</w>": 4551,
      "ske": 4552,
      "recorded</w>": 4553,
      "capture</w>": 4554,
      "sibling</w>": 4555,
      "ag": 4556,
      "eg</w>": 4557,
      "acle</w>": 4558,
      "licen": 4559,
      "guis": 4560,
      "mically</w>": 4561,
      "midi</w>": 4562,
      "informations</w>": 4563,
      "pse": 4564,
      "fitness</w>": 4565,
      "servi": 4566,
      "optionally</w>": 4567,
      "privi": 4568,
      "deck</w>": 4569,
      "highlighted</w>": 4570,
      "righ": 4571,
      "pers</w>": 4572,
      "fixes</w>": 4573,
      "monitoring</w>": 4574,
      "allest</w>": 4575,
      "traversal</w>": 4576,
      "cardinality</w>": 4577,
      "perman": 4578,
      "modifiable</w>": 4579,
      "got</w>": 4580,
      "detal": 4581,
      "buddy</w>": 4582,
      "kernel</w>": 4583,
      "dn</w>": 4584,
      "pnl</w>": 4585,
      "xx</w>": 4586,
      "unary</w>": 4587,
      "doing</w>": 4588,
      "ression</w>": 4589,
      "prototype</w>": 4590,
      "dialogs</w>": 4591,
      "fwt": 4592,
      "bles</w>": 4593,
      "annota": 4594,
      "clicking</w>": 4595,
      "cpu</w>": 4596,
      "bookmark</w>": 4597,
      "offi": 4598,
      "quit</w>": 4599,
      "valued</w>": 4600,
      "con</w>": 4601,
      "predefined</w>": 4602,
      "tured</w>": 4603,
      "asynchronous</w>": 4604,
      "lator</w>": 4605,
      "sor": 4606,
      "respect</w>": 4607,
      "methode</w>": 4608,
      "notation</w>": 4609,
      "toge": 4610,
      "cion</w>": 4611,
      "produced</w>": 4612,
      "smallest</w>": 4613,
      "painting</w>": 4614,
      "encapsulated</w>": 4615,
      "enclosing</w>": 4616,
      "shallow</w>": 4617,
      "containers</w>": 4618,
      "caching</w>": 4619,
      "slice</w>": 4620,
      "detach": 4621,
      "intersects</w>": 4622,
      "dless</w>": 4623,
      "rejec": 4624,
      "locate</w>": 4625,
      "finding</w>": 4626,
      "drawable</w>": 4627,
      "invoking</w>": 4628,
      "place": 4629,
      "maintain": 4630,
      "solver</w>": 4631,
      "publisher</w>": 4632,
      "assuming</w>": 4633,
      "together</w>": 4634,
      "fav": 4635,
      "visitors</w>": 4636,
      "brac": 4637,
      "bad</w>": 4638,
      "instrument</w>": 4639,
      "scrollbar</w>": 4640,
      "li</w>": 4641,
      "theres</w>": 4642,
      "allocate</w>": 4643,
      "compatibility</w>": 4644,
      "privile": 4645,
      "intro": 4646,
      "star</w>": 4647,
      "vals</w>": 4648,
      "comp</w>": 4649,
      "collects</w>": 4650,
      "biz</w>": 4651,
      "leaves</w>": 4652,
      "black</w>": 4653,
      "awt</w>": 4654,
      "cd": 4655,
      "oo": 4656,
      "tx": 4657,
      "proxi": 4658,
      "enab": 4659,
      "edits</w>": 4660,
      "bitmap</w>": 4661,
      "substitution</w>": 4662,
      "further</w>": 4663,
      "una": 4664,
      "las</w>": 4665,
      "energy</w>": 4666,
      "versions</w>": 4667,
      "scrolling</w>": 4668,
      "regardless</w>": 4669,
      "locally</w>": 4670,
      "rai": 4671,
      "lication</w>": 4672,
      "indepen": 4673,
      "constructors</w>": 4674,
      "availa": 4675,
      "attack</w>": 4676,
      "published</w>": 4677,
      "sections</w>": 4678,
      "emi": 4679,
      "abort</w>": 4680,
      "import": 4681,
      "random": 4682,
      "facts</w>": 4683,
      "facade</w>": 4684,
      "empties</w>": 4685,
      "jtext</w>": 4686,
      "deselects</w>": 4687,
      "runner</w>": 4688,
      "echo</w>": 4689,
      "authenticated</w>": 4690,
      "campai": 4691,
      "money</w>": 4692,
      "mial</w>": 4693,
      "determined</w>": 4694,
      "struts</w>": 4695,
      "ek</w>": 4696,
      "roll</w>": 4697,
      "demo</w>": 4698,
      "lative</w>": 4699,
      "cia</w>": 4700,
      "namespaces</w>": 4701,
      "products</w>": 4702,
      "newline</w>": 4703,
      "histogram</w>": 4704,
      "ide": 4705,
      "had</w>": 4706,
      "combobo": 4707,
      "cas</w>": 4708,
      "ough</w>": 4709,
      "mandat": 4710,
      "mart</w>": 4711,
      "daem": 4712,
      "membership</w>": 4713,
      "daemon</w>": 4714,
      "flight</w>": 4715,
      "die</w>": 4716,
      "unused</w>": 4717,
      "dout</w>": 4718,
      "instant</w>": 4719,
      "gain</w>": 4720,
      "ados</w>": 4721,
      "thi": 4722,
      "review</w>": 4723,
      "restart</w>": 4724,
      "secre": 4725,
      "whats</w>": 4726,
      "para</w>": 4727,
      "sable</w>": 4728,
      "shing</w>": 4729,
      "share</w>": 4730,
      "type": 4731,
      "markers</w>": 4732,
      "defining</w>": 4733,
      "xsl</w>": 4734,
      "across</w>": 4735,
      "evi": 4736,
      "art": 4737,
      "subscribe</w>": 4738,
      "fonts</w>": 4739,
      "pul": 4740,
      "millisecond</w>": 4741,
      "obtained</w>": 4742,
      "splash</w>": 4743,
      "mutation</w>": 4744,
      "comparing</w>": 4745,
      "producer</w>": 4746,
      "html": 4747,
      "largest</w>": 4748,
      "meaning</w>": 4749,
      "tal": 4750,
      "busy</w>": 4751,
      "insertion</w>": 4752,
      "centr": 4753,
      "secure</w>": 4754,
      "four</w>": 4755,
      "ified</w>": 4756,
      "pad</w>": 4757,
      "quoted</w>": 4758,
      "fecha</w>": 4759,
      "randomly</w>": 4760,
      "gate": 4761,
      "h2</w>": 4762,
      "prevent</w>": 4763,
      "paused</w>": 4764,
      "closure</w>": 4765,
      "search": 4766,
      "titles</w>": 4767,
      "fraction</w>": 4768,
      "explorer</w>": 4769,
      "clusters</w>": 4770,
      "anonymous</w>": 4771,
      "mandatory</w>": 4772,
      "grade</w>": 4773,
      "collect</w>": 4774,
      "jour": 4775,
      "len</w>": 4776,
      "ner": 4777,
      "atri": 4778,
      "enough</w>": 4779,
      "initializer</w>": 4780,
      "interpret": 4781,
      "applying</w>": 4782,
      "ticks</w>": 4783,
      "finishes</w>": 4784,
      "instantiates</w>": 4785,
      "aggregate</w>": 4786,
      "google</w>": 4787,
      "si</w>": 4788,
      "initiates</w>": 4789,
      "scans</w>": 4790,
      "commits</w>": 4791,
      "dragging</w>": 4792,
      "nego": 4793,
      "lock": 4794,
      "replic": 4795,
      "allowing</w>": 4796,
      "scales</w>": 4797,
      "campaign</w>": 4798,
      "ct": 4799,
      "cp</w>": 4800,
      "cat</w>": 4801,
      "tters</w>": 4802,
      "figu": 4803,
      "terminated</w>": 4804,
      "declarations</w>": 4805,
      "dumps</w>": 4806,
      "occuren": 4807,
      "multiplies</w>": 4808,
      "queues</w>": 4809,
      "sd": 4810,
      "ven</w>": 4811,
      "providers</w>": 4812,
      "ocl</w>": 4813,
      "warn</w>": 4814,
      "radians</w>": 4815,
      "assumes</w>": 4816,
      "periodi": 4817,
      "office</w>": 4818,
      "facet</w>": 4819,
      "bile</w>": 4820,
      "downloaded</w>": 4821,
      "exclude</w>": 4822,
      "occurrences</w>": 4823,
      "im</w>": 4824,
      "dispatches</w>": 4825,
      "collabor": 4826,
      "descen": 4827,
      "timed</w>": 4828,
      "scores</w>": 4829,
      "15": 4830,
      "ups</w>": 4831,
      "much</w>": 4832,
      "substring</w>": 4833,
      "pid</w>": 4834,
      "selections</w>": 4835,
      "ttle</w>": 4836,
      "normally</w>": 4837,
      "sleep</w>": 4838,
      "ignoring</w>": 4839,
      "ered</w>": 4840,
      "jd": 4841,
      "sni": 4842,
      "ciph": 4843,
      "escap": 4844,
      "waypoint</w>": 4845,
      "lifec": 4846,
      "voca": 4847,
      "firing</w>": 4848,
      "managers</w>": 4849,
      "configurations</w>": 4850,
      "figures</w>": 4851,
      "lations</w>": 4852,
      "sid</w>": 4853,
      "smtp</w>": 4854,
      "care</w>": 4855,
      "unset</w>": 4856,
      "overall</w>": 4857,
      "hardware</w>": 4858,
      "tracks</w>": 4859,
      "ackno": 4860,
      "owning</w>": 4861,
      "invalidates</w>": 4862,
      "valor</w>": 4863,
      "depends</w>": 4864,
      "areas</w>": 4865,
      "species</w>": 4866,
      "diagnostic</w>": 4867,
      "01</w>": 4868,
      "bl</w>": 4869,
      "gal": 4870,
      "wro": 4871,
      "meters</w>": 4872,
      "gest": 4873,
      "accumu": 4874,
      "ext</w>": 4875,
      "quater": 4876,
      "lucen": 4877,
      "cao</w>": 4878,
      "cros": 4879,
      "persons</w>": 4880,
      "distinguis": 4881,
      "ga</w>": 4882,
      "forwar": 4883,
      "collector</w>": 4884,
      "residue</w>": 4885,
      "regex</w>": 4886,
      "license</w>": 4887,
      "secret</w>": 4888,
      "depart": 4889,
      "acl</w>": 4890,
      "sim</w>": 4891,
      "distributed</w>": 4892,
      "breakpoint</w>": 4893,
      "combobox</w>": 4894,
      "ex</w>": 4895,
      "gc</w>": 4896,
      "attr</w>": 4897,
      "merchan": 4898,
      "consistent</w>": 4899,
      "iterations</w>": 4900,
      "lifecycle</w>": 4901,
      "fig</w>": 4902,
      "manually</w>": 4903,
      "friend": 4904,
      "concaten": 4905,
      "temper": 4906,
      "adjac": 4907,
      "pap": 4908,
      "tear</w>": 4909,
      "trim</w>": 4910,
      "finder</w>": 4911,
      "performing</w>": 4912,
      "quotes</w>": 4913,
      "blue</w>": 4914,
      "immediate</w>": 4915,
      "quaterni": 4916,
      "geno": 4917,
      "paralle": 4918,
      "markup</w>": 4919,
      "wrapping</w>": 4920,
      "sector</w>": 4921,
      "reflection</w>": 4922,
      "jump</w>": 4923,
      "jdom</w>": 4924,
      "alt</w>": 4925,
      "any": 4926,
      "soc": 4927,
      "wheel</w>": 4928,
      "infini": 4929,
      "others</w>": 4930,
      "facility</w>": 4931,
      "verbose</w>": 4932,
      "flavor</w>": 4933,
      "stdout</w>": 4934,
      "minimi": 4935,
      "capability</w>": 4936,
      "estimated</w>": 4937,
      "atomic</w>": 4938,
      "half</w>": 4939,
      "numer": 4940,
      "tivity</w>": 4941,
      "prog": 4942,
      "disc": 4943,
      "invol": 4944,
      "flash</w>": 4945,
      "simpli": 4946,
      "ds": 4947,
      "ros</w>": 4948,
      "limits</w>": 4949,
      "process": 4950,
      "lang</w>": 4951,
      "intensity</w>": 4952,
      "jp": 4953,
      "allocation</w>": 4954,
      "entr": 4955,
      "mas</w>": 4956,
      "gui": 4957,
      "racer</w>": 4958,
      "decision</w>": 4959,
      "simulator</w>": 4960,
      "scripts</w>": 4961,
      "neuron</w>": 4962,
      "atribu": 4963,
      "gesture</w>": 4964,
      "lucene</w>": 4965,
      "repaints</w>": 4966,
      "dete": 4967,
      "pos": 4968,
      "belong</w>": 4969,
      "result": 4970,
      "point": 4971,
      "followed</w>": 4972,
      "accessing</w>": 4973,
      "pathname</w>": 4974,
      "placement</w>": 4975,
      "attachments</w>": 4976,
      "ird</w>": 4977,
      "mailbox</w>": 4978,
      "quaternion</w>": 4979,
      "axes</w>": 4980,
      "green</w>": 4981,
      "owns</w>": 4982,
      "cookies</w>": 4983,
      "digit</w>": 4984,
      "availability</w>": 4985,
      "ahead</w>": 4986,
      "eting</w>": 4987,
      "kill</w>": 4988,
      "spinner</w>": 4989,
      "dad</w>": 4990,
      "evaluated</w>": 4991,
      "dimensi": 4992,
      "borders</w>": 4993,
      "transparen": 4994,
      "je": 4995,
      "jtable</w>": 4996,
      "xa</w>": 4997,
      "loc</w>": 4998,
      "sou": 4999,
      "tour</w>": 5000,
      "mir": 5001,
      "sequent</w>": 5002,
      "joins</w>": 5003,
      "replaced</w>": 5004,
      "launches</w>": 5005,
      "resizes</w>": 5006,
      "queued</w>": 5007,
      "merchant</w>": 5008,
      "temperature</w>": 5009,
      "raster</w>": 5010,
      "smo": 5011,
      "lex</w>": 5012,
      "guar": 5013,
      "guid</w>": 5014,
      "serializer</w>": 5015,
      "lexcep": 5016,
      "js</w>": 5017,
      "outs</w>": 5018,
      "responses</w>": 5019,
      "graph": 5020,
      "characteri": 5021,
      "displayable</w>": 5022,
      "reason": 5023,
      "individuals</w>": 5024,
      "adjust": 5025,
      "subtract</w>": 5026,
      "cdata</w>": 5027,
      "gates</w>": 5028,
      "sms</w>": 5029,
      "reserv": 5030,
      "overloaded</w>": 5031,
      "joint</w>": 5032,
      "rounding</w>": 5033,
      "javax</w>": 5034,
      "ryp": 5035,
      "invoice</w>": 5036,
      "wap</w>": 5037,
      "systems</w>": 5038,
      "follow</w>": 5039,
      "decoration</w>": 5040,
      "cumulative</w>": 5041,
      "peak</w>": 5042,
      "rid</w>": 5043,
      "backward</w>": 5044,
      "util</w>": 5045,
      "acquired</w>": 5046,
      "manual</w>": 5047,
      "techni": 5048,
      "100</w>": 5049,
      "dr": 5050,
      "nth</w>": 5051,
      "atten": 5052,
      "tail</w>": 5053,
      "color": 5054,
      "iled</w>": 5055,
      "selectable</w>": 5056,
      "cancelled</w>": 5057,
      "xsd</w>": 5058,
      "ital</w>": 5059,
      "xm": 5060,
      "deprec": 5061,
      "leaving</w>": 5062,
      "coords</w>": 5063,
      "look": 5064,
      "tokenizer</w>": 5065,
      "independent</w>": 5066,
      "rol": 5067,
      "shipping</w>": 5068,
      "populated</w>": 5069,
      "excluded</w>": 5070,
      "hyperlink</w>": 5071,
      "gateway</w>": 5072,
      "becomes</w>": 5073,
      "implementations</w>": 5074,
      "decryp": 5075,
      "tral</w>": 5076,
      "asynchronously</w>": 5077,
      "inactive</w>": 5078,
      "art</w>": 5079,
      "rior</w>": 5080,
      "sip</w>": 5081,
      "moment</w>": 5082,
      "whate": 5083,
      "damage</w>": 5084,
      "wled": 5085,
      "bytecode</w>": 5086,
      "lis</w>": 5087,
      "commen": 5088,
      "compara": 5089,
      "bots</w>": 5090,
      "operators</w>": 5091,
      "planet</w>": 5092,
      "eping</w>": 5093,
      "discrete</w>": 5094,
      "detection</w>": 5095,
      "uris</w>": 5096,
      "nomb": 5097,
      "retrieval</w>": 5098,
      "division</w>": 5099,
      "synchrono": 5100,
      "deprecated</w>": 5101,
      "whatever</w>": 5102,
      "tored</w>": 5103,
      "pus</w>": 5104,
      "league</w>": 5105,
      "carri": 5106,
      "keystore</w>": 5107,
      "normalize</w>": 5108,
      "community</w>": 5109,
      "artist</w>": 5110,
      "panel1</w>": 5111,
      "focused</w>": 5112,
      "pseu": 5113,
      "transparency</w>": 5114,
      "third</w>": 5115,
      "tid</w>": 5116,
      "oracle</w>": 5117,
      "ist</w>": 5118,
      "minus</w>": 5119,
      "serializable</w>": 5120,
      "ices</w>": 5121,
      "man</w>": 5122,
      "rd": 5123,
      "spell</w>": 5124,
      "dial": 5125,
      "sink</w>": 5126,
      "instructs</w>": 5127,
      "cipher</w>": 5128,
      "4j</w>": 5129,
      "yth": 5130,
      "zz": 5131,
      "ord</w>": 5132,
      "mobile</w>": 5133,
      "overwritten</w>": 5134,
      "searcher</w>": 5135,
      "submission</w>": 5136,
      "sql": 5137,
      "analyzer</w>": 5138,
      "synchronization</w>": 5139,
      "resized</w>": 5140,
      "bond</w>": 5141,
      "inspec": 5142,
      "lazi": 5143,
      "program": 5144,
      "sphere</w>": 5145,
      "did</w>": 5146,
      "opcode</w>": 5147,
      "directed</w>": 5148,
      "normalizes</w>": 5149,
      "mf</w>": 5150,
      "vin": 5151,
      "seller</w>": 5152,
      "divide</w>": 5153,
      "identifying</w>": 5154,
      "stereo": 5155,
      "require</w>": 5156,
      "routing</w>": 5157,
      "usuario</w>": 5158,
      "lazily</w>": 5159,
      "last": 5160,
      "diff": 5161,
      "locates</w>": 5162,
      "manages</w>": 5163,
      "authority</w>": 5164,
      "scrolls</w>": 5165,
      "establish</w>": 5166,
      "cms</w>": 5167,
      "os": 5168,
      "promotion</w>": 5169,
      "entering</w>": 5170,
      "vio": 5171,
      "sqlexcep": 5172,
      "regions</w>": 5173,
      "controlled</w>": 5174,
      "differen": 5175,
      "rights</w>": 5176,
      "wrong</w>": 5177,
      "comparable</w>": 5178,
      "dian</w>": 5179,
      "trade</w>": 5180,
      "expansion</w>": 5181,
      "initialisation</w>": 5182,
      "subtracts</w>": 5183,
      "decorator</w>": 5184,
      "rel</w>": 5185,
      "reduc": 5186,
      "descriptions</w>": 5187,
      "norm</w>": 5188,
      "persisted</w>": 5189,
      "blue": 5190,
      "wild": 5191,
      "integers</w>": 5192,
      "spea": 5193,
      "drops</w>": 5194,
      "credential</w>": 5195,
      "jun": 5196,
      "struct</w>": 5197,
      "compli": 5198,
      "immutable</w>": 5199,
      "rectangular</w>": 5200,
      "equipment</w>": 5201,
      "potential</w>": 5202,
      "parallel</w>": 5203,
      "au</w>": 5204,
      "tp": 5205,
      "remember</w>": 5206,
      "callable</w>": 5207,
      "alizer</w>": 5208,
      "exiting</w>": 5209,
      "broker</w>": 5210,
      "polyno": 5211,
      "swt</w>": 5212,
      "administr": 5213,
      "tm</w>": 5214,
      "iso</w>": 5215,
      "spar": 5216,
      "cube</w>": 5217,
      "expres": 5218,
      "problems</w>": 5219,
      "classloader</w>": 5220,
      "happens</w>": 5221,
      "11": 5222,
      "bat": 5223,
      "actional</w>": 5224,
      "toler": 5225,
      "clearing</w>": 5226,
      "decrement</w>": 5227,
      "vector": 5228,
      "tray</w>": 5229,
      "concepts</w>": 5230,
      "friendly</w>": 5231,
      "wer": 5232,
      "deviation</w>": 5233,
      "mails</w>": 5234,
      "viewing</w>": 5235,
      "pointing</w>": 5236,
      "highlighting</w>": 5237,
      "ckness</w>": 5238,
      "committed</w>": 5239,
      "journal</w>": 5240,
      "ki": 5241,
      "invisible</w>": 5242,
      "ante": 5243,
      "initiate</w>": 5244,
      "abbre": 5245,
      "trailing</w>": 5246,
      "detect</w>": 5247,
      "tr</w>": 5248,
      "tally</w>": 5249,
      "pushed</w>": 5250,
      "databases</w>": 5251,
      "inserting</w>": 5252,
      "transfers</w>": 5253,
      "department</w>": 5254,
      "fl": 5255,
      "jml</w>": 5256,
      "adverti": 5257,
      "sense</w>": 5258,
      "termination</w>": 5259,
      "drive</w>": 5260,
      "jsf</w>": 5261,
      "brief</w>": 5262,
      "affected</w>": 5263,
      "decides</w>": 5264,
      "ython</w>": 5265,
      "chap": 5266,
      "arily</w>": 5267,
      "timeline</w>": 5268,
      "counters</w>": 5269,
      "tooth</w>": 5270,
      "destroyed</w>": 5271,
      "advanced</w>": 5272,
      "animated</w>": 5273,
      "slots</w>": 5274,
      "extracted</w>": 5275,
      "flat": 5276,
      "hard</w>": 5277,
      "of": 5278,
      "note": 5279,
      "ulo</w>": 5280,
      "strip</w>": 5281,
      "gth</w>": 5282,
      "uri": 5283,
      "meeting</w>": 5284,
      "colli": 5285,
      "casting</w>": 5286,
      "authori": 5287,
      "infos</w>": 5288,
      "cc": 5289,
      "pauses</w>": 5290,
      "friend</w>": 5291,
      "s2</w>": 5292,
      "stren": 5293,
      "quisi": 5294,
      "cial</w>": 5295,
      "hood</w>": 5296,
      "traverse</w>": 5297,
      "announ": 5298,
      "multicast</w>": 5299,
      "pressing</w>": 5300,
      "higher</w>": 5301,
      "field1</w>": 5302,
      "pdf": 5303,
      "dlg</w>": 5304,
      "snmp</w>": 5305,
      "softw": 5306,
      "ra</w>": 5307,
      "mac</w>": 5308,
      "beat</w>": 5309,
      "notice</w>": 5310,
      "distinct</w>": 5311,
      "sf": 5312,
      "posts</w>": 5313,
      "lib</w>": 5314,
      "reporting</w>": 5315,
      "synthe": 5316,
      "bulk</w>": 5317,
      "gger</w>": 5318,
      "race</w>": 5319,
      "smart</w>": 5320,
      "wis": 5321,
      "intermedi": 5322,
      "pitch</w>": 5323,
      "exported</w>": 5324,
      "gau": 5325,
      "logo</w>": 5326,
      "acceptable</w>": 5327,
      "frees</w>": 5328,
      "rounded</w>": 5329,
      "annotated</w>": 5330,
      "thickness</w>": 5331,
      "mate</w>": 5332,
      "undo": 5333,
      "initializing</w>": 5334,
      "avat": 5335,
      "signifi": 5336,
      "encoder</w>": 5337,
      "indexing</w>": 5338,
      "synchronize</w>": 5339,
      "issues</w>": 5340,
      "ru</w>": 5341,
      "codi": 5342,
      "objective</w>": 5343,
      "ras</w>": 5344,
      "past</w>": 5345,
      "transformed</w>": 5346,
      "sors</w>": 5347,
      "twi": 5348,
      "ale</w>": 5349,
      "discard</w>": 5350,
      "xili": 5351,
      "authenticate</w>": 5352,
      "examin": 5353,
      "software</w>": 5354,
      "jid</w>": 5355,
      "mn": 5356,
      "xy": 5357,
      "sites</w>": 5358,
      "dies</w>": 5359,
      "auxili": 5360,
      "viewed</w>": 5361,
      "guard</w>": 5362,
      "vol": 5363,
      "coord</w>": 5364,
      "copyable</w>": 5365,
      "intent</w>": 5366,
      "covered</w>": 5367,
      "ads</w>": 5368,
      "chi": 5369,
      "diff</w>": 5370,
      "mp3</w>": 5371,
      "paste</w>": 5372,
      "decide</w>": 5373,
      "among</w>": 5374,
      "img</w>": 5375,
      "topics</w>": 5376,
      "basis</w>": 5377,
      "jcomponent</w>": 5378,
      "t1</w>": 5379,
      "deal</w>": 5380,
      "lays</w>": 5381,
      "profiles</w>": 5382,
      "intervals</w>": 5383,
      "posite</w>": 5384,
      "decl": 5385,
      "ambi": 5386,
      "circu": 5387,
      "highlights</w>": 5388,
      "regarding</w>": 5389,
      "natural</w>": 5390,
      "favori": 5391,
      "bluetooth</w>": 5392,
      "meta": 5393,
      "crawl</w>": 5394,
      "30</w>": 5395,
      "cali": 5396,
      "ente</w>": 5397,
      "datagram</w>": 5398,
      "pieces</w>": 5399,
      "advances</w>": 5400,
      "zing</w>": 5401,
      "tide</w>": 5402,
      "perspective</w>": 5403,
      "unds</w>": 5404,
      "bold</w>": 5405,
      "grab</w>": 5406,
      "supply</w>": 5407,
      "throwing</w>": 5408,
      "nick</w>": 5409,
      "trav": 5410,
      "relationships</w>": 5411,
      "manipu": 5412,
      "collapse</w>": 5413,
      "jax</w>": 5414,
      "sugges": 5415,
      "street</w>": 5416,
      "declare</w>": 5417,
      "ines</w>": 5418,
      "persi": 5419,
      "safe": 5420,
      "pay</w>": 5421,
      "subsequent</w>": 5422,
      "uniform</w>": 5423,
      "counting</w>": 5424,
      "instantiated</w>": 5425,
      "measured</w>": 5426,
      "cimclass</w>": 5427,
      "stics</w>": 5428,
      "reaction</w>": 5429,
      "accur": 5430,
      "formal</w>": 5431,
      "clipping</w>": 5432,
      "existence</w>": 5433,
      "tuples</w>": 5434,
      "dynamically</w>": 5435,
      "painter</w>": 5436,
      "duplicates</w>": 5437,
      "negoti": 5438,
      "polynomial</w>": 5439,
      "apon</w>": 5440,
      "opposite</w>": 5441,
      "weapon</w>": 5442,
      "decre": 5443,
      "archiv": 5444,
      "questions</w>": 5445,
      "mixed</w>": 5446,
      "bli": 5447,
      "land</w>": 5448,
      "td</w>": 5449,
      "reg</w>": 5450,
      "seper": 5451,
      "ator": 5452,
      "terrain</w>": 5453,
      "ding": 5454,
      "vocabul": 5455,
      "cl": 5456,
      "ecore</w>": 5457,
      "des": 5458,
      "magni": 5459,
      "wide</w>": 5460,
      "cols</w>": 5461,
      "merged</w>": 5462,
      "blocked</w>": 5463,
      "jmx</w>": 5464,
      "nombre</w>": 5465,
      "pes</w>": 5466,
      "vac": 5467,
      "implicit</w>": 5468,
      "games</w>": 5469,
      "graphics": 5470,
      "monitored</w>": 5471,
      "manufac": 5472,
      "touch</w>": 5473,
      "accumulated</w>": 5474,
      "15</w>": 5475,
      "kit</w>": 5476,
      "input": 5477,
      "says</w>": 5478,
      "basi": 5479,
      "flat</w>": 5480,
      "interior</w>": 5481,
      "traffi": 5482,
      "millis</w>": 5483,
      "navigator</w>": 5484,
      "datetime</w>": 5485,
      "realm</w>": 5486,
      "auxiliary</w>": 5487,
      "pan</w>": 5488,
      "tons</w>": 5489,
      "floor</w>": 5490,
      "gonal</w>": 5491,
      "fuz": 5492,
      "aligned</w>": 5493,
      "tree": 5494,
      "thumb</w>": 5495,
      "supposed</w>": 5496,
      "lexical</w>": 5497,
      "reasoner</w>": 5498,
      "pseudo</w>": 5499,
      "ec</w>": 5500,
      "alter</w>": 5501,
      "rather</w>": 5502,
      "trip</w>": 5503,
      "explan": 5504,
      "neighbo": 5505,
      "descendants</w>": 5506,
      "adjacent</w>": 5507,
      "gad": 5508,
      "mps</w>": 5509,
      "corpus</w>": 5510,
      "controllers</w>": 5511,
      "md5</w>": 5512,
      "jsonobject</w>": 5513,
      "nr</w>": 5514,
      "ini</w>": 5515,
      "coding</w>": 5516,
      "eclipse</w>": 5517,
      "chord</w>": 5518,
      "exer": 5519,
      "sao</w>": 5520,
      "mim</w>": 5521,
      "centers</w>": 5522,
      "languages</w>": 5523,
      "propagates</w>": 5524,
      "neighbors</w>": 5525,
      "vocabulary</w>": 5526,
      "fresh</w>": 5527,
      "wav": 5528,
      "cover</w>": 5529,
      "alty</w>": 5530,
      "ano": 5531,
      "unmodifiable</w>": 5532,
      "ray</w>": 5533,
      "overwrites</w>": 5534,
      "sine</w>": 5535,
      "choices</w>": 5536,
      "swit": 5537,
      "optimization</w>": 5538,
      "baseline</w>": 5539,
      "flip</w>": 5540,
      "pane1</w>": 5541,
      "important</w>": 5542,
      "cer</w>": 5543,
      "hou": 5544,
      "land": 5545,
      "xxx</w>": 5546,
      "del</w>": 5547,
      "conference</w>": 5548,
      "trying</w>": 5549,
      "guide</w>": 5550,
      "pointed</w>": 5551,
      "router</w>": 5552,
      "sampling</w>": 5553,
      "redirects</w>": 5554,
      "graphics2</w>": 5555,
      "axi": 5556,
      "sf</w>": 5557,
      "vation</w>": 5558,
      "roster</w>": 5559,
      "interna": 5560,
      "micro": 5561,
      "outcome</w>": 5562,
      "interrupt</w>": 5563,
      "paper</w>": 5564,
      "strength</w>": 5565,
      "12": 5566,
      "gation</w>": 5567,
      "ww": 5568,
      "stable</w>": 5569,
      "domain": 5570,
      "value": 5571,
      "labeled</w>": 5572,
      "requirements</w>": 5573,
      "trait</w>": 5574,
      "skin</w>": 5575,
      "established</w>": 5576,
      "tolerance</w>": 5577,
      "eas": 5578,
      "kable</w>": 5579,
      "rul": 5580,
      "secu": 5581,
      "propo": 5582,
      "situ": 5583,
      "giving</w>": 5584,
      "quan": 5585,
      "typically</w>": 5586,
      "heal": 5587,
      "translator</w>": 5588,
      "owl</w>": 5589,
      "divider</w>": 5590,
      "bund": 5591,
      "dimensional</w>": 5592,
      "traffic</w>": 5593,
      "swap</w>": 5594,
      "dead</w>": 5595,
      "sion": 5596,
      "lid</w>": 5597,
      "top": 5598,
      "checker</w>": 5599,
      "determining</w>": 5600,
      "affi": 5601,
      "subscriber</w>": 5602,
      "base64</w>": 5603,
      "icon": 5604,
      "redraw</w>": 5605,
      "copying</w>": 5606,
      "detailed</w>": 5607,
      "sales</w>": 5608,
      "udp</w>": 5609,
      "xp</w>": 5610,
      "men</w>": 5611,
      "ech</w>": 5612,
      "exper": 5613,
      "decoded</w>": 5614,
      "walk</w>": 5615,
      "collapsed</w>": 5616,
      "dd": 5617,
      "int": 5618,
      "invalidate</w>": 5619,
      "searched</w>": 5620,
      "visiting</w>": 5621,
      "workbook</w>": 5622,
      "trust</w>": 5623,
      "wildcard</w>": 5624,
      "lon</w>": 5625,
      "recommen": 5626,
      "deserialization</w>": 5627,
      "repeated</w>": 5628,
      "reservation</w>": 5629,
      "fits</w>": 5630,
      "descriptive</w>": 5631,
      "cio</w>": 5632,
      "propagate</w>": 5633,
      "formated</w>": 5634,
      "birth</w>": 5635,
      "fed</w>": 5636,
      "gi</w>": 5637,
      "rely</w>": 5638,
      "cha</w>": 5639,
      "asso": 5640,
      "appended</w>": 5641,
      "nick": 5642,
      "maximi": 5643,
      "computation</w>": 5644,
      "extraction</w>": 5645,
      "instantiation</w>": 5646,
      "detach</w>": 5647,
      "skipped</w>": 5648,
      "mote</w>": 5649,
      "observed</w>": 5650,
      "peers</w>": 5651,
      "decoder</w>": 5652,
      "kills</w>": 5653,
      "raised</w>": 5654,
      "dc</w>": 5655,
      "reuse</w>": 5656,
      "quad</w>": 5657,
      "subtype</w>": 5658,
      "stopping</w>": 5659,
      "avatar</w>": 5660,
      "domains</w>": 5661,
      "jgraph</w>": 5662,
      "gene": 5663,
      "modifications</w>": 5664,
      "loops</w>": 5665,
      "acknowled": 5666,
      "intermediate</w>": 5667,
      "tin</w>": 5668,
      "timing</w>": 5669,
      "robots</w>": 5670,
      "lass</w>": 5671,
      "und": 5672,
      "param": 5673,
      "responds</w>": 5674,
      "air</w>": 5675,
      "downloads</w>": 5676,
      "picker</w>": 5677,
      "indication</w>": 5678,
      "escaped</w>": 5679,
      "fs": 5680,
      "seq": 5681,
      "entre": 5682,
      "datum</w>": 5683,
      "modifying</w>": 5684,
      "authors</w>": 5685,
      "calculator</w>": 5686,
      "www</w>": 5687,
      "dos</w>": 5688,
      "trans</w>": 5689,
      "offline</w>": 5690,
      "packed</w>": 5691,
      "approxi": 5692,
      "scoped</w>": 5693,
      "shif": 5694,
      "consisting</w>": 5695,
      "aware</w>": 5696,
      "descr</w>": 5697,
      "invitation</w>": 5698,
      "occurence</w>": 5699,
      "magnitude</w>": 5700,
      "ka</w>": 5701,
      "my": 5702,
      "tl": 5703,
      "x5": 5704,
      "renames</w>": 5705,
      "tially</w>": 5706,
      "ender</w>": 5707,
      "keeps</w>": 5708,
      "pub</w>": 5709,
      "supplier</w>": 5710,
      "aff": 5711,
      "band": 5712,
      "ie": 5713,
      "ze": 5714,
      "uris": 5715,
      "ent": 5716,
      "cuts</w>": 5717,
      "emit</w>": 5718,
      "speech</w>": 5719,
      "validating</w>": 5720,
      "consume</w>": 5721,
      "organiz": 5722,
      "bridge</w>": 5723,
      "contribution</w>": 5724,
      "snipp": 5725,
      "numero</w>": 5726,
      "22</w>": 5727,
      "das</w>": 5728,
      "constitu": 5729,
      "image": 5730,
      "overview</w>": 5731,
      "providing</w>": 5732,
      "grid": 5733,
      "examp": 5734,
      "installation</w>": 5735,
      "denoted</w>": 5736,
      "developer</w>": 5737,
      "mid</w>": 5738,
      "coded</w>": 5739,
      "colon": 5740,
      "decrea": 5741,
      "utf</w>": 5742,
      "compiles</w>": 5743,
      "multiplication</w>": 5744,
      "earli": 5745,
      "bracket</w>": 5746,
      "galler": 5747,
      "cvs</w>": 5748,
      "please</w>": 5749,
      "rec</w>": 5750,
      "revo": 5751,
      "infor": 5752,
      "liter": 5753,
      "expen": 5754,
      "verification</w>": 5755,
      "allocates</w>": 5756,
      "elimin": 5757,
      "ement</w>": 5758,
      "hyp": 5759,
      "lm": 5760,
      "xmp": 5761,
      "road</w>": 5762,
      "modes</w>": 5763,
      "hover</w>": 5764,
      "childs</w>": 5765,
      "market</w>": 5766,
      "convention</w>": 5767,
      "deployed</w>": 5768,
      "retains</w>": 5769,
      "hu": 5770,
      "rmi</w>": 5771,
      "inet</w>": 5772,
      "tagged</w>": 5773,
      "spread": 5774,
      "occupi": 5775,
      "limited</w>": 5776,
      "rejected</w>": 5777,
      "batt": 5778,
      "tori": 5779,
      "vs": 5780,
      "wd</w>": 5781,
      "tare": 5782,
      "regression</w>": 5783,
      "successor</w>": 5784,
      "navigate</w>": 5785,
      "xslt</w>": 5786,
      "invite</w>": 5787,
      "stereotype</w>": 5788,
      "cb</w>": 5789,
      "lli": 5790,
      "ards</w>": 5791,
      "disconnected</w>": 5792,
      "synon": 5793,
      "mitting</w>": 5794,
      "arith": 5795,
      "sheets</w>": 5796,
      "policies</w>": 5797,
      "surve": 5798,
      "recognized</w>": 5799,
      "copyright</w>": 5800,
      "involved</w>": 5801,
      "10": 5802,
      "18": 5803,
      "ajax</w>": 5804,
      "n3</w>": 5805,
      "san": 5806,
      "creature</w>": 5807,
      "keeping</w>": 5808,
      "dents</w>": 5809,
      "capable</w>": 5810,
      "pep": 5811,
      "instantiating</w>": 5812,
      "conflict</w>": 5813,
      "decrease</w>": 5814,
      "synony": 5815,
      "das": 5816,
      "xp": 5817,
      "inject</w>": 5818,
      "rational</w>": 5819,
      "predec": 5820,
      "vote</w>": 5821,
      "computer</w>": 5822,
      "monic</w>": 5823,
      "combined</w>": 5824,
      "consistency</w>": 5825,
      "scrollable</w>": 5826,
      "slave</w>": 5827,
      "positioned</w>": 5828,
      "chapter</w>": 5829,
      "gr</w>": 5830,
      "orbit</w>": 5831,
      "chase</w>": 5832,
      "particles</w>": 5833,
      "integration</w>": 5834,
      "async</w>": 5835,
      "retreives</w>": 5836,
      "examples</w>": 5837,
      "jx": 5838,
      "ps": 5839,
      "lat</w>": 5840,
      "prop</w>": 5841,
      "provin": 5842,
      "become</w>": 5843,
      "exporter</w>": 5844,
      "completes</w>": 5845,
      "dropped</w>": 5846,
      "obtaining</w>": 5847,
      "swaps</w>": 5848,
      "latti": 5849,
      "injection</w>": 5850,
      "dead": 5851,
      "programs</w>": 5852,
      "little</w>": 5853,
      "readonly</w>": 5854,
      "overridable</w>": 5855,
      "task": 5856,
      "persists</w>": 5857,
      "testcase</w>": 5858,
      "referred</w>": 5859,
      "accelerator</w>": 5860,
      "14</w>": 5861,
      "31</w>": 5862,
      "costs</w>": 5863,
      "alone</w>": 5864,
      "mount</w>": 5865,
      "like": 5866,
      "soft</w>": 5867,
      "cloud</w>": 5868,
      "wind</w>": 5869,
      "aff</w>": 5870,
      "tural</w>": 5871,
      "easy</w>": 5872,
      "19": 5873,
      "13</w>": 5874,
      "bra": 5875,
      "coup": 5876,
      "row": 5877,
      "retry</w>": 5878,
      "aliasing</w>": 5879,
      "week": 5880,
      "suspended</w>": 5881,
      "calculating</w>": 5882,
      "met</w>": 5883,
      "north</w>": 5884,
      "expect</w>": 5885,
      "reasons</w>": 5886,
      "inherit": 5887,
      "detects</w>": 5888,
      "glyphs</w>": 5889,
      "25": 5890,
      "npe</w>": 5891,
      "discount</w>": 5892,
      "internet</w>": 5893,
      "fragments</w>": 5894,
      "dav</w>": 5895,
      "squared</w>": 5896,
      "detalle</w>": 5897,
      "ay</w>": 5898,
      "glo": 5899,
      "mne": 5900,
      "rtp</w>": 5901,
      "xref</w>": 5902,
      "inve": 5903,
      "ification</w>": 5904,
      "prefixes</w>": 5905,
      "source": 5906,
      "ranking</w>": 5907,
      "codec</w>": 5908,
      "permanently</w>": 5909,
      "hk": 5910,
      "pen</w>": 5911,
      "ino": 5912,
      "sec</w>": 5913,
      "ride</w>": 5914,
      "concer": 5915,
      "nomin": 5916,
      "serves</w>": 5917,
      "pie</w>": 5918,
      "directive</w>": 5919,
      "equation</w>": 5920,
      "idx</w>": 5921,
      "navigated</w>": 5922,
      "decreases</w>": 5923,
      "jlist</w>": 5924,
      "deactivate</w>": 5925,
      "sup</w>": 5926,
      "lead</w>": 5927,
      "delivered</w>": 5928,
      "propagation</w>": 5929,
      "recipients</w>": 5930,
      "restricted</w>": 5931,
      "gallery</w>": 5932,
      "18</w>": 5933,
      "ational</w>": 5934,
      "bi</w>": 5935,
      "eded</w>": 5936,
      "lf</w>": 5937,
      "v2</w>": 5938,
      "genome</w>": 5939,
      "contour</w>": 5940,
      "enclosed</w>": 5941,
      "tas</w>": 5942,
      "topo": 5943,
      "physics</w>": 5944,
      "participants</w>": 5945,
      "weighted</w>": 5946,
      "nb</w>": 5947,
      "years</w>": 5948,
      "za</w>": 5949,
      "red": 5950,
      "lover</w>": 5951,
      "better</w>": 5952,
      "feat</w>": 5953,
      "strict</w>": 5954,
      "penalty</w>": 5955,
      "cycles</w>": 5956,
      "aggregation</w>": 5957,
      "triples</w>": 5958,
      "magic</w>": 5959,
      "interpolation</w>": 5960,
      "dingly</w>": 5961,
      "wel": 5962,
      "indirect</w>": 5963,
      "initially</w>": 5964,
      "sax": 5965,
      "auction</w>": 5966,
      "filling</w>": 5967,
      "shortest</w>": 5968,
      "du</w>": 5969,
      "hex": 5970,
      "hints</w>": 5971,
      "leset</w>": 5972,
      "pojo</w>": 5973,
      "panes</w>": 5974,
      "overload</w>": 5975,
      "influ": 5976,
      "centered</w>": 5977,
      "customers</w>": 5978,
      "polygons</w>": 5979,
      "multiplier</w>": 5980,
      "descendant</w>": 5981,
      "bration</w>": 5982,
      "ko": 5983,
      "va</w>": 5984,
      "actors</w>": 5985,
      "ada</w>": 5986,
      "ador</w>": 5987,
      "dice</w>": 5988,
      "preconditions</w>": 5989,
      "disposed</w>": 5990,
      "ential</w>": 5991,
      "registering</w>": 5992,
      "struc</w>": 5993,
      "resumes</w>": 5994,
      "protein</w>": 5995,
      "undoable</w>": 5996,
      "codigo</w>": 5997,
      "entrez": 5998,
      "snippet</w>": 5999,
      "lattice</w>": 6000,
      "rebuild</w>": 6001,
      "sta</w>": 6002,
      "motor</w>": 6003,
      "heart": 6004,
      "train</w>": 6005,
      "advertise": 6006,
      "bundles</w>": 6007,
      "ba</w>": 6008,
      "hack</w>": 6009,
      "ied</w>": 6010,
      "quad": 6011,
      "locking</w>": 6012,
      "requesting</w>": 6013,
      "separator": 6014,
      "full": 6015,
      "polling</w>": 6016,
      "processors</w>": 6017,
      "entrys</w>": 6018,
      "authorized</w>": 6019,
      "21</w>": 6020,
      "aci": 6021,
      "unlock</w>": 6022,
      "exponent</w>": 6023,
      "subtitle</w>": 6024,
      "accession</w>": 6025,
      "sys</w>": 6026,
      "compared</w>": 6027,
      "delegated</w>": 6028,
      "jsonarray</w>": 6029,
      "descending</w>": 6030,
      "sockets</w>": 6031,
      "manufactu": 6032,
      "ye</w>": 6033,
      "informed</w>": 6034,
      "staff</w>": 6035,
      "calc</w>": 6036,
      "link": 6037,
      "food</w>": 6038,
      "clob</w>": 6039,
      "access": 6040,
      "longest</w>": 6041,
      "bench": 6042,
      "house</w>": 6043,
      "fa</w>": 6044,
      "rin": 6045,
      "deactivates</w>": 6046,
      "stack": 6047,
      "conf</w>": 6048,
      "cleared</w>": 6049,
      "canceled</w>": 6050,
      "expires</w>": 6051,
      "fetched</w>": 6052,
      "pooled</w>": 6053,
      "universe</w>": 6054,
      "circuit</w>": 6055,
      "rers</w>": 6056,
      "pot</w>": 6057,
      "undoes</w>": 6058,
      "hoo": 6059,
      "decrements</w>": 6060,
      "catalo": 6061,
      "satisfied</w>": 6062,
      "expressed</w>": 6063,
      "ib": 6064,
      "ot</w>": 6065,
      "p2</w>": 6066,
      "py</w>": 6067,
      "pv</w>": 6068,
      "che</w>": 6069,
      "aliases</w>": 6070,
      "pagin": 6071,
      "paging</w>": 6072,
      "iterators</w>": 6073,
      "bound": 6074,
      "table": 6075,
      "accordingly</w>": 6076,
      "notifying</w>": 6077,
      "resizing</w>": 6078,
      "issuer</w>": 6079,
      "explanation</w>": 6080,
      "colony</w>": 6081,
      "survey</w>": 6082,
      "bg</w>": 6083,
      "npc</w>": 6084,
      "req</w>": 6085,
      "setted</w>": 6086,
      "che": 6087,
      "mouse": 6088,
      "transmission</w>": 6089,
      "log4j</w>": 6090,
      "extractor</w>": 6091,
      "months</w>": 6092,
      "follows</w>": 6093,
      "hierarchical</w>": 6094,
      "establishes</w>": 6095,
      "mentary</w>": 6096,
      "excel</w>": 6097,
      "biostruc</w>": 6098,
      "nickname</w>": 6099,
      "react</w>": 6100,
      "see": 6101,
      "cos</w>": 6102,
      "programma": 6103,
      "conn</w>": 6104,
      "today</w>": 6105,
      "overwriting</w>": 6106,
      "keyed</w>": 6107,
      "itali": 6108,
      "assignments</w>": 6109,
      "circular</w>": 6110,
      "bpm</w>": 6111,
      "inheritance</w>": 6112,
      "hky": 6113,
      "wan": 6114,
      "dev</w>": 6115,
      "unsets</w>": 6116,
      "boot": 6117,
      "central</w>": 6118,
      "convenient</w>": 6119,
      "assertions</w>": 6120,
      "scheduling</w>": 6121,
      "multiplicity</w>": 6122,
      "observable</w>": 6123,
      "panel2</w>": 6124,
      "chronology</w>": 6125,
      "sale</w>": 6126,
      "cdd</w>": 6127,
      "thus</w>": 6128,
      "anti</w>": 6129,
      "erred</w>": 6130,
      "cons": 6131,
      "trunc": 6132,
      "bered</w>": 6133,
      "stant</w>": 6134,
      "feder": 6135,
      "genre</w>": 6136,
      "writable</w>": 6137,
      "fixme</w>": 6138,
      "dispatching</w>": 6139,
      "residu": 6140,
      "barcode</w>": 6141,
      "south</w>": 6142,
      "ams</w>": 6143,
      "cm</w>": 6144,
      "hl": 6145,
      "rele": 6146,
      "dai": 6147,
      "sch15": 6148,
      "goto</w>": 6149,
      "turned</w>": 6150,
      "purchase</w>": 6151,
      "hashmap</w>": 6152,
      "adjustment</w>": 6153,
      "heartbeat</w>": 6154,
      "dnt</w>": 6155,
      "nature</w>": 6156,
      "ache": 6157,
      "expose</w>": 6158,
      "impro": 6159,
      "postal</w>": 6160,
      "spreadsheet</w>": 6161,
      "ased</w>": 6162,
      "cue</w>": 6163,
      "cks</w>": 6164,
      "sorter</w>": 6165,
      "dem": 6166,
      "came": 6167,
      "decl</w>": 6168,
      "timezone</w>": 6169,
      "layouts</w>": 6170,
      "backend</w>": 6171,
      "critical</w>": 6172,
      "grouping</w>": 6173,
      "excluding</w>": 6174,
      "unas": 6175,
      "safely</w>": 6176,
      "bru": 6177,
      "mming</w>": 6178,
      "nd</w>": 6179,
      "python</w>": 6180,
      "tears</w>": 6181,
      "wheter</w>": 6182,
      "confidence</w>": 6183,
      "submits</w>": 6184,
      "utili": 6185,
      "tracked</w>": 6186,
      "suspend</w>": 6187,
      "restrictions</w>": 6188,
      "proposal</w>": 6189,
      "clock": 6190,
      "jtxt</w>": 6191,
      "mb</w>": 6192,
      "pull</w>": 6193,
      "convi": 6194,
      "ens": 6195,
      "sian</w>": 6196,
      "posted</w>": 6197,
      "undefined</w>": 6198,
      "sole": 6199,
      "appoint": 6200,
      "operands</w>": 6201,
      "scho": 6202,
      "usable</w>": 6203,
      "locales</w>": 6204,
      "harvest</w>": 6205,
      "technical</w>": 6206,
      "administrator</w>": 6207,
      "ruler</w>": 6208,
      "bject</w>": 6209,
      "od": 6210,
      "rt": 6211,
      "said</w>": 6212,
      "managing</w>": 6213,
      "phone": 6214,
      "simulate</w>": 6215,
      "advertisement</w>": 6216,
      "jbutton</w>": 6217,
      "yer</w>": 6218,
      "iner</w>": 6219,
      "map": 6220,
      "minator</w>": 6221,
      "hist": 6222,
      "edition</w>": 6223,
      "structural</w>": 6224,
      "http": 6225,
      "allen": 6226,
      "retreive</w>": 6227,
      "rollover</w>": 6228,
      "gb": 6229,
      "repair</w>": 6230,
      "challen": 6231,
      "tracing</w>": 6232,
      "constrained</w>": 6233,
      "libraries</w>": 6234,
      "swf": 6235,
      "marshal</w>": 6236,
      "junction</w>": 6237,
      "notebook</w>": 6238,
      "expert</w>": 6239,
      "east</w>": 6240,
      "std</w>": 6241,
      "composed</w>": 6242,
      "appending</w>": 6243,
      "charts</w>": 6244,
      "wave</w>": 6245,
      "overlap</w>": 6246,
      "targeting</w>": 6247,
      "privilege</w>": 6248,
      "internation": 6249,
      "affine</w>": 6250,
      "spel": 6251,
      "div</w>": 6252,
      "string": 6253,
      "prev</w>": 6254,
      "genes</w>": 6255,
      "gray</w>": 6256,
      "heuris": 6257,
      "dade</w>": 6258,
      "niture</w>": 6259,
      "fade</w>": 6260,
      "delivers</w>": 6261,
      "sprites</w>": 6262,
      "website</w>": 6263,
      "every": 6264,
      "recognizer</w>": 6265,
      "furniture</w>": 6266,
      "mirror</w>": 6267,
      "dialect</w>": 6268,
      "sqlexceptions</w>": 6269,
      "bandwidth</w>": 6270,
      "cates</w>": 6271,
      "iel": 6272,
      "ception</w>": 6273,
      "plsql</w>": 6274,
      "joined</w>": 6275,
      "offsets</w>": 6276,
      "drivers</w>": 6277,
      "smal": 6278,
      "someone</w>": 6279,
      "lights</w>": 6280,
      "breaks</w>": 6281,
      "addr</w>": 6282,
      "issued</w>": 6283,
      "taxon</w>": 6284,
      "stereo</w>": 6285,
      "placeholder</w>": 6286,
      "battle</w>": 6287,
      "tier</w>": 6288,
      "bog</w>": 6289,
      "discards</w>": 6290,
      "transfer": 6291,
      "ordinate</w>": 6292,
      "n1</w>": 6293,
      "pedi": 6294,
      "rd</w>": 6295,
      "wt</w>": 6296,
      "xor</w>": 6297,
      "los</w>": 6298,
      "near</w>": 6299,
      "unread</w>": 6300,
      "life": 6301,
      "entitys</w>": 6302,
      "variation</w>": 6303,
      "bounded</w>": 6304,
      "fall": 6305,
      "carry</w>": 6306,
      "zibog</w>": 6307,
      "rounds</w>": 6308,
      "accuracy</w>": 6309,
      "amp": 6310,
      "ares</w>": 6311,
      "if": 6312,
      "span": 6313,
      "formu": 6314,
      "standing</w>": 6315,
      "correction</w>": 6316,
      "associai": 6317,
      "goals</w>": 6318,
      "brings</w>": 6319,
      "functional</w>": 6320,
      "horizontally</w>": 6321,
      "updater</w>": 6322,
      "detector</w>": 6323,
      "16": 6324,
      "restarts</w>": 6325,
      "soap": 6326,
      "boss</w>": 6327,
      "opacity</w>": 6328,
      "render": 6329,
      "cert</w>": 6330,
      "chooses</w>": 6331,
      "predicates</w>": 6332,
      "postback</w>": 6333,
      "satisfy</w>": 6334,
      "protection</w>": 6335,
      "acceleration</w>": 6336,
      "faction</w>": 6337,
      "jpe": 6338,
      "stone</w>": 6339,
      "conti": 6340,
      "save": 6341,
      "cil</w>": 6342,
      "subclas": 6343,
      "flows</w>": 6344,
      "bonus</w>": 6345,
      "jtree</w>": 6346,
      "opa": 6347,
      "pv": 6348,
      "pgraphics</w>": 6349,
      "respective</w>": 6350,
      "fies</w>": 6351,
      "const</w>": 6352,
      "compose</w>": 6353,
      "finalize</w>": 6354,
      "currence</w>": 6355,
      "succeeds</w>": 6356,
      "delgates</w>": 6357,
      "treated</w>": 6358,
      "consumed</w>": 6359,
      "alphabet</w>": 6360,
      "collaboration</w>": 6361,
      "calibration</w>": 6362,
      "associaitons</w>": 6363,
      "kb</w>": 6364,
      "liv": 6365,
      "rolls</w>": 6366,
      "concurrent</w>": 6367,
      "consecu": 6368,
      "ened</w>": 6369,
      "uninitialized</w>": 6370,
      "ulating</w>": 6371,
      "traces</w>": 6372,
      "docs</w>": 6373,
      "ably</w>": 6374,
      "lings</w>": 6375,
      "linking</w>": 6376,
      "replication</w>": 6377,
      "label": 6378,
      "rando": 6379,
      "recei": 6380,
      "separators</w>": 6381,
      "approved</w>": 6382,
      "consumes</w>": 6383,
      "xmpp</w>": 6384,
      "swftag</w>": 6385,
      "dh": 6386,
      "vars</w>": 6387,
      "tel": 6388,
      "seg": 6389,
      "sel</w>": 6390,
      "ora</w>": 6391,
      "lega": 6392,
      "eng": 6393,
      "moder": 6394,
      "node": 6395,
      "prun": 6396,
      "marking</w>": 6397,
      "billing</w>": 6398,
      "smoo": 6399,
      "literals</w>": 6400,
      "mnemonic</w>": 6401,
      "school</w>": 6402,
      "tx</w>": 6403,
      "alge": 6404,
      "alisation</w>": 6405,
      "eval</w>": 6406,
      "callbacks</w>": 6407,
      "notifier</w>": 6408,
      "declares</w>": 6409,
      "assess": 6410,
      "resizable</w>": 6411,
      "arrival</w>": 6412,
      "resultset</w>": 6413,
      "arithme": 6414,
      "clockwise</w>": 6415,
      "legajo</w>": 6416,
      "3d</w>": 6417,
      "jframe</w>": 6418,
      "chat": 6419,
      "mono": 6420,
      "dige": 6421,
      "door</w>": 6422,
      "forced</w>": 6423,
      "sharing</w>": 6424,
      "textare": 6425,
      "multipart</w>": 6426,
      "repeti": 6427,
      "button2</w>": 6428,
      "easi": 6429,
      "concatenates</w>": 6430,
      "approximate</w>": 6431,
      "09</w>": 6432,
      "bn</w>": 6433,
      "letters</w>": 6434,
      "eno": 6435,
      "unmarshal": 6436,
      "lish</w>": 6437,
      "opport": 6438,
      "containment</w>": 6439,
      "layed</w>": 6440,
      "hello</w>": 6441,
      "banner</w>": 6442,
      "transparent</w>": 6443,
      "zooms</w>": 6444,
      "demand</w>": 6445,
      "hing</w>": 6446,
      "var": 6447,
      "stder": 6448,
      "acting</w>": 6449,
      "asked</w>": 6450,
      "datas</w>": 6451,
      "sci": 6452,
      "elevation</w>": 6453,
      "unity</w>": 6454,
      "appropriately</w>": 6455,
      "expire</w>": 6456,
      "decorated</w>": 6457,
      "budget</w>": 6458,
      "pdu</w>": 6459,
      "menubar</w>": 6460,
      "daily</w>": 6461,
      "fallback</w>": 6462,
      "stderr</w>": 6463,
      "epo": 6464,
      "ls": 6465,
      "rt</w>": 6466,
      "tips</w>": 6467,
      "stances</w>": 6468,
      "mib</w>": 6469,
      "prime</w>": 6470,
      "subscribers</w>": 6471,
      "combine</w>": 6472,
      "consecutive</w>": 6473,
      "cru": 6474,
      "accum": 6475,
      "prep": 6476,
      "interactive</w>": 6477,
      "holi": 6478,
      "outbound</w>": 6479,
      "edit": 6480,
      "nice</w>": 6481,
      "screen": 6482,
      "routes</w>": 6483,
      "splits</w>": 6484,
      "organism</w>": 6485,
      "synchronizes</w>": 6486,
      "irc</w>": 6487,
      "traverses</w>": 6488,
      "jaxb</w>": 6489,
      "symbolic</w>": 6490,
      "releasing</w>": 6491,
      "opaque</w>": 6492,
      "eof</w>": 6493,
      "tin": 6494,
      "refin": 6495,
      "cod</w>": 6496,
      "broken</w>": 6497,
      "expects</w>": 6498,
      "measures</w>": 6499,
      "schemas</w>": 6500,
      "digital</w>": 6501,
      "isolation</w>": 6502,
      "progres": 6503,
      "often</w>": 6504,
      "fuzzy</w>": 6505,
      "ac</w>": 6506,
      "amp</w>": 6507,
      "bes</w>": 6508,
      "mble</w>": 6509,
      "rg</w>": 6510,
      "recalculates</w>": 6511,
      "recurrence</w>": 6512,
      "stors</w>": 6513,
      "order": 6514,
      "rich</w>": 6515,
      "tag": 6516,
      "kept</w>": 6517,
      "ops</w>": 6518,
      "matrices</w>": 6519,
      "datasets</w>": 6520,
      "tane": 6521,
      "suggested</w>": 6522,
      "detached</w>": 6523,
      "interpretation</w>": 6524,
      "health</w>": 6525,
      "nominal</w>": 6526,
      "benchmark</w>": 6527,
      "gif</w>": 6528,
      "mal": 6529,
      "stic": 6530,
      "redraws</w>": 6531,
      "inbound</w>": 6532,
      "atu": 6533,
      "dock": 6534,
      "vertically</w>": 6535,
      "drawer</w>": 6536,
      "squares</w>": 6537,
      "numerical</w>": 6538,
      "episo": 6539,
      "cash</w>": 6540,
      "wsml</w>": 6541,
      "assume</w>": 6542,
      "inverted</w>": 6543,
      "morp": 6544,
      "skeleton</w>": 6545,
      "manufacturer</w>": 6546,
      "bootstra": 6547,
      "assessment</w>": 6548,
      "24</w>": 6549,
      "dur": 6550,
      "replay</w>": 6551,
      "stret": 6552,
      "enhan": 6553,
      "tro</w>": 6554,
      "expla": 6555,
      "shots</w>": 6556,
      "importer</w>": 6557,
      "putting</w>": 6558,
      "pic</w>": 6559,
      "relational</w>": 6560,
      "there": 6561,
      "thesis</w>": 6562,
      "attack": 6563,
      "resolving</w>": 6564,
      "attempting</w>": 6565,
      "hashes</w>": 6566,
      "interrupted</w>": 6567,
      "administra": 6568,
      "characteristics</w>": 6569,
      "get": 6570,
      "prefs</w>": 6571,
      "ellipse</w>": 6572,
      "ously</w>": 6573,
      "guess</w>": 6574,
      "fold</w>": 6575,
      "backwards</w>": 6576,
      "specialization</w>": 6577,
      "workers</w>": 6578,
      "shuff": 6579,
      "precedence</w>": 6580,
      "institution</w>": 6581,
      "blast": 6582,
      "cv</w>": 6583,
      "stick</w>": 6584,
      "requisi": 6585,
      "may": 6586,
      "don": 6587,
      "tric</w>": 6588,
      "evo": 6589,
      "quest</w>": 6590,
      "output": 6591,
      "peop": 6592,
      "selves</w>": 6593,
      "accesser</w>": 6594,
      "adjusted</w>": 6595,
      "configurable</w>": 6596,
      "confor": 6597,
      "spaw": 6598,
      "game": 6599,
      "binder</w>": 6600,
      "beta</w>": 6601,
      "exited</w>": 6602,
      "drop": 6603,
      "verified</w>": 6604,
      "chunks</w>": 6605,
      "lexer</w>": 6606,
      "customized</w>": 6607,
      "slash</w>": 6608,
      "synchronously</w>": 6609,
      "significant</w>": 6610,
      "occupied</w>": 6611,
      "challenge</w>": 6612,
      "jcr</w>": 6613,
      "oi</w>": 6614,
      "v1</w>": 6615,
      "deal": 6616,
      "consum": 6617,
      "asking</w>": 6618,
      "scr": 6619,
      "iler</w>": 6620,
      "correspond</w>": 6621,
      "centro": 6622,
      "captured</w>": 6623,
      "snap</w>": 6624,
      "friends</w>": 6625,
      "tank</w>": 6626,
      "enabling</w>": 6627,
      "periodically</w>": 6628,
      "wavele": 6629,
      "randomi": 6630,
      "eye</w>": 6631,
      "sate": 6632,
      "ub": 6633,
      "yiel": 6634,
      "resetting</w>": 6635,
      "tem</w>": 6636,
      "chs</w>": 6637,
      "endian</w>": 6638,
      "tape</w>": 6639,
      "mapi</w>": 6640,
      "quar": 6641,
      "quits</w>": 6642,
      "textures</w>": 6643,
      "blin</w>": 6644,
      "reciev": 6645,
      "scanning</w>": 6646,
      "wish</w>": 6647,
      "17</w>": 6648,
      "fle": 6649,
      "pm</w>": 6650,
      "rep</w>": 6651,
      "income</w>": 6652,
      "achi": 6653,
      "discar": 6654,
      "start": 6655,
      "reporter</w>": 6656,
      "fileset</w>": 6657,
      "photos</w>": 6658,
      "recipe</w>": 6659,
      "consists</w>": 6660,
      "semantics</w>": 6661,
      "guarante": 6662,
      "smaller</w>": 6663,
      "23</w>": 6664,
      "bble</w>": 6665,
      "png</w>": 6666,
      "teach": 6667,
      "med": 6668,
      "decomposition</w>": 6669,
      "unload</w>": 6670,
      "precondition</w>": 6671,
      "inters</w>": 6672,
      "gho": 6673,
      "hot</w>": 6674,
      "streaming</w>": 6675,
      "structured</w>": 6676,
      "specialized</w>": 6677,
      "diagonal</w>": 6678,
      "experimental</w>": 6679,
      "concatenation</w>": 6680,
      "rfc</w>": 6681,
      "maintained</w>": 6682,
      "suggestion</w>": 6683,
      "dados</w>": 6684,
      "emails</w>": 6685,
      "loss</w>": 6686,
      "ency</w>": 6687,
      "buy</w>": 6688,
      "tra</w>": 6689,
      "alised</w>": 6690,
      "predi": 6691,
      "readed</w>": 6692,
      "bid": 6693,
      "dublin</w>": 6694,
      "happen</w>": 6695,
      "hl7</w>": 6696,
      "appointment</w>": 6697,
      "arithmetic</w>": 6698,
      "people</w>": 6699,
      "elec": 6700,
      "p1</w>": 6701,
      "zen</w>": 6702,
      "inference</w>": 6703,
      "altitude</w>": 6704,
      "retu": 6705,
      "specifier</w>": 6706,
      "towards</w>": 6707,
      "parameteri": 6708,
      "compact</w>": 6709,
      "utc</w>": 6710,
      "encrypt</w>": 6711,
      "grace": 6712,
      "reachable</w>": 6713,
      "arg0</w>": 6714,
      "histori": 6715,
      "blast4</w>": 6716,
      "ky</w>": 6717,
      "mf": 6718,
      "win</w>": 6719,
      "ya": 6720,
      "site": 6721,
      "sides</w>": 6722,
      "beh": 6723,
      "upgrade</w>": 6724,
      "appender</w>": 6725,
      "winner</w>": 6726,
      "bins</w>": 6727,
      "gov</w>": 6728,
      "turing</w>": 6729,
      "surrounding</w>": 6730,
      "recovery</w>": 6731,
      "ancestors</w>": 6732,
      "potentially</w>": 6733,
      "torial</w>": 6734,
      "cit</w>": 6735,
      "dash</w>": 6736,
      "inci": 6737,
      "attr": 6738,
      "dem</w>": 6739,
      "noise</w>": 6740,
      "ond</w>": 6741,
      "representa": 6742,
      "settlement</w>": 6743,
      "existent</w>": 6744,
      "larger</w>": 6745,
      "sheet": 6746,
      "algorith": 6747,
      "picked</w>": 6748,
      "torrent</w>": 6749,
      "happened</w>": 6750,
      "fetching</w>": 6751,
      "entrez2</w>": 6752,
      "ha</w>": 6753,
      "pk": 6754,
      "reject</w>": 6755,
      "recalculate</w>": 6756,
      "spent</w>": 6757,
      "parsers</w>": 6758,
      "shap": 6759,
      "trims</w>": 6760,
      "gravity</w>": 6761,
      "weve</w>": 6762,
      "ticker</w>": 6763,
      "integri": 6764,
      "debugger</w>": 6765,
      "indexer</w>": 6766,
      "viewable</w>": 6767,
      "postfix</w>": 6768,
      "continues</w>": 6769,
      "coefficients</w>": 6770,
      "infinite</w>": 6771,
      "abbreviation</w>": 6772,
      "quantifi": 6773,
      "affili": 6774,
      "italic</w>": 6775,
      "textarea</w>": 6776,
      "opportunity</w>": 6777,
      "integrity</w>": 6778,
      "xhtml</w>": 6779,
      "remin": 6780,
      "lab</w>": 6781,
      "enem": 6782,
      "uninstalls</w>": 6783,
      "raise</w>": 6784,
      "version": 6785,
      "change": 6786,
      "retrive</w>": 6787,
      "overflow</w>": 6788,
      "roots</w>": 6789,
      "checkpoint</w>": 6790,
      "quota</w>": 6791,
      "shorth": 6792,
      "ignores</w>": 6793,
      "telephone</w>": 6794,
      "competence</w>": 6795,
      "province</w>": 6796,
      "investi": 6797,
      "emu": 6798,
      "fini": 6799,
      "jul": 6800,
      "jboss</w>": 6801,
      "mma</w>": 6802,
      "ono": 6803,
      "reviews</w>": 6804,
      "insensitive</w>": 6805,
      "articles</w>": 6806,
      "prolog</w>": 6807,
      "lie": 6808,
      "bey": 6809,
      "puzz": 6810,
      "mana</w>": 6811,
      "boot</w>": 6812,
      "rooms</w>": 6813,
      "categori": 6814,
      "carte": 6815,
      "storable</w>": 6816,
      "id2</w>": 6817,
      "treat</w>": 6818,
      "confirmed</w>": 6819,
      "decoding</w>": 6820,
      "optimize</w>": 6821,
      "detaches</w>": 6822,
      "periodic</w>": 6823,
      "predece": 6824,
      "boundaries</w>": 6825,
      "shorthand</w>": 6826,
      "je</w>": 6827,
      "lp</w>": 6828,
      "chers</w>": 6829,
      "obsole": 6830,
      "ram</w>": 6831,
      "shop</w>": 6832,
      "translations</w>": 6833,
      "directional</w>": 6834,
      "destinations</w>": 6835,
      "cmb</w>": 6836,
      "lista</w>": 6837,
      "intersect</w>": 6838,
      "bpel</w>": 6839,
      "maybe</w>": 6840,
      "beyond</w>": 6841,
      "predecessor</w>": 6842,
      "refac": 6843,
      "seat</w>": 6844,
      "atlas</w>": 6845,
      "acted</w>": 6846,
      "though</w>": 6847,
      "permitted</w>": 6848,
      "jects</w>": 6849,
      "dial</w>": 6850,
      "distances</w>": 6851,
      "bugs</w>": 6852,
      "exec</w>": 6853,
      "preset</w>": 6854,
      "citation</w>": 6855,
      "gender</w>": 6856,
      "gun</w>": 6857,
      "evaluating</w>": 6858,
      "utils</w>": 6859,
      "checkout</w>": 6860,
      "revert</w>": 6861,
      "topology</w>": 6862,
      "dockable</w>": 6863,
      "sk</w>": 6864,
      "ther": 6865,
      "inti": 6866,
      "memento</w>": 6867,
      "atable</w>": 6868,
      "adec": 6869,
      "sounds</w>": 6870,
      "uploads</w>": 6871,
      "interchange</w>": 6872,
      "timers</w>": 6873,
      "integra": 6874,
      "inclusion</w>": 6875,
      "packa": 6876,
      "skil": 6877,
      "ejb": 6878,
      "slope</w>": 6879,
      "jpeg</w>": 6880,
      "bill</w>": 6881,
      "cator</w>": 6882,
      "tf": 6883,
      "yy</w>": 6884,
      "invariant</w>": 6885,
      "tester</w>": 6886,
      "ances</w>": 6887,
      "fin</w>": 6888,
      "assi": 6889,
      "cloned</w>": 6890,
      "accessi": 6891,
      "operate</w>": 6892,
      "factories</w>": 6893,
      "books</w>": 6894,
      "day": 6895,
      "complement</w>": 6896,
      "filenames</w>": 6897,
      "maintain</w>": 6898,
      "primitives</w>": 6899,
      "polyline</w>": 6900,
      "agency</w>": 6901,
      "escapes</w>": 6902,
      "patients</w>": 6903,
      "receipt</w>": 6904,
      "02</w>": 6905,
      "hg": 6906,
      "nm</w>": 6907,
      "props</w>": 6908,
      "solici": 6909,
      "shel": 6910,
      "tually</w>": 6911,
      "referencing</w>": 6912,
      "classs</w>": 6913,
      "phi</w>": 6914,
      "straight</w>": 6915,
      "lane</w>": 6916,
      "endpoints</w>": 6917,
      "scopes</w>": 6918,
      "exam</w>": 6919,
      "expiry</w>": 6920,
      "considering</w>": 6921,
      "nsarray</w>": 6922,
      "songs</w>": 6923,
      "introspec": 6924,
      "welcome</w>": 6925,
      "wanted</w>": 6926,
      "behind</w>": 6927,
      "100": 6928,
      "blen": 6929,
      "jcombo</w>": 6930,
      "qt</w>": 6931,
      "sses</w>": 6932,
      "ul</w>": 6933,
      "tie</w>": 6934,
      "compr": 6935,
      "init": 6936,
      "aborts</w>": 6937,
      "defect</w>": 6938,
      "ucle": 6939,
      "constructing</w>": 6940,
      "refs</w>": 6941,
      "ssian</w>": 6942,
      "probably</w>": 6943,
      "analyze</w>": 6944,
      "casca": 6945,
      "neighbor": 6946,
      "scanned</w>": 6947,
      "continuous</w>": 6948,
      "tune</w>": 6949,
      "forwarded</w>": 6950,
      "ampli": 6951,
      "integral</w>": 6952,
      "cise</w>": 6953,
      "ef": 6954,
      "ft": 6955,
      "va": 6956,
      "won</w>": 6957,
      "rebuilds</w>": 6958,
      "tel</w>": 6959,
      "ancy</w>": 6960,
      "roi</w>": 6961,
      "lower": 6962,
      "prefixed</w>": 6963,
      "clauses</w>": 6964,
      "opponent</w>": 6965,
      "sized</w>": 6966,
      "array": 6967,
      "median</w>": 6968,
      "normalization</w>": 6969,
      "optimal</w>": 6970,
      "field2</w>": 6971,
      "weak</w>": 6972,
      "grant</w>": 6973,
      "ensuring</w>": 6974,
      "tbl</w>": 6975,
      "zz</w>": 6976,
      "deserialized</w>": 6977,
      "stand</w>": 6978,
      "advice</w>": 6979,
      "lens</w>": 6980,
      "selectors</w>": 6981,
      "rooted</w>": 6982,
      "computing</w>": 6983,
      "peek</w>": 6984,
      "divides</w>": 6985,
      "probabilities</w>": 6986,
      "idea</w>": 6987,
      "favorite</w>": 6988,
      "incorrect</w>": 6989,
      "meant</w>": 6990,
      "demon": 6991,
      "uldnt</w>": 6992,
      "lied</w>": 6993,
      "triangles</w>": 6994,
      "handsha": 6995,
      "retrives</w>": 6996,
      "allowable</w>": 6997,
      "throu": 6998,
      "merging</w>": 6999,
      "mediator</w>": 7000,
      "medium</w>": 7001,
      "bullet</w>": 7002,
      "intercept</w>": 7003,
      "clustering</w>": 7004,
      "adecimal</w>": 7005,
      "ame</w>": 7006,
      "dly</w>": 7007,
      "j2</w>": 7008,
      "thru</w>": 7009,
      "ising</w>": 7010,
      "profil": 7011,
      "why</w>": 7012,
      "menting</w>": 7013,
      "guest</w>": 7014,
      "procedu": 7015,
      "transforma": 7016,
      "readers</w>": 7017,
      "controlling</w>": 7018,
      "utf": 7019,
      "failures</w>": 7020,
      "geometric</w>": 7021,
      "gera</w>": 7022,
      "evidence</w>": 7023,
      "jdk</w>": 7024,
      "infinity</w>": 7025,
      "hexadecimal</w>": 7026,
      "internationalized</w>": 7027,
      "lifetime</w>": 7028,
      "retuns</w>": 7029,
      "puzzle</w>": 7030,
      "cl</w>": 7031,
      "eg": 7032,
      "mmed</w>": 7033,
      "sb": 7034,
      "sat": 7035,
      "vable</w>": 7036,
      "remain</w>": 7037,
      "all": 7038,
      "ena</w>": 7039,
      "upper": 7040,
      "mini</w>": 7041,
      "migration</w>": 7042,
      "factors</w>": 7043,
      "timesheet": 7044,
      "discovered</w>": 7045,
      "sensitivity</w>": 7046,
      "assumed</w>": 7047,
      "enumerator</w>": 7048,
      "symbolically</w>": 7049,
      "announce": 7050,
      "timesheetmanagement</w>": 7051,
      "ccm": 7052,
      "grup": 7053,
      "jlabel</w>": 7054,
      "vis</w>": 7055,
      "env</w>": 7056,
      "spans</w>": 7057,
      "on1</w>": 7058,
      "feeds</w>": 7059,
      "recycle</w>": 7060,
      "quick": 7061,
      "coordinator</w>": 7062,
      "extending</w>": 7063,
      "subscribed</w>": 7064,
      "mssearch</w>": 7065,
      "consider</w>": 7066,
      "solve</w>": 7067,
      "cgcontext</w>": 7068,
      "walks</w>": 7069,
      "lookahead</w>": 7070,
      "prediction</w>": 7071,
      "enemy</w>": 7072,
      "accessibility</w>": 7073,
      "3f</w>": 7074,
      "pin": 7075,
      "rb</w>": 7076,
      "thhe</w>": 7077,
      "reconnect</w>": 7078,
      "transactional</w>": 7079,
      "passive</w>": 7080,
      "cluste": 7081,
      "checkboxes</w>": 7082,
      "bookmarks</w>": 7083,
      "customizer</w>": 7084,
      "compliance</w>": 7085,
      "exercise</w>": 7086,
      "synonym</w>": 7087,
      "bur": 7088,
      "fas": 7089,
      "ot": 7090,
      "vents</w>": 7091,
      "water</w>": 7092,
      "locus</w>": 7093,
      "spi": 7094,
      "wered</w>": 7095,
      "widths</w>": 7096,
      "specifed</w>": 7097,
      "diffi": 7098,
      "holders</w>": 7099,
      "person": 7100,
      "interpreted</w>": 7101,
      "prompts</w>": 7102,
      "magnet</w>": 7103,
      "jumps</w>": 7104,
      "airport</w>": 7105,
      "permanent</w>": 7106,
      "centre</w>": 7107,
      "centroid</w>": 7108,
      "oauth</w>": 7109,
      "pm": 7110,
      "sm</w>": 7111,
      "rest": 7112,
      "cosine</w>": 7113,
      "stmt</w>": 7114,
      "siv": 7115,
      "need": 7116,
      "beam</w>": 7117,
      "discri": 7118,
      "directions</w>": 7119,
      "styled</w>": 7120,
      "uniform": 7121,
      "temporal</w>": 7122,
      "artifacts</w>": 7123,
      "spawn</w>": 7124,
      "affect</w>": 7125,
      "flips</w>": 7126,
      "shifts</w>": 7127,
      "vsmapi</w>": 7128,
      "peptide</w>": 7129,
      "programmatically</w>": 7130,
      "heuristic</w>": 7131,
      "mz</w>": 7132,
      "nucle": 7133,
      "sema": 7134,
      "aditional</w>": 7135,
      "recursion</w>": 7136,
      "combines</w>": 7137,
      "subtraction</w>": 7138,
      "marshalled</w>": 7139,
      "preceding</w>": 7140,
      "causing</w>": 7141,
      "axiom</w>": 7142,
      "algorithms</w>": 7143,
      "bb": 7144,
      "cb": 7145,
      "euc": 7146,
      "researcher</w>": 7147,
      "semi": 7148,
      "rol</w>": 7149,
      "err</w>": 7150,
      "undone</w>": 7151,
      "fron": 7152,
      "soon</w>": 7153,
      "disc</w>": 7154,
      "finally</w>": 7155,
      "cliente</w>": 7156,
      "invocations</w>": 7157,
      "action": 7158,
      "unix</w>": 7159,
      "launcher</w>": 7160,
      "taxono": 7161,
      "granted</w>": 7162,
      "siblings</w>": 7163,
      "constituent</w>": 7164,
      "cartesian</w>": 7165,
      "14": 7166,
      "lating</w>": 7167,
      "tator</w>": 7168,
      "vfs</w>": 7169,
      "ante</w>": 7170,
      "unlocks</w>": 7171,
      "dots</w>": 7172,
      "bet</w>": 7173,
      "focu": 7174,
      "grow</w>": 7175,
      "unique": 7176,
      "question": 7177,
      "gantt</w>": 7178,
      "optimized</w>": 7179,
      "command1</w>": 7180,
      "scripting</w>": 7181,
      "techno": 7182,
      "distinguished</w>": 7183,
      "violation</w>": 7184,
      "english</w>": 7185,
      "ddl</w>": 7186,
      "jars</w>": 7187,
      "scor": 7188,
      "uer": 7189,
      "reconstruct</w>": 7190,
      "mem</w>": 7191,
      "retr": 7192,
      "fire": 7193,
      "lements</w>": 7194,
      "specs</w>": 7195,
      "itec": 7196,
      "interactions</w>": 7197,
      "transpose</w>": 7198,
      "contra": 7199,
      "supporting</w>": 7200,
      "symmetric</w>": 7201,
      "deliver</w>": 7202,
      "collapses</w>": 7203,
      "enablement</w>": 7204,
      "inputstream</w>": 7205,
      "episode</w>": 7206,
      "satelli": 7207,
      "uniformly</w>": 7208,
      "agre": 7209,
      "bone</w>": 7210,
      "f1</w>": 7211,
      "refe": 7212,
      "teams</w>": 7213,
      "page": 7214,
      "hamento</w>": 7215,
      "buffering</w>": 7216,
      "accepting</w>": 7217,
      "crawler</w>": 7218,
      "watcher</w>": 7219,
      "concerning</w>": 7220,
      "dar": 7221,
      "fru": 7222,
      "ics</w>": 7223,
      "ped</w>": 7224,
      "s3</w>": 7225,
      "ditor</w>": 7226,
      "preserve</w>": 7227,
      "transmit</w>": 7228,
      "wake</w>": 7229,
      "externally</w>": 7230,
      "somewhere</w>": 7231,
      "brigh": 7232,
      "plots</w>": 7233,
      "genetic</w>": 7234,
      "holiday</w>": 7235,
      "cache": 7236,
      "gwt</w>": 7237,
      "nc": 7238,
      "latency</w>": 7239,
      "contextual</w>": 7240,
      "dicom</w>": 7241,
      "ason</w>": 7242,
      "vering</w>": 7243,
      "transferred</w>": 7244,
      "mitter</w>": 7245,
      "finger": 7246,
      "recorder</w>": 7247,
      "sequential</w>": 7248,
      "architec": 7249,
      "solutions</w>": 7250,
      "bunch</w>": 7251,
      "splitter</w>": 7252,
      "temporarily</w>": 7253,
      "fractional</w>": 7254,
      "arrived</w>": 7255,
      "enumerated</w>": 7256,
      "centro</w>": 7257,
      "epoch</w>": 7258,
      "eucli": 7259,
      "eq</w>": 7260,
      "fi</w>": 7261,
      "fer</w>": 7262,
      "glass</w>": 7263,
      "oval</w>": 7264,
      "rc</w>": 7265,
      "s1</w>": 7266,
      "sso": 7267,
      "zv": 7268,
      "ingre": 7269,
      "proof</w>": 7270,
      "commo": 7271,
      "suit</w>": 7272,
      "model": 7273,
      "mile": 7274,
      "entidad</w>": 7275,
      "bases</w>": 7276,
      "variants</w>": 7277,
      "strips</w>": 7278,
      "falls</w>": 7279,
      "exclusion</w>": 7280,
      "concise</w>": 7281,
      "cgrect</w>": 7282,
      "injected</w>": 7283,
      "gadget</w>": 7284,
      "situation</w>": 7285,
      "hub</w>": 7286,
      "uerle</w>": 7287,
      "times": 7288,
      "erase</w>": 7289,
      "lan</w>": 7290,
      "nex": 7291,
      "exposed</w>": 7292,
      "number": 7293,
      "disposition</w>": 7294,
      "opt</w>": 7295,
      "backed</w>": 7296,
      "fake</w>": 7297,
      "observations</w>": 7298,
      "regexp</w>": 7299,
      "earliest</w>": 7300,
      "influence</w>": 7301,
      "cameras</w>": 7302,
      "finite</w>": 7303,
      "32": 7304,
      "din</w>": 7305,
      "emul": 7306,
      "mk": 7307,
      "ptions</w>": 7308,
      "tcha</w>": 7309,
      "mech</w>": 7310,
      "destruc": 7311,
      "fit": 7312,
      "chk</w>": 7313,
      "wich</w>": 7314,
      "trun": 7315,
      "cel": 7316,
      "pable</w>": 7317,
      "https</w>": 7318,
      "knows</w>": 7319,
      "divided</w>": 7320,
      "summ": 7321,
      "geographic</w>": 7322,
      "derivative</w>": 7323,
      "bene": 7324,
      "scrolled</w>": 7325,
      "neurons</w>": 7326,
      "periods</w>": 7327,
      "jaxo</w>": 7328,
      "semaph": 7329,
      "ctr": 7330,
      "d2</w>": 7331,
      "dx</w>": 7332,
      "ia": 7333,
      "zones</w>": 7334,
      "meri": 7335,
      "creative</w>": 7336,
      "colon</w>": 7337,
      "senger</w>": 7338,
      "hasnt</w>": 7339,
      "additions</w>": 7340,
      "launched</w>": 7341,
      "delimiters</w>": 7342,
      "authenticating</w>": 7343,
      "rotated</w>": 7344,
      "morph": 7345,
      "positioning</w>": 7346,
      "yyyy</w>": 7347,
      "proxied</w>": 7348,
      "progression</w>": 7349,
      "brush</w>": 7350,
      "uniquely</w>": 7351,
      "semaphore</w>": 7352,
      "reach</w>": 7353,
      "inv</w>": 7354,
      "sell</w>": 7355,
      "coo": 7356,
      "enroll": 7357,
      "side": 7358,
      "matic</w>": 7359,
      "stry</w>": 7360,
      "ums</w>": 7361,
      "dock</w>": 7362,
      "curri": 7363,
      "intern": 7364,
      "edif</w>": 7365,
      "signs</w>": 7366,
      "calculations</w>": 7367,
      "worksheet</w>": 7368,
      "standalone</w>": 7369,
      "archives</w>": 7370,
      "rectangles</w>": 7371,
      "machines</w>": 7372,
      "simultane": 7373,
      "nulls</w>": 7374,
      "consul": 7375,
      "transferable</w>": 7376,
      "gracefully</w>": 7377,
      "60</w>": 7378,
      "ims</w>": 7379,
      "jdo": 7380,
      "osc</w>": 7381,
      "renamed</w>": 7382,
      "insd": 7383,
      "till</w>": 7384,
      "deselect</w>": 7385,
      "ass</w>": 7386,
      "paged</w>": 7387,
      "lined</w>": 7388,
      "submenu</w>": 7389,
      "ache</w>": 7390,
      "ssl": 7391,
      "builders</w>": 7392,
      "signal": 7393,
      "completions</w>": 7394,
      "doubles</w>": 7395,
      "populating</w>": 7396,
      "extern": 7397,
      "dyna</w>": 7398,
      "treat": 7399,
      "panel3</w>": 7400,
      "spectra</w>": 7401,
      "contributor</w>": 7402,
      "reverses</w>": 7403,
      "synchronous</w>": 7404,
      "sten": 7405,
      "tone</w>": 7406,
      "vt</w>": 7407,
      "threaded</w>": 7408,
      "inbox</w>": 7409,
      "delayed</w>": 7410,
      "proposed</w>": 7411,
      "admin": 7412,
      "chip</w>": 7413,
      "trash</w>": 7414,
      "traditional</w>": 7415,
      "pref</w>": 7416,
      "preprocess</w>": 7417,
      "cursors</w>": 7418,
      "partes</w>": 7419,
      "trie</w>": 7420,
      "tour": 7421,
      "cur</w>": 7422,
      "localization</w>": 7423,
      "generators</w>": 7424,
      "proceed</w>": 7425,
      "stations</w>": 7426,
      "capturing</w>": 7427,
      "serving</w>": 7428,
      "cancel": 7429,
      "ggable</w>": 7430,
      "sliders</w>": 7431,
      "agenda</w>": 7432,
      "digester</w>": 7433,
      "dns</w>": 7434,
      "ident</w>": 7435,
      "jfile</w>": 7436,
      "nments</w>": 7437,
      "om": 7438,
      "reli": 7439,
      "iner": 7440,
      "arcs</w>": 7441,
      "promo": 7442,
      "maker</w>": 7443,
      "compress</w>": 7444,
      "numbered</w>": 7445,
      "pper</w>": 7446,
      "muta": 7447,
      "tification</w>": 7448,
      "nii</w>": 7449,
      "underline</w>": 7450,
      "datafile</w>": 7451,
      "simulated</w>": 7452,
      "animations</w>": 7453,
      "refreshing</w>": 7454,
      "short": 7455,
      "discover</w>": 7456,
      "candidates</w>": 7457,
      "manipulation</w>": 7458,
      "inode</w>": 7459,
      "editpart</w>": 7460,
      "medline</w>": 7461,
      "ation": 7462,
      "ho</w>": 7463,
      "jbtn</w>": 7464,
      "mt": 7465,
      "ni</w>": 7466,
      "reused</w>": 7467,
      "reserve</w>": 7468,
      "tee</w>": 7469,
      "teh</w>": 7470,
      "retruns</w>": 7471,
      "assis": 7472,
      "tot": 7473,
      "chance</w>": 7474,
      "counted</w>": 7475,
      "filetype</w>": 7476,
      "repositories</w>": 7477,
      "verifier</w>": 7478,
      "choosing</w>": 7479,
      "black": 7480,
      "acquires</w>": 7481,
      "cgpdf": 7482,
      "balan": 7483,
      "lexicon</w>": 7484,
      "enhanced</w>": 7485,
      "bread": 7486,
      "eing</w>": 7487,
      "f2</w>": 7488,
      "gmt</w>": 7489,
      "mult</w>": 7490,
      "vr": 7491,
      "season</w>": 7492,
      "enqueue</w>": 7493,
      "nap": 7494,
      "obje": 7495,
      "unloads</w>": 7496,
      "press": 7497,
      "clazz</w>": 7498,
      "message": 7499,
      "social</w>": 7500,
      "subjects</w>": 7501,
      "mix</w>": 7502,
      "clic</w>": 7503,
      "signing</w>": 7504,
      "displayer</w>": 7505,
      "timesta": 7506,
      "octe": 7507,
      "screens</w>": 7508,
      "approval</w>": 7509,
      "renderers</w>": 7510,
      "protocols</w>": 7511,
      "crum": 7512,
      "privacy</w>": 7513,
      "early</w>": 7514,
      "alerts</w>": 7515,
      "taxon1</w>": 7516,
      "ordinal</w>": 7517,
      "development</w>": 7518,
      "eligi": 7519,
      "detalhamento</w>": 7520,
      "gauge</w>": 7521,
      "deadline</w>": 7522,
      "sch153</w>": 7523,
      "jb</w>": 7524,
      "jab": 7525,
      "nn": 7526,
      "wp</w>": 7527,
      "arrows</w>": 7528,
      "lelement</w>": 7529,
      "uml": 7530,
      "parce": 7531,
      "defen": 7532,
      "resp</w>": 7533,
      "forec": 7534,
      "submitting</w>": 7535,
      "hop</w>": 7536,
      "ssary</w>": 7537,
      "twise</w>": 7538,
      "knob</w>": 7539,
      "bra</w>": 7540,
      "pictures</w>": 7541,
      "interrupts</w>": 7542,
      "bonds</w>": 7543,
      "blur</w>": 7544,
      "negotiation</w>": 7545,
      "evolution</w>": 7546,
      "ghost</w>": 7547,
      "04</w>": 7548,
      "25</w>": 7549,
      "aa</w>": 7550,
      "bm</w>": 7551,
      "bber</w>": 7552,
      "rms</w>": 7553,
      "reinitialize</w>": 7554,
      "fid</w>": 7555,
      "ortho": 7556,
      "permutation</w>": 7557,
      "solid</w>": 7558,
      "boards</w>": 7559,
      "few</w>": 7560,
      "attributed</w>": 7561,
      "fog</w>": 7562,
      "presented</w>": 7563,
      "subgraph</w>": 7564,
      "manner</w>": 7565,
      "replies</w>": 7566,
      "relay</w>": 7567,
      "logies</w>": 7568,
      "unit": 7569,
      "trail</w>": 7570,
      "declaring</w>": 7571,
      "purge</w>": 7572,
      "monitors</w>": 7573,
      "subscribes</w>": 7574,
      "light": 7575,
      "adjusting</w>": 7576,
      "enumerate</w>": 7577,
      "older</w>": 7578,
      "reduces</w>": 7579,
      "ambigu": 7580,
      "50</w>": 7581,
      "fco</w>": 7582,
      "i18": 7583,
      "kin": 7584,
      "reacts</w>": 7585,
      "deselected</w>": 7586,
      "lap</w>": 7587,
      "permits</w>": 7588,
      "pointers</w>": 7589,
      "wii": 7590,
      "rases</w>": 7591,
      "typing</w>": 7592,
      "cuto": 7593,
      "hot": 7594,
      "mity</w>": 7595,
      "operates</w>": 7596,
      "bids</w>": 7597,
      "jus": 7598,
      "workplace</w>": 7599,
      "mainten": 7600,
      "confirms</w>": 7601,
      "certificates</w>": 7602,
      "preparation</w>": 7603,
      "customization</w>": 7604,
      "customize</w>": 7605,
      "privileges</w>": 7606,
      "refactoring</w>": 7607,
      "lowercase</w>": 7608,
      "taxonomy</w>": 7609,
      "90</w>": 7610,
      "cad": 7611,
      "mon</w>": 7612,
      "x1</w>": 7613,
      "reve": 7614,
      "urn</w>": 7615,
      "erases</w>": 7616,
      "deserialize</w>": 7617,
      "condu": 7618,
      "loses</w>": 7619,
      "nom</w>": 7620,
      "property": 7621,
      "asn1</w>": 7622,
      "userid</w>": 7623,
      "verable</w>": 7624,
      "trial</w>": 7625,
      "hiding</w>": 7626,
      "dao": 7627,
      "public": 7628,
      "diameter</w>": 7629,
      "particip": 7630,
      "derivation</w>": 7631,
      "ioexception</w>": 7632,
      "travel": 7633,
      "topmost</w>": 7634,
      "skills</w>": 7635,
      "ati": 7636,
      "aid</w>": 7637,
      "eto</w>": 7638,
      "ese</w>": 7639,
      "gated</w>": 7640,
      "jena</w>": 7641,
      "lds</w>": 7642,
      "pal</w>": 7643,
      "vc</w>": 7644,
      "x2</w>": 7645,
      "conclu": 7646,
      "mathe": 7647,
      "ulator</w>": 7648,
      "frozen</w>": 7649,
      "lite</w>": 7650,
      "expon": 7651,
      "spects</w>": 7652,
      "bezi": 7653,
      "apps</w>": 7654,
      "foo</w>": 7655,
      "homo": 7656,
      "documento</w>": 7657,
      "face": 7658,
      "builtin</w>": 7659,
      "owner": 7660,
      "globally</w>": 7661,
      "normals</w>": 7662,
      "cyc</w>": 7663,
      "parented</w>": 7664,
      "searchable</w>": 7665,
      "flatten</w>": 7666,
      "sanity</w>": 7667,
      "explaining</w>": 7668,
      "through": 7669,
      "transformations</w>": 7670,
      "hud</w>": 7671,
      "nc</w>": 7672,
      "oids</w>": 7673,
      "iness</w>": 7674,
      "parity</w>": 7675,
      "tom": 7676,
      "corners</w>": 7677,
      "clone": 7678,
      "stric": 7679,
      "bring</w>": 7680,
      "broadcasts</w>": 7681,
      "meaning": 7682,
      "replica</w>": 7683,
      "forwarding</w>": 7684,
      "coloring</w>": 7685,
      "landmark</w>": 7686,
      "03</w>": 7687,
      "arent</w>": 7688,
      "dation</w>": 7689,
      "ggest</w>": 7690,
      "rf</w>": 7691,
      "tv</w>": 7692,
      "designed</w>": 7693,
      "arm": 7694,
      "domin": 7695,
      "prerequisi": 7696,
      "generally</w>": 7697,
      "pig</w>": 7698,
      "vola": 7699,
      "gamma</w>": 7700,
      "recover</w>": 7701,
      "grad": 7702,
      "traversing</w>": 7703,
      "albums</w>": 7704,
      "suppress</w>": 7705,
      "nullable</w>": 7706,
      "horas</w>": 7707,
      "residues</w>": 7708,
      "pressure</w>": 7709,
      "dr</w>": 7710,
      "oq": 7711,
      "rings</w>": 7712,
      "semi</w>": 7713,
      "seek</w>": 7714,
      "deregister</w>": 7715,
      "conjunction</w>": 7716,
      "asn</w>": 7717,
      "ung</w>": 7718,
      "sun</w>": 7719,
      "sensors</w>": 7720,
      "cim</w>": 7721,
      "grabs</w>": 7722,
      "house": 7723,
      "depend</w>": 7724,
      "father</w>": 7725,
      "partially</w>": 7726,
      "captcha</w>": 7727,
      "cancelar</w>": 7728,
      "sky</w>": 7729,
      "transitive</w>": 7730,
      "students</w>": 7731,
      "colored</w>": 7732,
      "sequencer</w>": 7733,
      "item1</w>": 7734,
      "plotted</w>": 7735,
      "anymore</w>": 7736,
      "likeli": 7737,
      "fleet</w>": 7738,
      "procedures</w>": 7739,
      "utf8</w>": 7740,
      "fingerprint</w>": 7741,
      "emo": 7742,
      "ly": 7743,
      "oms</w>": 7744,
      "pr</w>": 7745,
      "pulate</w>": 7746,
      "tacti": 7747,
      "altered</w>": 7748,
      "iss</w>": 7749,
      "unbinds</w>": 7750,
      "lio</w>": 7751,
      "alizing</w>": 7752,
      "fouri": 7753,
      "connectors</w>": 7754,
      "mute</w>": 7755,
      "plans</w>": 7756,
      "fax</w>": 7757,
      "trap</w>": 7758,
      "designer</w>": 7759,
      "button3</w>": 7760,
      "manipulate</w>": 7761,
      "learn</w>": 7762,
      "lexico": 7763,
      "encapsulates</w>": 7764,
      "looping</w>": 7765,
      "jpa</w>": 7766,
      "compliant</w>": 7767,
      "x509</w>": 7768,
      "obsolete</w>": 7769,
      "arraylist</w>": 7770,
      "grupo</w>": 7771,
      "architecture</w>": 7772,
      "forecast</w>": 7773,
      "fourier</w>": 7774,
      "btree</w>": 7775,
      "ify</w>": 7776,
      "nor</w>": 7777,
      "tc</w>": 7778,
      "ton": 7779,
      "rewrite</w>": 7780,
      "annot</w>": 7781,
      "depar": 7782,
      "compass</w>": 7783,
      "uninstall</w>": 7784,
      "ularity</w>": 7785,
      "forget</w>": 7786,
      "mpeg</w>": 7787,
      "tod</w>": 7788,
      "dispo": 7789,
      "messaging</w>": 7790,
      "representations</w>": 7791,
      "stem</w>": 7792,
      "signatures</w>": 7793,
      "duced</w>": 7794,
      "originated</w>": 7795,
      "registro</w>": 7796,
      "magn": 7797,
      "hora</w>": 7798,
      "minimized</w>": 7799,
      "atributos</w>": 7800,
      "algebra": 7801,
      "repetition</w>": 7802,
      "neighborhood</w>": 7803,
      "likelihood</w>": 7804,
      "cin": 7805,
      "cn3</w>": 7806,
      "jc": 7807,
      "sun": 7808,
      "medic": 7809,
      "ected</w>": 7810,
      "ato</w>": 7811,
      "proc</w>": 7812,
      "ellip": 7813,
      "bos</w>": 7814,
      "deferred</w>": 7815,
      "messenger</w>": 7816,
      "implies</w>": 7817,
      "synap": 7818,
      "fund</w>": 7819,
      "draw": 7820,
      "venue</w>": 7821,
      "phrases</w>": 7822,
      "wrap": 7823,
      "producing</w>": 7824,
      "owners</w>": 7825,
      "delegation</w>": 7826,
      "dbms</w>": 7827,
      "animal</w>": 7828,
      "experience</w>": 7829,
      "suspends</w>": 7830,
      "peaks</w>": 7831,
      "kick</w>": 7832,
      "zeros</w>": 7833,
      "dash": 7834,
      "sticky</w>": 7835,
      "therefore</w>": 7836,
      "curricul": 7837,
      "bezier</w>": 7838,
      "algebraic</w>": 7839,
      "aver": 7840,
      "dcm": 7841,
      "fc": 7842,
      "ico</w>": 7843,
      "ren</w>": 7844,
      "covers</w>": 7845,
      "profe": 7846,
      "sus</w>": 7847,
      "quee</w>": 7848,
      "transcript</w>": 7849,
      "player": 7850,
      "adapts</w>": 7851,
      "trajec": 7852,
      "shares</w>": 7853,
      "oriented</w>": 7854,
      "marshall</w>": 7855,
      "addressing</w>": 7856,
      "reversed</w>": 7857,
      "dialogue</w>": 7858,
      "brackets</w>": 7859,
      "travel</w>": 7860,
      "announcement</w>": 7861,
      "blast</w>": 7862,
      "osc": 7863,
      "incomplete</w>": 7864,
      "sex</w>": 7865,
      "enter": 7866,
      "prevents</w>": 7867,
      "imagin": 7868,
      "home": 7869,
      "visor</w>": 7870,
      "frag": 7871,
      "booking</w>": 7872,
      "mise</w>": 7873,
      "offers</w>": 7874,
      "workaround</w>": 7875,
      "packs</w>": 7876,
      "brand</w>": 7877,
      "occurring</w>": 7878,
      "continuation</w>": 7879,
      "trusted</w>": 7880,
      "oldest</w>": 7881,
      "invert</w>": 7882,
      "culty</w>": 7883,
      "killed</w>": 7884,
      "rfc": 7885,
      "genotype</w>": 7886,
      "inspector</w>": 7887,
      "cloneable</w>": 7888,
      "gis</w>": 7889,
      "gid</w>": 7890,
      "m2</w>": 7891,
      "rad": 7892,
      "spon": 7893,
      "tb": 7894,
      "xmi</w>": 7895,
      "zy": 7896,
      "tear": 7897,
      "deals</w>": 7898,
      "ento</w>": 7899,
      "unparented</w>": 7900,
      "forcing</w>": 7901,
      "ongoing</w>": 7902,
      "fee</w>": 7903,
      "tences</w>": 7904,
      "elem</w>": 7905,
      "illa</w>": 7906,
      "subnet</w>": 7907,
      "dict</w>": 7908,
      "logically</w>": 7909,
      "iterating</w>": 7910,
      "correctness</w>": 7911,
      "delegating</w>": 7912,
      "answered</w>": 7913,
      "essen": 7914,
      "remainder</w>": 7915,
      "basket</w>": 7916,
      "caught</w>": 7917,
      "sortable</w>": 7918,
      "scratch</w>": 7919,
      "amplitude</w>": 7920,
      "enrollment</w>": 7921,
      "cutoff</w>": 7922,
      "teardown</w>": 7923,
      "ak": 7924,
      "css": 7925,
      "ions</w>": 7926,
      "jan": 7927,
      "lum": 7928,
      "rink</w>": 7929,
      "sn</w>": 7930,
      "research</w>": 7931,
      "propor": 7932,
      "concurrency</w>": 7933,
      "spin</w>": 7934,
      "rations</w>": 7935,
      "bol</w>": 7936,
      "paid</w>": 7937,
      "composes</w>": 7938,
      "gence</w>": 7939,
      "arios</w>": 7940,
      "prise</w>": 7941,
      "marquee</w>": 7942,
      "memo</w>": 7943,
      "serializing</w>": 7944,
      "increasing</w>": 7945,
      "effectively</w>": 7946,
      "equivalence</w>": 7947,
      "assigning</w>": 7948,
      "weeks</w>": 7949,
      "craft</w>": 7950,
      "scrollbars</w>": 7951,
      "proxies</w>": 7952,
      "mirro": 7953,
      "lookups</w>": 7954,
      "favorites</w>": 7955,
      "basically</w>": 7956,
      "iconified</w>": 7957,
      "achiev": 7958,
      "mathema": 7959,
      "05</w>": 7960,
      "99": 7961,
      "bloo": 7962,
      "dst</w>": 7963,
      "eur": 7964,
      "kic": 7965,
      "sash</w>": 7966,
      "inc</w>": 7967,
      "roid</w>": 7968,
      "prot</w>": 7969,
      "propertys</w>": 7970,
      "unsubscribe</w>": 7971,
      "votes</w>": 7972,
      "gained</w>": 7973,
      "joy": 7974,
      "crc</w>": 7975,
      "analyses</w>": 7976,
      "iron</w>": 7977,
      "neural</w>": 7978,
      "overlaps</w>": 7979,
      "arg1</w>": 7980,
      "facili": 7981,
      "waypoints</w>": 7982,
      "conflicts</w>": 7983,
      "distinguish</w>": 7984,
      "ambient</w>": 7985,
      "acknowledgement</w>": 7986,
      "expense</w>": 7987,
      "hooks</w>": 7988,
      "stretch</w>": 7989,
      "ccmx": 7990,
      "scoring</w>": 7991,
      "brightness</w>": 7992,
      "jabber</w>": 7993,
      "imaginary</w>": 7994,
      "iv</w>": 7995,
      "ian</w>": 7996,
      "kar": 7997,
      "wi</w>": 7998,
      "ura</w>": 7999,
      "sibility</w>": 8000,
      "atest</w>": 8001,
      "spline</w>": 8002,
      "dog</w>": 8003,
      "shrink</w>": 8004,
      "shouldnt</w>": 8005,
      "implied</w>": 8006,
      "recy": 8007,
      "retries</w>": 8008,
      "column": 8009,
      "entity": 8010,
      "ssh</w>": 8011,
      "them": 8012,
      "compen": 8013,
      "serie</w>": 8014,
      "titled</w>": 8015,
      "synth</w>": 8016,
      "incremental</w>": 8017,
      "inherit</w>": 8018,
      "authenticator</w>": 8019,
      "employees</w>": 8020,
      "publishing</w>": 8021,
      "doctype</w>": 8022,
      "unexp": 8023,
      "x500</w>": 8024,
      "technology</w>": 8025,
      "gn": 8026,
      "ia</w>": 8027,
      "son</w>": 8028,
      "ano</w>": 8029,
      "chemi": 8030,
      "permit</w>": 8031,
      "negate</w>": 8032,
      "nar</w>": 8033,
      "spam</w>": 8034,
      "specifications</w>": 8035,
      "sage</w>": 8036,
      "sys": 8037,
      "terminator</w>": 8038,
      "orian</w>": 8039,
      "passp": 8040,
      "loaders</w>": 8041,
      "tioned</w>": 8042,
      "sku</w>": 8043,
      "turning</w>": 8044,
      "crlf</w>": 8045,
      "calendars</w>": 8046,
      "excludes</w>": 8047,
      "organisation</w>": 8048,
      "encrypts</w>": 8049,
      "branches</w>": 8050,
      "interpret</w>": 8051,
      "initialised</w>": 8052,
      "aggregated</w>": 8053,
      "cfg</w>": 8054,
      "interrupti": 8055,
      "nonce</w>": 8056,
      "reduction</w>": 8057,
      "dropdown</w>": 8058,
      "yield</w>": 8059,
      "liefer": 8060,
      "difficulty</w>": 8061,
      "ingredi": 8062,
      "19</w>": 8063,
      "84</w>": 8064,
      "ci</w>": 8065,
      "ja</w>": 8066,
      "lla": 8067,
      "mbeans</w>": 8068,
      "np": 8069,
      "tacao</w>": 8070,
      "repre": 8071,
      "stale</w>": 8072,
      "tao</w>": 8073,
      "spac": 8074,
      "collation</w>": 8075,
      "aborted</w>": 8076,
      "dist</w>": 8077,
      "ciones</w>": 8078,
      "impact</w>": 8079,
      "heav": 8080,
      "adapters</w>": 8081,
      "querying</w>": 8082,
      "flagged</w>": 8083,
      "nium</w>": 8084,
      "engines</w>": 8085,
      "downloading</w>": 8086,
      "id1</w>": 8087,
      "strokes</w>": 8088,
      "mutate</w>": 8089,
      "newlines</w>": 8090,
      "combinations</w>": 8091,
      "wont</w>": 8092,
      "cleaning</w>": 8093,
      "substitute</w>": 8094,
      "watch": 8095,
      "bootstrap</w>": 8096,
      "uppercase</w>": 8097,
      "i18n</w>": 8098,
      "joystick</w>": 8099,
      "07</w>": 8100,
      "hen": 8101,
      "ii</w>": 8102,
      "odd</w>": 8103,
      "onable</w>": 8104,
      "oai</w>": 8105,
      "rac": 8106,
      "wf": 8107,
      "resting</w>": 8108,
      "coes</w>": 8109,
      "profi": 8110,
      "chess</w>": 8111,
      "initiated</w>": 8112,
      "disab": 8113,
      "opb</w>": 8114,
      "subgroup</w>": 8115,
      "came</w>": 8116,
      "integr": 8117,
      "sums</w>": 8118,
      "browsers</w>": 8119,
      "analyzed</w>": 8120,
      "zip": 8121,
      "antiparticle</w>": 8122,
      "casted</w>": 8123,
      "colours</w>": 8124,
      "listbox</w>": 8125,
      "2006</w>": 8126,
      "smooth</w>": 8127,
      "parameterized</w>": 8128,
      "shape": 8129,
      "ownership</w>": 8130,
      "trajectory</w>": 8131,
      "jet": 8132,
      "tk</w>": 8133,
      "ress</w>": 8134,
      "revisi": 8135,
      "arran": 8136,
      "poly</w>": 8137,
      "dia</w>": 8138,
      "fort</w>": 8139,
      "bodies</w>": 8140,
      "town</w>": 8141,
      "instance": 8142,
      "outstanding</w>": 8143,
      "edt</w>": 8144,
      "bio</w>": 8145,
      "titulo</w>": 8146,
      "matrix": 8147,
      "pesso": 8148,
      "choosen</w>": 8149,
      "id3": 8150,
      "torys</w>": 8151,
      "borro": 8152,
      "salary</w>": 8153,
      "shutting</w>": 8154,
      "efficient</w>": 8155,
      "animate</w>": 8156,
      "neighbour</w>": 8157,
      "outputstream</w>": 8158,
      "handshake</w>": 8159,
      "clusterer</w>": 8160,
      "meaningful</w>": 8161,
      "compensation</w>": 8162,
      "habi": 8163,
      "hql</w>": 8164,
      "kml</w>": 8165,
      "ont</w>": 8166,
      "ri</w>": 8167,
      "think</w>": 8168,
      "dec</w>": 8169,
      "lent</w>": 8170,
      "pole</w>": 8171,
      "maven</w>": 8172,
      "comm</w>": 8173,
      "cell": 8174,
[...]
