{
  "version": "1.0",
  "truncation": null,
  "padding": null,
  "added_tokens": [
    {
      "id": 0,
      "content": "<pad>",
      "single_word": false,
      "lstrip": false,
      "rstrip": false,
      "normalized": false,
      "special": true
    },
    {
      "id": 1,
      "content": "<unk>",
      "single_word": false,
      "lstrip": false,
      "rstrip": false,
      "normalized": false,
      "special": true
    },
    {
      "id": 2,
      "content": "<s>",
      "single_word": false,
      "lstrip": false,
      "rstrip": false,
      "normalized": false,
      "special": true
    },
    {
      "id": 3,
      "content": "</s>",
      "single_word": false,
      "lstrip": false,
      "rstrip": false,
      "normalized": false,
      "special": true
    }
  ],
  "normalizer": {
    "type": "Sequence",
    "normalizers": [
      {
        "type": "NFD"
      },
      {
        "type": "StripAccents"
      },
      {
        "type": "Strip",
        "strip_left": true,
        "strip_right": true
      }
    ]
  },
  "pre_tokenizer": {
    "type": "Whitespace"
  },
  "post_processor": null,
  "decoder": null,
  "model": {
    "type": "Unigram",
    "unk_id": 1,
    "vocab": [
      [
        "<pad>",
        0.0
      ],
      [
        "<unk>",
        0.0
      ],
      [
        "<s>",
        0.0
      ],
      [
        "</s>",
        0.0
      ],
      [
        "t",
        -2.502072406978959
      ],
      [
        "e",
        -2.7752594463525977
      ],
      [
        "s",
        -2.877310317710611
      ],
      [
        "o",
        -3.006578281521241
      ],
      [
        "the",
        -3.0654749444841976
      ],
      [
        "a",
        -3.230386850422228
      ],
      [
        "h",
        -3.3078154473587222
      ],
      [
        "f",
        -3.5747452025876782
      ],
      [
        "i",
        -3.702944014459707
      ],
      [
        "n",
        -3.9529034401076792
      ],
      [
        "this",
        -4.109244727833454
      ],
      [
        "d",
        -4.25464293098868
      ],
      [
        "for",
        -4.319634576427022
      ],
      [
        "returns",
        -4.438479841571764
      ],
      [
        "method",
        -4.618482789721293
      ],
      [
        "r",
        -4.794956119054158
      ],
      [
        "value",
        -4.880240801902183
      ],
      [
        "code",
        -4.921190670874273
      ],
      [
        "sets",
        -4.984292661726203
      ],
      [
        "b",
        -5.198125374888541
      ],
      [
        "object",
        -5.31269454533272
      ],
      [
        "property",
        -5.3313644485337655
      ],
      [
        "y",
        -5.3512069686341075
      ],
      [
        "and",
        -5.370316366150622
      ],
      [
        "g",
        -5.390608716525943
      ],
      [
        "given",
        -5.3931522102487595
      ],
      [
        "from",
        -5.408057627028903
      ],
      [
        "gets",
        -5.524865857551459
      ],
      [
        "p",
        -5.557717027597377
      ],
      [
        "with",
        -5.564659724830408
      ],
      [
        "return",
        -5.594328799893196
      ],
      [
        "name",
        -5.6219921687717065
      ],
      [
        "get",
        -5.624380505915656
      ],
      [
        "specified",
        -5.791738563311576
      ],
      [
        "all",
        -5.819216027692301
      ],
      [
        "string",
        -5.848571535313901
      ],
      [
        "l",
        -5.86663034946625
      ],
      [
        "c",
        -5.887673753650862
      ],
      [
        "th",
        -5.907871582434822
      ],
      [
        "u",
        -5.915826985024422
      ],
      [
        "ing",
        -5.916550165294103
      ],
      [
        "class",
        -5.917893792409382
      ],
      [
        "list",
        -5.920404338399495
      ],
      [
        "type",
        -5.947258702774011
      ],
      [
        "m",
        -5.956369097327615
      ],
      [
        "initialize",
        -5.966167200370313
      ],
      [
        "of",
        -5.97300870320802
      ],
      [
        "file",
        -5.991388206756671
      ],
      [
        "in",
        -5.998730169954101
      ],
      [
        "new",
        -6.038431774998141
      ],
      [
        "current",
        -6.067392074324497
      ],
      [
        "w",
        -6.068822241974011
      ],
      [
        "by",
        -6.085004317022822
      ],
      [
        "data",
        -6.129614417590693
      ],
      [
        "add",
        -6.130019696368391
      ],
      [
        "number",
        -6.136136372557294
      ],
      [
        "he",
        -6.146362657231139
      ],
      [
        "adds",
        -6.221756110347204
      ],
      [
        "instance",
        -6.254258131950753
      ],
      [
        "whether",
        -6.277949756625075
      ],
      [
        "create",
        -6.319815895531784
      ],
      [
        "when",
        -6.365401188361579
      ],
      [
        "attribute",
        -6.367194145812281
      ],
      [
        "node",
        -6.373252535516114
      ],
      [
        "used",
        -6.386797024618652
      ],
      [
        "user",
        -6.387889042610716
      ],
      [
        "text",
        -6.3948119442499625
      ],
      [
        "element",
        -6.413509995023473
      ],
      [
        "creates",
        -6.435403996697497
      ],
      [
        "test",
        -6.462090017138927
      ],
      [
        "message",
        -6.4904104806925424
      ],
      [
        "field",
        -6.546082862483425
      ],
      [
        "setter",
        -6.6295767152560074
      ],
      [
        "that",
        -6.634156260528151
      ],
      [
        "component",
        -6.642824643461882
      ],
      [
        "an",
        -6.646094186326069
      ],
      [
        "set",
        -6.6493101449645415
      ],
      [
        "called",
        -6.6594961096578515
      ],
      [
        "event",
        -6.662807190614384
      ],
      [
        "j",
        -6.663637745403172
      ],
      [
        "key",
        -6.679314872114496
      ],
      [
        "index",
        -6.6981202242251054
      ],
      [
        "which",
        -6.700181606668643
      ],
      [
        "item",
        -6.720758319453557
      ],
      [
        "check",
        -6.782049536241852
      ],
      [
        "model",
        -6.7967424041763636
      ],
      [
        "true",
        -6.79827493988506
      ],
      [
        "x",
        -6.83214002894727
      ],
      [
        "description",
        -6.86026208474904
      ],
      [
        "table",
        -6.869690337989203
      ],
      [
        "time",
        -6.872023835198995
      ],
      [
        "is",
        -6.874705355267713
      ],
      [
        "removes",
        -6.876253771079808
      ],
      [
        "state",
        -6.894662631443664
      ],
      [
        "action",
        -6.894719879273401
      ],
      [
        "default",
        -6.91418198518736
      ],
      [
        "listener",
        -6.956805397839577
      ],
      [
        "checks",
        -6.962677363697301
      ],
      [
        "column",
        -6.967589419443842
      ],
      [
        "position",
        -6.994753792905755
      ],
      [
        "will",
        -6.996579961095682
      ],
      [
        "button",
        -6.997325859612651
      ],
      [
        "remove",
        -7.000160093756463
      ],
      [
        "his",
        -7.034938048334059
      ],
      [
        "getter",
        -7.060980294049864
      ],
      [
        "document",
        -7.0713780128178225
      ],
      [
        "selected",
        -7.079098929199294
      ],
      [
        "map",
        -7.09655449649366
      ],
      [
        "input",
        -7.107566575810685
      ],
      [
        "should",
        -7.112395056507387
      ],
      [
        "feature",
        -7.120491768954709
      ],
      [
        "descriptor",
        -7.12370298589097
      ],
      [
        "image",
        -7.130303308825081
      ],
      [
        "associated",
        -7.137763012813812
      ],
      [
        "update",
        -7.144253367916297
      ],
      [
        "start",
        -7.147479948121166
      ],
      [
        "content",
        -7.153374298538422
      ],
      [
        "request",
        -7.154148457712614
      ],
      [
        "function",
        -7.161057734708081
      ],
      [
        "array",
        -7.162175070877208
      ],
      [
        "path",
        -7.164110985879155
      ],
      [
        "stream",
        -7.167510060074177
      ],
      [
        "view",
        -7.170034156021577
      ],
      [
        "panel",
        -7.181605201222803
      ],
      [
        "parameter",
        -7.186613814756974
      ],
      [
        "connection",
        -7.204770984889388
      ],
      [
        "size",
        -7.215238564251285
      ],
      [
        "line",
        -7.216080731319023
      ],
      [
        "call",
        -7.246738302872506
      ],
      [
        "server",
        -7.25361939305019
      ],
      [
        "generated",
        -7.263698679983335
      ],
      [
        "handle",
        -7.270857646770688
      ],
      [
        "representation",
        -7.273686176250006
      ],
      [
        "color",
        -7.301782872558194
      ],
      [
        "database",
        -7.304613495538947
      ],
      [
        "using",
        -7.30852452660559
      ],
      [
        "resource",
        -7.319897558385932
      ],
      [
        "use",
        -7.321659709340516
      ],
      [
        "source",
        -7.325221223327773
      ],
      [
        "output",
        -7.3277250657792585
      ],
      [
        "page",
        -7.328575566742803
      ],
      [
        "point",
        -7.332260130539639
      ],
      [
        "determine",
        -7.334733422281653
      ],
      [
        "xml",
        -7.34091587623335
      ],
      [
        "v",
        -7.342958255626266
      ],
      [
        "command",
        -7.349180597332953
      ],
      [
        "change",
        -7.364117053879461
      ],
      [
        "group",
        -7.367537960331049
      ],
      [
        "auto",
        -7.370167887738672
      ],
      [
        "result",
        -7.3867464513033845
      ],
      [
        "menu",
        -7.38806392403502
      ],
      [
        "error",
        -7.403406026468366
      ],
      [
        "context",
        -7.407485612051083
      ],
      [
        "first",
        -7.409311898022873
      ],
      [
        "label",
        -7.412681167750128
      ],
      [
        "collection",
        -7.415118003222865
      ],
      [
        "service",
        -7.4177118568300795
      ],
      [
        "date",
        -7.422138008075079
      ],
      [
        "or",
        -7.429946647876786
      ],
      [
        "information",
        -7.431365298898639
      ],
      [
        "entry",
        -7.439768040767829
      ],
      [
        "row",
        -7.459224331055577
      ],
      [
        "display",
        -7.461077249949303
      ],
      [
        "any",
        -7.461804441095881
      ],
      [
        "can",
        -7.468333391150738
      ],
      [
        "insert",
        -7.469736938234849
      ],
      [
        "null",
        -7.471902278392385
      ],
      [
        "status",
        -7.476092344419149
      ],
      [
        "read",
        -7.478992967803116
      ],
      [
        "reference",
        -7.483949478411775
      ],
      [
        "delete",
        -7.50451058915732
      ],
      [
        "next",
        -7.509674234745553
      ],
      [
        "only",
        -7.5217725756242295
      ],
      [
        "been",
        -7.535370681848942
      ],
      [
        "tests",
        -7.53936065844781
      ],
      [
        "implementation",
        -7.5412951227670195
      ],
      [
        "properties",
        -7.546627499625663
      ],
      [
        "query",
        -7.552501267994494
      ],
      [
        "url",
        -7.557236861722236
      ],
      [
        "location",
        -7.563953425172269
      ],
      [
        "write",
        -7.568565607814023
      ],
      [
        "to",
        -7.579353873014929
      ],
      [
        "retrieve",
        -7.58579470168308
      ],
      [
        "1",
        -7.600359772315596
      ],
      [
        "convert",
        -7.600847212294235
      ],
      [
        "adapter",
        -7.603888943757239
      ],
      [
        "configuration",
        -7.607861194089319
      ],
      [
        "form",
        -7.609710024491566
      ],
      [
        "retrieves",
        -7.612327122548232
      ],
      [
        "log",
        -7.6144682400718615
      ],
      [
        "last",
        -7.622329926209998
      ],
      [
        "session",
        -7.624461691356082
      ],
      [
        "on",
        -7.633306157366356
      ],
      [
        "window",
        -7.638347939610865
      ],
      [
        "filter",
        -7.649345847367625
      ],
      [
        "thread",
        -7.649619390020423
      ],
      [
        "process",
        -7.653740928159788
      ],
      [
        "find",
        -7.653816894302686
      ],
      [
        "selection",
        -7.657362426055986
      ],
      [
        "exception",
        -7.661069480970195
      ],
      [
        "search",
        -7.666030588517822
      ],
      [
        "save",
        -7.6693198294149685
      ],
      [
        "format",
        -7.67593732408989
      ],
      [
        "store",
        -7.677422110276545
      ],
      [
        "after",
        -7.690023112744047
      ],
      [
        "dialog",
        -7.697873561718545
      ],
      [
        "version",
        -7.707912172633881
      ],
      [
        "into",
        -7.707999371728343
      ],
      [
        "execute",
        -7.709089077686643
      ],
      [
        "level",
        -7.713756197909904
      ],
      [
        "info",
        -7.714583055292062
      ],
      [
        "child",
        -7.718182359587752
      ],
      [
        "entity",
        -7.720589484159904
      ],
      [
        "expression",
        -7.724159546107707
      ],
      [
        "parent",
        -7.7308007318975065
      ],
      [
        "currentl",
        -7.731332890541211
      ],
      [
        "values",
        -7.7325334394840635
      ],
      [
        "application",
        -7.73430694095236
      ],
      [
        "if",
        -7.7474781702237525
      ],
      [
        "handler",
        -7.7540898380299
      ],
      [
        "specific",
        -7.757452315060048
      ],
      [
        "variable",
        -7.761053755125026
      ],
      [
        "buffer",
        -7.761710290510468
      ],
      [
        "based",
        -7.780574011703671
      ],
      [
        "updates",
        -7.78367582217043
      ],
      [
        "java",
        -7.786859732015579
      ],
      [
        "perform",
        -7.7878127972055715
      ],
      [
        "graph",
        -7.7885508083092265
      ],
      [
        "system",
        -7.788926375029552
      ],
      [
        "client",
        -7.79084116342977
      ],
      [
        "frame",
        -7.790897444619144
      ],
      [
        "record",
        -7.792031224835975
      ],
      [
        "interface",
        -7.792845888370412
      ],
      [
        "address",
        -7.796213145661564
      ],
      [
        "target",
        -7.799589859627835
      ],
      [
        "operation",
        -7.800303585377758
      ],
      [
        "header",
        -7.803892887426079
      ],
      [
        "vector",
        -7.804711456400852
      ],
      [
        "cell",
        -7.810562381986541
      ],
      [
        "manager",
        -7.813621850070453
      ],
      [
        "project",
        -7.814657671939392
      ],
      [
        "directory",
        -7.816743869001206
      ],
      [
        "show",
        -7.819254352340373
      ],
      [
        "box",
        -7.822403661103719
      ],
      [
        "mode",
        -7.828685023610358
      ],
      [
        "cache",
        -7.830616234490863
      ],
      [
        "load",
        -7.835687979697077
      ],
      [
        "2",
        -7.837372436503756
      ],
      [
        "indicate",
        -7.838033843590026
      ],
      [
        "local",
        -7.848650870875458
      ],
      [
        "task",
        -7.854214343350126
      ],
      [
        "flag",
        -7.857695834014329
      ],
      [
        "have",
        -7.861144816070132
      ],
      [
        "count",
        -7.864150096020715
      ],
      [
        "order",
        -7.864283015719401
      ],
      [
        "character",
        -7.870102795481861
      ],
      [
        "internal",
        -7.871483530395794
      ],
      [
        "generate",
        -7.883203509967016
      ],
      [
        "objects",
        -7.884531173007888
      ],
      [
        "k",
        -7.8891179586448565
      ],
      [
        "bean",
        -7.896343391074401
      ],
      [
        "copy",
        -7.9000446540483615
      ],
      [
        "override",
        -7.906378878656767
      ],
      [
        "ge",
        -7.911532745951401
      ],
      [
        "implement",
        -7.9143570784261605
      ],
      [
        "changes",
        -7.919467728350071
      ],
      [
        "player",
        -7.919592556534878
      ],
      [
        "access",
        -7.9241700438752005
      ],
      [
        "maximum",
        -7.934938958523876
      ],
      [
        "able",
        -7.944539444828832
      ],
      [
        "pane",
        -7.957497289093455
      ],
      [
        "print",
        -7.958368504898377
      ],
      [
        "control",
        -7.9610099222976825
      ],
      [
        "part",
        -7.965650190537485
      ],
      [
        "compare",
        -7.968786558854756
      ],
      [
        "statement",
        -7.97047466710511
      ],
      [
        "close",
        -7.972756241095464
      ],
      [
        "parse",
        -7.981956848207378
      ],
      [
        "editor",
        -7.982619953055863
      ],
      [
        "between",
        -7.985492138796822
      ],
      [
        "length",
        -7.9892446361746945
      ],
      [
        "elements",
        -7.995619806842454
      ],
      [
        "response",
        -7.9993340025574025
      ],
      [
        "open",
        -8.003936194291047
      ],
      [
        "base",
        -8.007505112637897
      ],
      [
        "width",
        -8.014546392239641
      ],
      [
        "thi",
        -8.016463317628308
      ],
      [
        "style",
        -8.021668968145548
      ],
      [
        "reset",
        -8.023457981472232
      ],
      [
        "changed",
        -8.038147951594054
      ],
      [
        "mouse",
        -8.041687194469285
      ],
      [
        "container",
        -8.047362698297587
      ],
      [
        "listeners",
        -8.048298592815161
      ],
      [
        "append",
        -8.052081073261041
      ],
      [
        "empty",
        -8.053200597486628
      ],
      [
        "link",
        -8.054824011271121
      ],
      [
        "factory",
        -8.05904656111272
      ],
      [
        "title",
        -8.060858847104347
      ],
      [
        "another",
        -8.060890893614815
      ],
      [
        "contains",
        -8.061461553253046
      ],
      [
        "range",
        -8.070570600137787
      ],
      [
        "calculate",
        -8.08782390015692
      ],
      [
        "single",
        -8.091986733208005
      ],
      [
        "unit",
        -8.092220507073177
      ],
      [
        "draw",
        -8.094057324108197
      ],
      [
        "represent",
        -8.0997596257579
      ],
      [
        "byte",
        -8.099868279882676
      ],
      [
        "integer",
        -8.102357774057579
      ],
      [
        "parameters",
        -8.110681617722708
      ],
      [
        "before",
        -8.113338841309249
      ],
      [
        "case",
        -8.120196287757208
      ],
      [
        "main",
        -8.127862340039806
      ],
      [
        "valid",
        -8.134279112746713
      ],
      [
        "ly",
        -8.146913081828785
      ],
      [
        "each",
        -8.16926943561564
      ],
      [
        "block",
        -8.172383068286535
      ],
      [
        "select",
        -8.172580785406762
      ],
      [
        "within",
        -8.179098990495326
      ],
      [
        "sequence",
        -8.18067308802416
      ],
      [
        "make",
        -8.181771741910586
      ],
      [
        "passed",
        -8.18911422439511
      ],
      [
        "where",
        -8.189171913477413
      ],
      [
        "token",
        -8.189947427939906
      ],
      [
        "active",
        -8.19563949610316
      ],
      [
        "invoked",
        -8.201814459146098
      ],
      [
        "being",
        -8.203763396985146
      ],
      [
        "0",
        -8.212245489372132
      ],
      [
        "boolean",
        -8.212577552681688
      ],
      [
        "items",
        -8.219973631382558
      ],
      [
        "port",
        -8.22032852984914
      ],
      [
        "writes",
        -8.222106813679135
      ],
      [
        "about",
        -8.222583547960449
      ],
      [
        "available",
        -8.233851155387123
      ],
      [
        "game",
        -8.236233513472097
      ],
      [
        "identifier",
        -8.239483931997315
      ],
      [
        "option",
        -8.240084872363079
      ],
      [
        "queue",
        -8.247545579742086
      ],
      [
        "corresponding",
        -8.252069154142049
      ],
      [
        "created",
        -8.25325930991279
      ],
      [
        "tree",
        -8.255124064648227
      ],
      [
        "font",
        -8.255192583631493
      ],
      [
        "nodes",
        -8.25524740595786
      ],
      [
        "transaction",
        -8.258619024094397
      ],
      [
        "end",
        -8.26303785037927
      ],
      [
        "equal",
        -8.26387019798745
      ],
      [
        "convenience",
        -8.265100104019243
      ],
      [
        "attributes",
        -8.266840404116062
      ],
      [
        "stack",
        -8.270872512524893
      ],
      [
        "sql",
        -8.271957500477711
      ],
      [
        "related",
        -8.277387931876032
      ],
      [
        "total",
        -8.279889632678998
      ],
      [
        "build",
        -8.280078169649316
      ],
      [
        "defined",
        -8.280969616204315
      ],
      [
        "clear",
        -8.28224978289164
      ],
      [
        "setting",
        -8.289854316207778
      ],
      [
        "argument",
        -8.289878281978893
      ],
      [
        "definition",
        -8.291747302161276
      ],
      [
        "screen",
        -8.300542456599024
      ],
      [
        "helper",
        -8.301698702730299
      ],
      [
        "tru",
        -8.315685261029357
      ],
      [
        "int",
        -8.317734700536489
      ],
      [
        "not",
        -8.319299026318207
      ],
      [
        "register",
        -8.31963195795206
      ],
      [
        "height",
        -8.321242243011682
      ],
      [
        "down",
        -8.328535548098836
      ],
      [
        "other",
        -8.328580304048423
      ],
      [
        "rule",
        -8.330158239258305
      ],
      [
        "matrix",
        -8.338756065305912
      ],
      [
        "over",
        -8.340101027342124
      ],
      [
        "root",
        -8.340842364591584
      ],
      [
        "comment",
        -8.341678900201243
      ],
      [
        "containin",
        -8.34422960754259
      ],
      [
        "events",
        -8.348323215288238
      ],
      [
        "icon",
        -8.350728713770318
      ],
      [
        "channel",
        -8.352972390211148
      ],
      [
        "children",
        -8.356383836500639
      ],
      [
        "required",
        -8.357415983205785
      ],
      [
        "move",
        -8.361757138068926
      ],
      [
        "send",
        -8.3668095699961
      ],
      [
        "receiver",
        -8.367646833113348
      ],
      [
        "layout",
        -8.36827074202753
      ],
      [
        "registered",
        -8.371120592816538
      ],
      [
        "match",
        -8.37177314928432
      ],
      [
        "visit",
        -8.371859787433152
      ],
      [
        "right",
        -8.373655303727556
      ],
      [
        "coordinate",
        -8.378516175392674
      ],
      [
        "reads",
        -8.382307737568414
      ],
      [
        "template",
        -8.384225668938189
      ],
      [
        "stop",
        -8.387190578504525
      ],
      [
        "run",
        -8.396136049697578
      ],
      [
        "html",
        -8.398705726218342
      ],
      [
        "stored",
        -8.39974092328778
      ],
      [
        "iterator",
        -8.399808000471626
      ],
      [
        "back",
        -8.412162156984971
      ],
      [
        "added",
        -8.413838589824827
      ],
      [
        "provide",
        -8.414898135638358
      ],
      [
        "pattern",
        -8.415735010306678
      ],
      [
        "underlying",
        -8.417710627416204
      ],
      [
        "ensure",
        -8.41778663036913
      ],
      [
        "bytes",
        -8.417964307811443
      ],
      [
        "enabled",
        -8.423902543976961
      ],
      [
        "clears",
        -8.425841258687178
      ],
      [
        "displayed",
        -8.42730270864384
      ],
      [
        "folder",
        -8.44068762255581
      ],
      [
        "package",
        -8.443870854509584
      ],
      [
        "provided",
        -8.444018664379723
      ],
      [
        "calls",
        -8.445161578879912
      ],
      [
        "password",
        -8.44542595732103
      ],
      [
        "exists",
        -8.448818590993074
      ],
      [
        "sub",
        -8.452908177424098
      ],
      [
        "files",
        -8.456534785846133
      ],
      [
        "notification",
        -8.456923856189512
      ],
      [
        "space",
        -8.467211406836531
      ],
      [
        "long",
        -8.468565497465484
      ],
      [
        "report",
        -8.471148767752569
      ],
      [
        "some",
        -8.472390520989759
      ],
      [
        "mapping",
        -8.482931137674633
      ],
      [
        "sends",
        -8.484742932636628
      ],
      [
        "are",
        -8.485571703302496
      ],
      [
        "background",
        -8.486984680685548
      ],
      [
        "accessor",
        -8.487424224113134
      ],
      [
        "double",
        -8.487474919944225
      ],
      [
        "max",
        -8.488046722833447
      ],
      [
        "module",
        -8.488474889556217
      ],
      [
        "contained",
        -8.493601347094579
      ],
      [
        "bar",
        -8.49361828196422
      ],
      [
        "hash",
        -8.501268462892892
      ],
      [
        "paint",
        -8.50656573455199
      ],
      [
        "simple",
        -8.507504788465015
      ],
      [
        "supported",
        -8.514254182022743
      ],
      [
        "offset",
        -8.516060191894129
      ],
      [
        "constraint",
        -8.516345494269622
      ],
      [
        "loads",
        -8.518260997105674
      ],
      [
        "supplie",
        -8.519879199320119
      ],
      [
        "there",
        -8.522685516886803
      ],
      [
        "minimum",
        -8.523288376466008
      ],
      [
        "axis",
        -8.526400725787274
      ],
      [
        "be",
        -8.529927756437532
      ],
      [
        "visible",
        -8.530029139711699
      ],
      [
        "scroll",
        -8.532016320927621
      ],
      [
        "has",
        -8.534264882602866
      ],
      [
        "device",
        -8.534874050762868
      ],
      [
        "closes",
        -8.538325217657674
      ],
      [
        "without",
        -8.540895831627275
      ],
      [
        "fields",
        -8.542203405157561
      ],
      [
        "subclasses",
        -8.542428511238704
      ],
      [
        "3",
        -8.546280980575597
      ],
      [
        "amount",
        -8.547477342672716
      ],
      [
        "controller",
        -8.552227254856923
      ],
      [
        "contents",
        -8.554152358940483
      ],
      [
        "standard",
        -8.558996170907765
      ],
      [
        "false",
        -8.561358758514553
      ],
      [
        "existing",
        -8.564069429704789
      ],
      [
        "domain",
        -8.568003744346916
      ],
      [
        "settings",
        -8.56888745992126
      ],
      [
        "initial",
        -8.571239757294654
      ],
      [
        "transform",
        -8.57316916866836
      ],
      [
        "prints",
        -8.577774546246712
      ],
      [
        "already",
        -8.581791319181105
      ],
      [
        "support",
        -8.583337761631526
      ],
      [
        "category",
        -8.583597896943175
      ],
      [
        "complete",
        -8.58378898302788
      ],
      [
        "initiliaze",
        -8.585095343072394
      ],
      [
        "pool",
        -8.586109161051253
      ],
      [
        "actual",
        -8.592323456878228
      ],
      [
        "widget",
        -8.595619269328598
      ],
      [
        "script",
        -8.605913135623126
      ],
      [
        "relative",
        -8.606424563443724
      ],
      [
        "body",
        -8.607567963076624
      ],
      [
        "se",
        -8.608204508888655
      ],
      [
        "edge",
        -8.614532092196413
      ],
      [
        "hat",
        -8.623309301071767
      ],
      [
        "area",
        -8.62528723215303
      ],
      [
        "extension",
        -8.626807447102479
      ],
      [
        "specifie",
        -8.627077911490971
      ],
      [
        "schema",
        -8.628838383970386
      ],
      [
        "accept",
        -8.632944974553565
      ],
      [
        "out",
        -8.633093922278647
      ],
      [
        "up",
        -8.635922825140447
      ],
      [
        "was",
        -8.639452919924317
      ],
      [
        "constructor",
        -8.645982018533836
      ],
      [
        "config",
        -8.647710868981413
      ],
      [
        "grid",
        -8.65133863304769
      ],
      [
        "through",
        -8.65172872014003
      ],
      [
        "random",
        -8.654830132752389
      ],
      [
        "notifies",
        -8.656493339900395
      ],
      [
        "member",
        -8.657022335890685
      ],
      [
        "begin",
        -8.657438368064664
      ],
      [
        "job",
        -8.65974303251948
      ],
      [
        "remote",
        -8.661687005382841
      ],
      [
        "clone",
        -8.664904289017631
      ],
      [
        "callback",
        -8.667094479260431
      ],
      [
        "adapte",
        -8.667402706017352
      ],
      [
        "plugin",
        -8.676970848750376
      ],
      [
        "namespace",
        -8.678651252636678
      ],
      [
        "according",
        -8.680381541089815
      ],
      [
        "must",
        -8.682236223593398
      ],
      [
        "starts",
        -8.685856509210197
      ],
      [
        "options",
        -8.688459328133554
      ],
      [
        "mark",
        -8.689478071400178
      ],
      [
        "rows",
        -8.69062951020505
      ],
      [
        "agent",
        -8.693962756933773
      ],
      [
        "constant",
        -8.69593640711798
      ],
      [
        "just",
        -8.703243918677419
      ],
      [
        "unique",
        -8.706067783942919
      ],
      [
        "cursor",
        -8.713607298299832
      ],
      [
        "layer",
        -8.7149839957856
      ],
      [
        "resources",
        -8.715288701304162
      ],
      [
        "language",
        -8.71683963955023
      ],
      [
        "click",
        -8.720124482078324
      ],
      [
        "cancel",
        -8.720767592944394
      ],
      [
        "account",
        -8.721531710927236
      ],
      [
        "z",
        -8.723722731088655
      ],
      [
        "here",
        -8.729094527351295
      ],
      [
        "packet",
        -8.73064512097771
      ],
      [
        "instruction",
        -8.731580436006654
      ],
      [
        "obtain",
        -8.732072696951997
      ],
      [
        "gui",
        -8.733943699064737
      ],
      [
        "disable",
        -8.73715473575092
      ],
      [
        "validate",
        -8.737245245641011
      ],
      [
        "full",
        -8.737469286966121
      ],
      [
        "entries",
        -8.738919452521824
      ],
      [
        "found",
        -8.741541181729351
      ],
      [
        "notify",
        -8.742594462523535
      ],
      [
        "left",
        -8.742721465660708
      ],
      [
        "particular",
        -8.744293227818803
      ],
      [
        "one",
        -8.747303224492507
      ],
      [
        "term",
        -8.748644827136165
      ],
      [
        "condition",
        -8.749059024272764
      ],
      [
        "structure",
        -8.750942907284122
      ],
      [
        "work",
        -8.751109417102345
      ],
      [
        "previous",
        -8.754504921497317
      ],
      [
        "network",
        -8.756231068478986
      ],
      [
        "focus",
        -8.762599857475529
      ],
      [
        "processing",
        -8.762655151913306
      ],
      [
        "short",
        -8.762763417430811
      ],
      [
        "product",
        -8.764009326050612
      ],
      [
        "components",
        -8.764642992143356
      ],
      [
        "http",
        -8.765172159371906
      ],
      [
        "allow",
        -8.774206681151027
      ],
      [
        "receive",
        -8.774740972734413
      ],
      [
        "coordinates",
        -8.77841627943725
      ],
      [
        "optional",
        -8.782870644206403
      ],
      [
        "distance",
        -8.785190070144575
      ],
      [
        "contain",
        -8.789351282293493
      ],
      [
        "execution",
        -8.790793436031604
      ],
      [
        "card",
        -8.791545575932165
      ],
      [
        "prefix",
        -8.798988750873095
      ],
      [
        "annotation",
        -8.799462759374462
      ],
      [
        "ame",
        -8.801956773228786
      ],
      [
        "your",
        -8.805192130161402
      ],
      [
        "presse",
        -8.806231821619972
      ],
      [
        "custom",
        -8.80781323803977
      ],
      [
        "equality",
        -8.819247477198925
      ],
      [
        "modified",
        -8.821120645342026
      ],
      [
        "repository",
        -8.822563052368068
      ],
      [
        "tool",
        -8.82956642678078
      ],
      [
        "memory",
        -8.830475653267007
      ],
      [
        "describe",
        -8.830639864730093
      ],
      [
        "appropriate",
        -8.834074142618007
      ],
      [
        "progress",
        -8.836132349086062
      ],
      [
        "operator",
        -8.836836454486347
      ],
      [
        "socket",
        -8.837748381057557
      ],
      [
        "uri",
        -8.838901042112104
      ],
      [
        "role",
        -8.839113425077715
      ],
      [
        "section",
        -8.839762773010087
      ],
      [
        "direction",
        -8.84269997844733
      ],
      [
        "shape",
        -8.843170241130084
      ],
      [
        "needed",
        -8.845967480491796
      ],
      [
        "edit",
        -8.848379463288227
      ],
      [
        "word",
        -8.849767361461815
      ],
      [
        "shows",
        -8.859697440863588
      ],
      [
        "render",
        -8.8598129383828
      ],
      [
        "ets",
        -8.859982442250281
      ],
      [
        "but",
        -8.860484006553001
      ],
      [
        "contact",
        -8.862982961979396
      ],
      [
        "allowed",
        -8.863223819001764
      ],
      [
        "id",
        -8.863431768593589
      ],
      [
        "interval",
        -8.86878587027688
      ],
      [
        "bound",
        -8.87336425826092
      ],
      [
        "extract",
        -8.874098702027682
      ],
      [
        "viewer",
        -8.874774272335983
      ],
      [
        "starting",
        -8.87998897370375
      ],
      [
        "activity",
        -8.880004651266225
      ],
      [
        "provider",
        -8.88110491260596
      ],
      [
        "give",
        -8.88187606888181
      ],
      [
        "profile",
        -8.883245153784124
      ],
      [
        "servlet",
        -8.883479693640183
      ],
      [
        "connect",
        -8.883940280504941
      ],
      [
        "rectangle",
        -8.888830925005767
      ],
      [
        "running",
        -8.89297711456277
      ],
      [
        "tag",
        -8.899416522144572
      ],
      [
        "border",
        -8.90108555719258
      ],
      [
        "parser",
        -8.90318481846849
      ],
      [
        "login",
        -8.903280519154325
      ],
      [
        "correct",
        -8.905661352611112
      ],
      [
        "validation",
        -8.905725276239533
      ],
      [
        "fixture",
        -8.909273603207723
      ],
      [
        "tha",
        -8.914484145381193
      ],
      [
        "proxy",
        -8.918624561410063
      ],
      [
        "place",
        -8.920097203671919
      ],
      [
        "series",
        -8.920482508160235
      ],
      [
        "pair",
        -8.92174783651523
      ],
      [
        "results",
        -8.92237618974426
      ],
      [
        "classes",
        -8.928923486201072
      ],
      [
        "replace",
        -8.931018274364718
      ],
      [
        "post",
        -8.937674061163655
      ],
      [
        "metadata",
        -8.941094388477843
      ],
      [
        "char",
        -8.946233471912677
      ],
      [
        "uring",
        -8.947632697423206
      ],
      [
        "present",
        -8.952923389557565
      ],
      [
        "float",
        -8.954726662159604
      ],
      [
        "enable",
        -8.95767389108774
      ],
      [
        "doc",
        -8.960846266275876
      ],
      [
        "history",
        -8.964465872680528
      ],
      [
        "sample",
        -8.966322910087527
      ],
      [
        "characters",
        -8.9675663165114
      ],
      [
        "tab",
        -8.968003948636074
      ],
      [
        "ation",
        -8.96922964370846
      ],
      [
        "parses",
        -8.970287759241575
      ],
      [
        "at",
        -8.971878145406329
      ],
      [
        "points",
        -8.972223610242569
      ],
      [
        "combo",
        -8.972461945980228
      ],
      [
        "global",
        -8.974487104786832
      ],
      [
        "valu",
        -8.974528926238957
      ],
      [
        "destination",
        -8.976030211235132
      ],
      [
        "throws",
        -8.977514219767393
      ],
      [
        "public",
        -8.978911619984121
      ],
      [
        "makes",
        -8.97912929944913
      ],
      [
        "reader",
        -8.980073641289936
      ],
      [
        "scale",
        -8.980709638183507
      ],
      [
        "scope",
        -8.981569056118687
      ],
      [
        "original",
        -8.985250185653744
      ],
      [
        "primary",
        -8.98528301787345
      ],
      [
        "allows",
        -8.985801006290991
      ],
      [
        "copie",
        -8.986871256394323
      ],
      [
        "wrapper",
        -8.98960098589724
      ],
      [
        "vertex",
        -8.991590100353413
      ],
      [
        "apply",
        -8.995646217094711
      ],
      [
        "indicat",
        -8.996482417461454
      ],
      [
        "refresh",
        -8.996745366142438
      ],
      [
        "forward",
        -9.00800664156031
      ],
      [
        "web",
        -9.008883055065425
      ],
      [
        "cod",
        -9.009839259136022
      ],
      [
        "popup",
        -9.011196607322404
      ],
      [
        "messages",
        -9.011576945050848
      ],
      [
        "users",
        -9.01290166590773
      ],
      [
        "moves",
        -9.014468445334895
      ],
      [
        "email",
        -9.014654203808032
      ],
      [
        "bundle",
        -9.018845209233728
      ],
      [
        "writer",
        -9.022073446139203
      ],
      [
        "ext",
        -9.02243515048771
      ],
      [
        "our",
        -9.023257874960187
      ],
      [
        "compute",
        -9.024263013070996
      ],
      [
        "wait",
        -9.025689242185177
      ],
      [
        "look",
        -9.026826492170443
      ],
      [
        "answer",
        -9.027867318617577
      ],
      [
        "basic",
        -9.029996153684719
      ],
      [
        "necessar",
        -9.031659411185807
      ],
      [
        "zero",
        -9.032192208293111
      ],
      [
        "engine",
        -9.033549453146861
      ],
      [
        "algorithm",
        -9.039943414272013
      ],
      [
        "names",
        -9.042394844579452
      ],
      [
        "registers",
        -9.043617183092339
      ],
      [
        "loaded",
        -9.044110547604083
      ],
      [
        "matche",
        -9.048698607592208
      ],
      [
        "program",
        -9.051577726367164
      ],
      [
        "nd",
        -9.052611706101
      ],
      [
        "q",
        -9.052694828553713
      ],
      [
        "initialization",
        -9.053775036477465
      ],
      [
        "abstract",
        -9.054479092643723
      ],
      [
        "how",
        -9.054709334038398
      ],
      [
        "describ",
        -9.054851013102798
      ],
      [
        "possible",
        -9.055020254907348
      ],
      [
        "help",
        -9.056081438612305
      ],
      [
        "lock",
        -9.058531410610593
      ],
      [
        "increment",
        -9.05999197980827
      ],
      [
        "two",
        -9.061349237670846
      ],
      [
        "segment",
        -9.061445647473295
      ],
      [
        "second",
        -9.062149589549989
      ],
      [
        "center",
        -9.065271512076873
      ],
      [
        "declaration",
        -9.065805582801723
      ],
      [
        "visitor",
        -9.070122063328988
      ],
      [
        "variables",
        -9.070127401067014
      ],
      [
        "drop",
        -9.072211434608867
      ],
      [
        "received",
        -9.077351742486577
      ],
      [
        "columns",
        -9.077464316975025
      ],
      [
        "setup",
        -9.080848250465667
      ],
      [
        "protocol",
        -9.081938163411051
      ],
      [
        "matching",
        -9.08242854515813
      ],
      [
        "symbol",
        -9.082573642359268
      ],
      [
        "assign",
        -9.086769488726013
      ],
      [
        "displays",
        -9.087473553644868
      ],
      [
        "assert",
        -9.087885233870454
      ],
      [
        "score",
        -9.090249471055756
      ],
      [
        "does",
        -9.093139479019932
      ],
      [
        "creation",
        -9.093984382458906
      ],
      [
        "re",
        -9.094574804260933
      ],
      [
        "external",
        -9.095143507707268
      ],
      [
        "mail",
        -9.096633984142022
      ],
      [
        "utility",
        -9.096643151408019
      ],
      [
        "person",
        -9.098813462751933
      ],
      [
        "debug",
        -9.101343866070202
      ],
      [
        "meta",
        -9.104462556304242
      ],
      [
        "filename",
        -9.105533059806827
      ],
      [
        "step",
        -9.108894447345332
      ],
      [
        "region",
        -9.109226759455296
      ],
      [
        "you",
        -9.110097141623793
      ],
      [
        "computes",
        -9.111326715261338
      ],
      [
        "delegate",
        -9.112562576559096
      ],
      [
        "alway",
        -9.1141772706119
      ],
      [
        "init",
        -9.115384798657887
      ],
      [
        "import",
        -9.117062262796725
      ],
      [
        "renderer",
        -9.119381704722237
      ],
      [
        "include",
        -9.120574272663212
      ],
      [
        "binding",
        -9.1338514601854
      ],
      [
        "release",
        -9.135275095861367
      ],
      [
        "fire",
        -9.135304500828044
      ],
      [
        "their",
        -9.13780127987312
      ],
      [
        "fill",
        -9.138107383347197
      ],
      [
        "configure",
        -9.142364595406224
      ],
      [
        "activate",
        -9.14342068481239
      ],
      [
        "storage",
        -9.14933259443437
      ],
      [
        "relation",
        -9.149968724038583
      ],
      [
        "bounds",
        -9.153957398438976
      ],
      [
        "track",
        -9.158219938706825
      ],
      [
        "adding",
        -9.17523989175297
      ],
      [
        "4",
        -9.185536261861463
      ],
      [
        "identifie",
        -9.186965054648027
      ],
      [
        "limit",
        -9.188034815487194
      ],
      [
        "builder",
        -9.188748705202876
      ],
      [
        "separator",
        -9.189566432115555
      ],
      [
        "represents",
        -9.191916483647033
      ],
      [
        "arguments",
        -9.193738436170822
      ],
      [
        "until",
        -9.194546167719295
      ],
      [
        "occur",
        -9.196739295812677
      ],
      [
        "private",
        -9.199212718452598
      ],
      [
        "inside",
        -9.201690317521262
      ],
      [
        "every",
        -9.202381927511592
      ],
      [
        "encode",
        -9.20543479688618
      ],
      [
        "what",
        -9.20584495121734
      ],
      [
        "notifications",
        -9.205860901167481
      ],
      [
        "previousl",
        -9.206606276068634
      ],
      [
        "cluster",
        -9.206640954753855
      ],
      [
        "creat",
        -9.206834848829532
      ],
      [
        "specify",
        -9.206899013971451
      ],
      [
        "same",
        -9.207160381578973
      ],
      [
        "more",
        -9.208156305322705
      ],
      [
        "factor",
        -9.208162783459027
      ],
      [
        "connected",
        -9.20925062447698
      ],
      [
        "includin",
        -9.210360977917787
      ],
      [
        "wizard",
        -9.212149265352412
      ],
      [
        "environment",
        -9.212482816222462
      ],
      [
        "validates",
        -9.213038547211877
      ],
      [
        "export",
        -9.213505227154801
      ],
      [
        "persistent",
        -9.21378828629982
      ],
      [
        "stops",
        -9.215582783095325
      ],
      [
        "preferre",
        -9.215880774837022
      ],
      [
        "builds",
        -9.217053472023268
      ],
      [
        "configured",
        -9.220792900020474
      ],
      [
        "under",
        -9.22163476180081
      ],
      [
        "generic",
        -9.22168899363104
      ],
      [
        "designate",
        -9.226430866450917
      ],
      [
        "horizontal",
        -9.227500847757927
      ],
      [
        "defines",
        -9.228517496236368
      ],
      [
        "millisecond",
        -9.230441851382295
      ],
      [
        "board",
        -9.23196968676586
      ],
      [
        "put",
        -9.232849642911791
      ],
      [
        "vertical",
        -9.233896840495792
      ],
      [
        "getting",
        -9.234055641200044
      ],
      [
        "processes",
        -9.235777305689304
      ],
      [
        "lookup",
        -9.237767312212174
      ],
      [
        "named",
        -9.23783394114291
      ],
      [
        "closed",
        -9.238235012873819
      ],
      [
        "encoding",
        -9.240031294868341
      ],
      [
        "actions",
        -9.2451711097356
      ],
      [
        "enumeration",
        -9.246490527036059
      ],
      [
        "construct",
        -9.246533298034478
      ],
      [
        "owner",
        -9.249080545979737
      ],
      [
        "force",
        -9.249942117315818
      ],
      [
        "trace",
        -9.254572732066134
      ],
      [
        "cause",
        -9.255965330278965
      ],
      [
        "policy",
        -9.258049320695935
      ],
      [
        "restore",
        -9.259113543572106
      ],
      [
        "drawing",
        -9.25961979541736
      ],
      [
        "serialize",
        -9.26017823520599
      ],
      [
        "populate",
        -9.260578817052105
      ],
      [
        "period",
        -9.26381406054021
      ],
      [
        "chart",
        -9.267541754418204
      ],
      [
        "multi",
        -9.268765045635282
      ],
      [
        "media",
        -9.270714003184644
      ],
      [
        "performed",
        -9.275954799938027
      ],
      [
        "as",
        -9.27606694798537
      ],
      [
        "records",
        -9.276575506281635
      ],
      [
        "dataset",
        -9.280619569885726
      ],
      [
        "normal",
        -9.281718768831357
      ],
      [
        "certain",
        -9.282004214636355
      ],
      [
        "applies",
        -9.283084824520042
      ],
      [
        "duration",
        -9.283156259084457
      ],
      [
        "against",
        -9.285023507964432
      ],
      [
        "additional",
        -9.287588687280296
      ],
      [
        "different",
        -9.287668412342642
      ],
      [
        "cached",
        -9.288215685435812
      ],
      [
        "may",
        -9.28982518620008
      ],
      [
        "loading",
        -9.298149916182322
      ],
      [
        "calendar",
        -9.299303687279615
      ],
      [
        "selector",
        -9.299382846209355
      ],
      [
        "methods",
        -9.300091550570851
      ],
      [
        "canvas",
        -9.30046054353611
      ],
      [
        "overridden",
        -9.301509254509742
      ],
      [
        "animation",
        -9.304683180299268
      ],
      [
        "formatted",
        -9.305059297224801
      ],
      [
        "opens",
        -9.30744395268648
      ],
      [
        "join",
        -9.310385973935023
      ],
      [
        "figure",
        -9.311001025974761
      ],
      [
        "day",
        -9.311014474270142
      ],
      [
        "exist",
        -9.311935166332256
      ],
      [
        "pass",
        -9.313151452887702
      ],
      [
        "enables",
        -9.313408146307713
      ],
      [
        "weight",
        -9.31346162120624
      ],
      [
        "browser",
        -9.313600299299189
      ],
      [
        "parsing",
        -9.314268395595272
      ],
      [
        "static",
        -9.31449891619038
      ],
      [
        "signature",
        -9.314906139531349
      ],
      [
        "counter",
        -9.315147874127216
      ],
      [
        "preference",
        -9.315378095014736
      ],
      [
        "purpose",
        -9.318269461569585
      ],
      [
        "timeout",
        -9.318484602814745
      ],
      [
        "expected",
        -9.321595199594496
      ],
      [
        "ending",
        -9.32392191852185
      ],
      [
        "warning",
        -9.32421364358651
      ],
      [
        "constructs",
        -9.325144366312756
      ],
      [
        "whose",
        -9.326554055459123
      ],
      [
        "pixel",
        -9.327346764575616
      ],
      [
        "since",
        -9.327747228454545
      ],
      [
        "multiple",
        -9.33036073585793
      ],
      [
        "dispose",
        -9.330455084328204
      ],
      [
        "turn",
        -9.333164350853924
      ],
      [
        "exit",
        -9.333779223112046
      ],
      [
        "graphics",
        -9.333828060747138
      ],
      [
        "generator",
        -9.338549097020964
      ],
      [
        "loop",
        -9.33855001857111
      ],
      [
        "individual",
        -9.33950072832316
      ],
      [
        "automaticall",
        -9.3395182108997
      ],
      [
        "priority",
        -9.340102372064631
      ],
      [
        "replaces",
        -9.341707110554713
      ],
      [
        "absolute",
        -9.342948769796898
      ],
      [
        "fetch",
        -9.344887036354688
      ],
      [
        "clause",
        -9.34534584878956
      ],
      [
        "timer",
        -9.348084530620408
      ],
      [
        "listen",
        -9.350696829462267
      ],
      [
        "dimension",
        -9.35110928034032
      ],
      [
        "removed",
        -9.351837715924475
      ],
      [
        "details",
        -9.351873568595863
      ],
      [
        "transition",
        -9.351961430269446
      ],
      [
        "est",
        -9.353940011235453
      ],
      [
        "month",
        -9.354988607726469
      ],
      [
        "transfer",
        -9.355793504323433
      ],
      [
        "zoom",
        -9.356105241793221
      ],
      [
        "ed",
        -9.356411178767118
      ],
      [
        "pointer",
        -9.356445154178406
      ],
      [
        "preferences",
        -9.35808519227239
      ],
      [
        "switch",
        -9.358269683725634
      ],
      [
        "composite",
        -9.360111716307294
      ],
      [
        "security",
        -9.361213910676481
      ],
      [
        "driver",
        -9.361263239725101
      ],
      [
        "initializ",
        -9.361682691510921
      ],
      [
        "like",
        -9.361735472106147
      ],
      [
        "special",
        -9.363391913695285
      ],
      [
        "lines",
        -9.364542576511038
      ],
      [
        "angle",
        -9.367073149986503
      ],
      [
        "registry",
        -9.367220114163073
      ],
      [
        "binary",
        -9.370696194958377
      ],
      [
        "verifies",
        -9.37367945784614
      ],
      [
        "example",
        -9.376241534962912
      ],
      [
        "super",
        -9.376243422028102
      ],
      [
        "monitor",
        -9.377326743022632
      ],
      [
        "commit",
        -9.378254038256284
      ],
      [
        "verify",
        -9.378931562536032
      ],
      [
        "tells",
        -9.38246604421717
      ],
      [
        "invoke",
        -9.384818526329575
      ],
      [
        "flow",
        -9.38482515706819
      ],
      [
        "remov",
        -9.38599704722115
      ],
      [
        "inform",
        -9.386336806076443
      ],
      [
        "primitive",
        -9.389992983485175
      ],
      [
        "destroy",
        -9.39016015515352
      ],
      [
        "timestamp",
        -9.39065528039729
      ],
      [
        "reason",
        -9.391355289089933
      ],
      [
        "ha",
        -9.391989945706614
      ],
      [
        "types",
        -9.394914935268572
      ],
      [
        "subject",
        -9.39626543335723
      ],
      [
        "fires",
        -9.397696711978275
      ],
      [
        "resolve",
        -9.398758461592259
      ],
      [
        "permission",
        -9.39938764218137
      ],
      [
        "prepare",
        -9.399655914651623
      ],
      [
        "receivers",
        -9.400154679468901
      ],
      [
        "equals",
        -9.402951673940924
      ],
      [
        "undo",
        -9.40497192880461
      ],
      [
        "world",
        -9.40587995278936
      ],
      [
        "processor",
        -9.409658036684625
      ],
      [
        "clean",
        -9.410317311463547
      ],
      [
        "otherwise",
        -9.410518182673464
      ],
      [
        "texture",
        -9.41504678175811
      ],
      [
        "concept",
        -9.41782221681056
      ],
      [
        "year",
        -9.420522985899812
      ],
      [
        "ar",
        -9.421778925702451
      ],
      [
        "rules",
        -9.423795415888438
      ],
      [
        "download",
        -9.423920045991721
      ],
      [
        "endpoint",
        -9.424853588970953
      ],
      [
        "many",
        -9.432763823956403
      ],
      [
        "loader",
        -9.435681395652878
      ],
      [
        "sure",
        -9.436986280534597
      ],
      [
        "debuggin",
        -9.437801891829107
      ],
      [
        "tes",
        -9.437929303147346
      ],
      [
        "username",
        -9.43865447894805
      ],
      [
        "com",
        -9.438665641265253
      ],
      [
        "wrapped",
        -9.440125706449832
      ],
      [
        "esting",
        -9.441395602833367
      ],
      [
        "topic",
        -9.442396587343902
      ],
      [
        "play",
        -9.442602918556336
      ],
      [
        "define",
        -9.443907046362979
      ],
      [
        "runs",
        -9.445792268285185
      ],
      [
        "association",
        -9.449781645033767
      ],
      [
        "observer",
        -9.45094886947647
      ],
      [
        "logger",
        -9.452310280103626
      ],
      [
        "iteration",
        -9.452495475415521
      ],
      [
        "rendering",
        -9.454026926920285
      ],
      [
        "real",
        -9.454775396811115
      ],
      [
        "managed",
        -9.455390138573673
      ],
      [
        "audio",
        -9.457283870270143
      ],
      [
        "modify",
        -9.462925119884769
      ],
      [
        "controls",
        -9.465452439649406
      ],
      [
        "behavior",
        -9.465813431662
      ],
      [
        "selects",
        -9.468101719262993
      ],
      [
        "question",
        -9.472105801088286
      ],
      [
        "transformation",
        -9.472664402223401
      ],
      [
        "param",
        -9.472924969154414
      ],
      [
        "hold",
        -9.48103012191888
      ],
      [
        "finished",
        -9.48124523185363
      ],
      [
        "speed",
        -9.48239279632141
      ],
      [
        "known",
        -9.482952055669799
      ],
      [
        "split",
        -9.483410209464543
      ],
      [
        "simulation",
        -9.48399034073745
      ],
      [
        "locale",
        -9.487639425577896
      ],
      [
        "visual",
        -9.487840134508044
      ],
      [
        "admin",
        -9.490563808048474
      ],
      [
        "literal",
        -9.491451133523075
      ],
      [
        "issue",
        -9.49300859704335
      ],
      [
        "summary",
        -9.494722599067423
      ],
      [
        "bind",
        -9.495222450596497
      ],
      [
        "saved",
        -9.496181232609786
      ],
      [
        "dictionary",
        -9.497048924399607
      ],
      [
        "schedule",
        -9.500070495440829
      ],
      [
        "criteria",
        -9.501929237730508
      ],
      [
        "distribution",
        -9.503741961402799
      ],
      [
        "library",
        -9.50405375623031
      ],
      [
        "choice",
        -9.504174705134329
      ],
      [
        "drag",
        -9.506814844996807
      ],
      [
        "junit",
        -9.50690596539442
      ],
      [
        "evaluate",
        -9.507776092802308
      ],
      [
        "marker",
        -9.508601135858546
      ],
      [
        "ither",
        -9.510354281798936
      ],
      [
        "assigned",
        -9.510492492092375
      ],
      [
        "common",
        -9.514779042550694
      ],
      [
        "alias",
        -9.515911077192122
      ],
      [
        "readable",
        -9.516692253534526
      ],
      [
        "num",
        -9.519810949276911
      ],
      [
        "dat",
        -9.523377416872039
      ],
      [
        "initialise",
        -9.523914108241495
      ],
      [
        "alignment",
        -9.52393381718408
      ],
      [
        "upper",
        -9.52441227326417
      ],
      [
        "qualified",
        -9.525128870202746
      ],
      [
        "lower",
        -9.525143286487378
      ],
      [
        "radio",
        -9.528111632820602
      ],
      [
        "ally",
        -9.52947587945457
      ],
      [
        "nested",
        -9.530910388222399
      ],
      [
        "reply",
        -9.531006582014587
      ],
      [
        "pixels",
        -9.532202145408332
      ],
      [
        "authentication",
        -9.534421224886888
      ],
      [
        "invalid",
        -9.53708881076307
      ],
      [
        "missing",
        -9.537498358138322
      ],
      [
        "reading",
        -9.537705128454418
      ],
      [
        "fragment",
        -9.53808313390208
      ],
      [
        "working",
        -9.53920824850405
      ],
      [
        "camera",
        -9.542776809820925
      ],
      [
        "throw",
        -9.54279972981146
      ],
      [
        "virtual",
        -9.54541563789385
      ],
      [
        "following",
        -9.547055421294221
      ],
      [
        "machine",
        -9.548353201932144
      ],
      [
        "dom",
        -9.550348341169473
      ],
      [
        "customer",
        -9.552560331802223
      ],
      [
        "signal",
        -9.55287267902144
      ],
      [
        "loggin",
        -9.557308525035776
      ],
      [
        "produce",
        -9.558814630110112
      ],
      [
        "units",
        -9.56017272428999
      ],
      [
        "specification",
        -9.561785454735684
      ],
      [
        "keys",
        -9.56692142995188
      ],
      [
        "directl",
        -9.569545319477037
      ],
      [
        "sort",
        -9.573652740627576
      ],
      [
        "business",
        -9.574352257487826
      ],
      [
        "json",
        -9.574683168549857
      ],
      [
        "detail",
        -9.575851716730362
      ],
      [
        "rotation",
        -9.581323380339699
      ],
      [
        "responsible",
        -9.582102075584942
      ],
      [
        "depending",
        -9.582383014117958
      ],
      [
        "disk",
        -9.582657861795642
      ],
      [
        "depth",
        -9.582758762133505
      ],
      [
        "incoming",
        -9.582893327626142
      ],
      [
        "takes",
        -9.586091821358444
      ],
      [
        "belongs",
        -9.586656361691068
      ],
      [
        "shown",
        -9.589393549746847
      ],
      [
        "declare",
        -9.589871065557883
      ],
      [
        "modification",
        -9.590714895347087
      ],
      [
        "mutator",
        -9.590876552698134
      ],
      [
        "al",
        -9.591377097160617
      ],
      [
        "trigger",
        -9.595187780350328
      ],
      [
        "editing",
        -9.59577801978331
      ],
      [
        "jdbc",
        -9.595969826394425
      ],
      [
        "most",
        -9.598882194627015
      ],
      [
        "complex",
        -9.600299681934363
      ],
      [
        "visibility",
        -9.601927604882558
      ],
      [
        "becaus",
        -9.603848065392784
      ],
      [
        "toggle",
        -9.604885439501318
      ],
      [
        "seconds",
        -9.605028505786635
      ],
      [
        "min",
        -9.605697124034815
      ],
      [
        "bottom",
        -9.605725536241291
      ],
      [
        "terminate",
        -9.606317540580116
      ],
      [
        "decimal",
        -9.60879860602417
      ],
      [
        "per",
        -9.609924080886818
      ],
      [
        "effect",
        -9.610214340579226
      ],
      [
        "attempts",
        -9.610354079631227
      ],
      [
        "bounding",
        -9.612302730395148
      ],
      [
        "determin",
        -9.61372452897693
      ],
      [
        "fills",
        -9.613830263320736
      ],
      [
        "et",
        -9.6166382923013
      ],
      [
        "buttons",
        -9.617146087863151
      ],
      [
        "native",
        -9.619909250727638
      ],
      [
        "entire",
        -9.620614292364824
      ],
      [
        "attempt",
        -9.627773147957507
      ],
      [
        "piece",
        -9.628428720792478
      ],
      [
        "temporary",
        -9.631897774486054
      ],
      [
        "shared",
        -9.632234945159581
      ],
      [
        "ever",
        -9.633274533020845
      ],
      [
        "sound",
        -9.63350891510942
      ],
      [
        "price",
        -9.633826430427156
      ],
      [
        "beginning",
        -9.636784608651123
      ],
      [
        "occurrence",
        -9.640546597301412
      ],
      [
        "human",
        -9.641123885239868
      ],
      [
        "stat",
        -9.642225649367138
      ],
      [
        "console",
        -9.64253539824265
      ],
      [
        "translation",
        -9.643166070703266
      ],
      [
        "round",
        -9.64461619943109
      ],
      [
        "author",
        -9.645943795240006
      ],
      [
        "batch",
        -9.649377816539836
      ],
      [
        "delay",
        -9.650030568049257
      ],
      [
        "shutdown",
        -9.650832942104877
      ],
      [
        "whil",
        -9.653608721163799
      ],
      [
        "mapped",
        -9.658419695830638
      ],
      [
        "tries",
        -9.659670467486865
      ],
      [
        "identity",
        -9.660183541284454
      ],
      [
        "plot",
        -9.660194353847707
      ],
      [
        "final",
        -9.664882087965962
      ],
      [
        "archive",
        -9.665605430096981
      ],
      [
        "metric",
        -9.665708856396392
      ],
      [
        "install",
        -9.66603502140405
      ],
      [
        "want",
        -9.669451022824529
      ],
      [
        "room",
        -9.671722246954811
      ],
      [
        "ther",
        -9.672630486127899
      ],
      [
        "toolbar",
        -9.673323637522177
      ],
      [
        "disconnect",
        -9.67351510287708
      ],
      [
        "plan",
        -9.67586922246367
      ],
      [
        "applet",
        -9.678602948396144
      ],
      [
        "instantiate",
        -9.68009344296441
      ],
      [
        "inner",
        -9.682154976502641
      ],
      [
        "foreground",
        -9.683371711254036
      ],
      [
        "book",
        -9.683494158517128
      ],
      [
        "diagram",
        -9.685647701127806
      ],
      [
        "enter",
        -9.68748326258531
      ],
      [
        "void",
        -9.688066586400572
      ],
      [
        "cookie",
        -9.689719739606751
      ],
      [
        "written",
        -9.691453016452867
      ],
      [
        "puts",
        -9.692699875267245
      ],
      [
        "itself",
        -9.692775170458068
      ],
      [
        "5",
        -9.696924440465281
      ],
      [
        "interest",
        -9.698805912746323
      ],
      [
        "objec",
        -9.700633615911112
      ],
      [
        "catalog",
        -9.70429802005897
      ],
      [
        "kind",
        -9.704308871071015
      ],
      [
        "such",
        -9.705444638633901
      ],
      [
        "equivalent",
        -9.705754342349438
      ],
      [
        "checking",
        -9.706806481654036
      ],
      [
        "chain",
        -9.708695696228176
      ],
      [
        "entities",
        -9.709661628359697
      ],
      [
        "side",
        -9.710928504623341
      ],
      [
        "correctl",
        -9.710960446730272
      ],
      [
        "doesn",
        -9.711677380398225
      ],
      [
        "thing",
        -9.712586769059403
      ],
      [
        "scene",
        -9.713926590321861
      ],
      [
        "whole",
        -9.716932467583316
      ],
      [
        "players",
        -9.721269579254
      ],
      [
        "zone",
        -9.721543775107424
      ],
      [
        "statistics",
        -9.72207692330538
      ],
      [
        "hook",
        -9.722207666375844
      ],
      [
        "phase",
        -9.722665180907951
      ],
      [
        "app",
        -9.724060721912842
      ],
      [
        "activation",
        -9.724499288943132
      ],
      [
        "usage",
        -9.725641261288143
      ],
      [
        "failure",
        -9.725761065913218
      ],
      [
        "core",
        -9.726534643120228
      ],
      [
        "adjust",
        -9.726875071548141
      ],
      [
        "predicate",
        -9.727651799014213
      ],
      [
        "recent",
        -9.72950549148403
      ],
      [
        "generation",
        -9.730157007705571
      ],
      [
        "way",
        -9.730510521498815
      ],
      [
        "attachment",
        -9.730672969731241
      ],
      [
        "procedure",
        -9.732326101250223
      ],
      [
        "conversion",
        -9.733313197032459
      ],
      [
        "average",
        -9.735976804104201
      ],
      [
        "increase",
        -9.737454351339547
      ],
      [
        "dynamic",
        -9.737833472646841
      ],
      [
        "upload",
        -9.73843314862949
      ],
      [
        "fil",
        -9.738439845092728
      ],
      [
        "top",
        -9.73885854949824
      ],
      [
        "resize",
        -9.739693286324133
      ],
      [
        "writing",
        -9.740716322909648
      ],
      [
        "references",
        -9.740902732259702
      ],
      [
        "plug",
        -9.741559342604809
      ],
      [
        "finish",
        -9.741838287730157
      ],
      [
        "mime",
        -9.742231744650361
      ],
      [
        "handlin",
        -9.74470206946583
      ],
      [
        "chunk",
        -9.745523518375753
      ],
      [
        "actor",
        -9.746803812985984
      ],
      [
        "host",
        -9.747227626643726
      ],
      [
        "expand",
        -9.747367152271392
      ],
      [
        "fixed",
        -9.747703995107347
      ],
      [
        "wrap",
        -9.74958812522175
      ],
      [
        "classifier",
        -9.756627771232404
      ],
      [
        "separate",
        -9.75710928122825
      ],
      [
        "pause",
        -9.757930011808988
      ],
      [
        "keep",
        -9.759897394232395
      ],
      [
        "skip",
        -9.760782656566722
      ],
      [
        "processed",
        -9.762327697882018
      ],
      [
        "certificate",
        -9.766430577378472
      ],
      [
        "comparison",
        -9.767513006979804
      ],
      [
        "fully",
        -9.76825184888196
      ],
      [
        "impl",
        -9.772985305909867
      ],
      [
        "numeric",
        -9.773066183286513
      ],
      [
        "phone",
        -9.773208108574327
      ],
      [
        "general",
        -9.773613781612385
      ],
      [
        "updated",
        -9.775324812603216
      ],
      [
        "operations",
        -9.775595175507807
      ],
      [
        "locate",
        -9.777591511963095
      ],
      [
        "checked",
        -9.778509471793775
      ],
      [
        "jar",
        -9.781647111172196
      ],
      [
        "mask",
        -9.782391590166865
      ],
      [
        "recursivel",
        -9.784351493201527
      ],
      [
        "relationship",
        -9.786535337014499
      ],
      [
        "notifie",
        -9.786757429221343
      ],
      [
        "workflow",
        -9.792855686098312
      ],
      [
        "errors",
        -9.792906763724625
      ],
      [
        "ordered",
        -9.793027040593804
      ],
      [
        "assignment",
        -9.796014430332256
      ],
      [
        "polygon",
        -9.796687845830112
      ],
      [
        "included",
        -9.797087015189003
      ],
      [
        "flush",
        -9.797893134958668
      ],
      [
        "implemente",
        -9.798167128773102
      ],
      [
        "applied",
        -9.798612384595732
      ],
      [
        "represente",
        -9.799257818926128
      ],
      [
        "own",
        -9.800804138855563
      ],
      [
        "ontology",
        -9.801107749375573
      ],
      [
        "links",
        -9.80136605640988
      ],
      [
        "edited",
        -9.802304156524652
      ],
      [
        "ask",
        -9.80414241804506
      ],
      [
        "worker",
        -9.80485842034766
      ],
      [
        "logical",
        -9.80665443477588
      ],
      [
        "around",
        -9.80731762023424
      ],
      [
        "upon",
        -9.808101616126734
      ],
      [
        "compar",
        -9.808471688809874
      ],
      [
        "attached",
        -9.809321623891293
      ],
      [
        "startup",
        -9.810072657863103
      ],
      [
        "direct",
        -9.811643054534507
      ],
      [
        "co",
        -9.812909057811936
      ],
      [
        "video",
        -9.813097636456543
      ],
      [
        "tick",
        -9.813418290271418
      ],
      [
        "extra",
        -9.813520278782324
      ],
      [
        "nothin",
        -9.815271914089465
      ],
      [
        "closing",
        -9.815801811131148
      ],
      [
        "normalize",
        -9.815807596641864
      ],
      [
        "square",
        -9.81786854049799
      ],
      [
        "route",
        -9.818218588871773
      ],
      [
        "failed",
        -9.819120457157434
      ],
      [
        "participant",
        -9.820927898088172
      ],
      [
        "invocation",
        -9.820944813344873
      ],
      [
        "connections",
        -9.821878959319928
      ],
      [
        "disabled",
        -9.823324827899988
      ],
      [
        "edges",
        -9.824635496159583
      ],
      [
        "works",
        -9.826159668977251
      ],
      [
        "degree",
        -9.826537842152725
      ],
      [
        "geometry",
        -9.828014217307839
      ],
      [
        "spec",
        -9.828033778409083
      ],
      [
        "hashtable",
        -9.82832930810893
      ],
      [
        "volume",
        -9.829890017574137
      ],
      [
        "push",
        -9.832637753391898
      ],
      [
        "requests",
        -9.834035957595288
      ],
      [
        "ave",
        -9.83638004400321
      ],
      [
        "invokes",
        -9.837387864571548
      ],
      [
        "logs",
        -9.838467438579258
      ],
      [
        "sheet",
        -9.838514248792393
      ],
      [
        "ca",
        -9.838606627785621
      ],
      [
        "querie",
        -9.839061435657477
      ],
      [
        "cells",
        -9.839313927977813
      ],
      [
        "editable",
        -9.840569219562088
      ],
      [
        "country",
        -9.840656846796211
      ],
      [
        "indicator",
        -9.840937782300813
      ],
      [
        "hierarchy",
        -9.841483447754623
      ],
      [
        "confirm",
        -9.84174091138923
      ],
      [
        "sorted",
        -9.844220536376435
      ],
      [
        "indexed",
        -9.847721056801245
      ],
      [
        "ready",
        -9.850885672141931
      ],
      [
        "labels",
        -9.854714576459056
      ],
      [
        "correspond",
        -9.855473128194848
      ],
      [
        "light",
        -9.855614209989309
      ],
      [
        "anchor",
        -9.856953050459868
      ],
      [
        "merge",
        -9.859023707569213
      ],
      [
        "chooser",
        -9.859547565159094
      ],
      [
        "strategy",
        -9.859579735912202
      ],
      [
        "atom",
        -9.860219997288633
      ],
      [
        "actuall",
        -9.862203432333775
      ],
      [
        "experiment",
        -9.863212385531698
      ],
      [
        "deleted",
        -9.864355209621596
      ],
      [
        "take",
        -9.86487999908615
      ],
      [
        "regular",
        -9.865792898345294
      ],
      [
        "unregister",
        -9.869056478601154
      ],
      [
        "refreshe",
        -9.869890540096971
      ],
      [
        "iterate",
        -9.872112096096231
      ],
      [
        "converter",
        -9.873223376667756
      ],
      [
        "percentage",
        -9.874526173595473
      ],
      [
        "origin",
        -9.875157906682986
      ],
      [
        "formula",
        -9.8760466268458
      ],
      [
        "tell",
        -9.87651090954099
      ],
      [
        "clicke",
        -9.876667068322373
      ],
      [
        "portion",
        -9.877155300459783
      ],
      [
        "slider",
        -9.880647016657061
      ],
      [
        "members",
        -9.883787794389718
      ],
      [
        "validator",
        -9.884540032977556
      ],
      [
        "transport",
        -9.885046164717888
      ],
      [
        "todo",
        -9.885393547975072
      ],
      [
        "us",
        -9.88915820855938
      ],
      [
        "allocate",
        -9.890377827050262
      ],
      [
        "threshold",
        -9.891161393340258
      ],
      [
        "picture",
        -9.891432307236915
      ],
      [
        "submit",
        -9.893478576151603
      ],
      [
        "ends",
        -9.89375186625103
      ],
      [
        "minute",
        -9.894217168135645
      ],
      [
        "bug",
        -9.895008422059817
      ],
      [
        "revision",
        -9.899149931163706
      ],
      [
        "framework",
        -9.900331065203144
      ],
      [
        "shell",
        -9.901756633606617
      ],
      [
        "tuple",
        -9.902156160547243
      ],
      [
        "checkbox",
        -9.903374223140128
      ],
      [
        "connector",
        -9.903960926963364
      ],
      [
        "spring",
        -9.904233314935706
      ],
      [
        "completion",
        -9.904386465793046
      ],
      [
        "master",
        -9.90460331826935
      ],
      [
        "once",
        -9.907496544669012
      ],
      [
        "something",
        -9.907548565617395
      ],
      [
        "ignore",
        -9.908729839126
      ],
      [
        "launch",
        -9.909324579575053
      ],
      [
        "pending",
        -9.911842834961345
      ],
      [
        "keyword",
        -9.912365328053038
      ],
      [
        "dump",
        -9.913304147918165
      ],
      [
        "robot",
        -9.91390013072693
      ],
      [
        "no",
        -9.91450200671837
      ],
      [
        "prepared",
        -9.916360581752485
      ],
      [
        "branch",
        -9.91641339892174
      ],
      [
        "nam",
        -9.91745854917112
      ],
      [
        "etter",
        -9.918798560974782
      ],
      [
        "syntax",
        -9.918837182366573
      ],
      [
        "reload",
        -9.922853631191703
      ],
      [
        "probabilit",
        -9.924203134625703
      ],
      [
        "highlight",
        -9.92556914192055
      ],
      [
        "negative",
        -9.929431855989314
      ],
      [
        "dependency",
        -9.93009979061479
      ],
      [
        "outline",
        -9.93034742257252
      ],
      [
        "un",
        -9.932214233964686
      ],
      [
        "serialization",
        -9.934906384741874
      ],
      [
        "creatin",
        -9.938527243565376
      ],
      [
        "sensor",
        -9.940557082882076
      ],
      [
        "alpha",
        -9.940621727942771
      ],
      [
        "repaint",
        -9.940776643311397
      ],
      [
        "orientation",
        -9.941926538014938
      ],
      [
        "extended",
        -9.945014335184021
      ],
      [
        "stroke",
        -9.946092668922233
      ],
      [
        "glyph",
        -9.947234491388304
      ],
      [
        "ver",
        -9.948423932229705
      ],
      [
        "ode",
        -9.948936570819232
      ],
      [
        "tasks",
        -9.94920778127992
      ],
      [
        "waiting",
        -9.954230873228637
      ],
      [
        "operand",
        -9.954822751059984
      ],
      [
        "flags",
        -9.955867639115038
      ],
      [
        "evaluates",
        -9.956343507151576
      ],
      [
        "es",
        -9.9565859172947
      ],
      [
        "linked",
        -9.95705125087742
      ],
      [
        "xpath",
        -9.959267420191598
      ],
      [
        "showing",
        -9.959610679174748
      ],
      [
        "classpath",
        -9.960105941166235
      ],
      [
        "frequenc",
        -9.964746328831314
      ],
      [
        "know",
        -9.968463366835376
      ],
      [
        "immediatel",
        -9.969362105003182
      ],
      [
        "grammar",
        -9.969499340288031
      ],
      [
        "problem",
        -9.969794869384678
      ],
      [
        "raw",
        -9.969940908192068
      ],
      [
        "sync",
        -9.97015991245882
      ],
      [
        "dispatch",
        -9.970953584447148
      ],
      [
        "rotate",
        -9.971474025032874
      ],
      [
        "velocity",
        -9.973820964455404
      ],
      [
        "runtime",
        -9.974340304942707
      ],
      [
        "need",
        -9.97504956135366
      ],
      [
        "typ",
        -9.97600294578195
      ],
      [
        "translate",
        -9.97601757883253
      ],
      [
        "break",
        -9.97701713411935
      ],
      [
        "routine",
        -9.978395843644874
      ],
      [
        "ability",
        -9.978669370894902
      ],
      [
        "acquire",
        -9.97958374475049
      ],
      [
        "lis",
        -9.980607447265662
      ],
      [
        "colour",
        -9.983309278994707
      ],
      [
        "choose",
        -9.9833331852779
      ],
      [
        "comparator",
        -9.98405897978345
      ],
      [
        "resume",
        -9.984948274615316
      ],
      [
        "groups",
        -9.98545657754541
      ],
      [
        "aving",
        -9.987120270263329
      ],
      [
        "building",
        -9.98997602591057
      ],
      [
        "logged",
        -9.989979570418006
      ],
      [
        "navigation",
        -9.99087607168522
      ],
      [
        "measure",
        -9.99290109608178
      ],
      [
        "hidden",
        -9.994314221119108
      ],
      [
        "principal",
        -10.000859060504009
      ],
      [
        "functionalit",
        -10.000998109888254
      ],
      [
        "were",
        -10.00263602868775
      ],
      [
        "ring",
        -10.002729215522214
      ],
      [
        "delegates",
        -10.004346312630444
      ],
      [
        "logic",
        -10.004890312308127
      ],
      [
        "curren",
        -10.00630072994186
      ],
      [
        "textual",
        -10.006787432562497
      ],
      [
        "made",
        -10.009954435786911
      ],
      [
        "alert",
        -10.010797569550043
      ],
      [
        "home",
        -10.011886423807757
      ],
      [
        "peer",
        -10.011970279976365
      ],
      [
        "collect",
        -10.01510554536653
      ],
      [
        "pages",
        -10.016469055891244
      ],
      [
        "comma",
        -10.016524531975712
      ],
      [
        "exp",
        -10.016545404249435
      ],
      [
        "appear",
        -10.017014938153407
      ],
      [
        "searche",
        -10.017230856183172
      ],
      [
        "duplicate",
        -10.0182151002355
      ],
      [
        "released",
        -10.018551187261313
      ],
      [
        "tags",
        -10.019299112849446
      ],
      [
        "persist",
        -10.019469123140322
      ],
      [
        "both",
        -10.021254508286958
      ],
      [
        "sprite",
        -10.022900340177475
      ],
      [
        "bits",
        -10.023437969783458
      ],
      [
        "positive",
        -10.025989906331988
      ],
      [
        "desired",
        -10.025990324081857
      ],
      [
        "holder",
        -10.027290301607238
      ],
      [
        "workspace",
        -10.028114747383391
      ],
      [
        "registration",
        -10.031271241819649
      ],
      [
        "reports",
        -10.032714532751221
      ],
      [
        "8",
        -10.033230003051134
      ],
      [
        "cycle",
        -10.033259285212356
      ],
      [
        "categories",
        -10.036536529919108
      ],
      [
        "king",
        -10.036862091868187
      ],
      [
        "physical",
        -10.037205650539434
      ],
      [
        "terminal",
        -10.042599971806641
      ],
      [
        "subclass",
        -10.044482536743281
      ],
      [
        "refer",
        -10.044495143526404
      ],
      [
        "persistence",
        -10.04493482575613
      ],
      [
        "arbitrar",
        -10.04510320056816
      ],
      [
        "ll",
        -10.046074677104817
      ],
      [
        "comments",
        -10.046732569531496
      ],
      [
        "capacit",
        -10.050821030404752
      ],
      [
        "via",
        -10.051393563381716
      ],
      [
        "looks",
        -10.051874976094293
      ],
      [
        "var",
        -10.052961190604261
      ],
      [
        "renders",
        -10.053650642894723
      ],
      [
        "solution",
        -10.054832186440116
      ],
      [
        "difference",
        -10.057786718993107
      ],
      [
        "escape",
        -10.05866447517812
      ],
      [
        "platform",
        -10.061068832725168
      ],
      [
        "buffered",
        -10.062094956721772
      ],
      [
        "threads",
        -10.062841152616453
      ],
      [
        "patient",
        -10.063748968688007
      ],
      [
        "explicit",
        -10.064621349875926
      ],
      [
        "margin",
        -10.066539194475144
      ],
      [
        "modifier",
        -10.066921332061803
      ],
      [
        "mappings",
        -10.068858736727218
      ],
      [
        "decode",
        -10.069093141723197
      ],
      [
        "credential",
        -10.070022383165806
      ],
      [
        "analysis",
        -10.070413588418912
      ],
      [
        "surface",
        -10.070885034717051
      ],
      [
        "seq",
        -10.070895044676266
      ],
      [
        "needs",
        -10.071633562867602
      ],
      [
        "redirect",
        -10.078460164108225
      ],
      [
        "along",
        -10.08024185066996
      ],
      [
        "headers",
        -10.080554637508675
      ],
      [
        "material",
        -10.082160789509526
      ],
      [
        "generat",
        -10.082958197160956
      ],
      [
        "val",
        -10.083515254108168
      ],
      [
        "snapshot",
        -10.08394854028664
      ],
      [
        "ng",
        -10.086688322863427
      ],
      [
        "dimensions",
        -10.08690231291659
      ],
      [
        "playlist",
        -10.088396782423331
      ],
      [
        "evaluation",
        -10.089050441250029
      ],
      [
        "inverse",
        -10.08919720046639
      ],
      [
        "par",
        -10.090083844791344
      ],
      [
        "bit",
        -10.091128757555204
      ],
      [
        "zip",
        -10.091782996736107
      ],
      [
        "scan",
        -10.092582867548561
      ],
      [
        "releases",
        -10.094507630603001
      ],
      [
        "blog",
        -10.09503476112721
      ],
      [
        "power",
        -10.098904439579698
      ],
      [
        "superclass",
        -10.099736549809375
      ],
      [
        "drawn",
        -10.100440806622764
      ],
      [
        "even",
        -10.101527544291937
      ],
      [
        "organization",
        -10.105294830767196
      ],
      [
        "simply",
        -10.108359018749647
      ],
      [
        "scheme",
        -10.109277840889462
      ],
      [
        "less",
        -10.110370237407135
      ],
      [
        "maps",
        -10.111571876696086
      ],
      [
        "tooltip",
        -10.115852681442586
      ],
      [
        "serial",
        -10.11802608924396
      ],
      [
        "article",
        -10.118194689598662
      ],
      [
        "pushe",
        -10.12110056832708
      ],
      [
        "foreign",
        -10.12166762432936
      ],
      [
        "it",
        -10.122064871641996
      ],
      [
        "directorie",
        -10.122548812247034
      ],
      [
        "sign",
        -10.123410477653074
      ],
      [
        "keyboard",
        -10.125005284049784
      ],
      [
        "ad",
        -10.13037111275952
      ],
      [
        "chat",
        -10.13044812209532
      ],
      [
        "synchronize",
        -10.131770505109774
      ],
      [
        "communication",
        -10.132388680331136
      ],
      [
        "course",
        -10.132633367264429
      ],
      [
        "requeste",
        -10.13594268038794
      ],
      [
        "instanc",
        -10.136100906493702
      ],
      [
        "still",
        -10.136198282285477
      ],
      [
        "ejb",
        -10.136311987096327
      ],
      [
        "big",
        -10.137086631133258
      ],
      [
        "reverse",
        -10.137914939062847
      ],
      [
        "hibernate",
        -10.138039039970147
      ],
      [
        "album",
        -10.139238987113622
      ],
      [
        "corner",
        -10.141460364582539
      ],
      [
        "ile",
        -10.142610110314179
      ],
      [
        "artifact",
        -10.143793298372243
      ],
      [
        "displaying",
        -10.145060590698893
      ],
      [
        "could",
        -10.145284493934028
      ],
      [
        "identify",
        -10.146495649503489
      ],
      [
        "old",
        -10.146579881992494
      ],
      [
        "localized",
        -10.146755365363783
      ],
      [
        "head",
        -10.147455020862708
      ],
      [
        "radius",
        -10.148242386624496
      ],
      [
        "locator",
        -10.148647998901279
      ],
      [
        "well",
        -10.14884127223037
      ],
      [
        "presentation",
        -10.149782397953377
      ],
      [
        "curve",
        -10.152424350514547
      ],
      [
        "hi",
        -10.153175919024921
      ],
      [
        "face",
        -10.153896019408304
      ],
      [
        "photo",
        -10.154434274785547
      ],
      [
        "week",
        -10.158120955460333
      ],
      [
        "modifie",
        -10.159234515802812
      ],
      [
        "proper",
        -10.16148019115216
      ],
      [
        "prompt",
        -10.161770557218397
      ],
      [
        "filters",
        -10.16313291591361
      ],
      [
        "pop",
        -10.165694669621562
      ],
      [
        "leave",
        -10.16608848664698
      ],
      [
        "uml",
        -10.166120244659723
      ],
      [
        "addition",
        -10.167234333589878
      ],
      [
        "resolution",
        -10.167723449538471
      ],
      [
        "moved",
        -10.168026263737882
      ],
      [
        "playing",
        -10.171231294459183
      ],
      [
        "embedded",
        -10.174035374747385
      ],
      [
        "obj",
        -10.174468237493798
      ],
      [
        "las",
        -10.17528628566402
      ],
      [
        "overwrite",
        -10.176635130365124
      ],
      [
        "digit",
        -10.18010275814486
      ],
      [
        "ting",
        -10.180147797546315
      ],
      [
        "cross",
        -10.181664080745378
      ],
      [
        "would",
        -10.182100696138733
      ],
      [
        "delta",
        -10.18436069263589
      ],
      [
        "thrown",
        -10.184591886922073
      ],
      [
        "whitespace",
        -10.186883339142483
      ],
      [
        "ur",
        -10.187170286922381
      ],
      [
        "above",
        -10.188689360824842
      ],
      [
        "con",
        -10.188810980967226
      ],
      [
        "portlet",
        -10.188825143514329
      ],
      [
        "tile",
        -10.189139446894586
      ],
      [
        "calculation",
        -10.190692092288986
      ],
      [
        "vertices",
        -10.191458686522306
      ],
      [
        "graphic",
        -10.194312487756957
      ],
      [
        "cards",
        -10.194611382728553
      ],
      [
        "publish",
        -10.196403349250655
      ],
      [
        "boundar",
        -10.19858201556228
      ],
      [
        "permissions",
        -10.202880029459202
      ],
      [
        "cannot",
        -10.203406148293308
      ],
      [
        "changing",
        -10.204715327247417
      ],
      [
        "suffix",
        -10.205934453046048
      ],
      [
        "interaction",
        -10.2074399367763
      ],
      [
        "blocks",
        -10.210928307218351
      ],
      [
        "saving",
        -10.211303960071536
      ],
      [
        "dirty",
        -10.21158252147438
      ],
      [
        "preview",
        -10.21175224093708
      ],
      [
        "subscription",
        -10.211826049487073
      ],
      [
        "good",
        -10.212976216899397
      ],
      [
        "high",
        -10.215110082448387
      ],
      [
        "fo",
        -10.21575515664788
      ],
      [
        "wether",
        -10.216736830852486
      ],
      [
        "tokens",
        -10.217734858017263
      ],
      [
        "blank",
        -10.219775606443664
      ],
      [
        "derive",
        -10.220343720965205
      ],
      [
        "simulate",
        -10.220451903219207
      ],
      [
        "updating",
        -10.221377917299478
      ],
      [
        "tabbed",
        -10.225951841324529
      ],
      [
        "manage",
        -10.226235667232984
      ],
      [
        "quantity",
        -10.226238858144344
      ],
      [
        "remain",
        -10.226292845370164
      ],
      [
        "rank",
        -10.226471630385092
      ],
      [
        "except",
        -10.227040537130563
      ],
      [
        "population",
        -10.227757907443161
      ],
      [
        "advance",
        -10.230504071876052
      ],
      [
        "times",
        -10.23261207073625
      ],
      [
        "assertion",
        -10.232645395150815
      ],
      [
        "never",
        -10.23339290575029
      ],
      [
        "swing",
        -10.233663046673751
      ],
      [
        "suite",
        -10.23411599850391
      ],
      [
        "orting",
        -10.23473404037371
      ],
      [
        "sum",
        -10.23525266975523
      ],
      [
        "compile",
        -10.236840055052205
      ],
      [
        "days",
        -10.23743071353049
      ],
      [
        "them",
        -10.237792243114828
      ],
      [
        "views",
        -10.23903660300704
      ],
      [
        "pre",
        -10.239877386063181
      ],
      [
        "pick",
        -10.240207430968226
      ],
      [
        "fault",
        -10.240973165302787
      ],
      [
        "exclude",
        -10.241491942751452
      ],
      [
        "inherite",
        -10.242666567295023
      ],
      [
        "accessible",
        -10.243073333294682
      ],
      [
        "images",
        -10.245286516418307
      ],
      [
        "properl",
        -10.245425911714733
      ],
      [
        "execut",
        -10.246036915037916
      ],
      [
        "clip",
        -10.246100365634089
      ],
      [
        "indice",
        -10.24672228894271
      ],
      [
        "chose",
        -10.2469262999357
      ],
      [
        "roles",
        -10.248998631237509
      ],
      [
        "turns",
        -10.249003303407846
      ],
      [
        "paragraph",
        -10.249018470717676
      ],
      [
        "marked",
        -10.2491416844906
      ],
      [
        "legend",
        -10.253090599064294
      ],
      [
        "lement",
        -10.253390068047946
      ],
      [
        "shortcut",
        -10.255109096625706
      ],
      [
        "front",
        -10.258314081506485
      ],
      [
        "axis2",
        -10.259714176559786
      ],
      [
        "passes",
        -10.262167024256932
      ],
      [
        "desktop",
        -10.263376806620537
      ],
      [
        "sender",
        -10.26732579868149
      ],
      [
        "quote",
        -10.268840095142675
      ],
      [
        "resolver",
        -10.269536100755666
      ],
      [
        "formatter",
        -10.269910343914344
      ],
      [
        "everything",
        -10.270915970586014
      ],
      [
        "translates",
        -10.27097242889057
      ],
      [
        "6",
        -10.271676707400513
      ],
      [
        "rate",
        -10.271820032206566
      ],
      [
        "construction",
        -10.274357226907458
      ],
      [
        "initiate",
        -10.275836424237237
      ],
      [
        "scalar",
        -10.276004454706008
      ],
      [
        "mean",
        -10.276366257301943
      ],
      [
        "throwable",
        -10.279715781324303
      ],
      [
        "semantic",
        -10.28020561311648
      ],
      [
        "expanded",
        -10.281125501098106
      ],
      [
        "possibl",
        -10.28121098267542
      ],
      [
        "payment",
        -10.282121340363084
      ],
      [
        "city",
        -10.283907921767401
      ],
      [
        "params",
        -10.28523892312013
      ],
      [
        "attach",
        -10.285460870059396
      ],
      [
        "palette",
        -10.285950997762582
      ],
      [
        "cas",
        -10.28748261833365
      ],
      [
        "span",
        -10.287781425245086
      ],
      [
        "annotations",
        -10.28814554503811
      ],
      [
        "authenticate",
        -10.288158543375346
      ],
      [
        "star",
        -10.288695210061254
      ],
      [
        "fact",
        -10.293297787282253
      ],
      [
        "ach",
        -10.293578237798677
      ],
      [
        "movement",
        -10.297947102697563
      ],
      [
        "kill",
        -10.298209423728133
      ],
      [
        "mbean",
        -10.299336684936588
      ],
      [
        "arrow",
        -10.300103627477949
      ],
      [
        "goal",
        -10.300114792295885
      ],
      [
        "mapper",
        -10.30074591765056
      ],
      [
        "align",
        -10.304243849824129
      ],
      [
        "indent",
        -10.306097762533215
      ],
      [
        "commands",
        -10.306547156954707
      ],
      [
        "shift",
        -10.307846245703434
      ],
      [
        "graphical",
        -10.309833421707626
      ],
      [
        "note",
        -10.310896274403522
      ],
      [
        "low",
        -10.31252364490557
      ],
      [
        "ype",
        -10.312790404547796
      ],
      [
        "regard",
        -10.313376264482624
      ],
      [
        "cleanup",
        -10.315094532790006
      ],
      [
        "subtract",
        -10.316280361232558
      ],
      [
        "restriction",
        -10.316367015580548
      ],
      [
        "pened",
        -10.317036569821473
      ],
      [
        "discover",
        -10.31933682573356
      ],
      [
        "neighbor",
        -10.321348045546237
      ],
      [
        "greater",
        -10.3216566579985
      ],
      [
        "delet",
        -10.324636991804937
      ],
      [
        "outgoing",
        -10.324894356045139
      ],
      [
        "lling",
        -10.325166331985663
      ],
      [
        "unknown",
        -10.3262519019558
      ],
      [
        "viewport",
        -10.32655751210413
      ],
      [
        "requirement",
        -10.326949637309934
      ],
      [
        "behaviour",
        -10.329661313713036
      ],
      [
        "validity",
        -10.330172715801785
      ],
      [
        "internall",
        -10.330944356164935
      ],
      [
        "suitabl",
        -10.331614415130819
      ],
      [
        "mod",
        -10.331798981993995
      ],
      [
        "widgets",
        -10.332918236343016
      ],
      [
        "asynchronous",
        -10.333957232490516
      ],
      [
        "intersection",
        -10.33463191445949
      ],
      [
        "capabilit",
        -10.3352190853295
      ],
      [
        "compilation",
        -10.33594869318376
      ],
      [
        "singleton",
        -10.336376152931678
      ],
      [
        "words",
        -10.336621967102033
      ],
      [
        "major",
        -10.338438134322745
      ],
      [
        "quality",
        -10.340099737374143
      ],
      [
        "overlay",
        -10.340895269781122
      ],
      [
        "fail",
        -10.341539996797401
      ],
      [
        "entere",
        -10.342057960094095
      ],
      [
        "clock",
        -10.342096266550172
      ],
      [
        "services",
        -10.342311353429213
      ],
      [
        "company",
        -10.34333813260543
      ],
      [
        "criterion",
        -10.343905205594664
      ],
      [
        "ive",
        -10.345379875718459
      ],
      [
        "phrase",
        -10.346194841475235
      ],
      [
        "associate",
        -10.34687602331963
      ],
      [
        "measurement",
        -10.347424420999792
      ],
      [
        "attribut",
        -10.347546267650387
      ],
      [
        "successfull",
        -10.347909583252957
      ],
      [
        "fix",
        -10.348065001526454
      ],
      [
        "enum",
        -10.348421766382963
      ],
      [
        "ignored",
        -10.35001328689615
      ],
      [
        "feedback",
        -10.35008833377941
      ],
      [
        "passing",
        -10.351223672282462
      ],
      [
        "going",
        -10.352124124403023
      ],
      [
        "age",
        -10.352291343543389
      ],
      [
        "scanner",
        -10.356414114142016
      ],
      [
        "stoppe",
        -10.357242576164106
      ],
      [
        "leaf",
        -10.35735799968393
      ],
      [
        "success",
        -10.358417424033547
      ],
      [
        "quot",
        -10.360123911470914
      ],
      [
        "receiv",
        -10.360397917469879
      ],
      [
        "variant",
        -10.360489870949358
      ],
      [
        "partial",
        -10.364648803386027
      ],
      [
        "soap",
        -10.365348435254138
      ],
      [
        "steps",
        -10.367675709292644
      ],
      [
        "dependent",
        -10.368298442463239
      ],
      [
        "station",
        -10.368345551547057
      ],
      [
        "om",
        -10.368590080922619
      ],
      [
        "clipboard",
        -10.371890942214355
      ],
      [
        "successful",
        -10.372389556844738
      ],
      [
        "assembly",
        -10.372505587989842
      ],
      [
        "management",
        -10.37326234141663
      ],
      [
        "locked",
        -10.374625184003962
      ],
      [
        "offer",
        -10.375379479345876
      ],
      [
        "footer",
        -10.376028197824333
      ],
      [
        "car",
        -10.376496561057188
      ],
      [
        "family",
        -10.378404525593245
      ],
      [
        "exchange",
        -10.378491115955054
      ],
      [
        "runnable",
        -10.378920414065812
      ],
      [
        "projection",
        -10.380813810998507
      ],
      [
        "small",
        -10.381113587165196
      ],
      [
        "recording",
        -10.381244105505413
      ],
      [
        "hashcode",
        -10.382590250421863
      ],
      [
        "signed",
        -10.384189273621484
      ],
      [
        "ratio",
        -10.384441117660568
      ],
      [
        "rea",
        -10.38477796753425
      ],
      [
        "ma",
        -10.387314513934156
      ],
      [
        "capture",
        -10.387508868712374
      ],
      [
        "longer",
        -10.387952774569495
      ],
      [
        "assume",
        -10.388752038378705
      ],
      [
        "collapse",
        -10.38939962838453
      ],
      [
        "rendere",
        -10.390478420179825
      ],
      [
        "compound",
        -10.390995472184864
      ],
      [
        "strong",
        -10.391339009409185
      ],
      [
        "particle",
        -10.391776699499253
      ],
      [
        "free",
        -10.392168843676199
      ],
      [
        "occurre",
        -10.392943329458237
      ],
      [
        "padding",
        -10.393758785168519
      ],
      [
        "payload",
        -10.394520228361072
      ],
      [
        "collision",
        -10.395075540998796
      ],
      [
        "fetche",
        -10.395282417332304
      ],
      [
        "7",
        -10.398294508838195
      ],
      [
        "ticket",
        -10.400791136109623
      ],
      [
        "concrete",
        -10.400804852589356
      ],
      [
        "backup",
        -10.40352263562831
      ],
      [
        "listing",
        -10.404824383830526
      ],
      [
        "starte",
        -10.407878453075451
      ],
      [
        "live",
        -10.408014011532451
      ],
      [
        "large",
        -10.408193364305133
      ],
      [
        "macro",
        -10.409048201136367
      ],
      [
        "training",
        -10.409759430881458
      ],
      [
        "linear",
        -10.410331259418333
      ],
      [
        "plane",
        -10.412614891160604
      ],
      [
        "parts",
        -10.417989634729963
      ],
      [
        "aspect",
        -10.419032305851719
      ],
      [
        "pairs",
        -10.419822183526424
      ],
      [
        "tables",
        -10.420798384048345
      ],
      [
        "done",
        -10.420903765880102
      ],
      [
        "ancestor",
        -10.421271664610899
      ],
      [
        "reflect",
        -10.423067951115645
      ],
      [
        "useful",
        -10.424577424526845
      ],
      [
        "browse",
        -10.425457037527089
      ],
      [
        "reduce",
        -10.425889915456292
      ],
      [
        "invalidate",
        -10.429468924981336
      ],
      [
        "propagate",
        -10.430557156338079
      ],
      [
        "tracker",
        -10.430924216944707
      ],
      [
        "pan",
        -10.431254933927015
      ],
      [
        "spectrum",
        -10.431288530464302
      ],
      [
        "16",
        -10.431594153752506
      ],
      [
        "relevant",
        -10.433109178338269
      ],
      [
        "decide",
        -10.43321408318172
      ],
      [
        "observation",
        -10.433217556561575
      ],
      [
        "replac",
        -10.436507417520186
      ],
      [
        "hides",
        -10.436663879245193
      ],
      [
        "latest",
        -10.438427973409517
      ],
      [
        "intersect",
        -10.438835118188397
      ],
      [
        "delivery",
        -10.440627510718464
      ],
      [
        "contract",
        -10.44101304875872
      ],
      [
        "filled",
        -10.44102367131586
      ],
      [
        "than",
        -10.442579066017217
      ],
      [
        "rename",
        -10.442956250857566
      ],
      [
        "printing",
        -10.44463504329148
      ],
      [
        "10",
        -10.444669920190194
      ],
      [
        "messag",
        -10.449364560219092
      ],
      [
        "consume",
        -10.450199451174619
      ],
      [
        "qualifier",
        -10.450837931743177
      ],
      [
        "interpreter",
        -10.451493988538154
      ],
      [
        "cloning",
        -10.452361027474995
      ],
      [
        "below",
        -10.452815105333908
      ],
      [
        "currency",
        -10.453050892908422
      ],
      [
        "windows",
        -10.453286576274868
      ],
      [
        "press",
        -10.455110196053448
      ],
      [
        "ag",
        -10.458445481682478
      ],
      [
        "me",
        -10.459048804041107
      ],
      [
        "gene",
        -10.459049989254208
      ],
      [
        "uses",
        -10.459386158325398
      ],
      [
        "conditions",
        -10.460360715973533
      ],
      [
        "precision",
        -10.461673973217419
      ],
      [
        "replacement",
        -10.462207105998393
      ],
      [
        "spacing",
        -10.46282770292517
      ],
      [
        "repeat",
        -10.46415660845249
      ],
      [
        "charge",
        -10.464508748850548
      ],
      [
        "matched",
        -10.465789922012497
      ],
      [
        "recursive",
        -10.465871548769801
      ],
      [
        "coefficient",
        -10.468596006411609
      ],
      [
        "pos",
        -10.46865595477881
      ],
      [
        "employee",
        -10.470688055312802
      ],
      [
        "ordering",
        -10.472436105330239
      ],
      [
        "uuid",
        -10.474526701303796
      ],
      [
        "off",
        -10.474722786518456
      ],
      [
        "combination",
        -10.475589632697838
      ],
      [
        "compiler",
        -10.477480766555914
      ],
      [
        "associates",
        -10.477638900378164
      ],
      [
        "scenario",
        -10.477819886424875
      ],
      [
        "percent",
        -10.478765036036364
      ],
      [
        "alternative",
        -10.47951706454742
      ],
      [
        "shadow",
        -10.481451931800098
      ],
      [
        "leas",
        -10.482340197616034
      ],
      [
        "rating",
        -10.485747667531504
      ],
      [
        "statistic",
        -10.486526776352772
      ],
      [
        "skill",
        -10.486857082841066
      ],
      [
        "continue",
        -10.490319470105094
      ],
      [
        "built",
        -10.4904135476895
      ],
      [
        "9",
        -10.490926554688727
      ],
      [
        "lin",
        -10.491061114786458
      ],
      [
        "stock",
        -10.496765487755976
      ],
      [
        "stamp",
        -10.497087509285546
      ],
      [
        "music",
        -10.498744428566493
      ],
      [
        "submitte",
        -10.501680773905326
      ],
      [
        "modal",
        -10.501734273499821
      ],
      [
        "beans",
        -10.501901751313476
      ],
      [
        "er",
        -10.501985969501057
      ],
      [
        "cleans",
        -10.504341748864874
      ],
      [
        "org",
        -10.505139506919129
      ],
      [
        "taken",
        -10.505734752629994
      ],
      [
        "javadoc",
        -10.506740155471242
      ],
      [
        "design",
        -10.507100458967166
      ],
      [
        "calculated",
        -10.507994749196644
      ],
      [
        "highest",
        -10.50854604350773
      ],
      [
        "white",
        -10.508927208856814
      ],
      [
        "movie",
        -10.50985234384699
      ],
      [
        "sentence",
        -10.510039383471367
      ],
      [
        "ion",
        -10.512082071827287
      ],
      [
        "theme",
        -10.512411156317174
      ],
      [
        "abort",
        -10.513626389959299
      ],
      [
        "scaling",
        -10.51468118641483
      ],
      [
        "broadcast",
        -10.51615293484136
      ],
      [
        "editors",
        -10.51628633298586
      ],
      [
        "dispatcher",
        -10.516951947526776
      ],
      [
        "clients",
        -10.51720415543755
      ],
      [
        "ex",
        -10.517529964770217
      ],
      [
        "places",
        -10.519228014585092
      ],
      [
        "consumer",
        -10.520560255895935
      ],
      [
        "dependenci",
        -10.521794660068476
      ],
      [
        "creator",
        -10.522441513330216
      ],
      [
        "dummy",
        -10.525098726006362
      ],
      [
        "means",
        -10.525326935182482
      ],
      [
        "avoid",
        -10.525458302297249
      ],
      [
        "bookmark",
        -10.526777951899344
      ],
      [
        "requires",
        -10.527189768233148
      ],
      [
        "mechanism",
        -10.527914325124698
      ],
      [
        "poll",
        -10.529402741519139
      ],
      [
        "extend",
        -10.531250532451114
      ],
      [
        "rese",
        -10.531378123712388
      ],
      [
        "fails",
        -10.5328720544098
      ],
      [
        "manifest",
        -10.533121555856404
      ],
      [
        "holding",
        -10.534689486086435
      ],
      [
        "partition",
        -10.537206647306386
      ],
      [
        "printer",
        -10.538332179984737
      ],
      [
        "bank",
        -10.538706848724877
      ],
      [
        "jsp",
        -10.540498724064875
      ],
      [
        "ime",
        -10.541784969205473
      ],
      [
        "answers",
        -10.542468116504878
      ],
      [
        "suspend",
        -10.542543381571516
      ],
      [
        "datatype",
        -10.542675660255515
      ],
      [
        "subset",
        -10.542688716889831
      ],
      [
        "portal",
        -10.542958105098052
      ],
      [
        "en",
        -10.54323989105798
      ],
      [
        "javascript",
        -10.543689332771697
      ],
      [
        "non",
        -10.54550847788229
      ],
      [
        "triple",
        -10.546438207979985
      ],
      [
        "flushe",
        -10.546575744229186
      ],
      [
        "delimiter",
        -10.5483889570902
      ],
      [
        "discard",
        -10.549473228208928
      ],
      [
        "ldap",
        -10.550080821851296
      ],
      [
        "notes",
        -10.551348155782293
      ],
      [
        "unsigned",
        -10.551728084024065
      ],
      [
        "pdf",
        -10.552740340866734
      ],
      [
        "plain",
        -10.554032119241654
      ],
      [
        "digest",
        -10.55550647557953
      ],
      [
        "pipe",
        -10.556210481508185
      ],
      [
        "party",
        -10.557324550003344
      ],
      [
        "quit",
        -10.558512824520783
      ],
      [
        "heading",
        -10.559044381428366
      ],
      [
        "documents",
        -10.559495895206265
      ],
      [
        "minor",
        -10.562071099841873
      ],
      [
        "datasource",
        -10.564137058191532
      ],
      [
        "playback",
        -10.566188107667205
      ],
      [
        "middle",
        -10.56633685900509
      ],
      [
        "decrement",
        -10.566903009435352
      ],
      [
        "ship",
        -10.568165923910453
      ],
      [
        "subtree",
        -10.56965972992709
      ],
      [
        "mov",
        -10.569889402219035
      ],
      [
        "midlet",
        -10.56990952889717
      ],
      [
        "partner",
        -10.570426077227904
      ],
      [
        "ow",
        -10.571317366570646
      ],
      [
        "ts",
        -10.57309408477414
      ],
      [
        "stuff",
        -10.57394936409593
      ],
      [
        "sibling",
        -10.574807179473538
      ],
      [
        "ping",
        -10.574993512637406
      ],
      [
        "caller",
        -10.576204729482628
      ],
      [
        "cost",
        -10.576900961315692
      ],
      [
        "become",
        -10.577014649742921
      ],
      [
        "encountere",
        -10.577291653729766
      ],
      [
        "letter",
        -10.57755714722841
      ],
      [
        "plugins",
        -10.578928157750216
      ],
      [
        "student",
        -10.579255998069723
      ],
      [
        "watch",
        -10.579430728518982
      ],
      [
        "encapsulate",
        -10.580221678863118
      ],
      [
        "candidate",
        -10.582844972538263
      ],
      [
        "pack",
        -10.584375027908292
      ],
      [
        "wsdl",
        -10.58703378816374
      ],
      [
        "bool",
        -10.587798209248838
      ],
      [
        "indentation",
        -10.588967660088695
      ],
      [
        "respond",
        -10.591497890555495
      ],
      [
        "thumbnail",
        -10.591644201604318
      ],
      [
        "bucket",
        -10.591968538144705
      ],
      [
        "its",
        -10.5921723718227
      ],
      [
        "restart",
        -10.59237595116646
      ],
      [
        "compatible",
        -10.593742405384738
      ],
      [
        "protecte",
        -10.595029101574925
      ],
      [
        "caret",
        -10.596651828385315
      ],
      [
        "try",
        -10.59698105678119
      ],
      [
        "authorization",
        -10.596986317168316
      ],
      [
        "mock",
        -10.597498534144961
      ],
      [
        "agents",
        -10.598743751679606
      ],
      [
        "aves",
        -10.599663329406436
      ],
      [
        "tex",
        -10.600187699075192
      ],
      [
        "prior",
        -10.600468265089532
      ],
      [
        "modules",
        -10.60118013702181
      ],
      [
        "chromosome",
        -10.601589372787403
      ],
      [
        "desc",
        -10.601776278521026
      ],
      [
        "neares",
        -10.601789987609376
      ],
      [
        "jobs",
        -10.603400797953178
      ],
      [
        "cast",
        -10.60503874434187
      ],
      [
        "navigate",
        -10.605756182209973
      ],
      [
        "rollback",
        -10.606641185846476
      ],
      [
        "prevent",
        -10.607317778308715
      ],
      [
        "attack",
        -10.608355187070362
      ],
      [
        "longitude",
        -10.61114383153961
      ],
      [
        "effective",
        -10.611591139202696
      ],
      [
        "band",
        -10.613128629222619
      ],
      [
        "minimal",
        -10.613956211684343
      ],
      [
        "pipeline",
        -10.615207409610338
      ],
      [
        "very",
        -10.616960223282726
      ],
      [
        "estimate",
        -10.617200063911362
      ],
      [
        "deactivate",
        -10.621796578046974
      ],
      [
        "performance",
        -10.621992051090343
      ],
      [
        "latitude",
        -10.62213113927225
      ],
      [
        "unsaved",
        -10.626455458171527
      ],
      [
        "vent",
        -10.627472540472883
      ],
      [
        "qname",
        -10.627494980946675
      ],
      [
        "outside",
        -10.628114917493537
      ],
      [
        "catch",
        -10.628665679007446
      ],
      [
        "sleep",
        -10.631451105837737
      ],
      [
        "traverse",
        -10.632778958381945
      ],
      [
        "automatic",
        -10.63308227964433
      ],
      [
        "deployment",
        -10.635855783378556
      ],
      [
        "circle",
        -10.637055728599247
      ],
      [
        "wa",
        -10.637517448470607
      ],
      [
        "operating",
        -10.638764355973576
      ],
      [
        "installed",
        -10.641095363468274
      ],
      [
        "instrument",
        -10.64192668640953
      ],
      [
        "deselect",
        -10.643122306006601
      ],
      [
        "walk",
        -10.644136840285512
      ],
      [
        "ything",
        -10.645367010634622
      ],
      [
        "backward",
        -10.645803470976825
      ],
      [
        "stage",
        -10.645921562149692
      ],
      [
        "opening",
        -10.651683414965728
      ],
      [
        "identical",
        -10.652356154038234
      ],
      [
        "reache",
        -10.652612535085506
      ],
      [
        "unicode",
        -10.652912501752887
      ],
      [
        "jndi",
        -10.654176683064094
      ],
      [
        "publication",
        -10.654376608064013
      ],
      [
        "accesse",
        -10.655857261267402
      ],
      [
        "constructed",
        -10.65591655156797
      ],
      [
        "gradient",
        -10.656019149965594
      ],
      [
        "depend",
        -10.657303094149093
      ],
      [
        "blocking",
        -10.65829953301563
      ],
      [
        "transformer",
        -10.660221285420711
      ],
      [
        "checksum",
        -10.662558725560041
      ],
      [
        "shuts",
        -10.662582807830322
      ],
      [
        "scheduler",
        -10.662609515742547
      ],
      [
        "translated",
        -10.66412528893957
      ],
      [
        "coverage",
        -10.664146948581404
      ],
      [
        "interceptor",
        -10.664816563220292
      ],
      [
        "eturns",
        -10.665313117687479
      ],
      [
        "inventory",
        -10.666228751616021
      ],
      [
        "future",
        -10.667066338092193
      ],
      [
        "32",
        -10.667193684024168
      ],
      [
        "formatting",
        -10.667226885810493
      ],
      [
        "credit",
        -10.667651784410687
      ],
      [
        "later",
        -10.667700523682221
      ],
      [
        "auth",
        -10.667980839089905
      ],
      [
        "nod",
        -10.668884953923833
      ],
      [
        "frames",
        -10.671116707139873
      ],
      [
        "inclusive",
        -10.671500724935846
      ],
      [
        "rue",
        -10.672242248708226
      ],
      [
        "production",
        -10.673067903096715
      ],
      [
        "canonical",
        -10.6737744625265
      ],
      [
        "caption",
        -10.673960110393786
      ],
      [
        "belongin",
        -10.674076524471792
      ],
      [
        "interrupt",
        -10.674946475497025
      ],
      [
        "descendant",
        -10.675233404165796
      ],
      [
        "counts",
        -10.677938065223021
      ],
      [
        "exclusive",
        -10.678162377225611
      ],
      [
        "self",
        -10.678279476039814
      ],
      [
        "retrieving",
        -10.678848362122519
      ],
      [
        "substitution",
        -10.679221363477417
      ],
      [
        "ref",
        -10.680791874444678
      ],
      [
        "spaces",
        -10.681119744819783
      ],
      [
        "presence",
        -10.68301692963376
      ],
      [
        "spatial",
        -10.68337879763704
      ],
      [
        "wire",
        -10.6842399029373
      ],
      [
        "blob",
        -10.685182233856086
      ],
      [
        "hours",
        -10.685552863470399
      ],
      [
        "quick",
        -10.685814816841523
      ],
      [
        "slice",
        -10.68895711678474
      ],
      [
        "neuron",
        -10.689904924261292
      ],
      [
        "again",
        -10.690117094977156
      ],
      [
        "peak",
        -10.690390350089285
      ],
      [
        "extent",
        -10.691386215921412
      ],
      [
        "inject",
        -10.691703181656331
      ],
      [
        "dragge",
        -10.693279031965982
      ],
      [
        "cases",
        -10.693905519848936
      ],
      [
        "deploy",
        -10.694086172323455
      ],
      [
        "vehicle",
        -10.694500157008035
      ],
      [
        "online",
        -10.697160074456779
      ],
      [
        "newline",
        -10.700728935772474
      ],
      [
        "nex",
        -10.700880918567805
      ],
      [
        "inline",
        -10.701304937916438
      ],
      [
        "divide",
        -10.701712199632258
      ],
      [
        "illegal",
        -10.702053544885478
      ],
      [
        "wiki",
        -10.702103951955197
      ],
      [
        "vendor",
        -10.702298325275535
      ],
      [
        "samples",
        -10.702577947594687
      ],
      [
        "mutabl",
        -10.703485882982415
      ],
      [
        "balance",
        -10.703728422229581
      ],
      [
        "personal",
        -10.704752835131586
      ],
      [
        "pretty",
        -10.705111269981057
      ],
      [
        "study",
        -10.705507946886094
      ],
      [
        "learning",
        -10.709113145910623
      ],
      [
        "stub",
        -10.709471363976913
      ],
      [
        "feed",
        -10.709770016235229
      ],
      [
        "decrease",
        -10.710266040223427
      ],
      [
        "ascii",
        -10.710291955844466
      ],
      [
        "conversation",
        -10.710737657923078
      ],
      [
        "warnings",
        -10.711110254743396
      ],
      [
        "stor",
        -10.711833685266331
      ],
      [
        "removal",
        -10.712080358335164
      ],
      [
        "backing",
        -10.712128970835002
      ],
      [
        "voice",
        -10.713578319912468
      ],
      [
        "alarm",
        -10.714275865663403
      ],
      [
        "patch",
        -10.71442393919404
      ],
      [
        "clicks",
        -10.71501585164977
      ],
      [
        "st",
        -10.715279084614775
      ],
      [
        "waypoint",
        -10.715779790622271
      ],
      [
        "jvm",
        -10.715912877774448
      ],
      [
        "forum",
        -10.71689599585676
      ],
      [
        "maximal",
        -10.718326384794207
      ],
      [
        "classification",
        -10.718423634758903
      ],
      [
        "consider",
        -10.718624690794979
      ],
      [
        "multiply",
        -10.71962994943555
      ],
      [
        "elapsed",
        -10.72035733711769
      ],
      [
        "remember",
        -10.720481661471705
      ],
      [
        "share",
        -10.722639100295062
      ],
      [
        "matcher",
        -10.723911511110645
      ],
      [
        "scheduled",
        -10.725318951502652
      ],
      [
        "formats",
        -10.72555096009024
      ],
      [
        "confirmation",
        -10.72608009156448
      ],
      [
        "happen",
        -10.726194336262726
      ],
      [
        "states",
        -10.726800255408417
      ],
      [
        "triangle",
        -10.729519332519764
      ],
      [
        "played",
        -10.729950192540183
      ],
      [
        "consist",
        -10.730131645393865
      ],
      [
        "audit",
        -10.732104444753162
      ],
      [
        "similar",
        -10.732400156138478
      ],
      [
        "intended",
        -10.733301895697032
      ],
      [
        "exact",
        -10.734174149612315
      ],
      [
        "visited",
        -10.73526414846148
      ],
      [
        "fatal",
        -10.736286081847748
      ],
      [
        "union",
        -10.737095213992802
      ],
      [
        "tools",
        -10.73825842071459
      ],
      [
        "slide",
        -10.73978599643444
      ],
      [
        "knowledge",
        -10.74007707994895
      ],
      [
        "deletion",
        -10.741847796783377
      ],
      [
        "considere",
        -10.742237395802867
      ],
      [
        "compression",
        -10.74425504046787
      ],
      [
        "refers",
        -10.746906017231549
      ],
      [
        "expect",
        -10.746986642862666
      ],
      [
        "temp",
        -10.74700701579988
      ],
      [
        "le",
        -10.747442633194643
      ],
      [
        "completel",
        -10.74771487995028
      ],
      [
        "de",
        -10.748500264339834
      ],
      [
        "keywords",
        -10.74990196016271
      ],
      [
        "distribute",
        -10.750207488123046
      ],
      [
        "datastore",
        -10.750890259509102
      ],
      [
        "redraw",
        -10.751422157565905
      ],
      [
        "col",
        -10.751807704781278
      ],
      [
        "expr",
        -10.752889342887645
      ],
      [
        "pag",
        -10.753033513813211
      ],
      [
        "ignor",
        -10.753972583547515
      ],
      [
        "automaton",
        -10.754121705088892
      ],
      [
        "identification",
        -10.75538529024396
      ],
      [
        "detect",
        -10.755644833134447
      ],
      [
        "motion",
        -10.756996915325024
      ],
      [
        "switche",
        -10.757917088388233
      ],
      [
        "ou",
        -10.758166603959303
      ],
      [
        "alternate",
        -10.758175360989828
      ],
      [
        "dds",
        -10.758773445824975
      ],
      [
        "invok",
        -10.75893793847434
      ],
      [
        "executable",
        -10.759370553981675
      ],
      [
        "expired",
        -10.760780001432282
      ],
      [
        "belong",
        -10.762334300494544
      ],
      [
        "visualization",
        -10.76366253990492
      ],
      [
        "plus",
        -10.763676153642914
      ],
      [
        "lowest",
        -10.765592907250774
      ],
      [
        "deep",
        -10.765709888509924
      ],
      [
        "deliver",
        -10.765888063745297
      ],
      [
        "recipient",
        -10.766111226098124
      ],
      [
        "accepte",
        -10.76757954720765
      ],
      [
        "diagnostic",
        -10.767730160574326
      ],
      [
        "ascending",
        -10.768974418191615
      ],
      [
        "crawl",
        -10.770254704981095
      ],
      [
        "follow",
        -10.770499659760144
      ],
      [
        "charset",
        -10.771085052621688
      ],
      [
        "comp",
        -10.771670355724309
      ],
      [
        "textfield",
        -10.77205273000314
      ],
      [
        "stylesheet",
        -10.77331870958874
      ],
      [
        "correlation",
        -10.773714034501856
      ],
      [
        "vario",
        -10.774226479179847
      ],
      [
        "op",
        -10.774552672040418
      ],
      [
        "executor",
        -10.774676219172484
      ],
      [
        "buddy",
        -10.777372210815818
      ],
      [
        "elemen",
        -10.777657405578035
      ],
      [
        "resolved",
        -10.777792156184436
      ],
      [
        "signals",
        -10.777853552737337
      ],
      [
        "animate",
        -10.781513824864403
      ],
      [
        "activ",
        -10.781996640943833
      ],
      [
        "retreive",
        -10.782889687017313
      ],
      [
        "respect",
        -10.784794899337781
      ],
      [
        "extensions",
        -10.786244173745008
      ],
      [
        "evaluator",
        -10.78685743112873
      ],
      [
        "uniform",
        -10.787525421505137
      ],
      [
        "really",
        -10.788624843841557
      ],
      [
        "molecule",
        -10.788868850354193
      ],
      [
        "appearance",
        -10.78996411699576
      ],
      [
        "weather",
        -10.790005679320206
      ],
      [
        "adaptor",
        -10.790151642285252
      ],
      [
        "her",
        -10.792998025510798
      ],
      [
        "subscriber",
        -10.796088796159456
      ],
      [
        "reported",
        -10.796813497001356
      ],
      [
        "garbage",
        -10.798964474814222
      ],
      [
        "secondary",
        -10.803011008002068
      ],
      [
        "legal",
        -10.803678262914922
      ],
      [
        "envelope",
        -10.806212739996408
      ],
      [
        "scaled",
        -10.809352688848975
      ],
      [
        "conditional",
        -10.809395965633293
      ],
      [
        "button1",
        -10.80969137753813
      ],
      [
        "tion",
        -10.81054601780086
      ],
      [
        "api",
        -10.81103355217478
      ],
      [
        "reserved",
        -10.811751150545195
      ],
      [
        "ill",
        -10.815177922140329
      ],
      [
        "expiration",
        -10.816941361125641
      ],
      [
        "jmenu",
        -10.816951991727706
      ],
      [
        "recognize",
        -10.81734660031794
      ],
      [
        "midi",
        -10.81754739485578
      ],
      [
        "delimite",
        -10.81844475546556
      ],
      [
        "might",
        -10.818712228755327
      ],
      [
        "logout",
        -10.818734092306439
      ],
      [
        "jump",
        -10.81930379270508
      ],
      [
        "aggregate",
        -10.819646788995716
      ],
      [
        "publisher",
        -10.819763890393297
      ],
      [
        "raise",
        -10.821348842719038
      ],
      [
        "ensity",
        -10.821384431285068
      ],
      [
        "prototype",
        -10.823916557185676
      ],
      [
        "transient",
        -10.824978411384288
      ],
      [
        "compose",
        -10.824993990127357
      ],
      [
        "roll",
        -10.827294214002023
      ],
      [
        "shader",
        -10.829742710807732
      ],
      [
        "severit",
        -10.829987002959763
      ],
      [
        "ell",
        -10.83108109910063
      ],
      [
        "extends",
        -10.833496814957154
      ],
      [
        "handl",
        -10.834121088550777
      ],
      [
        "hostname",
        -10.83573257814118
      ],
      [
        "implicit",
        -10.83632201085326
      ],
      [
        "ne",
        -10.83718850218077
      ],
      [
        "kernel",
        -10.839700307851238
      ],
      [
        "drawable",
        -10.842162127867745
      ],
      [
        "scrollbar",
        -10.843188531673956
      ],
      [
        "retorna",
        -10.846750364605594
      ],
      [
        "require",
        -10.846764732782908
      ],
      [
        "bitmap",
        -10.847281758504778
      ],
      [
        "pa",
        -10.848274022041089
      ],
      [
        "jpanel",
        -10.849803091663276
      ],
      [
        "jms",
        -10.8501401588304
      ],
      [
        "insertion",
        -10.851686737973033
      ],
      [
        "clas",
        -10.851755690511887
      ],
      [
        "histogram",
        -10.851788376252426
      ],
      [
        "breakpoint",
        -10.852995438347627
      ],
      [
        "unlock",
        -10.853697352050677
      ],
      [
        "probe",
        -10.853805216728304
      ],
      [
        "runner",
        -10.854292898560189
      ],
      [
        "applicab",
        -10.855246919214254
      ],
      [
        "ack",
        -10.856120498249886
      ],
      [
        "fitness",
        -10.856856864669084
      ],
      [
        "conflict",
        -10.857181391830903
      ],
      [
        "encryption",
        -10.858286457365853
      ],
      [
        "lazy",
        -10.85840917341842
      ],
      [
        "leading",
        -10.860446199711845
      ],
      [
        "hand",
        -10.861992740564126
      ],
      [
        "radian",
        -10.863302947056935
      ],
      [
        "outer",
        -10.866745067271083
      ],
      [
        "overriding",
        -10.866844075623312
      ],
      [
        "filesystem",
        -10.867519941684083
      ],
      [
        "ize",
        -10.869213068273554
      ],
      [
        "finding",
        -10.869548408268166
      ],
      [
        "decoration",
        -10.869920036267953
      ],
      [
        "workbench",
        -10.871683859255327
      ],
      [
        "sent",
        -10.874232849795096
      ],
      [
        "traversal",
        -10.87510109063312
      ],
      [
        "ended",
        -10.875492279546606
      ],
      [
        "sorts",
        -10.87592785774073
      ],
      [
        "rect",
        -10.876913865173469
      ],
      [
        "membership",
        -10.877036480578294
      ],
      [
        "black",
        -10.880309412900642
      ],
      [
        "flavor",
        -10.881787514509746
      ],
      [
        "meaning",
        -10.881976737703882
      ],
      [
        "maintain",
        -10.88250555450727
      ],
      [
        "bindings",
        -10.882535202802156
      ],
      [
        "review",
        -10.882761247527071
      ],
      [
        "similarit",
        -10.883251192548556
      ],
      [
        "gesture",
        -10.88464806423027
      ],
      [
        "ru",
        -10.885539513367629
      ],
      [
        "valor",
        -10.886952401549829
      ],
      [
        "grab",
        -10.887002678678229
      ],
      [
        "precondition",
        -10.887482898381938
      ],
      [
        "establishe",
        -10.88768104495011
      ],
      [
        "produc",
        -10.887923491262534
      ],
      [
        "modifiers",
        -10.88826334504796
      ],
      [
        "exactl",
        -10.88832645583729
      ],
      [
        "unary",
        -10.88876979655625
      ],
      [
        "drive",
        -10.889422385270027
      ],
      [
        "toring",
        -10.889704798553801
      ],
      [
        "activitie",
        -10.89150685205251
      ],
      [
        "compiled",
        -10.89164347439829
      ],
      [
        "reject",
        -10.893318356854472
      ],
      [
        "secure",
        -10.89500535528539
      ],
      [
        "encrypted",
        -10.895120333080465
      ],
      [
        "associations",
        -10.89647026347222
      ],
      [
        "tim",
        -10.896778745188204
      ],
      [
        "arg",
        -10.89681519443575
      ],
      [
        "expose",
        -10.897337306250256
      ],
      [
        "pecified",
        -10.898301870797383
      ],
      [
        "cardinalit",
        -10.89835257793376
      ],
      [
        "expire",
        -10.898389712799474
      ],
      [
        "establish",
        -10.898466514451064
      ],
      [
        "money",
        -10.900584343954671
      ],
      [
        "occure",
        -10.901603294869169
      ],
      [
        "daemon",
        -10.901790854679742
      ],
      [
        "splash",
        -10.902473212622521
      ],
      [
        "flash",
        -10.903053603829374
      ],
      [
        "separat",
        -10.904404482945612
      ],
      [
        "google",
        -10.905457657425657
      ],
      [
        "asks",
        -10.90999504548093
      ],
      [
        "caching",
        -10.910495172991322
      ],
      [
        "producer",
        -10.911526956067991
      ],
      [
        "ailing",
        -10.91181738161906
      ],
      [
        "atomic",
        -10.91385470428091
      ],
      [
        "facade",
        -10.914383165575861
      ],
      [
        "notation",
        -10.914581872642795
      ],
      [
        "componen",
        -10.916007139405686
      ],
      [
        "solver",
        -10.917421679235652
      ],
      [
        "nto",
        -10.917496501530763
      ],
      [
        "bytecode",
        -10.918522740034593
      ],
      [
        "compatibilit",
        -10.91909514409641
      ],
      [
        "bracket",
        -10.919385819419286
      ],
      [
        "gain",
        -10.91961039187368
      ],
      [
        "fecha",
        -10.919860108127803
      ],
      [
        "sensitive",
        -10.92286723675744
      ],
      [
        "moment",
        -10.925055019289761
      ],
      [
        "furthe",
        -10.925736197360571
      ],
      [
        "biz",
        -10.925800961406257
      ],
      [
        "ipping",
        -10.925913265603608
      ],
      [
        "alive",
        -10.926466561025777
      ],
      [
        "hyperlink",
        -10.926497319549016
      ],
      [
        "office",
        -10.92698823943017
      ],
      [
        "deserialize",
        -10.927886759680463
      ],
      [
        "together",
        -10.928098964378574
      ],
      [
        "specifi",
        -10.92871698339141
      ],
      [
        "uitable",
        -10.929453917814273
      ],
      [
        "deck",
        -10.93039014228864
      ],
      [
        "license",
        -10.930676238800329
      ],
      [
        "trans",
        -10.933621997485082
      ],
      [
        "computed",
        -10.93369016967198
      ],
      [
        "anonymous",
        -10.934102936650685
      ],
      [
        "wheel",
        -10.934209497005165
      ],
      [
        "guard",
        -10.9369361699345
      ],
      [
        "substring",
        -10.937056009819166
      ],
      [
        "insets",
        -10.938109855940674
      ],
      [
        "facilit",
        -10.938243830242417
      ],
      [
        "relations",
        -10.939119416072888
      ],
      [
        "struts",
        -10.94001019466793
      ],
      [
        "campaign",
        -10.940036832122937
      ],
      [
        "smalles",
        -10.94029867227523
      ],
      [
        "assum",
        -10.940673737128762
      ],
      [
        "scape",
        -10.940949865107168
      ],
      [
        "decision",
        -10.94108650203681
      ],
      [
        "triggere",
        -10.943160782895923
      ],
      [
        "shallow",
        -10.944314718945956
      ],
      [
        "flight",
        -10.944789087446402
      ],
      [
        "damage",
        -10.944861253603428
      ],
      [
        "mandator",
        -10.945441125656718
      ],
      [
        "enclosing",
        -10.946235046329118
      ],
      [
        "structures",
        -10.946839501079687
      ],
      [
        "permanent",
        -10.947864585585272
      ],
      [
        "predefine",
        -10.94802226158795
      ],
      [
        "fraction",
        -10.948294536805012
      ],
      [
        "flip",
        -10.94904112441867
      ],
      [
        "team",
        -10.94978042794156
      ],
      [
        "usual",
        -10.951424978187713
      ],
      [
        "analyze",
        -10.95180546926172
      ],
      [
        "layers",
        -10.952980120910278
      ],
      [
        "concatenate",
        -10.953615115030518
      ],
      [
        "tabl",
        -10.953666643549994
      ],
      [
        "instant",
        -10.953822202595045
      ],
      [
        "optimize",
        -10.953852445358056
      ],
      [
        "encrypt",
        -10.955452106389552
      ],
      [
        "ap",
        -10.96161832318234
      ],
      [
        "residue",
        -10.961916336169622
      ],
      [
        "strip",
        -10.96211150445011
      ],
      [
        "ooking",
        -10.962245893425397
      ],
      [
        "alter",
        -10.962553388165489
      ],
      [
        "annotate",
        -10.962821876708627
      ],
      [
        "defining",
        -10.963227616887384
      ],
      [
        "artist",
        -10.96393771900216
      ],
      [
        "exits",
        -10.965053720524313
      ],
      [
        "ve",
        -10.965932101230491
      ],
      [
        "launche",
        -10.966174877480494
      ],
      [
        "collector",
        -10.966676595044184
      ],
      [
        "ight",
        -10.966944560244954
      ],
      [
        "triggers",
        -10.967431463440796
      ],
      [
        "combobox",
        -10.968638980972104
      ],
      [
        "secret",
        -10.970302581462079
      ],
      [
        "explorer",
        -10.970347319408985
      ],
      [
        "painting",
        -10.970758515938885
      ],
      [
        "privilege",
        -10.971925126564582
      ],
      [
        "busy",
        -10.97200234457182
      ],
      [
        "retain",
        -10.97258045619774
      ],
      [
        "ests",
        -10.97391194487774
      ],
      [
        "spell",
        -10.97639062129675
      ],
      [
        "imag",
        -10.977003105747299
      ],
      [
        "guid",
        -10.977934305253239
      ],
      [
        "accumulate",
        -10.978706626554061
      ],
      [
        "shall",
        -10.980419946397728
      ],
      [
        "warn",
        -10.983745833424436
      ],
      [
        "mailbox",
        -10.985421578313101
      ],
      [
        "executin",
        -10.986250841222898
      ],
      [
        "league",
        -10.987431078124688
      ],
      [
        "away",
        -10.987626273794628
      ],
      [
        "coding",
        -10.987896538640342
      ],
      [
        "enough",
        -10.988035929716176
      ],
      [
        "jdom",
        -10.98876750609703
      ],
      [
        "instruct",
        -10.993295997959995
      ],
      [
        "tokenizer",
        -10.993549757787644
      ],
      [
        "observe",
        -10.994179011880068
      ],
      [
        "regex",
        -10.99523121252869
      ],
      [
        "pseudo",
        -10.99563491413377
      ],
      [
        "allocation",
        -10.995750817081774
      ],
      [
        "promotion",
        -10.995826840453677
      ],
      [
        "atoms",
        -10.997174497101291
      ],
      [
        "referenc",
        -10.997534094949739
      ],
      [
        "touch",
        -10.997804133059944
      ],
      [
        "species",
        -11.000126796660638
      ],
      [
        "energ",
        -11.0013600055196
      ],
      [
        "cha",
        -11.001865100901934
      ],
      [
        "20",
        -11.00307690952883
      ],
      [
        "gateway",
        -11.004422056045577
      ],
      [
        "strict",
        -11.005158506353595
      ],
      [
        "invoice",
        -11.00708255593021
      ],
      [
        "adapt",
        -11.007341126203226
      ],
      [
        "firing",
        -11.007734313651211
      ],
      [
        "downloaded",
        -11.008704181968039
      ],
      [
        "subscribe",
        -11.009108840704393
      ],
      [
        "compresse",
        -11.009784292910162
      ],
      [
        "positions",
        -11.010315383096005
      ],
      [
        "detecte",
        -11.010731074135352
      ],
      [
        "markup",
        -11.0111292718289
      ],
      [
        "prop",
        -11.011427374615984
      ],
      [
        "wit",
        -11.011722812000244
      ],
      [
        "lifecycle",
        -11.012210173006434
      ],
      [
        "manual",
        -11.01275280556076
      ],
      [
        "multiplies",
        -11.014617730036417
      ],
      [
        "unload",
        -11.015526407023103
      ],
      [
        "green",
        -11.015701759160148
      ],
      [
        "constrain",
        -11.01678728410242
      ],
      [
        "classname",
        -11.01961304829642
      ],
      [
        "ome",
        -11.020361882613807
      ],
      [
        "symbols",
        -11.02046552108816
      ],
      [
        "much",
        -11.021082351748229
      ],
      [
        "ok",
        -11.021264073228597
      ],
      [
        "colors",
        -11.02278625816945
      ],
      [
        "cumulative",
        -11.023275446989256
      ],
      [
        "notice",
        -11.023694043703387
      ],
      [
        "cipher",
        -11.024533463427726
      ],
      [
        "usuario",
        -11.025073828498009
      ],
      [
        "raster",
        -11.025517283621568
      ],
      [
        "ate",
        -11.025701791346345
      ],
      [
        "inherit",
        -11.02740518818326
      ],
      [
        "occurence",
        -11.027538616356328
      ],
      [
        "capability",
        -11.029249922339794
      ],
      [
        "ity",
        -11.030186191068642
      ],
      [
        "cover",
        -11.032121238252998
      ],
      [
        "decorate",
        -11.03243582460832
      ],
      [
        "hardware",
        -11.03321074680164
      ],
      [
        "emptie",
        -11.033407957898799
      ],
      [
        "quaternion",
        -11.033640680792288
      ],
      [
        "dispatche",
        -11.03432037108332
      ],
      [
        "independent",
        -11.039040591165499
      ],
      [
        "broker",
        -11.03907387644896
      ],
      [
        "retriev",
        -11.039334099187093
      ],
      [
        "race",
        -11.039449636885692
      ],
      [
        "reflection",
        -11.03954231158976
      ],
      [
        "retrive",
        -11.04108335150416
      ],
      [
        "simulator",
        -11.0417416273541
      ],
      [
        "spinner",
        -11.042637583421026
      ],
      [
        "intensity",
        -11.042720100079492
      ],
      [
        "planet",
        -11.042948481593042
      ],
      [
        "rebuild",
        -11.043278809403017
      ],
      [
        "enumerate",
        -11.04350255413528
      ],
      [
        "verbose",
        -11.044924694196167
      ],
      [
        "hide",
        -11.046283131981863
      ],
      [
        "updat",
        -11.047750819639973
      ],
      [
        "mass",
        -11.048102017814198
      ],
      [
        "jtext",
        -11.04825570351828
      ],
      [
        "overrid",
        -11.048660764494905
      ],
      [
        "detach",
        -11.04870373493674
      ],
      [
        "conten",
        -11.04914637382643
      ],
      [
        "overlap",
        -11.049233413669306
      ],
      [
        "indicati",
        -11.049540032563801
      ],
      [
        "analyzer",
        -11.04985313224773
      ],
      [
        "finder",
        -11.051123611154278
      ],
      [
        "paths",
        -11.052652212695058
      ],
      [
        "multicast",
        -11.052945495144693
      ],
      [
        "deviation",
        -11.053271037186061
      ],
      [
        "immediate",
        -11.053755739689674
      ],
      [
        "draggin",
        -11.055098609813733
      ],
      [
        "repeated",
        -11.055952032316178
      ],
      [
        "symbolic",
        -11.057209826465524
      ],
      [
        "blue",
        -11.058169418661965
      ],
      [
        "pathname",
        -11.058351882947228
      ],
      [
        "attache",
        -11.05900958419594
      ],
      [
        "then",
        -11.059151022234994
      ],
      [
        "decorator",
        -11.05929624877046
      ],
      [
        "manuall",
        -11.060040340071573
      ],
      [
        "cal",
        -11.06026468775853
      ],
      [
        "interpret",
        -11.060523174156412
      ],
      [
        "sting",
        -11.060546080439629
      ],
      [
        "availabilit",
        -11.061089581797187
      ],
      [
        "provid",
        -11.061304831947234
      ],
      [
        "taxon",
        -11.061338628275557
      ],
      [
        "synchronous",
        -11.063878674817218
      ],
      [
        "recalculate",
        -11.06391790705328
      ],
      [
        "util",
        -11.064071998941076
      ],
      [
        "sector",
        -11.067662319718307
      ],
      [
        "100",
        -11.067985958081888
      ],
      [
        "hour",
        -11.068391871227984
      ],
      [
        "consistent",
        -11.069456214389202
      ],
      [
        "calculat",
        -11.069591816913798
      ],
      [
        "displayable",
        -11.06978218095097
      ],
      [
        "friend",
        -11.070671099175417
      ],
      [
        "keystore",
        -11.071575654190735
      ],
      [
        "seller",
        -11.07198214787557
      ],
      [
        "ction",
        -11.0721401479042
      ],
      [
        "submission",
        -11.074662193718268
      ],
      [
        "outcome",
        -11.075500144359763
      ],
      [
        "mobile",
        -11.07690357417796
      ],
      [
        "invite",
        -11.07706424568908
      ],
      [
        "cpu",
        -11.07742225621757
      ],
      [
        "lucene",
        -11.080080561032752
      ],
      [
        "imports",
        -11.080357889028729
      ],
      [
        "rgb",
        -11.081155794492204
      ],
      [
        "onto",
        -11.081269618843155
      ],
      [
        "ground",
        -11.081733809123158
      ],
      [
        "objective",
        -11.081946902903788
      ],
      [
        "customize",
        -11.082104487179876
      ],
      [
        "estimated",
        -11.08228078688295
      ],
      [
        "am",
        -11.082395670481962
      ],
      [
        "plays",
        -11.083018617062649
      ],
      [
        "successor",
        -11.084727830500475
      ],
      [
        "department",
        -11.08487770274197
      ],
      [
        "whe",
        -11.08540230811133
      ],
      [
        "uninstall",
        -11.08646901820079
      ],
      [
        "temperature",
        -11.086491842368387
      ],
      [
        "finalize",
        -11.086510584028806
      ],
      [
        "merchant",
        -11.088232687585613
      ],
      [
        "perspective",
        -11.088908393659235
      ],
      [
        "validat",
        -11.089396574046688
      ],
      [
        "retrieval",
        -11.09005376752646
      ],
      [
        "overwritte",
        -11.090736022389667
      ],
      [
        "smtp",
        -11.090767547633693
      ],
      [
        "locks",
        -11.091245667547833
      ],
      [
        "bond",
        -11.091631745959784
      ],
      [
        "variance",
        -11.091737455169062
      ],
      [
        "weapon",
        -11.092064900260162
      ],
      [
        "detection",
        -11.094738055586006
      ],
      [
        "oracle",
        -11.094808872117085
      ],
      [
        "larges",
        -11.094827285179681
      ],
      [
        "patterns",
        -11.095656361752816
      ],
      [
        "do",
        -11.097028978305659
      ],
      [
        "bject",
        -11.097605214374092
      ],
      [
        "expressions",
        -11.098853725827643
      ],
      [
        "merges",
        -11.099856353272994
      ],
      [
        "racer",
        -11.10051339567126
      ],
      [
        "potential",
        -11.100774220020247
      ],
      [
        "react",
        -11.101590859719941
      ],
      [
        "para",
        -11.101718699748455
      ],
      [
        "supply",
        -11.101987797296339
      ],
      [
        "makin",
        -11.103329644528785
      ],
      [
        "selectable",
        -11.103533744821014
      ],
      [
        "coord",
        -11.103549820580872
      ],
      [
        "panel1",
        -11.104507559350681
      ],
      [
        "equipment",
        -11.105542466019818
      ],
      [
        "whatever",
        -11.107947613561617
      ],
      [
        "publishe",
        -11.108235937319089
      ],
      [
        "song",
        -11.108711127555338
      ],
      [
        "brief",
        -11.108883468328553
      ],
      [
        "overload",
        -11.111788155991785
      ],
      [
        "classloader",
        -11.113231702333605
      ],
      [
        "synchronization",
        -11.113457438737097
      ],
      [
        "succeed",
        -11.114261238106444
      ],
      [
        "journal",
        -11.11468824886552
      ],
      [
        "community",
        -11.114698466816836
      ],
      [
        "datagram",
        -11.115486708627262
      ],
      [
        "transparenc",
        -11.115886409995941
      ],
      [
        "paste",
        -11.115951293663748
      ],
      [
        "mirror",
        -11.11804740760672
      ],
      [
        "projects",
        -11.118472603273728
      ],
      [
        "wrong",
        -11.118527185616255
      ],
      [
        "parallel",
        -11.118949446753595
      ],
      [
        "comparable",
        -11.12109303042126
      ],
      [
        "subsequent",
        -11.12112435649571
      ],
      [
        "permit",
        -11.121424243159401
      ],
      [
        "64",
        -11.121631120306535
      ],
      [
        "owne",
        -11.124526269915194
      ],
      [
        "nombre",
        -11.124995608648863
      ],
      [
        "minus",
        -11.12761203967409
      ],
      [
        "meeting",
        -11.130864195061086
      ],
      [
        "ull",
        -11.131166576764743
      ],
      [
        "ells",
        -11.132210781581446
      ],
      [
        "deprecate",
        -11.134033615043965
      ],
      [
        "expansion",
        -11.13487889464038
      ],
      [
        "initialisation",
        -11.136009289090595
      ],
      [
        "norm",
        -11.137115753488185
      ],
      [
        "lazil",
        -11.13714261803167
      ],
      [
        "contribution",
        -11.137492257204482
      ],
      [
        "covered",
        -11.138947439469773
      ],
      [
        "mor",
        -11.139015173261855
      ],
      [
        "representi",
        -11.139151435438059
      ],
      [
        "distinct",
        -11.140288583367031
      ],
      [
        "routing",
        -11.141045089617517
      ],
      [
        "coming",
        -11.141139730289357
      ],
      [
        "across",
        -11.141445204854923
      ],
      [
        "rectangula",
        -11.142529009132717
      ],
      [
        "cap",
        -11.142772398468146
      ],
      [
        "log4j",
        -11.144230831938147
      ],
      [
        "timeline",
        -11.147924925093548
      ],
      [
        "affected",
        -11.149166138295971
      ],
      [
        "dd",
        -11.1497839440907
      ],
      [
        "optimization",
        -11.150034271174164
      ],
      [
        "callable",
        -11.150114153360722
      ],
      [
        "smart",
        -11.15142821506163
      ],
      [
        "uni",
        -11.151560793830068
      ],
      [
        "effects",
        -11.152449691804726
      ],
      [
        "directed",
        -11.153199614719757
      ],
      [
        "swap",
        -11.15342358864692
      ],
      [
        "sqlexception",
        -11.155241311837262
      ],
      [
        "four",
        -11.155721309115377
      ],
      [
        "serializable",
        -11.15962930662415
      ],
      [
        "highlighting",
        -11.159776544035559
      ],
      [
        "mp3",
        -11.15990848336436
      ],
      [
        "cancelle",
        -11.160607657532244
      ],
      [
        "ating",
        -11.160825536107502
      ],
      [
        "documen",
        -11.16217504926277
      ],
      [
        "discrete",
        -11.163645244379811
      ],
      [
        "invitation",
        -11.164516705634892
      ],
      [
        "bulk",
        -11.165835895242218
      ],
      [
        "jtable",
        -11.166300061781554
      ],
      [
        "ball",
        -11.167137902812478
      ],
      [
        "equation",
        -11.167327760142358
      ],
      [
        "templates",
        -11.168386133124002
      ],
      [
        "convention",
        -11.168649109149953
      ],
      [
        "clearing",
        -11.169175525149075
      ],
      [
        "inactive",
        -11.16984626548226
      ],
      [
        "satisfie",
        -11.169991843111434
      ],
      [
        "dumps",
        -11.170667599655498
      ],
      [
        "sphere",
        -11.17219555669244
      ],
      [
        "exiting",
        -11.173425929588388
      ],
      [
        "wildcard",
        -11.17427121414396
      ],
      [
        "unset",
        -11.175141638482053
      ],
      [
        "now",
        -11.175665779470396
      ],
      [
        "trust",
        -11.175966652653496
      ],
      [
        "pitch",
        -11.176475974637118
      ],
      [
        "thumb",
        -11.17756544752027
      ],
      [
        "termination",
        -11.177636651491582
      ],
      [
        "normall",
        -11.177652164970889
      ],
      [
        "handled",
        -11.178151789059061
      ],
      [
        "controlled",
        -11.178288945587884
      ],
      [
        "naming",
        -11.178800815499196
      ],
      [
        "reservation",
        -11.17924275267892
      ],
      [
        "features",
        -11.181079081881418
      ],
      [
        "natural",
        -11.181954993830585
      ],
      [
        "floor",
        -11.182198315763387
      ],
      [
        "division",
        -11.182303687469934
      ],
      [
        "wall",
        -11.182316765210949
      ],
      [
        "friendl",
        -11.182527455094418
      ],
      [
        "involve",
        -11.184602307752888
      ],
      [
        "tested",
        -11.185317062502541
      ],
      [
        "md5",
        -11.185472314355412
      ],
      [
        "tiles",
        -11.185604579825538
      ],
      [
        "struct",
        -11.186544018647854
      ],
      [
        "realm",
        -11.187940433410798
      ],
      [
        "bus",
        -11.18955146053544
      ],
      [
        "doing",
        -11.189699806160458
      ],
      [
        "jmx",
        -11.191105707447566
      ],
      [
        "acking",
        -11.191465494084202
      ],
      [
        "chapter",
        -11.19179644259648
      ],
      [
        "uploade",
        -11.192100644086626
      ],
      [
        "life",
        -11.192504521231669
      ],
      [
        "11",
        -11.193284378668931
      ],
      [
        "immutab",
        -11.193297801705835
      ],
      [
        "terrain",
        -11.193396734446898
      ],
      [
        "they",
        -11.194293912934363
      ],
      [
        "navigator",
        -11.194439493507005
      ],
      [
        "computation",
        -11.195720335848286
      ],
      [
        "calculator",
        -11.195973565991338
      ],
      [
        "res",
        -11.197711287979686
      ],
      [
        "lexical",
        -11.198492941270704
      ],
      [
        "polynomial",
        -11.198654472323456
      ],
      [
        "characteristic",
        -11.198795833225274
      ],
      [
        "composition",
        -11.199361631714602
      ],
      [
        "highlighte",
        -11.199853190362171
      ],
      [
        "trade",
        -11.201624660005107
      ],
      [
        "closure",
        -11.201920605157916
      ],
      [
        "cart",
        -11.204449389596514
      ],
      [
        "directive",
        -11.204712893806706
      ],
      [
        "field1",
        -11.207870548493855
      ],
      [
        "mak",
        -11.20834623278466
      ],
      [
        "train",
        -11.209678508742993
      ],
      [
        "software",
        -11.209977228723606
      ],
      [
        "among",
        -11.210652343715495
      ],
      [
        "conver",
        -11.21120891415448
      ],
      [
        "invisible",
        -11.211245176024907
      ],
      [
        "higher",
        -11.211399317715141
      ],
      [
        "corpus",
        -11.21294237203166
      ],
      [
        "pops",
        -11.213046778774139
      ],
      [
        "urls",
        -11.213155562135293
      ],
      [
        "developer",
        -11.213957127876
      ],
      [
        "thickness",
        -11.214889765182729
      ],
      [
        "listed",
        -11.214955784312558
      ],
      [
        "reporting",
        -11.216016968686006
      ],
      [
        "slot",
        -11.21617747896153
      ],
      [
        "supposed",
        -11.216342029720906
      ],
      [
        "detache",
        -11.217585277955301
      ],
      [
        "avatar",
        -11.21863081278401
      ],
      [
        "authorit",
        -11.219136479612374
      ],
      [
        "denote",
        -11.219250778175708
      ],
      [
        "llowing",
        -11.219988723065459
      ],
      [
        "fresh",
        -11.22116227123232
      ],
      [
        "prepend",
        -11.222126231644054
      ],
      [
        "axes",
        -11.22297430390498
      ],
      [
        "ound",
        -11.223004161466474
      ],
      [
        "reasoner",
        -11.223392809559526
      ],
      [
        "quad",
        -11.224880870611049
      ],
      [
        "intent",
        -11.225708916869392
      ],
      [
        "whats",
        -11.226909133611088
      ],
      [
        "bluetooth",
        -11.227185331591308
      ],
      [
        "shapes",
        -11.227201659765441
      ],
      [
        "bold",
        -11.228100996698108
      ],
      [
        "snmp",
        -11.228371404774297
      ],
      [
        "serve",
        -11.229637593317609
      ],
      [
        "motor",
        -11.229883973898552
      ],
      [
        "advanced",
        -11.23153840266043
      ],
      [
        "painter",
        -11.233813838724798
      ],
      [
        "subtype",
        -11.234250758717147
      ],
      [
        "tring",
        -11.234786034088515
      ],
      [
        "sales",
        -11.235692369382853
      ],
      [
        "opcode",
        -11.235953856570266
      ],
      [
        "faces",
        -11.237113877362255
      ],
      [
        "jml",
        -11.238053557647895
      ],
      [
        "lang",
        -11.238186236128495
      ],
      [
        "weights",
        -11.240412468453801
      ],
      [
        "indirect",
        -11.240762073518736
      ],
      [
        "auxiliar",
        -11.242297161102407
      ],
      [
        "stereotype",
        -11.243210804678636
      ],
      [
        "defaul",
        -11.243268971585724
      ],
      [
        "jcomponent",
        -11.24347112603569
      ],
      [
        "bridge",
        -11.244862441534707
      ],
      [
        "divider",
        -11.245696616327049
      ],
      [
        "diff",
        -11.246028434227188
      ],
      [
        "ake",
        -11.246327863499276
      ],
      [
        "translator",
        -11.247004067965317
      ],
      [
        "ont",
        -11.247030419060636
      ],
      [
        "chord",
        -11.248506929853631
      ],
      [
        "tdout",
        -11.248823742603737
      ],
      [
        "carry",
        -11.249479944419615
      ],
      [
        "existenc",
        -11.249938857329353
      ],
      [
        "clipping",
        -11.25040883284344
      ],
      [
        "quotes",
        -11.251134912088393
      ],
      [
        "finishe",
        -11.251932419592682
      ],
      [
        "inits",
        -11.253098253655292
      ],
      [
        "models",
        -11.25326419480743
      ],
      [
        "pane1",
        -11.253497378512417
      ],
      [
        "mission",
        -11.253822350411227
      ],
      [
        "approve",
        -11.253971101548458
      ],
      [
        "ling",
        -11.255640882313571
      ],
      [
        "proposal",
        -11.25668353749996
      ],
      [
        "suggestion",
        -11.257319080659851
      ],
      [
        "placeholder",
        -11.258735790975482
      ],
      [
        "svg",
        -11.259346498743808
      ],
      [
        "affect",
        -11.259416130466281
      ],
      [
        "coords",
        -11.259611249308435
      ],
      [
        "roster",
        -11.260090561812614
      ],
      [
        "vocabular",
        -11.260154658250684
      ],
      [
        "chars",
        -11.26026955123129
      ],
      [
        "newl",
        -11.26078334922245
      ],
      [
        "servic",
        -11.26160137362075
      ],
      [
        "datetime",
        -11.261670595807793
      ],
      [
        "trim",
        -11.263223951091078
      ],
      [
        "conference",
        -11.263581667200238
      ],
      [
        "favorite",
        -11.26447141898775
      ],
      [
        "birth",
        -11.26516642896759
      ],
      [
        "strength",
        -11.265370584970952
      ],
      [
        "interior",
        -11.26631015679612
      ],
      [
        "opposite",
        -11.269314581801577
      ],
      [
        "transitions",
        -11.27101902392432
      ],
      [
        "pub",
        -11.272195608204111
      ],
      [
        "packe",
        -11.27265161522052
      ],
      [
        "overloade",
        -11.273347614427372
      ],
      [
        "ven",
        -11.273380966948373
      ],
      [
        "eclipse",
        -11.273797393569364
      ],
      [
        "arrive",
        -11.274488461694265
      ],
      [
        "monitorin",
        -11.274560575272213
      ],
      [
        "extraction",
        -11.276535308037072
      ],
      [
        "grant",
        -11.277299964834306
      ],
      [
        "baseline",
        -11.278412492764817
      ],
      [
        "cube",
        -11.2786606245885
      ],
      [
        "dimensional",
        -11.27930798965934
      ],
      [
        "picker",
        -11.279682205540032
      ],
      [
        "minimize",
        -11.28017088764443
      ],
      [
        "bu",
        -11.281575832121273
      ],
      [
        "millis",
        -11.283081385836494
      ],
      [
        "pull",
        -11.283367321219938
      ],
      [
        "authorize",
        -11.284198133028635
      ],
      [
        "icons",
        -11.284372976503622
      ],
      [
        "nick",
        -11.286204436836005
      ],
      [
        "ql",
        -11.286361440654437
      ],
      [
        "suggest",
        -11.288248863828112
      ],
      [
        "adjacent",
        -11.289617529749364
      ],
      [
        "indication",
        -11.290091182540573
      ],
      [
        "severa",
        -11.290284708140044
      ],
      [
        "committe",
        -11.29044806853975
      ],
      [
        "nature",
        -11.291024633225545
      ],
      [
        "numbers",
        -11.291873258969039
      ],
      [
        "reconnect",
        -11.292734250442592
      ],
      [
        "12",
        -11.293488706573248
      ],
      [
        "inter",
        -11.294245033158814
      ],
      [
        "xsl",
        -11.294664961783475
      ],
      [
        "workbook",
        -11.29470256487968
      ],
      [
        "ent",
        -11.295918704824732
      ],
      [
        "datum",
        -11.298070485926218
      ],
      [
        "traffic",
        -11.298653495770402
      ],
      [
        "contour",
        -11.29870472792657
      ],
      [
        "rational",
        -11.298857909304658
      ],
      [
        "sources",
        -11.300655476297841
      ],
      [
        "codigo",
        -11.301256155034977
      ],
      [
        "ter",
        -11.302379350064015
      ],
      [
        "operate",
        -11.302485343383456
      ],
      [
        "important",
        -11.303045374188539
      ],
      [
        "demo",
        -11.303897212867053
      ],
      [
        "held",
        -11.304537579814523
      ],
      [
        "mus",
        -11.304728953573992
      ],
      [
        "cloud",
        -11.304989835036155
      ],
      [
        "resolv",
        -11.304999599114371
      ],
      [
        "descr",
        -11.305395879234108
      ],
      [
        "testcase",
        -11.305629335846504
      ],
      [
        "numero",
        -11.306519803963262
      ],
      [
        "overview",
        -11.30850340165325
      ],
      [
        "invert",
        -11.309787367293879
      ],
      [
        "base64",
        -11.310325969323145
      ],
      [
        "unmodifi",
        -11.31058324154988
      ],
      [
        "blast",
        -11.311014105218955
      ],
      [
        "featur",
        -11.311532786688758
      ],
      [
        "viewing",
        -11.312422263207877
      ],
      [
        "instantiation",
        -11.313043209748933
      ],
      [
        "rol",
        -11.313385457390355
      ],
      [
        "ranking",
        -11.313944062092434
      ],
      [
        "slave",
        -11.314030208377044
      ],
      [
        "verifie",
        -11.314677462276679
      ],
      [
        "occupie",
        -11.314780155492365
      ],
      [
        "hav",
        -11.317939426009755
      ],
      [
        "rom",
        -11.317952493574214
      ],
      [
        "variation",
        -11.31796899845871
      ],
      [
        "packages",
        -11.318470675932247
      ],
      [
        "solve",
        -11.31903759723814
      ],
      [
        "tolerance",
        -11.321267341198872
      ],
      [
        "giving",
        -11.323608459708115
      ],
      [
        "inser",
        -11.324199920195937
      ],
      [
        "formal",
        -11.324864508393642
      ],
      [
        "followe",
        -11.325342410074779
      ],
      [
        "men",
        -11.32546775552411
      ],
      [
        "discount",
        -11.326263140395127
      ],
      [
        "pressing",
        -11.326769793624548
      ],
      [
        "outputs",
        -11.327468666651722
      ],
      [
        "satisfy",
        -11.32797696175818
      ],
      [
        "instantiat",
        -11.328337387939893
      ],
      [
        "typicall",
        -11.32972059383397
      ],
      [
        "verification",
        -11.329896657116889
      ],
      [
        "street",
        -11.331254220896522
      ],
      [
        "ind",
        -11.331273352630534
      ],
      [
        "protein",
        -11.331319825194376
      ],
      [
        "defaults",
        -11.332676080996697
      ],
      [
        "detailed",
        -11.332848005607874
      ],
      [
        "measured",
        -11.333057027786245
      ],
      [
        "router",
        -11.333114043088749
      ],
      [
        "revert",
        -11.333633937903286
      ],
      [
        "deserialization",
        -11.334697101798533
      ],
      [
        "timing",
        -11.335940182837803
      ],
      [
        "creature",
        -11.336266924598878
      ],
      [
        "manag",
        -11.337213081284926
      ],
      [
        "wi",
        -11.337485954169349
      ],
      [
        "enqueue",
        -11.338760059106406
      ],
      [
        "genome",
        -11.338946927673351
      ],
      [
        "panels",
        -11.339307188176562
      ],
      [
        "streams",
        -11.339948274534688
      ],
      [
        "li",
        -11.340556615447303
      ],
      [
        "orbit",
        -11.34109527204934
      ],
      [
        "purchase",
        -11.341321589423178
      ],
      [
        "floatin",
        -11.34271470458641
      ],
      [
        "offline",
        -11.343140987932724
      ],
      [
        "detalle",
        -11.343848007071678
      ],
      [
        "restrict",
        -11.343960072546423
      ],
      [
        "paper",
        -11.344465567045827
      ],
      [
        "reaction",
        -11.345439604647172
      ],
      [
        "speech",
        -11.349913512805356
      ],
      [
        "marshal",
        -11.35158121354132
      ],
      [
        "arc",
        -11.352041900404478
      ],
      [
        "jgraph",
        -11.352286256467986
      ],
      [
        "idle",
        -11.353859896920795
      ],
      [
        "upgrade",
        -11.355080308824501
      ],
      [
        "gray",
        -11.35576761257457
      ],
      [
        "magnitud",
        -11.356028981783243
      ],
      [
        "unuse",
        -11.356192349673677
      ],
      [
        "accelerator",
        -11.35673406576418
      ],
      [
        "harvest",
        -11.357110384508285
      ],
      [
        "mutation",
        -11.357967437603982
      ],
      [
        "sampling",
        -11.358368161510409
      ],
      [
        "encoder",
        -11.358532001048728
      ],
      [
        "multiplication",
        -11.358631591465073
      ],
      [
        "stead",
        -11.359550872932754
      ],
      [
        "injection",
        -11.361059033959467
      ],
      [
        "gression",
        -11.361092851332064
      ],
      [
        "copyright",
        -11.361348895371417
      ],
      [
        "neighbour",
        -11.36186756420775
      ],
      [
        "bin",
        -11.363175176070008
      ],
      [
        "circuit",
        -11.365089639194599
      ],
      [
        "retry",
        -11.366257338904267
      ],
      [
        "merged",
        -11.366591759048696
      ],
      [
        "placement",
        -11.367040792273468
      ],
      [
        "spawn",
        -11.367574952317952
      ],
      [
        "returne",
        -11.368645512401827
      ],
      [
        "jaxb",
        -11.368815172545519
      ],
      [
        "snippet",
        -11.369249029435162
      ],
      [
        "installation",
        -11.374808745587455
      ],
      [
        "demand",
        -11.375389024798412
      ],
      [
        "accession",
        -11.377557491269037
      ],
      [
        "te",
        -11.377999885362721
      ],
      [
        "scans",
        -11.378751870976053
      ],
      [
        "today",
        -11.379698780015806
      ],
      [
        "ew",
        -11.379765726689893
      ],
      [
        "delegat",
        -11.380047988804634
      ],
      [
        "styles",
        -11.38032624381865
      ],
      [
        "uid",
        -11.380394013378712
      ],
      [
        "skippe",
        -11.38071676522966
      ],
      [
        "interpretation",
        -11.381279617393975
      ],
      [
        "retur",
        -11.381374769616407
      ],
      [
        "administrator",
        -11.381667225921912
      ],
      [
        "aggregation",
        -11.381683922450833
      ],
      [
        "combine",
        -11.382005219552065
      ],
      [
        "rying",
        -11.382111796649422
      ],
      [
        "persiste",
        -11.38367128091103
      ],
      [
        "sink",
        -11.383763059586993
      ],
      [
        "auction",
        -11.384060158113423
      ],
      [
        "truncate",
        -11.387178028712414
      ],
      [
        "loc",
        -11.388745292715079
      ],
      [
        "extractor",
        -11.3890063310025
      ],
      [
        "exclud",
        -11.389057252081548
      ],
      [
        "bring",
        -11.392445119476703
      ],
      [
        "correction",
        -11.393771400453193
      ],
      [
        "pojo",
        -11.393874284134046
      ],
      [
        "slots",
        -11.39404676402986
      ],
      [
        "forma",
        -11.394808001278312
      ],
      [
        "axiom",
        -11.39517281059884
      ],
      [
        "earlie",
        -11.395235006069756
      ],
      [
        "converte",
        -11.395718224810008
      ],
      [
        "sessions",
        -11.395768226712114
      ],
      [
        "manipulate",
        -11.395929404359434
      ],
      [
        "subtitle",
        -11.395974219479472
      ],
      [
        "referre",
        -11.397726516320752
      ],
      [
        "f0",
        -11.398476541960395
      ],
      [
        "lease",
        -11.398632731637118
      ],
      [
        "intermediate",
        -11.398634306080353
      ],
      [
        "serializer",
        -11.398837615517996
      ],
      [
        "exponent",
        -11.39941542198035
      ],
      [
        "story",
        -11.400161990886158
      ],
      [
        "central",
        -11.400985788997128
      ],
      [
        "xxx",
        -11.401914937936924
      ],
      [
        "decoder",
        -11.401964208230119
      ],
      [
        "integration",
        -11.402427601989539
      ],
      [
        "repair",
        -11.402909176233589
      ],
      [
        "entrez",
        -11.404763279430924
      ],
      [
        "checker",
        -11.406093704737545
      ],
      [
        "msg",
        -11.406490113486779
      ],
      [
        "proxie",
        -11.407584029971986
      ],
      [
        "ide",
        -11.40793532009204
      ],
      [
        "ook",
        -11.408321767931495
      ],
      [
        "guide",
        -11.409256457795372
      ],
      [
        "scrollable",
        -11.409302701000325
      ],
      [
        "propagation",
        -11.409759366800989
      ],
      [
        "prin",
        -11.410852204795841
      ],
      [
        "exports",
        -11.412223684216855
      ],
      [
        "intercept",
        -11.412694260318634
      ],
      [
        "represen",
        -11.412878691689006
      ],
      [
        "exporter",
        -11.413097187106748
      ],
      [
        "visi",
        -11.413584823823488
      ],
      [
        "calc",
        -11.41416039438208
      ],
      [
        "substitute",
        -11.414972550534117
      ],
      [
        "bars",
        -11.415883903193595
      ],
      [
        "polici",
        -11.416837572585258
      ],
      [
        "explanation",
        -11.417087759408318
      ],
      [
        "comput",
        -11.417665963214043
      ],
      [
        "readonly",
        -11.417735800256846
      ],
      [
        "magic",
        -11.41883839791425
      ],
      [
        "bpm",
        -11.41939225594609
      ],
      [
        "ble",
        -11.420643706474802
      ],
      [
        "basis",
        -11.421354838609256
      ],
      [
        "spreadsheet",
        -11.422240097104194
      ],
      [
        "predecessor",
        -11.422246450804234
      ],
      [
        "collecte",
        -11.423026306477404
      ],
      [
        "physic",
        -11.423922607046006
      ],
      [
        "xref",
        -11.425805248682483
      ],
      [
        "reques",
        -11.426910661944259
      ],
      [
        "gallery",
        -11.427013099049017
      ],
      [
        "invariant",
        -11.42941609885021
      ],
      [
        "affine",
        -11.429643581449229
      ],
      [
        "little",
        -11.43026114727789
      ],
      [
        "15",
        -11.430393948422354
      ],
      [
        "problems",
        -11.431542733389893
      ],
      [
        "um",
        -11.431951044616815
      ],
      [
        "ment",
        -11.43421593870848
      ],
      [
        "collaboration",
        -11.435951143236133
      ],
      [
        "combined",
        -11.437004563307255
      ],
      [
        "consistenc",
        -11.437664680980157
      ],
      [
        "observable",
        -11.4383898818211
      ],
      [
        "hierarchical",
        -11.438611107515623
      ],
      [
        "transmit",
        -11.439075579223392
      ],
      [
        "organism",
        -11.439271499818219
      ],
      [
        "unbind",
        -11.440058820333785
      ],
      [
        "penalt",
        -11.44136843231039
      ],
      [
        "synonym",
        -11.441916377921483
      ],
      [
        "nickname",
        -11.442245307496561
      ],
      [
        "approximate",
        -11.443021597589858
      ],
      [
        "replica",
        -11.446704321771717
      ],
      [
        "interpolation",
        -11.450925897613118
      ],
      [
        "transpose",
        -11.451354734993867
      ],
      [
        "lattice",
        -11.453759448472265
      ],
      [
        "aware",
        -11.454715474408054
      ],
      [
        "analyse",
        -11.45505400830028
      ],
      [
        "recieve",
        -11.456319508042476
      ],
      [
        "transmission",
        -11.458383811600115
      ],
      [
        "continuous",
        -11.458456934427993
      ],
      [
        "complement",
        -11.458967296197196
      ],
      [
        "casts",
        -11.459048403637027
      ],
      [
        "droppe",
        -11.461561572474615
      ],
      [
        "lega",
        -11.463162778426755
      ],
      [
        "flatten",
        -11.464032774413816
      ],
      [
        "scheduling",
        -11.464355852152735
      ],
      [
        "smooth",
        -11.465514567732253
      ],
      [
        "releas",
        -11.46634256318093
      ],
      [
        "internet",
        -11.46749202434351
      ],
      [
        "hashmap",
        -11.467785902959424
      ],
      [
        "periodic",
        -11.467997561847135
      ],
      [
        "xmpp",
        -11.468498896567965
      ],
      [
        "inheritance",
        -11.469035967833952
      ],
      [
        "recycle",
        -11.4693906682516
      ],
      [
        "colony",
        -11.470085150828616
      ],
      [
        "tre",
        -11.470254461015534
      ],
      [
        "00",
        -11.471779647939336
      ],
      [
        "detector",
        -11.472628732139361
      ],
      [
        "alphabet",
        -11.472759536447926
      ],
      [
        "multiplicit",
        -11.473116546462858
      ],
      [
        "shut",
        -11.473321757848788
      ],
      [
        "descending",
        -11.473358644259083
      ],
      [
        "adjustment",
        -11.473512558796266
      ],
      [
        "multiplier",
        -11.473867032486211
      ],
      [
        "pieces",
        -11.474118837941607
      ],
      [
        "heartbeat",
        -11.474308757177592
      ],
      [
        "survey",
        -11.474417285522222
      ],
      [
        "inserte",
        -11.474749754912786
      ],
      [
        "timezone",
        -11.4758400658615
      ],
      [
        "genre",
        -11.4765252151381
      ],
      [
        "critical",
        -11.476697476578751
      ],
      [
        "standing",
        -11.477678913686933
      ],
      [
        "writable",
        -11.477696111492888
      ],
      [
        "tuples",
        -11.47843695394592
      ],
      [
        "accounts",
        -11.479057772174755
      ],
      [
        "declar",
        -11.479152484528157
      ],
      [
        "recover",
        -11.479797457352007
      ],
      [
        "servers",
        -11.480259992353282
      ],
      [
        "polling",
        -11.48029343500325
      ],
      [
        "capabl",
        -11.481262423288193
      ],
      [
        "tagged",
        -11.48258758211854
      ],
      [
        "manufacturer",
        -11.483168001956798
      ],
      [
        "opponent",
        -11.4852236162194
      ],
      [
        "eaving",
        -11.485265103731184
      ],
      [
        "labeled",
        -11.48606078959585
      ],
      [
        "postal",
        -11.486937572695467
      ],
      [
        "barcode",
        -11.48778230229966
      ],
      [
        "advertisement",
        -11.488080831589585
      ],
      [
        "xslt",
        -11.48838815965275
      ],
      [
        "exceed",
        -11.488474120860584
      ],
      [
        "red",
        -11.489084798634199
      ],
      [
        "mnemonic",
        -11.490435584910248
      ],
      [
        "qual",
        -11.49056190591497
      ],
      [
        "topping",
        -11.490876075230146
      ],
      [
        "shortest",
        -11.491320875889235
      ],
      [
        "parents",
        -11.491654781996672
      ],
      [
        "www",
        -11.492539223567913
      ],
      [
        "sam",
        -11.49293383741158
      ],
      [
        "toward",
        -11.493278483705804
      ],
      [
        "skin",
        -11.49417987631608
      ],
      [
        "restricted",
        -11.49424001780612
      ],
      [
        "concern",
        -11.494329699751049
      ],
      [
        "paren",
        -11.494592443558062
      ],
      [
        "best",
        -11.495266314336812
      ],
      [
        "confidence",
        -11.495266456233983
      ],
      [
        "prediction",
        -11.495410028830896
      ],
      [
        "python",
        -11.495436634108456
      ],
      [
        "unread",
        -11.495767627074786
      ],
      [
        "health",
        -11.495978524862256
      ],
      [
        "writ",
        -11.496285389492765
      ],
      [
        "circular",
        -11.498954905493495
      ],
      [
        "biostruc",
        -11.499831551306528
      ],
      [
        "backend",
        -11.500324343122916
      ],
      [
        "ro",
        -11.501520658665164
      ],
      [
        "wer",
        -11.502222964057225
      ],
      [
        "guess",
        -11.503463623722201
      ],
      [
        "benchmark",
        -11.504624772877285
      ],
      [
        "configur",
        -11.505555032197265
      ],
      [
        "atributo",
        -11.505561466796568
      ],
      [
        "im",
        -11.505702561441797
      ],
      [
        "complet",
        -11.50682809732691
      ],
      [
        "importe",
        -11.506864094567877
      ],
      [
        "chronolog",
        -11.507547831023405
      ],
      [
        "north",
        -11.508153251124133
      ],
      [
        "interactive",
        -11.508241444446366
      ],
      [
        "explain",
        -11.508857858093453
      ],
      [
        "timesheet",
        -11.509534417964513
      ],
      [
        "website",
        -11.509944108933112
      ],
      [
        "prev",
        -11.510624861967573
      ],
      [
        "accordingly",
        -11.511148288309544
      ],
      [
        "pooled",
        -11.512264191529866
      ],
      [
        "tax",
        -11.512679335055399
      ],
      [
        "nome",
        -11.513402185275854
      ],
      [
        "purge",
        -11.514398535277238
      ],
      [
        "researcher",
        -11.514707307499869
      ],
      [
        "examine",
        -11.514757144351147
      ],
      [
        "dir",
        -11.515013952241638
      ],
      [
        "supplier",
        -11.515202267587583
      ],
      [
        "decl",
        -11.51526818493702
      ],
      [
        "universe",
        -11.515465567410818
      ],
      [
        "deal",
        -11.517060137145306
      ],
      [
        "peek",
        -11.517278322500626
      ],
      [
        "preserve",
        -11.517829249164105
      ],
      [
        "metho",
        -11.520065046572508
      ],
      [
        "rollover",
        -11.520437259995143
      ],
      [
        "clob",
        -11.521395447038449
      ],
      [
        "technical",
        -11.521704381754997
      ],
      [
        "comes",
        -11.523143162245045
      ],
      [
        "wo",
        -11.523484518772415
      ],
      [
        "battle",
        -11.523773064873964
      ],
      [
        "express",
        -11.524982933491579
      ],
      [
        "resourc",
        -11.525286960149622
      ],
      [
        "maximize",
        -11.52550103903462
      ],
      [
        "respective",
        -11.526401277038822
      ],
      [
        "violation",
        -11.528899783068894
      ],
      [
        "structural",
        -11.530182950674348
      ],
      [
        "panel2",
        -11.531048000804823
      ],
      [
        "simpl",
        -11.532278983843801
      ],
      [
        "excel",
        -11.533191734401488
      ],
      [
        "protection",
        -11.53398382542709
      ],
      [
        "notebook",
        -11.534792319360632
      ],
      [
        "pleas",
        -11.535970119878877
      ],
      [
        "replication",
        -11.536369032752448
      ],
      [
        "bonus",
        -11.536757718504163
      ],
      [
        "trip",
        -11.538439697096049
      ],
      [
        "someone",
        -11.5392356306557
      ],
      [
        "facet",
        -11.540035233680621
      ],
      [
        "appointment",
        -11.540927571303087
      ],
      [
        "grouping",
        -11.541843227885654
      ],
      [
        "recipe",
        -11.542660723644941
      ],
      [
        "undefined",
        -11.543796256519727
      ],
      [
        "dialect",
        -11.544262369710452
      ],
      [
        "jtxt",
        -11.544691245258445
      ],
      [
        "swaps",
        -11.546264532662178
      ],
      [
        "decrypt",
        -11.546369375082492
      ],
      [
        "exclusion",
        -11.547205828836656
      ],
      [
        "wheter",
        -11.547480796858812
      ],
      [
        "sizing",
        -11.548438057421453
      ],
      [
        "tipo",
        -11.549113688462455
      ],
      [
        "nt",
        -11.550411477755604
      ],
      [
        "databas",
        -11.551091822584596
      ],
      [
        "kick",
        -11.551564199736944
      ],
      [
        "squared",
        -11.551581947604507
      ],
      [
        "siz",
        -11.551695339387582
      ],
      [
        "diagonal",
        -11.554145774570966
      ],
      [
        "owns",
        -11.554838279360828
      ],
      [
        "stereo",
        -11.556405556763627
      ],
      [
        "numerical",
        -11.556547194796845
      ],
      [
        "citation",
        -11.557133781795965
      ],
      [
        "enabl",
        -11.557811750237523
      ],
      [
        "budget",
        -11.558806382437407
      ],
      [
        "inpu",
        -11.559043335673888
      ],
      [
        "locking",
        -11.559114595443827
      ],
      [
        "replay",
        -11.560383320440149
      ],
      [
        "xt",
        -11.56055869810356
      ],
      [
        "inspect",
        -11.561345796981886
      ],
      [
        "ac",
        -11.562838961779178
      ],
      [
        "arrival",
        -11.563036154194045
      ],
      [
        "situation",
        -11.563041805339843
      ],
      [
        "school",
        -11.563461273603867
      ],
      [
        "meters",
        -11.56378034187432
      ],
      [
        "shrink",
        -11.564037135930946
      ],
      [
        "marking",
        -11.564950147309164
      ],
      [
        "ree",
        -11.565249738378789
      ],
      [
        "applications",
        -11.566681286614532
      ],
      [
        "lists",
        -11.567015214790004
      ],
      [
        "mim",
        -11.567378345765292
      ],
      [
        "pen",
        -11.567467398197811
      ],
      [
        "ving",
        -11.567728109259356
      ],
      [
        "estado",
        -11.567855631612368
      ],
      [
        "wrapp",
        -11.568874323020657
      ],
      [
        "staff",
        -11.56912834800718
      ],
      [
        "products",
        -11.569702351119764
      ],
      [
        "und",
        -11.57124087815441
      ],
      [
        "nominal",
        -11.572540148385077
      ],
      [
        "dont",
        -11.573603941192822
      ],
      [
        "req",
        -11.57389394139443
      ],
      [
        "searched",
        -11.574149974287987
      ],
      [
        "contributor",
        -11.574350621356224
      ],
      [
        "convenient",
        -11.574871545896846
      ],
      [
        "30",
        -11.57498399114789
      ],
      [
        "fixm",
        -11.575029434337708
      ],
      [
        "tracing",
        -11.576186393085592
      ],
      [
        "acceleration",
        -11.576208148947593
      ],
      [
        "income",
        -11.576816269327903
      ],
      [
        "utting",
        -11.577193225137716
      ],
      [
        "overflow",
        -11.577319024480621
      ],
      [
        "ead",
        -11.579608133277446
      ],
      [
        "challenge",
        -11.579695899552497
      ],
      [
        "ntry",
        -11.580159736663095
      ],
      [
        "ance",
        -11.580321219507926
      ],
      [
        "accurac",
        -11.581704258866491
      ],
      [
        "issuer",
        -11.581921952817416
      ],
      [
        "recognizer",
        -11.583237264908536
      ],
      [
        "prime",
        -11.584002112999315
      ],
      [
        "institution",
        -11.584702751465782
      ],
      [
        "wave",
        -11.584821168884027
      ],
      [
        "chang",
        -11.58616071167496
      ],
      [
        "italic",
        -11.587646286062496
      ],
      [
        "librarie",
        -11.588557385971203
      ],
      [
        "clockwis",
        -11.589514872820796
      ],
      [
        "jbutton",
        -11.589667587525884
      ],
      [
        "specialize",
        -11.590616637718547
      ],
      [
        "fold",
        -11.590650570297118
      ],
      [
        "who",
        -11.590849069645152
      ],
      [
        "bpel",
        -11.59138086704775
      ],
      [
        "encounter",
        -11.591398623339831
      ],
      [
        "calibration",
        -11.591922012660888
      ],
      [
        "compact",
        -11.59268534268773
      ],
      [
        "banner",
        -11.593281770296906
      ],
      [
        "deregister",
        -11.593361299829976
      ],
      [
        "furni",
        -11.593795260837396
      ],
      [
        "arrays",
        -11.594134139866709
      ],
      [
        "reconstruct",
        -11.595144073772833
      ],
      [
        "heuristic",
        -11.595198948153408
      ],
      [
        "delgate",
[...]
