{
  "version": "1.0",
  "truncation": null,
  "padding": null,
  "added_tokens": [
    {
      "id": 0,
      "content": "<pad>",
      "single_word": false,
      "lstrip": false,
      "rstrip": false,
      "normalized": false,
      "special": true
    },
    {
      "id": 1,
      "content": "<unk>",
      "single_word": false,
      "lstrip": false,
      "rstrip": false,
      "normalized": false,
      "special": true
    },
    {
      "id": 2,
      "content": "<s>",
      "single_word": false,
      "lstrip": false,
      "rstrip": false,
      "normalized": false,
      "special": true
    },
    {
      "id": 3,
      "content": "</s>",
      "single_word": false,
      "lstrip": false,
      "rstrip": false,
      "normalized": false,
      "special": true
    },
    {
      "id": 4,
      "content": "\"<str>\"",
      "single_word": false,
      "lstrip": false,
      "rstrip": false,
      "normalized": false,
      "special": true
    },
    {
      "id": 5,
      "content": "<empty>",
      "single_word": false,
      "lstrip": false,
      "rstrip": false,
      "normalized": false,
      "special": true
    }
  ],
  "normalizer": {
    "type": "Sequence",
    "normalizers": [
      {
        "type": "NFD"
      },
      {
        "type": "StripAccents"
      },
      {
        "type": "Strip",
        "strip_left": true,
        "strip_right": true
      }
    ]
  },
  "pre_tokenizer": {
    "type": "Whitespace"
  },
  "post_processor": null,
  "decoder": null,
  "model": {
    "type": "BPE",
    "dropout": null,
    "unk_token": "<unk>",
    "continuing_subword_prefix": null,
    "end_of_word_suffix": "</w>",
    "fuse_unk": false,
    "vocab": {
      "<pad>": 0,
      "<unk>": 1,
      "<s>": 2,
      "</s>": 3,
      "\"<str>\"": 4,
      "<empty>": 5,
      "!": 6,
      "\"": 7,
      "#": 8,
      "$": 9,
      "%": 10,
      "&": 11,
      "'": 12,
      "(": 13,
      ")": 14,
      "*": 15,
      "+": 16,
      ",": 17,
      "-": 18,
      ".": 19,
      "/": 20,
      "0": 21,
      "1": 22,
      "2": 23,
      "3": 24,
      "4": 25,
      "5": 26,
      "6": 27,
      "7": 28,
      "8": 29,
      "9": 30,
      ":": 31,
      ";": 32,
      "<": 33,
      "=": 34,
      ">": 35,
      "?": 36,
      "@": 37,
      "A": 38,
      "B": 39,
      "C": 40,
      "D": 41,
      "E": 42,
      "F": 43,
      "G": 44,
      "H": 45,
      "I": 46,
      "J": 47,
      "K": 48,
      "L": 49,
      "M": 50,
      "N": 51,
      "O": 52,
      "P": 53,
      "Q": 54,
      "R": 55,
      "S": 56,
      "T": 57,
      "U": 58,
      "V": 59,
      "W": 60,
      "X": 61,
      "Y": 62,
      "Z": 63,
      "[": 64,
      "\\": 65,
      "]": 66,
      "^": 67,
      "_": 68,
      "`": 69,
      "a": 70,
      "b": 71,
      "c": 72,
      "d": 73,
      "e": 74,
      "f": 75,
      "g": 76,
      "h": 77,
      "i": 78,
      "j": 79,
      "k": 80,
      "l": 81,
      "m": 82,
      "n": 83,
      "o": 84,
      "p": 85,
      "q": 86,
      "r": 87,
      "s": 88,
      "t": 89,
      "u": 90,
      "v": 91,
      "w": 92,
      "x": 93,
      "y": 94,
      "z": 95,
      "{": 96,
      "|": 97,
      "}": 98,
      "~": 99,
      "t</w>": 100,
      "l</w>": 101,
      "e</w>": 102,
      "d</w>": 103,
      "r</w>": 104,
      "n</w>": 105,
      "s</w>": 106,
      "y</w>": 107,
      "p</w>": 108,
      "N</w>": 109,
      "Y</w>": 110,
      "k</w>": 111,
      "S</w>": 112,
      "g</w>": 113,
      "o</w>": 114,
      "w</w>": 115,
      "x</w>": 116,
      "X</w>": 117,
      "H</w>": 118,
      "2</w>": 119,
      "m</w>": 120,
      "1</w>": 121,
      "a</w>": 122,
      "i</w>": 123,
      "0</w>": 124,
      "R</w>": 125,
      "E</w>": 126,
      "P</w>": 127,
      "u</w>": 128,
      "D</w>": 129,
      "I</w>": 130,
      "c</w>": 131,
      "4</w>": 132,
      "T</w>": 133,
      "h</w>": 134,
      "L</w>": 135,
      "f</w>": 136,
      "K</w>": 137,
      "B</w>": 138,
      "5</w>": 139,
      "C</w>": 140,
      "G</w>": 141,
      "8</w>": 142,
      "b</w>": 143,
      "z</w>": 144,
      "j</w>": 145,
      "v</w>": 146,
      "7</w>": 147,
      "F</w>": 148,
      "A</w>": 149,
      "_</w>": 150,
      "3</w>": 151,
      "O</w>": 152,
      "W</w>": 153,
      "M</w>": 154,
      "6</w>": 155,
      "Q</w>": 156,
      "q</w>": 157,
      "=</w>": 158,
      "V</w>": 159,
      "9</w>": 160,
      ":</w>": 161,
      "'</w>": 162,
      "Z</w>": 163,
      "U</w>": 164,
      "J</w>": 165,
      "\\</w>": 166,
      "-</w>": 167,
      "|</w>": 168,
      ")</w>": 169,
      ",</w>": 170,
      "<</w>": 171,
      "]</w>": 172,
      "!</w>": 173,
      "{</w>": 174,
      "(</w>": 175,
      "+</w>": 176,
      "@</w>": 177,
      "></w>": 178,
      "$</w>": 179,
      "*</w>": 180,
      "}</w>": 181,
      "%</w>": 182,
      "?</w>": 183,
      "[</w>": 184,
      ";</w>": 185,
      "/</w>": 186,
      ".</w>": 187,
      "&</w>": 188,
      "\"</w>": 189,
      "~</w>": 190,
      "^</w>": 191,
      "in": 192,
      "re": 193,
      "te": 194,
      "st": 195,
      "at": 196,
      "le": 197,
      "tr": 198,
      "on": 199,
      "ge": 200,
      "al": 201,
      "en": 202,
      "ur": 203,
      "ne": 204,
      "ti": 205,
      "er": 206,
      "if</w>": 207,
      "ar": 208,
      "ro": 209,
      "bl": 210,
      "de": 211,
      "int</w>": 212,
      "ing</w>": 213,
      "str</w>": 214,
      "ul": 215,
      "pu": 216,
      "Str": 217,
      "\"<</w>": 218,
      ">\"</w>": 219,
      "is": 220,
      "ic</w>": 221,
      "or": 222,
      "se": 223,
      "ou": 224,
      "ret": 225,
      "on</w>": 226,
      "retur": 227,
      "return</w>": 228,
      "String</w>": 229,
      "an": 230,
      "get": 231,
      "ce": 232,
      "ri": 233,
      "am": 234,
      "new</w>": 235,
      "In": 236,
      "as": 237,
      "ad": 238,
      "lo": 239,
      "th": 240,
      "publ": 241,
      "public</w>": 242,
      "il": 243,
      "ch": 244,
      "ec": 245,
      "ull</w>": 246,
      "tion</w>": 247,
      "se</w>": 248,
      "null</w>": 249,
      "th</w>": 250,
      "si": 251,
      "ra": 252,
      "el": 253,
      "ue</w>": 254,
      "al</w>": 255,
      "id</w>": 256,
      "or</w>": 257,
      "er</w>": 258,
      "==</w>": 259,
      "co": 260,
      "vo": 261,
      "res": 262,
      "um": 263,
      "void</w>": 264,
      "ac": 265,
      "St": 266,
      "ble</w>": 267,
      "ig": 268,
      "ff": 269,
      "Ex": 270,
      "ma": 271,
      "ate</w>": 272,
      "gth</w>": 273,
      "fin": 274,
      "len": 275,
      "es": 276,
      "ate": 277,
      "ame</w>": 278,
      "it": 279,
      "bu": 280,
      "ption</w>": 281,
      "Co": 282,
      "de</w>": 283,
      "length</w>": 284,
      "to": 285,
      "qu": 286,
      "men": 287,
      "ter": 288,
      "oo": 289,
      "te</w>": 290,
      "ab": 291,
      "Lis": 292,
      "final</w>": 293,
      "Exce": 294,
      "oun": 295,
      "Exception</w>": 296,
      "ati": 297,
      "!=</w>": 298,
      "ing": 299,
      "ap": 300,
      "fi": 301,
      "ze</w>": 302,
      "mp": 303,
      "ex": 304,
      "set": 305,
      "else</w>": 306,
      "ath</w>": 307,
      "thro": 308,
      "lea": 309,
      "ouble</w>": 310,
      "im": 311,
      "con": 312,
      "alue</w>": 313,
      "Bu": 314,
      "Con": 315,
      "stat": 316,
      "Re": 317,
      "id": 318,
      "yp": 319,
      "++</w>": 320,
      "ts</w>": 321,
      "Ch": 322,
      "Se": 323,
      "static</w>": 324,
      "ke": 325,
      "tion": 326,
      "ter</w>": 327,
      "es</w>": 328,
      "rea": 329,
      "lean</w>": 330,
      "oolean</w>": 331,
      "Ar": 332,
      "by": 333,
      "ile</w>": 334,
      "List</w>": 335,
      "dex</w>": 336,
      "pro": 337,
      "Name</w>": 338,
      "der</w>": 339,
      "double</w>": 340,
      "jec": 341,
      "po": 342,
      "Po": 343,
      "No": 344,
      "ser": 345,
      "boolean</w>": 346,
      "By": 347,
      "ren": 348,
      "pri": 349,
      "ic": 350,
      "is</w>": 351,
      "&&</w>": 352,
      "ws</w>": 353,
      "Pro": 354,
      "ult</w>": 355,
      "add": 356,
      "En": 357,
      "ve": 358,
      "la": 359,
      "priv": 360,
      "To": 361,
      "oc": 362,
      "private</w>": 363,
      "for</w>": 364,
      "bjec": 365,
      "ta": 366,
      "up": 367,
      "add</w>": 368,
      "Math</w>": 369,
      "ge</w>": 370,
      "un": 371,
      "end</w>": 372,
      "alse</w>": 373,
      "ver": 374,
      "mo": 375,
      "ount</w>": 376,
      "byte</w>": 377,
      "di": 378,
      "m_": 379,
      "Typ": 380,
      "per": 381,
      "false</w>": 382,
      "app": 383,
      "Byte": 384,
      "ger</w>": 385,
      "throws</w>": 386,
      "Arra": 387,
      "set</w>": 388,
      "result</w>": 389,
      "new": 390,
      "Objec": 391,
      "no": 392,
      "lemen": 393,
      "size</w>": 394,
      "ar</w>": 395,
      "igh": 396,
      "ata</w>": 397,
      "xt</w>": 398,
      "ce</w>": 399,
      "at</w>": 400,
      "Si": 401,
      "true</w>": 402,
      "las": 403,
      "ol": 404,
      "qual": 405,
      "ffer</w>": 406,
      "||</w>": 407,
      "tem</w>": 408,
      "IO": 409,
      "ent</w>": 410,
      "cur": 411,
      "this</w>": 412,
      "alu": 413,
      "put": 414,
      "put</w>": 415,
      "in</w>": 416,
      "Fi": 417,
      "Ma": 418,
      "ation</w>": 419,
      "loc": 420,
      "ong</w>": 421,
      "get</w>": 422,
      "par": 423,
      "star": 424,
      "De": 425,
      "quals</w>": 426,
      "value</w>": 427,
      "Tim": 428,
      "su": 429,
      "flo": 430,
      "stan": 431,
      "str": 432,
      "Value</w>": 433,
      "append</w>": 434,
      "vi": 435,
      "ator</w>": 436,
      "and": 437,
      "wri": 438,
      "Inte": 439,
      "cre": 440,
      "tri": 441,
      "able": 442,
      "pa": 443,
      "me": 444,
      "Object</w>": 445,
      "Type</w>": 446,
      "Size</w>": 447,
      "ent": 448,
      "umb": 449,
      "ted</w>": 450,
      "li": 451,
      "lec": 452,
      "eigh": 453,
      "sa": 454,
      "Index</w>": 455,
      "tene": 456,
      "IN": 457,
      "ation": 458,
      "E_": 459,
      "Pa": 460,
      "ds</w>": 461,
      "our": 462,
      "rent": 463,
      "Sy": 464,
      "Mo": 465,
      "Elemen": 466,
      "ream</w>": 467,
      "float</w>": 468,
      "At": 469,
      "Di": 470,
      "for": 471,
      "ed": 472,
      "Integer</w>": 473,
      "ten": 474,
      "ffset</w>": 475,
      "ata": 476,
      "xt": 477,
      "it</w>": 478,
      "Bytes</w>": 479,
      "index</w>": 480,
      "pre": 481,
      "String": 482,
      "end": 483,
      "Array": 484,
      "Par": 485,
      "Node</w>": 486,
      "throw</w>": 487,
      "Id</w>": 488,
      "text</w>": 489,
      "ER": 490,
      "ty</w>": 491,
      "out</w>": 492,
      "idth</w>": 493,
      "sert": 494,
      "Me": 495,
      "Res": 496,
      "ed</w>": 497,
      "An": 498,
      "eight</w>": 499,
      "Count</w>": 500,
      "iz": 501,
      "Ke": 502,
      "ut": 503,
      "File</w>": 504,
      "remo": 505,
      "tem": 506,
      "name</w>": 507,
      "tribu": 508,
      "wh": 509,
      "sh": 510,
      "Sys": 511,
      "char": 512,
      "long</w>": 513,
      "st</w>": 514,
      "ame": 515,
      "Le": 516,
      "int": 517,
      "Stream</w>": 518,
      "Col": 519,
      "le</w>": 520,
      "+=</w>": 521,
      "read": 522,
      "essa": 523,
      "ase</w>": 524,
      "create": 525,
      "00": 526,
      "Buffer</w>": 527,
      "able</w>": 528,
      "For": 529,
      "Lo": 530,
      "arra": 531,
      "tener</w>": 532,
      "lin": 533,
      "IOException</w>": 534,
      "Tex": 535,
      "while</w>": 536,
      "has": 537,
      "equals</w>": 538,
      "T_": 539,
      "assert": 540,
      "ted": 541,
      "tions</w>": 542,
      "Ac": 543,
      "ilder</w>": 544,
      "ve</w>": 545,
      "sub": 546,
      "Numb": 547,
      "out": 548,
      "Clas": 549,
      "ch</w>": 550,
      "do": 551,
      "ie": 552,
      "Lin": 553,
      "cop": 554,
      "Map</w>": 555,
      "Set</w>": 556,
      "ect": 557,
      "mat": 558,
      "System</w>": 559,
      "len</w>": 560,
      "Al": 561,
      "AT": 562,
      "lis": 563,
      "sc": 564,
      "Uti": 565,
      "Data</w>": 566,
      "act": 567,
      "dex": 568,
      "ph": 569,
      "toString</w>": 570,
      "sion</w>": 571,
      "try</w>": 572,
      "valu": 573,
      "Sc": 574,
      "red": 575,
      "rec": 576,
      "string</w>": 577,
      "Attribu": 578,
      "Char": 579,
      "sition</w>": 580,
      "ces": 581,
      "ls</w>": 582,
      "current": 583,
      "Loc": 584,
      "tec": 585,
      "At</w>": 586,
      "ff</w>": 587,
      "Vie": 588,
      "Big": 589,
      "ild": 590,
      ">=</w>": 591,
      "CO": 592,
      "Of</w>": 593,
      "ack": 594,
      "Over": 595,
      "est": 596,
      "data</w>": 597,
      "tain": 598,
      "ran": 599,
      "Sp": 600,
      "0x": 601,
      "char</w>": 602,
      "ment</w>": 603,
      "UR": 604,
      "ty": 605,
      "ort</w>": 606,
      "Qu": 607,
      "EN": 608,
      "fo</w>": 609,
      "protec": 610,
      "putStream</w>": 611,
      "start": 612,
      "sy": 613,
      "Builder</w>": 614,
      "Proper": 615,
      "Element</w>": 616,
      "count</w>": 617,
      "Number</w>": 618,
      "gres": 619,
      "protected</w>": 620,
      "Th": 621,
      "sp": 622,
      "Comp": 623,
      "Array</w>": 624,
      "all": 625,
      "code": 626,
      "wor": 627,
      "buf</w>": 628,
      "ride</w>": 629,
      "next": 630,
      "eck": 631,
      "Len": 632,
      "Out": 633,
      "Ser": 634,
      "Valu": 635,
      "mat</w>": 636,
      "min": 637,
      "ult": 638,
      "RE": 639,
      "Chan": 640,
      "Override</w>": 641,
      "Sh": 642,
      "tt": 643,
      "col": 644,
      "Ev": 645,
      "start</w>": 646,
      "Width</w>": 647,
      "Lab": 648,
      "File": 649,
      "Listener</w>": 650,
      "Ca": 651,
      "LO": 652,
      "av": 653,
      "date": 654,
      "offset</w>": 655,
      "Path</w>": 656,
      "Un": 657,
      "ity</w>": 658,
      "el</w>": 659,
      "La": 660,
      "ory</w>": 661,
      "array": 662,
      "Op": 663,
      "read</w>": 664,
      "sb</w>": 665,
      "fa": 666,
      "typ": 667,
      "Data": 668,
      "key</w>": 669,
      "write": 670,
      "max": 671,
      "comp": 672,
      "AL": 673,
      "Ad": 674,
      "copy</w>": 675,
      "Time</w>": 676,
      "ace</w>": 677,
      "terator</w>": 678,
      "Length</w>": 679,
      "pos</w>": 680,
      "essage</w>": 681,
      "lu": 682,
      "buffer</w>": 683,
      "Time": 684,
      "<=</w>": 685,
      "ource": 686,
      "AR": 687,
      "ase": 688,
      "raw": 689,
      "contain": 690,
      "ron": 691,
      "Height</w>": 692,
      "rs</w>": 693,
      "lock</w>": 694,
      "ader</w>": 695,
      "byte": 696,
      "charAt</w>": 697,
      "Mat": 698,
      "check": 699,
      "ale</w>": 700,
      "tho": 701,
      "remove": 702,
      "Star": 703,
      "_S": 704,
      "ure": 705,
      "op": 706,
      "Pre": 707,
      "Wri": 708,
      "num": 709,
      "DE": 710,
      "Bit": 711,
      "Double</w>": 712,
      "min</w>": 713,
      "max</w>": 714,
      "ild</w>": 715,
      "com": 716,
      "last": 717,
      "ip": 718,
      "Rec": 719,
      "next</w>": 720,
      "lor</w>": 721,
      "clas": 722,
      "ack</w>": 723,
      "map</w>": 724,
      "MA": 725,
      "State</w>": 726,
      "stance</w>": 727,
      "ft</w>": 728,
      "old": 729,
      "exp": 730,
      "RO": 731,
      "ource</w>": 732,
      "syn": 733,
      "test": 734,
      "leg": 735,
      "ow": 736,
      "Key</w>": 737,
      "bo": 738,
      "gs</w>": 739,
      "ArrayList</w>": 740,
      "val": 741,
      "pla": 742,
      "ID</w>": 743,
      "fir": 744,
      "Offset</w>": 745,
      "Su": 746,
      "Node": 747,
      "ort": 748,
      "Vect": 749,
      "Of": 750,
      "log": 751,
      "est</w>": 752,
      "ist": 753,
      "BigInteger</w>": 754,
      "State": 755,
      "Key": 756,
      "sion": 757,
      "Equals</w>": 758,
      "ad</w>": 759,
      "index": 760,
      "nel</w>": 761,
      "D_": 762,
      "arraycopy</w>": 763,
      "nec": 764,
      "Class</w>": 765,
      "val</w>": 766,
      "Dec": 767,
      "cess": 768,
      "file": 769,
      "Utils</w>": 770,
      "log</w>": 771,
      "elemen": 772,
      "Attribute": 773,
      "pr": 774,
      "Emp": 775,
      "And": 776,
      "data": 777,
      "Wi": 778,
      "Ta": 779,
      "sig": 780,
      "Text</w>": 781,
      "us</w>": 782,
      "ment": 783,
      "brea": 784,
      "clo": 785,
      "Int</w>": 786,
      "ill": 787,
      "AC": 788,
      "substring</w>": 789,
      "umn": 790,
      "StringBuilder</w>": 791,
      "Fiel": 792,
      "ord": 793,
      "break</w>": 794,
      "ized</w>": 795,
      "age": 796,
      "Ne": 797,
      "write</w>": 798,
      "Selec": 799,
      "IT": 800,
      "assertEquals</w>": 801,
      "rom": 802,
      "parse": 803,
      "che": 804,
      "ties</w>": 805,
      "Label</w>": 806,
      "rig": 807,
      "value": 808,
      "fe": 809,
      "node</w>": 810,
      "ob": 811,
      "remove</w>": 812,
      "N_": 813,
      "Sig": 814,
      "Has": 815,
      "pon": 816,
      "Color</w>": 817,
      "Constan": 818,
      "ument": 819,
      "um</w>": 820,
      "He": 821,
      "andle": 822,
      "Long</w>": 823,
      "ang": 824,
      "Info</w>": 825,
      "Il": 826,
      "rent</w>": 827,
      "legal": 828,
      "ces</w>": 829,
      "Ima": 830,
      "Illegal": 831,
      "path</w>": 832,
      "OR": 833,
      "type</w>": 834,
      "chron": 835,
      "ints</w>": 836,
      "text": 837,
      "Tran": 838,
      "list</w>": 839,
      "View</w>": 840,
      "Position</w>": 841,
      "requ": 842,
      "Empty</w>": 843,
      "Nex": 844,
      "Vector</w>": 845,
      "Requ": 846,
      "width</w>": 847,
      "del": 848,
      "Arg": 849,
      "synchron": 850,
      "fiel": 851,
      "ll": 852,
      "Text": 853,
      "Ver": 854,
      "ers</w>": 855,
      "Change": 856,
      "file</w>": 857,
      "enti": 858,
      "lic": 859,
      "synchronized</w>": 860,
      "ST": 861,
      "Pat": 862,
      "ure</w>": 863,
      "Inter": 864,
      "Cur": 865,
      "fig": 866,
      "height</w>": 867,
      "Event</w>": 868,
      "gress</w>": 869,
      "Constants</w>": 870,
      "Code</w>": 871,
      "tar": 872,
      "gro": 873,
      "Bo": 874,
      "S_": 875,
      "ando": 876,
      "update": 877,
      "ken</w>": 878,
      "ble": 879,
      "LE": 880,
      "sr": 881,
      "Wor": 882,
      "tran": 883,
      "Id": 884,
      "line</w>": 885,
      "he": 886,
      "Spe": 887,
      "key": 888,
      "line": 889,
      "Collec": 890,
      "format</w>": 891,
      "Man": 892,
      "ken": 893,
      "upp": 894,
      "time": 895,
      "ct": 896,
      "Pos</w>": 897,
      "are": 898,
      "inter": 899,
      "Line</w>": 900,
      "righ": 901,
      "Boun": 902,
      "Lay": 903,
      "AM": 904,
      "Fact": 905,
      "Point</w>": 906,
      "Or": 907,
      "ms": 908,
      "adi": 909,
      "isi": 910,
      "Up": 911,
      "Item": 912,
      "00</w>": 913,
      "Buff": 914,
      "abs</w>": 915,
      "vie": 916,
      "isEmpty</w>": 917,
      "case</w>": 918,
      "fix</w>": 919,
      "Not": 920,
      "Entry</w>": 921,
      "first": 922,
      "Writer</w>": 923,
      "Nam": 924,
      "pp": 925,
      "Iterator</w>": 926,
      "pat": 927,
      "rro": 928,
      "Ed": 929,
      "Var": 930,
      "bit": 931,
      "dis": 932,
      "raph": 933,
      "bloc": 934,
      "essage": 935,
      "iter</w>": 936,
      "Object": 937,
      "Type": 938,
      "position</w>": 939,
      "Context</w>": 940,
      "Metho": 941,
      ">></w>": 942,
      "Stat": 943,
      "Com": 944,
      "contains</w>": 945,
      "Message</w>": 946,
      "Item</w>": 947,
      "Hash": 948,
      "ev": 949,
      "us": 950,
      "OutputStream</w>": 951,
      "draw": 952,
      "SL": 953,
      "UN": 954,
      "jav": 955,
      "Argument": 956,
      "TE": 957,
      "amp": 958,
      "Trans": 959,
      "Values</w>": 960,
      "--</w>": 961,
      "On": 962,
      "10</w>": 963,
      "Gro": 964,
      "Index": 965,
      "clea": 966,
      "TA": 967,
      "2D</w>": 968,
      "ree</w>": 969,
      "Spec</w>": 970,
      "All</w>": 971,
      "ams</w>": 972,
      "fil": 973,
      "ca": 974,
      "gress": 975,
      "nam": 976,
      "ings</w>": 977,
      "Add": 978,
      "ArgumentException</w>": 979,
      "ity": 980,
      "Charac": 981,
      "ask</w>": 982,
      "indexOf</w>": 983,
      "ore</w>": 984,
      "InputStream</w>": 985,
      "Erro": 986,
      "del</w>": 987,
      "IllegalArgumentException</w>": 988,
      "node": 989,
      "Arrays</w>": 990,
      "reg": 991,
      "Log": 992,
      "FI": 993,
      "AN": 994,
      "clear</w>": 995,
      "SE": 996,
      "Per": 997,
      "item</w>": 998,
      "ull": 999,
      "<<</w>": 1000,
      "Quer": 1001,
      "Null</w>": 1002,
      "array</w>": 1003,
      "values</w>": 1004,
      "Mode</w>": 1005,
      "Attribute</w>": 1006,
      "numb": 1007,
      "ters</w>": 1008,
      "tent": 1009,
      "match": 1010,
      "cal": 1011,
      "fault": 1012,
      "To</w>": 1013,
      "sign": 1014,
      "selec": 1015,
      "Date</w>": 1016,
      "rip": 1017,
      "Class": 1018,
      "close</w>": 1019,
      "os</w>": 1020,
      "child": 1021,
      "valid": 1022,
      "Dis": 1023,
      "xm": 1024,
      "IM": 1025,
      "Case</w>": 1026,
      "ress</w>": 1027,
      "Doc": 1028,
      "stra": 1029,
      "erro": 1030,
      "As": 1031,
      "Enable": 1032,
      "View": 1033,
      "resBytes</w>": 1034,
      "viou": 1035,
      "ta</w>": 1036,
      "TY": 1037,
      "ind": 1038,
      "feren": 1039,
      "aNumber</w>": 1040,
      "tto": 1041,
      "Exp": 1042,
      "Connec": 1043,
      "row": 1044,
      "ER_": 1045,
      "mb": 1046,
      "Start</w>": 1047,
      "ument</w>": 1048,
      "Ro": 1049,
      "ON": 1050,
      "load": 1051,
      "rect": 1052,
      "X_": 1053,
      "up</w>": 1054,
      "trans": 1055,
      "Flo": 1056,
      "listener</w>": 1057,
      "lend": 1058,
      "Decim": 1059,
      "ponse</w>": 1060,
      "temp": 1061,
      "class</w>": 1062,
      "Cli": 1063,
      "Config": 1064,
      "ft": 1065,
      "vel</w>": 1066,
      "ima": 1067,
      "one</w>": 1068,
      "emp": 1069,
      "coun": 1070,
      "mp</w>": 1071,
      "ree": 1072,
      "ager</w>": 1073,
      "bug</w>": 1074,
      "illis</w>": 1075,
      "Oper": 1076,
      "XSL": 1077,
      "main": 1078,
      "L_": 1079,
      "Tr": 1080,
      "ps</w>": 1081,
      "not": 1082,
      "ule": 1083,
      "cle": 1084,
      "fic": 1085,
      "sWi": 1086,
      "DO": 1087,
      "FF": 1088,
      "IZ": 1089,
      "oth": 1090,
      "Ran": 1091,
      "iti": 1092,
      "ir": 1093,
      "tal": 1094,
      "child</w>": 1095,
      "be": 1096,
      "Instance</w>": 1097,
      "Enabled</w>": 1098,
      "Def</w>": 1099,
      "ary": 1100,
      "URI</w>": 1101,
      "Parame": 1102,
      "me</w>": 1103,
      "context</w>": 1104,
      "info</w>": 1105,
      "Value": 1106,
      "valueOf</w>": 1107,
      "Panel</w>": 1108,
      "Val": 1109,
      "Sub": 1110,
      "Millis</w>": 1111,
      "Ge": 1112,
      "Column": 1113,
      "arch": 1114,
      "Next</w>": 1115,
      "il</w>": 1116,
      "ale": 1117,
      "tor</w>": 1118,
      "From": 1119,
      "Len</w>": 1120,
      "AS": 1121,
      "tent</w>": 1122,
      "Element": 1123,
      "as</w>": 1124,
      "vice": 1125,
      "tr</w>": 1126,
      "Manager</w>": 1127,
      "StringBuffer</w>": 1128,
      "lendar</w>": 1129,
      "idx</w>": 1130,
      "aliz": 1131,
      "stance": 1132,
      "date</w>": 1133,
      "proper": 1134,
      "Format</w>": 1135,
      "previou": 1136,
      "Thread</w>": 1137,
      "right</w>": 1138,
      "Serv": 1139,
      "code</w>": 1140,
      "sum": 1141,
      "teners</w>": 1142,
      "Dig": 1143,
      "Option</w>": 1144,
      "base": 1145,
      "ory": 1146,
      "0f</w>": 1147,
      "Be": 1148,
      "can": 1149,
      "Max": 1150,
      "Sec": 1151,
      "block": 1152,
      "my": 1153,
      "ice</w>": 1154,
      "UL": 1155,
      "Scale</w>": 1156,
      "ute": 1157,
      "msg</w>": 1158,
      "Graph": 1159,
      "left</w>": 1160,
      "cont": 1161,
      "ound": 1162,
      "Supp": 1163,
      "tern</w>": 1164,
      "input</w>": 1165,
      "encode": 1166,
      "asure": 1167,
      "XM": 1168,
      "rid": 1169,
      "CH": 1170,
      "lay": 1171,
      "message</w>": 1172,
      "ard": 1173,
      "lus": 1174,
      "dele": 1175,
      "gressLabel</w>": 1176,
      "sWith</w>": 1177,
      "sq": 1178,
      "Set": 1179,
      "Tra": 1180,
      "Table</w>": 1181,
      "Y_": 1182,
      "Factory</w>": 1183,
      "Ho": 1184,
      "ly": 1185,
      "lock": 1186,
      "print": 1187,
      "esc": 1188,
      "Min": 1189,
      "ID": 1190,
      "Enti": 1191,
      "sup": 1192,
      "ong": 1193,
      "Property</w>": 1194,
      "teri": 1195,
      "Run": 1196,
      "map": 1197,
      "Decimal</w>": 1198,
      "ction</w>": 1199,
      "bytes</w>": 1200,
      "XSLT": 1201,
      "ator": 1202,
      "ask": 1203,
      "expec": 1204,
      "UT": 1205,
      "Child": 1206,
      "ics</w>": 1207,
      "iterator</w>": 1208,
      "TR": 1209,
      "ION_": 1210,
      "find": 1211,
      "andom</w>": 1212,
      "Rect": 1213,
      "Handle": 1214,
      "Point": 1215,
      "VAL": 1216,
      "Token</w>": 1217,
      "Sign</w>": 1218,
      "target": 1219,
      "CON": 1220,
      "place": 1221,
      "Line": 1222,
      "obj</w>": 1223,
      "one": 1224,
      "ner": 1225,
      "umn</w>": 1226,
      "Properties</w>": 1227,
      "BigDecimal</w>": 1228,
      "Util</w>": 1229,
      "previous": 1230,
      "use": 1231,
      "Character</w>": 1232,
      "NO": 1233,
      "item": 1234,
      "TYP": 1235,
      "G_": 1236,
      "dow": 1237,
      "Message": 1238,
      "Fir": 1239,
      "rix</w>": 1240,
      "Rect</w>": 1241,
      "Compon": 1242,
      "wa": 1243,
      "output</w>": 1244,
      "ual": 1245,
      "Paint</w>": 1246,
      "Current": 1247,
      "Ur": 1248,
      "try": 1249,
      "an</w>": 1250,
      "Char</w>": 1251,
      "roo": 1252,
      "off</w>": 1253,
      "roll": 1254,
      "ream": 1255,
      "fy": 1256,
      "quen": 1257,
      "p_": 1258,
      "lab": 1259,
      "ore": 1260,
      "ked": 1261,
      "True</w>": 1262,
      "rBytes</w>": 1263,
      "cli": 1264,
      "exten": 1265,
      "Lock</w>": 1266,
      "Start": 1267,
      "Image": 1268,
      "allb": 1269,
      "Imp": 1270,
      "late": 1271,
      "Property": 1272,
      "chan": 1273,
      "Butt": 1274,
      "Log</w>": 1275,
      "orm": 1276,
      "Vari": 1277,
      "contin": 1278,
      "low": 1279,
      "form": 1280,
      "DI": 1281,
      "Mar": 1282,
      "super</w>": 1283,
      "Child</w>": 1284,
      "ket</w>": 1285,
      "ite": 1286,
      "Name": 1287,
      "args</w>": 1288,
      "class": 1289,
      "Options</w>": 1290,
      "tmp": 1291,
      "cen": 1292,
      "Date": 1293,
      "ES": 1294,
      "Acti": 1295,
      "metho": 1296,
      "source</w>": 1297,
      "continue</w>": 1298,
      "java</w>": 1299,
      "hasNext</w>": 1300,
      "temp</w>": 1301,
      "ally</w>": 1302,
      "Gen": 1303,
      "res</w>": 1304,
      "writer</w>": 1305,
      "ouble": 1306,
      "Image</w>": 1307,
      "Level</w>": 1308,
      "gin": 1309,
      "work": 1310,
      "Match": 1311,
      "TO": 1312,
      "bin": 1313,
      "Field</w>": 1314,
      "debug</w>": 1315,
      "Result</w>": 1316,
      "eue</w>": 1317,
      "addElement</w>": 1318,
      "assertTrue</w>": 1319,
      "tmp</w>": 1320,
      "attribu": 1321,
      "Method</w>": 1322,
      "mar": 1323,
      "state</w>": 1324,
      "riteri": 1325,
      "Reader</w>": 1326,
      "Boolean</w>": 1327,
      "table</w>": 1328,
      "ze": 1329,
      "Model</w>": 1330,
      "row</w>": 1331,
      "finally</w>": 1332,
      "Progress</w>": 1333,
      "uration</w>": 1334,
      "prefix</w>": 1335,
      "Format": 1336,
      "0000": 1337,
      "Calendar</w>": 1338,
      "table": 1339,
      "column": 1340,
      "ader": 1341,
      "Field": 1342,
      "Del": 1343,
      "hash": 1344,
      "logger</w>": 1345,
      "dy</w>": 1346,
      "of</w>": 1347,
      "rep": 1348,
      "rom</w>": 1349,
      "stru": 1350,
      "man": 1351,
      "decode": 1352,
      "Read</w>": 1353,
      "abs": 1354,
      "Fil": 1355,
      "Au": 1356,
      "difi": 1357,
      "ations</w>": 1358,
      "play": 1359,
      "sed</w>": 1360,
      "element": 1361,
      "names": 1362,
      "ok": 1363,
      "connec": 1364,
      "Names</w>": 1365,
      "Visi": 1366,
      "url</w>": 1367,
      "handle": 1368,
      "Buffer": 1369,
      "asureSpec</w>": 1370,
      "mis": 1371,
      "ass": 1372,
      "Test": 1373,
      "Radi": 1374,
      "objec": 1375,
      "tific": 1376,
      "ori": 1377,
      "token": 1378,
      "Are": 1379,
      "-=</w>": 1380,
      "ative": 1381,
      "Float</w>": 1382,
      "Hel": 1383,
      "12": 1384,
      "stream</w>": 1385,
      "UM": 1386,
      "ded": 1387,
      "ver</w>": 1388,
      "Rectang": 1389,
      "ION</w>": 1390,
      "Elements</w>": 1391,
      "Dir</w>": 1392,
      "End</w>": 1393,
      "KE": 1394,
      "ket": 1395,
      "view": 1396,
      "src": 1397,
      "gno": 1398,
      "fig</w>": 1399,
      "Do": 1400,
      "NAM": 1401,
      "ail": 1402,
      "inter</w>": 1403,
      "Listeners</w>": 1404,
      "Gener": 1405,
      "ffset": 1406,
      "ttom</w>": 1407,
      "quer": 1408,
      "parent</w>": 1409,
      "pace": 1410,
      "sor</w>": 1411,
      "Reg": 1412,
      "Bounds</w>": 1413,
      "Group": 1414,
      "Area</w>": 1415,
      "ule</w>": 1416,
      "Block": 1417,
      "List": 1418,
      "to</w>": 1419,
      "Ax": 1420,
      "ee": 1421,
      "lan": 1422,
      "word</w>": 1423,
      "Action</w>": 1424,
      "nt</w>": 1425,
      "x1</w>": 1426,
      "ay": 1427,
      "from": 1428,
      "Righ": 1429,
      "Sequen": 1430,
      "tic": 1431,
      "Resource": 1432,
      "Left</w>": 1433,
      "ust": 1434,
      "red</w>": 1435,
      "ents</w>": 1436,
      "getName</w>": 1437,
      "ali": 1438,
      "progress</w>": 1439,
      "MAX_": 1440,
      "Status</w>": 1441,
      "source": 1442,
      "user": 1443,
      "rap": 1444,
      "zz": 1445,
      "Event": 1446,
      "ix": 1447,
      "orig": 1448,
      "IC": 1449,
      "ateg": 1450,
      "Request</w>": 1451,
      "cod": 1452,
      "regis": 1453,
      "Table": 1454,
      "pace</w>": 1455,
      "compare": 1456,
      "P_": 1457,
      "Handler</w>": 1458,
      "ByteArray</w>": 1459,
      "16</w>": 1460,
      "rag": 1461,
      "Xm": 1462,
      "entry</w>": 1463,
      "alo": 1464,
      "Range</w>": 1465,
      "VALU": 1466,
      "ix</w>": 1467,
      "ulti": 1468,
      "Error</w>": 1469,
      "apac": 1470,
      "Label": 1471,
      "ature</w>": 1472,
      "Byte</w>": 1473,
      "ING</w>": 1474,
      "ample": 1475,
      "che</w>": 1476,
      "result": 1477,
      "AttributeDef</w>": 1478,
      "ttp": 1479,
      "XSLTAttributeDef</w>": 1480,
      "Parse": 1481,
      "XML": 1482,
      "let": 1483,
      "rectory</w>": 1484,
      "SA": 1485,
      "getC": 1486,
      "Max</w>": 1487,
      "io": 1488,
      "cl": 1489,
      "Token": 1490,
      "secon": 1491,
      "IZE</w>": 1492,
      "au": 1493,
      "g2</w>": 1494,
      "older</w>": 1495,
      "Pri": 1496,
      "dest": 1497,
      "amp</w>": 1498,
      "TimeMillis</w>": 1499,
      "ER</w>": 1500,
      "sTo": 1501,
      "clu": 1502,
      "Stream": 1503,
      "tern": 1504,
      "Ab": 1505,
      "Address</w>": 1506,
      "Grid": 1507,
      "xml": 1508,
      "ered": 1509,
      "ho": 1510,
      "ss": 1511,
      "End": 1512,
      "riteria</w>": 1513,
      "seri": 1514,
      "Sign": 1515,
      "PO": 1516,
      "sert</w>": 1517,
      "replace": 1518,
      "Block</w>": 1519,
      "und</w>": 1520,
      "its</w>": 1521,
      "Desc": 1522,
      "Path": 1523,
      "With": 1524,
      "PAR": 1525,
      "exec": 1526,
      "FA": 1527,
      "Query</w>": 1528,
      "Temp": 1529,
      "radi": 1530,
      "event</w>": 1531,
      "Valid": 1532,
      "MO": 1533,
      "ile": 1534,
      "IG": 1535,
      "ret</w>": 1536,
      "Men": 1537,
      "params</w>": 1538,
      "App": 1539,
      "run": 1540,
      "Bitmap</w>": 1541,
      "apacity</w>": 1542,
      "input": 1543,
      "Response</w>": 1544,
      "Collections</w>": 1545,
      "imit</w>": 1546,
      "field": 1547,
      "builder</w>": 1548,
      "list": 1549,
      "Num": 1550,
      "Layout</w>": 1551,
      "ape</w>": 1552,
      "Seri": 1553,
      "ord</w>": 1554,
      "Digit</w>": 1555,
      "progressLabel</w>": 1556,
      "Non": 1557,
      "currentTimeMillis</w>": 1558,
      "other</w>": 1559,
      "norm": 1560,
      "ded</w>": 1561,
      "_ID</w>": 1562,
      "sin": 1563,
      "Val</w>": 1564,
      "Wh": 1565,
      "Stack</w>": 1566,
      "append": 1567,
      "copy": 1568,
      "ACT": 1569,
      "order": 1570,
      "mon": 1571,
      "rect</w>": 1572,
      "Document</w>": 1573,
      "tra": 1574,
      "process": 1575,
      "cess</w>": 1576,
      "Base": 1577,
      "print</w>": 1578,
      "Sw": 1579,
      "db": 1580,
      "Location</w>": 1581,
      "ly</w>": 1582,
      "cep": 1583,
      "sw": 1584,
      "gl": 1585,
      "Content": 1586,
      "Coun": 1587,
      "Fin": 1588,
      "var": 1589,
      "Str</w>": 1590,
      "move": 1591,
      "Anim": 1592,
      "vis": 1593,
      "ll</w>": 1594,
      "Matrix</w>": 1595,
      "ner</w>": 1596,
      "LE_": 1597,
      "instance": 1598,
      "Version</w>": 1599,
      "Sty": 1600,
      "Is": 1601,
      "getString</w>": 1602,
      "form</w>": 1603,
      "attribute": 1604,
      "startsWith</w>": 1605,
      "top</w>": 1606,
      "Request": 1607,
      "EX": 1608,
      "Fr": 1609,
      "ature": 1610,
      "der": 1611,
      "URL</w>": 1612,
      "Short</w>": 1613,
      "number": 1614,
      "SO": 1615,
      "ard</w>": 1616,
      "local": 1617,
      "ess": 1618,
      "Poo": 1619,
      "am</w>": 1620,
      "ker</w>": 1621,
      "Tag</w>": 1622,
      "doc": 1623,
      "100</w>": 1624,
      "rt</w>": 1625,
      "count": 1626,
      "Result": 1627,
      "Pattern</w>": 1628,
      "orage": 1629,
      "ByteBuffer</w>": 1630,
      "getX</w>": 1631,
      "Next": 1632,
      "calc": 1633,
      "default": 1634,
      "format": 1635,
      "doc</w>": 1636,
      "Scroll": 1637,
      "100": 1638,
      "itor</w>": 1639,
      "Keys</w>": 1640,
      "Referen": 1641,
      "PRO": 1642,
      "ont": 1643,
      "Contain": 1644,
      "MeasureSpec</w>": 1645,
      "request</w>": 1646,
      "x2</w>": 1647,
      "ress": 1648,
      "age</w>": 1649,
      "rate": 1650,
      "ulate": 1651,
      "state": 1652,
      "Buffered": 1653,
      "ction": 1654,
      "getY</w>": 1655,
      "Prefix</w>": 1656,
      "src</w>": 1657,
      "path": 1658,
      "exist": 1659,
      "scale</w>": 1660,
      "bNumber</w>": 1661,
      "uri</w>": 1662,
      "HO": 1663,
      "allback</w>": 1664,
      "Http": 1665,
      "Igno": 1666,
      "getS": 1667,
      "total": 1668,
      "Header</w>": 1669,
      "Dow": 1670,
      "aBytes</w>": 1671,
      "att": 1672,
      "tries</w>": 1673,
      "Last": 1674,
      "20</w>": 1675,
      "build": 1676,
      "Collection</w>": 1677,
      "gene": 1678,
      "addAll</w>": 1679,
      "sum</w>": 1680,
      "buff": 1681,
      "element</w>": 1682,
      "ched": 1683,
      "Number": 1684,
      "andom": 1685,
      "Process": 1686,
      "Pr": 1687,
      "dx</w>": 1688,
      "ut</w>": 1689,
      "Default": 1690,
      "ors</w>": 1691,
      "hashCode</w>": 1692,
      "Sett": 1693,
      "EC": 1694,
      "sc</w>": 1695,
      "ker": 1696,
      "name": 1697,
      "Sequence</w>": 1698,
      "cr": 1699,
      "getWidth</w>": 1700,
      "points</w>": 1701,
      "spec": 1702,
      "getHeight</w>": 1703,
      "Code": 1704,
      "Impl</w>": 1705,
      "'\\</w>": 1706,
      "LE</w>": 1707,
      "Win": 1708,
      "col</w>": 1709,
      "origin": 1710,
      "trol": 1711,
      "time</w>": 1712,
      "TYPE_": 1713,
      "Component</w>": 1714,
      "FAUL": 1715,
      "newVector</w>": 1716,
      "ln</w>": 1717,
      "number</w>": 1718,
      "User": 1719,
      "Button</w>": 1720,
      "fer": 1721,
      "from</w>": 1722,
      "ma</w>": 1723,
      "boun": 1724,
      "Attributes</w>": 1725,
      "delete": 1726,
      "Host</w>": 1727,
      "Vol": 1728,
      "ger": 1729,
      "DEFAUL": 1730,
      "Rel": 1731,
      "random</w>": 1732,
      "itu": 1733,
      "MIN": 1734,
      "Statement</w>": 1735,
      "aSign</w>": 1736,
      "fix": 1737,
      "Words</w>": 1738,
      "toByteArray</w>": 1739,
      "Rep": 1740,
      "fo": 1741,
      "arn": 1742,
      "Edge</w>": 1743,
      "Cel": 1744,
      "TH</w>": 1745,
      "BU": 1746,
      "Seg": 1747,
      "root</w>": 1748,
      "prev": 1749,
      "elements</w>": 1750,
      "Tag": 1751,
      "namespace</w>": 1752,
      "du": 1753,
      "TAG</w>": 1754,
      "ks</w>": 1755,
      "Bits</w>": 1756,
      "hash</w>": 1757,
      "Update": 1758,
      "register": 1759,
      "parator</w>": 1760,
      "All": 1761,
      "24</w>": 1762,
      "string": 1763,
      "Syn": 1764,
      "Modifi": 1765,
      "10": 1766,
      "token</w>": 1767,
      "Right</w>": 1768,
      "en</w>": 1769,
      "current</w>": 1770,
      "NotNull</w>": 1771,
      "VALUE</w>": 1772,
      "AD": 1773,
      "nd": 1774,
      "curr": 1775,
      "initi": 1776,
      "Constra": 1777,
      "error</w>": 1778,
      "ct</w>": 1779,
      "lat": 1780,
      "sk": 1781,
      "getP": 1782,
      "noti": 1783,
      "Params</w>": 1784,
      "We": 1785,
      "Annot": 1786,
      "type": 1787,
      "Ignore": 1788,
      "Ses": 1789,
      "mension</w>": 1790,
      "matcher</w>": 1791,
      "IS": 1792,
      "make": 1793,
      "mx": 1794,
      "error": 1795,
      "Queue</w>": 1796,
      "Fun": 1797,
      "order</w>": 1798,
      "word": 1799,
      "field</w>": 1800,
      "target</w>": 1801,
      "encoded": 1802,
      "First": 1803,
      "s2</w>": 1804,
      "sed": 1805,
      "0xff</w>": 1806,
      "late</w>": 1807,
      "ren</w>": 1808,
      "Option": 1809,
      "Changed</w>": 1810,
      "Tar": 1811,
      "bits</w>": 1812,
      "image": 1813,
      "y1</w>": 1814,
      "Posi": 1815,
      "Cache</w>": 1816,
      "are</w>": 1817,
      "projec": 1818,
      "sqrt</w>": 1819,
      "Client</w>": 1820,
      "Types</w>": 1821,
      "Cre": 1822,
      "SQ": 1823,
      "ane</w>": 1824,
      "parent": 1825,
      "if": 1826,
      "attr": 1827,
      "per</w>": 1828,
      "first</w>": 1829,
      "Fe": 1830,
      "Tree": 1831,
      "output": 1832,
      "DOM": 1833,
      "System": 1834,
      "Clo": 1835,
      "PI</w>": 1836,
      "s1</w>": 1837,
      "dere": 1838,
      "ponse": 1839,
      "Connection</w>": 1840,
      "items</w>": 1841,
      "fill": 1842,
      "Entity</w>": 1843,
      "method</w>": 1844,
      "instanceof</w>": 1845,
      "gin</w>": 1846,
      "the": 1847,
      "property": 1848,
      "chars</w>": 1849,
      "Cache": 1850,
      "Service</w>": 1851,
      "Draw": 1852,
      "Comple": 1853,
      "left": 1854,
      "Enum": 1855,
      "Layout": 1856,
      "Back": 1857,
      "ouch": 1858,
      "alph": 1859,
      "compu": 1860,
      "ele": 1861,
      "ast</w>": 1862,
      "Points</w>": 1863,
      "MP": 1864,
      "ag": 1865,
      "point": 1866,
      "last</w>": 1867,
      "generate": 1868,
      "Roo": 1869,
      "content": 1870,
      "eight": 1871,
      "sho": 1872,
      "Query": 1873,
      "LOC": 1874,
      "Row</w>": 1875,
      "conver": 1876,
      "Top</w>": 1877,
      "Read": 1878,
      "Projec": 1879,
      "Attr</w>": 1880,
      "Ob": 1881,
      "lename</w>": 1882,
      "IV": 1883,
      "LA": 1884,
      "32</w>": 1885,
      "fla": 1886,
      "F_": 1887,
      "FIN": 1888,
      "Bind": 1889,
      "this": 1890,
      "Chun": 1891,
      "Action": 1892,
      "Service": 1893,
      "double": 1894,
      "point</w>": 1895,
      "vider</w>": 1896,
      "request": 1897,
      "Box</w>": 1898,
      "close": 1899,
      ">>></w>": 1900,
      "Mon": 1901,
      "Var</w>": 1902,
      "15</w>": 1903,
      "cu": 1904,
      "C_": 1905,
      "op</w>": 1906,
      "tive": 1907,
      "ans</w>": 1908,
      "mC": 1909,
      "ated": 1910,
      "IgnoreCase</w>": 1911,
      "ax": 1912,
      "Cop": 1913,
      "fier</w>": 1914,
      "ChangeListener</w>": 1915,
      "Volum": 1916,
      "ffix</w>": 1917,
      "Rectangle": 1918,
      "DEFAULT_": 1919,
      "ir</w>": 1920,
      "Input": 1921,
      "bug": 1922,
      "Pane</w>": 1923,
      "vity</w>": 1924,
      "short</w>": 1925,
      "64": 1926,
      "ked</w>": 1927,
      "QU": 1928,
      "ay</w>": 1929,
      "mer": 1930,
      "Int": 1931,
      "ByteArray": 1932,
      "New": 1933,
      "Long": 1934,
      "VER": 1935,
      "ses": 1936,
      "lace</w>": 1937,
      "back": 1938,
      "paint</w>": 1939,
      "view</w>": 1940,
      "Row": 1941,
      "reader</w>": 1942,
      "Fa": 1943,
      "equal": 1944,
      "Search": 1945,
      "Column</w>": 1946,
      "lang</w>": 1947,
      "DAT": 1948,
      "Task</w>": 1949,
      "message": 1950,
      "desc": 1951,
      "oriz": 1952,
      "Config</w>": 1953,
      "s_": 1954,
      "response</w>": 1955,
      "ouse": 1956,
      "Stack": 1957,
      "Group</w>": 1958,
      "RA": 1959,
      "fr": 1960,
      "wer": 1961,
      "rop": 1962,
      "action</w>": 1963,
      "Local": 1964,
      "delta": 1965,
      "java": 1966,
      "25": 1967,
      "expected</w>": 1968,
      "ler</w>": 1969,
      "Min</w>": 1970,
      "diff": 1971,
      "parame": 1972,
      "lit</w>": 1973,
      "Resource</w>": 1974,
      "ds": 1975,
      "atab": 1976,
      "mple": 1977,
      "ords</w>": 1978,
      "ance": 1979,
      "label": 1980,
      "Soc": 1981,
      "chun": 1982,
      "Touch": 1983,
      "clear": 1984,
      "If": 1985,
      "send": 1986,
      "ont</w>": 1987,
      "sions</w>": 1988,
      "group": 1989,
      "mand</w>": 1990,
      "DB": 1991,
      "son": 1992,
      "ERRO": 1993,
      "ordin": 1994,
      "Selected": 1995,
      "DE_": 1996,
      "ED</w>": 1997,
      "sche": 1998,
      "ults</w>": 1999,
      "load</w>": 2000,
      "Exten": 2001,
      "tag</w>": 2002,
      "rot": 2003,
      "rows</w>": 2004,
      "Directory</w>": 2005,
      "tit": 2006,
      "orted": 2007,
      "notify": 2008,
      "pend": 2009,
      "column</w>": 2010,
      "xml</w>": 2011,
      "Cer": 2012,
      "Map": 2013,
      "ms</w>": 2014,
      "comm": 2015,
      "Fla": 2016,
      "Na": 2017,
      "Check": 2018,
      "extends</w>": 2019,
      "compute": 2020,
      "insert": 2021,
      "stri": 2022,
      "Ref</w>": 2023,
      "vas</w>": 2024,
      "ses</w>": 2025,
      "Ang": 2026,
      "und": 2027,
      "equals": 2028,
      "uration": 2029,
      "ription</w>": 2030,
      "actual": 2031,
      "Identi": 2032,
      "PER": 2033,
      "search": 2034,
      "Painter</w>": 2035,
      "show": 2036,
      "fields</w>": 2037,
      "right": 2038,
      "ges</w>": 2039,
      "Error": 2040,
      "ned": 2041,
      "ments</w>": 2042,
      "config": 2043,
      "idth": 2044,
      "println</w>": 2045,
      "..": 2046,
      "nal": 2047,
      "sets</w>": 2048,
      "HashMap</w>": 2049,
      "...</w>": 2050,
      "Linked": 2051,
      "raph</w>": 2052,
      "ENT_": 2053,
      "Deta": 2054,
      "Uni": 2055,
      "siness": 2056,
      "PRE": 2057,
      "Buf</w>": 2058,
      "rup": 2059,
      "content</w>": 2060,
      "object</w>": 2061,
      "Names": 2062,
      "long": 2063,
      "sing": 2064,
      "resh": 2065,
      "fact": 2066,
      "Off</w>": 2067,
      "Order</w>": 2068,
      "ip</w>": 2069,
      "keys</w>": 2070,
      "Ter": 2071,
      "old</w>": 2072,
      "fill</w>": 2073,
      "Radius</w>": 2074,
      "Pla": 2075,
      "ved": 2076,
      "Nodes</w>": 2077,
      "ant": 2078,
      "lot</w>": 2079,
      "cursor</w>": 2080,
      "b1</w>": 2081,
      "mt</w>": 2082,
      "tree</w>": 2083,
      "setText</w>": 2084,
      "Filter</w>": 2085,
      "Visible</w>": 2086,
      "isIn": 2087,
      "SQL": 2088,
      "Source</w>": 2089,
      "ish": 2090,
      "remain": 2091,
      "NAME</w>": 2092,
      "bb</w>": 2093,
      "Sche": 2094,
      "Idx</w>": 2095,
      "Null": 2096,
      "scale": 2097,
      "Capacity</w>": 2098,
      "expected": 2099,
      "nel": 2100,
      "posi": 2101,
      "Settings</w>": 2102,
      "Ren": 2103,
      "contains": 2104,
      "Header": 2105,
      "Client": 2106,
      "top": 2107,
      "derer</w>": 2108,
      "Li": 2109,
      "Zer": 2110,
      "compon": 2111,
      "exists</w>": 2112,
      "bounds</w>": 2113,
      "Tit": 2114,
      "Compar": 2115,
      "lush</w>": 2116,
      "AP": 2117,
      "assword</w>": 2118,
      "12</w>": 2119,
      "Method": 2120,
      "coding</w>": 2121,
      "NaN</w>": 2122,
      "group</w>": 2123,
      "IP": 2124,
      "ctions</w>": 2125,
      "ackage": 2126,
      "ava": 2127,
      "delta</w>": 2128,
      "ste": 2129,
      "xmlWriter</w>": 2130,
      "Mapp": 2131,
      "^=</w>": 2132,
      "mod": 2133,
      "sinessObject": 2134,
      "address</w>": 2135,
      "LOG</w>": 2136,
      "bottom</w>": 2137,
      "image</w>": 2138,
      "itude</w>": 2139,
      "ick": 2140,
      "pan</w>": 2141,
      "equalsIgnoreCase</w>": 2142,
      "Ms": 2143,
      "pac": 2144,
      "TH": 2145,
      "resource": 2146,
      "OR</w>": 2147,
      "iph": 2148,
      "Found": 2149,
      "b2</w>": 2150,
      "DE</w>": 2151,
      "Use": 2152,
      "om": 2153,
      "eration</w>": 2154,
      "Comm": 2155,
      "event": 2156,
      "Style</w>": 2157,
      "K_": 2158,
      "p1</w>": 2159,
      "ility</w>": 2160,
      "pow</w>": 2161,
      "Timest": 2162,
      "bytes": 2163,
      "calculate": 2164,
      "Size": 2165,
      "izer</w>": 2166,
      "lit": 2167,
      "filename</w>": 2168,
      "sys": 2169,
      "loc</w>": 2170,
      "Change</w>": 2171,
      "Net": 2172,
      "validate": 2173,
      "alog</w>": 2174,
      "supp": 2175,
      "Part</w>": 2176,
      "properties</w>": 2177,
      "Test</w>": 2178,
      "visi": 2179,
      "desc</w>": 2180,
      "fault</w>": 2181,
      "Helper</w>": 2182,
      "M_": 2183,
      "Warn": 2184,
      "ics": 2185,
      "version</w>": 2186,
      "Scale": 2187,
      "ENT</w>": 2188,
      "_SIZE</w>": 2189,
      "StateException</w>": 2190,
      "seg": 2191,
      "model</w>": 2192,
      "dig": 2193,
      "pts</w>": 2194,
      "ary</w>": 2195,
      "Polic": 2196,
      "Url</w>": 2197,
      "label</w>": 2198,
      "lot": 2199,
      "_SE": 2200,
      "W_": 2201,
      "y2</w>": 2202,
      "stack</w>": 2203,
      "update</w>": 2204,
      "offset": 2205,
      "Unit</w>": 2206,
      "gra": 2207,
      "ression</w>": 2208,
      "prev</w>": 2209,
      "Criteria</w>": 2210,
      "vid": 2211,
      "m_Words</w>": 2212,
      "vice</w>": 2213,
      "HashSet</w>": 2214,
      "Tree</w>": 2215,
      "sol": 2216,
      "Xml</w>": 2217,
      "return": 2218,
      "Web": 2219,
      "net": 2220,
      "Thread": 2221,
      "Selection": 2222,
      "l_": 2223,
      "signum</w>": 2224,
      "Get": 2225,
      "IllegalStateException</w>": 2226,
      "Uri</w>": 2227,
      "buffer": 2228,
      "ocus": 2229,
      "Work": 2230,
      "br</w>": 2231,
      "act</w>": 2232,
      "Output": 2233,
      "fileName</w>": 2234,
      "dic": 2235,
      "ape": 2236,
      "Random</w>": 2237,
      "dices</w>": 2238,
      "pattern</w>": 2239,
      "Source": 2240,
      "sl": 2241,
      "query": 2242,
      "nan": 2243,
      "action": 2244,
      "ENG": 2245,
      "Files</w>": 2246,
      "Runn": 2247,
      "Objects</w>": 2248,
      "Mem": 2249,
      "NotFound": 2250,
      "Variable": 2251,
      "Task": 2252,
      "xy</w>": 2253,
      "Server": 2254,
      "Parameter": 2255,
      "Parameter</w>": 2256,
      "Bar": 2257,
      "Storage": 2258,
      "center": 2259,
      "BO": 2260,
      "ual</w>": 2261,
      "Simple": 2262,
      "block</w>": 2263,
      "RD": 2264,
      "ns</w>": 2265,
      "num</w>": 2266,
      "cell": 2267,
      "Alph": 2268,
      "Enumeration</w>": 2269,
      "asList</w>": 2270,
      "location</w>": 2271,
      "Regi": 2272,
      "sort</w>": 2273,
      "cei": 2274,
      "Exec": 2275,
      "redic": 2276,
      "rapp": 2277,
      "replace</w>": 2278,
      "HE": 2279,
      "m_first": 2280,
      "Java": 2281,
      "limit</w>": 2282,
      "led": 2283,
      "un</w>": 2284,
      "Instan": 2285,
      "round</w>": 2286,
      "In</w>": 2287,
      "gth": 2288,
      "Ve": 2289,
      "atio</w>": 2290,
      "flush</w>": 2291,
      "FF</w>": 2292,
      "LIN": 2293,
      "collec": 2294,
      "TER": 2295,
      "sty": 2296,
      "raw</w>": 2297,
      "buff</w>": 2298,
      "ultip": 2299,
      "Offset": 2300,
      "do</w>": 2301,
      "ATOR</w>": 2302,
      "Descrip": 2303,
      "ire": 2304,
      "Input</w>": 2305,
      "condi": 2306,
      "split</w>": 2307,
      "Af": 2308,
      "win": 2309,
      "Lower": 2310,
      "TIM": 2311,
      "init": 2312,
      "wait": 2313,
      "query</w>": 2314,
      "Out</w>": 2315,
      "Ele": 2316,
      "random": 2317,
      "ound</w>": 2318,
      "Control": 2319,
      "Remo": 2320,
      "viron": 2321,
      "First</w>": 2322,
      "buc": 2323,
      "Distance</w>": 2324,
      "Throw": 2325,
      "Edit": 2326,
      "Pool</w>": 2327,
      "ss</w>": 2328,
      "cols</w>": 2329,
      "Dimension</w>": 2330,
      "Signature</w>": 2331,
      "pi": 2332,
      "adding</w>": 2333,
      "LI": 2334,
      "imum": 2335,
      "Border": 2336,
      "Free</w>": 2337,
      "fs</w>": 2338,
      "Store</w>": 2339,
      "rection</w>": 2340,
      "Entity": 2341,
      "64</w>": 2342,
      "Reference</w>": 2343,
      "Predic": 2344,
      "Too": 2345,
      "Locale</w>": 2346,
      "space</w>": 2347,
      "Variable</w>": 2348,
      "Down": 2349,
      "Categ": 2350,
      "pth</w>": 2351,
      "getValue</w>": 2352,
      "AD_": 2353,
      "size": 2354,
      "range": 2355,
      "Font</w>": 2356,
      "vol": 2357,
      "Defin": 2358,
      "Pair</w>": 2359,
      "Param</w>": 2360,
      "R_": 2361,
      "server": 2362,
      "second": 2363,
      "ERROR</w>": 2364,
      "Info": 2365,
      "ook": 2366,
      "exp</w>": 2367,
      "les</w>": 2368,
      "TEX": 2369,
      "11</w>": 2370,
      "jo": 2371,
      "Loader</w>": 2372,
      "Point2D</w>": 2373,
      "aders</w>": 2374,
      "ates</w>": 2375,
      "endsWith</w>": 2376,
      "JS": 2377,
      "retval</w>": 2378,
      "Parti": 2379,
      "Chars</w>": 2380,
      "Memb": 2381,
      "Shape</w>": 2382,
      "sin</w>": 2383,
      "Dele": 2384,
      "Channel</w>": 2385,
      "Bottom</w>": 2386,
      "FO": 2387,
      "numberOf": 2388,
      "Play": 2389,
      "Angle</w>": 2390,
      "Am": 2391,
      "c1</w>": 2392,
      "Axis</w>": 2393,
      "Entry": 2394,
      "LOG": 2395,
      "Frame</w>": 2396,
      "1000</w>": 2397,
      "'\\": 2398,
      "rel": 2399,
      "selected": 2400,
      "options</w>": 2401,
      "cla": 2402,
      "Timestamp</w>": 2403,
      "Constraints</w>": 2404,
      "convert": 2405,
      "Datab": 2406,
      "Num</w>": 2407,
      "m_map</w>": 2408,
      "LENG": 2409,
      "low</w>": 2410,
      "More": 2411,
      "Tab</w>": 2412,
      "avail": 2413,
      "80</w>": 2414,
      "Ste": 2415,
      "color</w>": 2416,
      "ctx</w>": 2417,
      "BY": 2418,
      "cos</w>": 2419,
      "entation</w>": 2420,
      "imp": 2421,
      "ttom": 2422,
      "Support</w>": 2423,
      "NotFoundException</w>": 2424,
      "GE_": 2425,
      "NE": 2426,
      "port</w>": 2427,
      "tal</w>": 2428,
      "Menu</w>": 2429,
      "ep": 2430,
      "ign": 2431,
      "props</w>": 2432,
      "ide": 2433,
      "ute</w>": 2434,
      "setProperty</w>": 2435,
      "Intent</w>": 2436,
      "PAT": 2437,
      "gr": 2438,
      "fire": 2439,
      "Pos": 2440,
      "Provider</w>": 2441,
      "Mod": 2442,
      "parseInt</w>": 2443,
      "Double": 2444,
      "Holder</w>": 2445,
      "nap": 2446,
      "ored": 2447,
      "que": 2448,
      "Selection</w>": 2449,
      "updateProgress</w>": 2450,
      "server</w>": 2451,
      "Factor</w>": 2452,
      "vironment</w>": 2453,
      "PAC": 2454,
      "base</w>": 2455,
      "arch</w>": 2456,
      "Write": 2457,
      "Callback</w>": 2458,
      "Pac": 2459,
      "over": 2460,
      "tx</w>": 2461,
      "apter</w>": 2462,
      "Access": 2463,
      "Runtime": 2464,
      "NS</w>": 2465,
      "arg": 2466,
      "Metr": 2467,
      "use</w>": 2468,
      "m_firstFree</w>": 2469,
      "Bin": 2470,
      "setEnabled</w>": 2471,
      "Pointer": 2472,
      "ProgressLabel</w>": 2473,
      "alize": 2474,
      "myHost</w>": 2475,
      "Xml": 2476,
      "GRO": 2477,
      "Rule</w>": 2478,
      "oper": 2479,
      "Separator</w>": 2480,
      "delete</w>": 2481,
      "previousProgress</w>": 2482,
      "previousProgressLabel</w>": 2483,
      "Auth": 2484,
      "128</w>": 2485,
      "Throwable</w>": 2486,
      "isNaN</w>": 2487,
      "toArray</w>": 2488,
      "Meta": 2489,
      "Manage": 2490,
      "FOR": 2491,
      "Hex": 2492,
      "cal</w>": 2493,
      "accep": 2494,
      "BLE</w>": 2495,
      "extr": 2496,
      "Suppress": 2497,
      "zz</w>": 2498,
      "TYPE</w>": 2499,
      "_size</w>": 2500,
      "seed</w>": 2501,
      "unlock</w>": 2502,
      "range</w>": 2503,
      "Output</w>": 2504,
      "container</w>": 2505,
      "header</w>": 2506,
      "Profile": 2507,
      "ITY</w>": 2508,
      "ES</w>": 2509,
      "cl</w>": 2510,
      "graph": 2511,
      "md</w>": 2512,
      "instance</w>": 2513,
      "Parent</w>": 2514,
      "Print": 2515,
      "Session</w>": 2516,
      "Matcher</w>": 2517,
      "ixel": 2518,
      "resol": 2519,
      "cache": 2520,
      "change": 2521,
      "Certific": 2522,
      "Ali": 2523,
      "ue": 2524,
      "open": 2525,
      "flags</w>": 2526,
      "tex": 2527,
      "dest</w>": 2528,
      "setColor</w>": 2529,
      "Color": 2530,
      "Warnings</w>": 2531,
      "incre": 2532,
      "Ref": 2533,
      "Spec": 2534,
      "swit": 2535,
      "Sa": 2536,
      "Sen": 2537,
      "enc": 2538,
      "Initi": 2539,
      "E_IN": 2540,
      "obj": 2541,
      "merge": 2542,
      "Gu": 2543,
      "gn": 2544,
      "sure": 2545,
      "CharSequence</w>": 2546,
      "lastIndex": 2547,
      "host</w>": 2548,
      "CR": 2549,
      "tor": 2550,
      "Quo": 2551,
      "Operation</w>": 2552,
      "canvas</w>": 2553,
      "SH": 2554,
      "Wa": 2555,
      "atch": 2556,
      "Mask</w>": 2557,
      "c2</w>": 2558,
      "alize</w>": 2559,
      "PARATOR</w>": 2560,
      "bBytes</w>": 2561,
      "Model": 2562,
      "other": 2563,
      "Digits</w>": 2564,
      "Secon": 2565,
      "45</w>": 2566,
      "ated</w>": 2567,
      "Match</w>": 2568,
      "Graphics": 2569,
      "MS": 2570,
      "cor": 2571,
      "angle</w>": 2572,
      "Configuration": 2573,
      "Graphics</w>": 2574,
      "just": 2575,
      "mCurrent": 2576,
      "diff</w>": 2577,
      "distance</w>": 2578,
      "Function</w>": 2579,
      "gori": 2580,
      "nal</w>": 2581,
      "getMax": 2582,
      "pos": 2583,
      "create</w>": 2584,
      "Display": 2585,
      "title</w>": 2586,
      "LinkedList</w>": 2587,
      "gorith": 2588,
      "ATION_": 2589,
      "actual</w>": 2590,
      "bSign</w>": 2591,
      "Space</w>": 2592,
      "nextInt</w>": 2593,
      "Menu": 2594,
      "IL": 2595,
      "tag": 2596,
      "Hash</w>": 2597,
      "*=</w>": 2598,
      "Full": 2599,
      "ref": 2600,
      "now": 2601,
      "Parser</w>": 2602,
      "Container</w>": 2603,
      "ByteArrayOutputStream</w>": 2604,
      "volum": 2605,
      "lastIndexOf</w>": 2606,
      "Ph": 2607,
      "|=</w>": 2608,
      "alloc": 2609,
      "arr</w>": 2610,
      "and</w>": 2611,
      "client": 2612,
      "SQLException</w>": 2613,
      "AL</w>": 2614,
      "tad": 2615,
      "White": 2616,
      "JSON": 2617,
      "CT": 2618,
      "nt": 2619,
      "pe": 2620,
      "ndle</w>": 2621,
      "SuppressWarnings</w>": 2622,
      "con</w>": 2623,
      "p2</w>": 2624,
      "v1</w>": 2625,
      "nodes</w>": 2626,
      "execute": 2627,
      "entity": 2628,
      "Button": 2629,
      "Window": 2630,
      "skip": 2631,
      "zy": 2632,
      "signed": 2633,
      "Conver": 2634,
      "Helper": 2635,
      "compareTo</w>": 2636,
      "Rectangle2D</w>": 2637,
      "session</w>": 2638,
      "Sur": 2639,
      "lp</w>": 2640,
      "getNode": 2641,
      "getColumn": 2642,
      "head</w>": 2643,
      "Bounds": 2644,
      "Configuration</w>": 2645,
      "NonNull</w>": 2646,
      "cryp": 2647,
      "dow</w>": 2648,
      "ground</w>": 2649,
      "Pres": 2650,
      "UI": 2651,
      "sample": 2652,
      "Permis": 2653,
      "mSize</w>": 2654,
      "ler": 2655,
      "getChild": 2656,
      "split": 2657,
      "Vector": 2658,
      "Deco": 2659,
      "v_": 2660,
      "menu": 2661,
      "config</w>": 2662,
      "lable</w>": 2663,
      "root": 2664,
      "alog": 2665,
      "containsKey</w>": 2666,
      "af": 2667,
      "cope</w>": 2668,
      "reset</w>": 2669,
      "dir</w>": 2670,
      "hasMore": 2671,
      "LowerCase</w>": 2672,
      "Context": 2673,
      "ender": 2674,
      "shi": 2675,
      "cance": 2676,
      "EL": 2677,
      "Record</w>": 2678,
      "mbol": 2679,
      "document</w>": 2680,
      "getProperty</w>": 2681,
      "rix": 2682,
      "quo": 2683,
      "criteria</w>": 2684,
      "sis": 2685,
      "ite</w>": 2686,
      "IGH": 2687,
      "Target": 2688,
      "TI": 2689,
      "queue</w>": 2690,
      "match</w>": 2691,
      "bitmap</w>": 2692,
      "rapper</w>": 2693,
      "Pu": 2694,
      "tur": 2695,
      "Document": 2696,
      "Op</w>": 2697,
      "Content</w>": 2698,
      "Geo": 2699,
      "56</w>": 2700,
      "Mouse": 2701,
      "Ra": 2702,
      "tab": 2703,
      "AL_": 2704,
      "Bitmap": 2705,
      "Lat": 2706,
      "Limit</w>": 2707,
      "status</w>": 2708,
      "Upper": 2709,
      "connection</w>": 2710,
      "clude": 2711,
      "Renderer</w>": 2712,
      "vel": 2713,
      "entries</w>": 2714,
      "adding": 2715,
      "dia": 2716,
      "ME": 2717,
      "fore": 2718,
      "instru": 2719,
      "store</w>": 2720,
      "Timeout</w>": 2721,
      "Defini": 2722,
      "Zone</w>": 2723,
      "Dialog</w>": 2724,
      "entity</w>": 2725,
      "attributes</w>": 2726,
      "alpha</w>": 2727,
      "tw": 2728,
      "RES": 2729,
      "Columns</w>": 2730,
      "ies</w>": 2731,
      "desi": 2732,
      "Port</w>": 2733,
      "_O": 2734,
      "als</w>": 2735,
      "Debug": 2736,
      "Interrup": 2737,
      "Items</w>": 2738,
      "auth": 2739,
      "visit": 2740,
      "RuntimeException</w>": 2741,
      "BLE": 2742,
      "sh</w>": 2743,
      "service": 2744,
      "now</w>": 2745,
      "remaining</w>": 2746,
      "SIZE</w>": 2747,
      "save": 2748,
      "Selected</w>": 2749,
      "Update</w>": 2750,
      "PropertyChangeListener</w>": 2751,
      "Template": 2752,
      "orizon": 2753,
      "0L</w>": 2754,
      "PA": 2755,
      "cer": 2756,
      "Bytes": 2757,
      "allback": 2758,
      "orizontal": 2759,
      "anim": 2760,
      "andle</w>": 2761,
      "panel</w>": 2762,
      "gram</w>": 2763,
      "vity": 2764,
      "coder</w>": 2765,
      "matrix</w>": 2766,
      "down": 2767,
      "'.": 2768,
      "run</w>": 2769,
      "tim": 2770,
      "main</w>": 2771,
      "Left": 2772,
      "Parameters</w>": 2773,
      "original": 2774,
      "MIN_": 2775,
      "'.'</w>": 2776,
      "Ids</w>": 2777,
      "gest</w>": 2778,
      "consum": 2779,
      "Debug</w>": 2780,
      "className</w>": 2781,
      "Rectangle</w>": 2782,
      "Descriptor</w>": 2783,
      "timest": 2784,
      "children</w>": 2785,
      "MAX_VALUE</w>": 2786,
      "Day": 2787,
      "fun": 2788,
      "face</w>": 2789,
      "Top": 2790,
      "Score</w>": 2791,
      "30</w>": 2792,
      "Render": 2793,
      "ffff": 2794,
      "creen": 2795,
      "Bas": 2796,
      "Cen": 2797,
      "ID_": 2798,
      "ired</w>": 2799,
      "parse</w>": 2800,
      "luster": 2801,
      "tive</w>": 2802,
      "look": 2803,
      "Root</w>": 2804,
      "LENGTH</w>": 2805,
      "CL": 2806,
      "dataset</w>": 2807,
      "Edge": 2808,
      "absMax</w>": 2809,
      "Copy</w>": 2810,
      "clazz</w>": 2811,
      "CU": 2812,
      "ap</w>": 2813,
      "Indices</w>": 2814,
      "_ST": 2815,
      "dataArea</w>": 2816,
      "system": 2817,
      "mMax": 2818,
      "ING_": 2819,
      "editor</w>": 2820,
      "Chunk</w>": 2821,
      "v2</w>": 2822,
      "ance</w>": 2823,
      "lineTo</w>": 2824,
      "stribu": 2825,
      "23</w>": 2826,
      "Cla": 2827,
      "Span</w>": 2828,
      "_n": 2829,
      "Entries</w>": 2830,
      "paint": 2831,
      "Attr": 2832,
      "Resol": 2833,
      "lication": 2834,
      "day": 2835,
      "getId</w>": 2836,
      "Notific": 2837,
      "uni": 2838,
      "POS": 2839,
      "91</w>": 2840,
      "ind</w>": 2841,
      "eric": 2842,
      "FileName</w>": 2843,
      "Lazy": 2844,
      "Secur": 2845,
      "desired": 2846,
      "Rule": 2847,
      "full": 2848,
      "rule": 2849,
      "store": 2850,
      "level</w>": 2851,
      "tents</w>": 2852,
      "Instances</w>": 2853,
      "14</w>": 2854,
      "Mer": 2855,
      "tical": 2856,
      "getClass</w>": 2857,
      "Range": 2858,
      "Axis": 2859,
      "sor": 2860,
      "ts": 2861,
      "Absol": 2862,
      "Cal": 2863,
      "Frag": 2864,
      "Tab": 2865,
      "lex": 2866,
      "getNext": 2867,
      "Ins": 2868,
      "Instru": 2869,
      "Span": 2870,
      "Feature": 2871,
      "60</w>": 2872,
      "A_": 2873,
      "response": 2874,
      "toLowerCase</w>": 2875,
      "Page": 2876,
      "Neg": 2877,
      "filter</w>": 2878,
      "Resources</w>": 2879,
      "clone</w>": 2880,
      "nano": 2881,
      "Graphics2D</w>": 2882,
      "Sample": 2883,
      "suffix</w>": 2884,
      "Cursor</w>": 2885,
      "Logger</w>": 2886,
      "Operator</w>": 2887,
      "invo": 2888,
      "getBytes</w>": 2889,
      "Invalid": 2890,
      "Parent": 2891,
      "listeners</w>": 2892,
      "dist</w>": 2893,
      "best": 2894,
      "ke</w>": 2895,
      "ld": 2896,
      "ref</w>": 2897,
      "Helpers</w>": 2898,
      "atch</w>": 2899,
      "Status": 2900,
      "hex": 2901,
      "vals</w>": 2902,
      "Servlet": 2903,
      "ii</w>": 2904,
      "iter": 2905,
      "x0</w>": 2906,
      "getInstance</w>": 2907,
      "prox": 2908,
      "angu": 2909,
      "eek</w>": 2910,
      "ST_": 2911,
      "space": 2912,
      "URI": 2913,
      "TO_": 2914,
      "cp": 2915,
      "sx</w>": 2916,
      "PROPER": 2917,
      "Ratio</w>": 2918,
      "getMin": 2919,
      "uture</w>": 2920,
      "base64": 2921,
      "compareAnd": 2922,
      "Enum</w>": 2923,
      "Connection": 2924,
      "Delta</w>": 2925,
      "Cell": 2926,
      "Last</w>": 2927,
      "poo": 2928,
      "real": 2929,
      "igh</w>": 2930,
      "Trac": 2931,
      "Av": 2932,
      "Base</w>": 2933,
      "Drag": 2934,
      "sel": 2935,
      "MAS": 2936,
      "sql</w>": 2937,
      "elem</w>": 2938,
      "chunk": 2939,
      "26</w>": 2940,
      "Chec": 2941,
      "counter</w>": 2942,
      "alf": 2943,
      "ensure": 2944,
      "uld": 2945,
      "imiter</w>": 2946,
      "Ciph": 2947,
      "dst": 2948,
      "soc": 2949,
      "lob": 2950,
      "Coordin": 2951,
      "init</w>": 2952,
      "addChild</w>": 2953,
      "parti": 2954,
      "readInt</w>": 2955,
      "SAX": 2956,
      "doubleValue</w>": 2957,
      "Args</w>": 2958,
      "locale</w>": 2959,
      "eights</w>": 2960,
      "Detail": 2961,
      "Jo": 2962,
      "modifi": 2963,
      "Move": 2964,
      "alized": 2965,
      "High": 2966,
      "Condi": 2967,
      "directory</w>": 2968,
      "suc": 2969,
      "method": 2970,
      "BE": 2971,
      "BAC": 2972,
      "task": 2973,
      "width": 2974,
      "lines</w>": 2975,
      "Volume</w>": 2976,
      "Tool": 2977,
      "GER</w>": 2978,
      "so": 2979,
      "aster</w>": 2980,
      "Response": 2981,
      "Lines</w>": 2982,
      "words</w>": 2983,
      "Values": 2984,
      "DEBU": 2985,
      "Rows</w>": 2986,
      "Title</w>": 2987,
      "AR</w>": 2988,
      "inner": 2989,
      "Consum": 2990,
      "comp</w>": 2991,
      "select": 2992,
      "thread": 2993,
      "ycle": 2994,
      "Let": 2995,
      "k1</w>": 2996,
      "Strok": 2997,
      "writeAttribute</w>": 2998,
      "Character": 2999,
      "vari": 3000,
      "Stroke</w>": 3001,
      "referen": 3002,
      "Search</w>": 3003,
      "Record": 3004,
      "empty": 3005,
      "blockSize</w>": 3006,
      "XSLTElement": 3007,
      "ACTION_": 3008,
      "reshold</w>": 3009,
      "35</w>": 3010,
      "Clic": 3011,
      "b3</w>": 3012,
      "Stati": 3013,
      "Bit</w>": 3014,
      "aScale</w>": 3015,
      "attr</w>": 3016,
      "regi": 3017,
      "instructions</w>": 3018,
      "Des": 3019,
      "av</w>": 3020,
      "io</w>": 3021,
      "color": 3022,
      "compare</w>": 3023,
      "Word</w>": 3024,
      "ustom": 3025,
      "font": 3026,
      "tional": 3027,
      "Add</w>": 3028,
      "Rot": 3029,
      "ONE</w>": 3030,
      "Month": 3031,
      "Duration</w>": 3032,
      "BufferedImage</w>": 3033,
      "attName</w>": 3034,
      "y0</w>": 3035,
      "HexString</w>": 3036,
      "br": 3037,
      "ligh": 3038,
      "url": 3039,
      "COL": 3040,
      "startIndex</w>": 3041,
      "States</w>": 3042,
      "Host": 3043,
      "Messages</w>": 3044,
      "Abstra": 3045,
      "Segment</w>": 3046,
      "5f</w>": 3047,
      "stop": 3048,
      "Charset</w>": 3049,
      "Unsigned": 3050,
      "Regis": 3051,
      "From</w>": 3052,
      "NUM": 3053,
      "assert</w>": 3054,
      "idd": 3055,
      "Utili": 3056,
      "Scrip": 3057,
      "Expression</w>": 3058,
      "Auto": 3059,
      "Absolute": 3060,
      "Mis": 3061,
      "Nul": 3062,
      "task</w>": 3063,
      "page": 3064,
      "tedException</w>": 3065,
      "DA": 3066,
      "Hist": 3067,
      "Slo": 3068,
      "US": 3069,
      "ine": 3070,
      "URL": 3071,
      "user</w>": 3072,
      "XSLTElementDef</w>": 3073,
      "ceil</w>": 3074,
      "clip</w>": 3075,
      "radius</w>": 3076,
      "napsho": 3077,
      "PP": 3078,
      "Rate</w>": 3079,
      "resource</w>": 3080,
      "STAT": 3081,
      "Command</w>": 3082,
      "Description</w>": 3083,
      "frame</w>": 3084,
      "Msg</w>": 3085,
      "Icon": 3086,
      "ify": 3087,
      "rap</w>": 3088,
      "ids</w>": 3089,
      "Preferen": 3090,
      "Tokenizer</w>": 3091,
      "DBID": 3092,
      "Focus": 3093,
      "Icon</w>": 3094,
      "df</w>": 3095,
      "Math": 3096,
      "Server</w>": 3097,
      "Active": 3098,
      "host": 3099,
      "attValue</w>": 3100,
      "UID</w>": 3101,
      "andid": 3102,
      "Bound</w>": 3103,
      "drawLine</w>": 3104,
      "Im": 3105,
      "Word": 3106,
      "capacity</w>": 3107,
      "med": 3108,
      "Logg": 3109,
      "CONT": 3110,
      "Down</w>": 3111,
      "tual": 3112,
      "pup": 3113,
      "Enc</w>": 3114,
      "startTime</w>": 3115,
      "categ": 3116,
      "password</w>": 3117,
      "insert</w>": 3118,
      "Dest": 3119,
      "replaceAll</w>": 3120,
      "storage": 3121,
      "encode</w>": 3122,
      "Generator</w>": 3123,
      "Security": 3124,
      "BACK": 3125,
      "DEBUG</w>": 3126,
      "'/": 3127,
      "Car": 3128,
      "ifi": 3129,
      "work</w>": 3130,
      "'/'</w>": 3131,
      "GL_": 3132,
      "anti": 3133,
      "getTime</w>": 3134,
      "getInt</w>": 3135,
      "lier</w>": 3136,
      "Internal": 3137,
      "header": 3138,
      "decodeOptions</w>": 3139,
      "Basic": 3140,
      "JPanel</w>": 3141,
      "lon": 3142,
      "Bundle</w>": 3143,
      "pop": 3144,
      "ich</w>": 3145,
      "charac": 3146,
      "SU": 3147,
      "encoding</w>": 3148,
      "Extr": 3149,
      "ime": 3150,
      "addr</w>": 3151,
      "ToString</w>": 3152,
      "flow</w>": 3153,
      "DOW": 3154,
      "ators</w>": 3155,
      "09": 3156,
      "ared": 3157,
      "mid</w>": 3158,
      "acti": 3159,
      "memb": 3160,
      "interse": 3161,
      "Cell</w>": 3162,
      "Segment": 3163,
      "trim</w>": 3164,
      "Socket": 3165,
      "50</w>": 3166,
      "cs</w>": 3167,
      "d2</w>": 3168,
      "ear</w>": 3169,
      "entry": 3170,
      "post": 3171,
      "scroll": 3172,
      "calendar</w>": 3173,
      "series": 3174,
      "Identifier</w>": 3175,
      "Nullable</w>": 3176,
      "2_": 3177,
      "test</w>": 3178,
      "imum</w>": 3179,
      "Statement": 3180,
      "Activity</w>": 3181,
      "Comparator</w>": 3182,
      "conditions</w>": 3183,
      "CEN": 3184,
      "Equ": 3185,
      "PL": 3186,
      "lar": 3187,
      "sBy": 3188,
      "chedule": 3189,
      "getRe": 3190,
      "verse": 3191,
      "Empty": 3192,
      "Fields</w>": 3193,
      "names</w>": 3194,
      "Abstract": 3195,
      "Json": 3196,
      "Random": 3197,
      "TS</w>": 3198,
      "led</w>": 3199,
      "Prefix": 3200,
      "validate</w>": 3201,
      "Relation</w>": 3202,
      "NullPointer": 3203,
      "available</w>": 3204,
      "NullPointerException</w>": 3205,
      "mListeners</w>": 3206,
      "mKeys</w>": 3207,
      "separator</w>": 3208,
      "getType</w>": 3209,
      "Profile</w>": 3210,
      "KeyEvent</w>": 3211,
      "tadata</w>": 3212,
      "ep</w>": 3213,
      "mask</w>": 3214,
      "BusinessObject": 3215,
      "Version": 3216,
      "UND_": 3217,
      "TER</w>": 3218,
      "VERS": 3219,
      "javax</w>": 3220,
      "InterruptedException</w>": 3221,
      "Cor": 3222,
      "isDebug": 3223,
      "ority</w>": 3224,
      "active": 3225,
      "Exist": 3226,
      "tax": 3227,
      "patch": 3228,
      "XMLStream": 3229,
      "encodedIndex</w>": 3230,
      "Avail": 3231,
      "multip": 3232,
      "war": 3233,
      "object": 3234,
      "Count": 3235,
      "initial": 3236,
      "255</w>": 3237,
      "13</w>": 3238,
      "Can": 3239,
      "mbo": 3240,
      "Views</w>": 3241,
      "COMP": 3242,
      "matches</w>": 3243,
      "IVE_IN": 3244,
      "axis</w>": 3245,
      "cy": 3246,
      "d1</w>": 3247,
      "tm": 3248,
      "default</w>": 3249,
      "menu</w>": 3250,
      "ability</w>": 3251,
      "Classes</w>": 3252,
      "Stats</w>": 3253,
      "Margin</w>": 3254,
      "Which</w>": 3255,
      "original</w>": 3256,
      "FINITY</w>": 3257,
      "_SEPARATOR</w>": 3258,
      "POSIT": 3259,
      "mbol</w>": 3260,
      "GE</w>": 3261,
      "car": 3262,
      "Remove": 3263,
      "tener": 3264,
      "Scro": 3265,
      "handler</w>": 3266,
      "Cir": 3267,
      "FS</w>": 3268,
      "Zip": 3269,
      "non": 3270,
      "package": 3271,
      "vm": 3272,
      "ral</w>": 3273,
      "Reil": 3274,
      "edge</w>": 3275,
      "ample</w>": 3276,
      "ParseException</w>": 3277,
      "LazyPainter</w>": 3278,
      "conn</w>": 3279,
      "Page</w>": 3280,
      "Algorith": 3281,
      "COM": 3282,
      "Pool": 3283,
      "MASK</w>": 3284,
      "IVE_INFINITY</w>": 3285,
      "Iter</w>": 3286,
      "gre": 3287,
      "recei": 3288,
      "trace</w>": 3289,
      "Children</w>": 3290,
      "Tokens</w>": 3291,
      "mxConstants</w>": 3292,
      "Execut": 3293,
      "\"'</w>": 3294,
      "cap": 3295,
      "cle</w>": 3296,
      "ha": 3297,
      "push</w>": 3298,
      "amer": 3299,
      "Excep": 3300,
      "ION": 3301,
      "forw": 3302,
      "0xFF</w>": 3303,
      "Adapter</w>": 3304,
      "ground": 3305,
      "display": 3306,
      "Target</w>": 3307,
      "After": 3308,
      "increment": 3309,
      "height": 3310,
      "mP": 3311,
      "dim</w>": 3312,
      "endIndex</w>": 3313,
      "collection</w>": 3314,
      "LAT": 3315,
      "tree": 3316,
      "tro": 3317,
      "decode</w>": 3318,
      "binary": 3319,
      "listOptions</w>": 3320,
      "PREFI": 3321,
      "sett": 3322,
      "newValue</w>": 3323,
      "prec": 3324,
      "Pattern": 3325,
      "Reference": 3326,
      "Utilities</w>": 3327,
      "Sing": 3328,
      "graph</w>": 3329,
      "elap": 3330,
      "000</w>": 3331,
      "command</w>": 3332,
      "propertyName</w>": 3333,
      "Runnable</w>": 3334,
      "Tick": 3335,
      "md": 3336,
      "gener": 3337,
      "buf": 3338,
      "tab</w>": 3339,
      "mode</w>": 3340,
      "Show": 3341,
      "ops</w>": 3342,
      "expand": 3343,
      "msg": 3344,
      "drawable</w>": 3345,
      "Transform": 3346,
      "Only</w>": 3347,
      "ished</w>": 3348,
      "EMP": 3349,
      "card": 3350,
      "k2</w>": 3351,
      "environment</w>": 3352,
      "getMessage</w>": 3353,
      "Component": 3354,
      "dbClient</w>": 3355,
      "db</w>": 3356,
      "high</w>": 3357,
      "track": 3358,
      "getNum": 3359,
      "Invo": 3360,
      "control": 3361,
      "apply": 3362,
      "elementAt</w>": 3363,
      "Position": 3364,
      "switch</w>": 3365,
      "Norm": 3366,
      "Sort": 3367,
      "eff": 3368,
      "found</w>": 3369,
      "Load": 3370,
      "scan": 3371,
      "absValue</w>": 3372,
      "connection": 3373,
      "KEY_": 3374,
      "Prim": 3375,
      "Frame": 3376,
      "Drawable</w>": 3377,
      "OM": 3378,
      "nextElement</w>": 3379,
      "compar": 3380,
      "transform</w>": 3381,
      "Counter</w>": 3382,
      "timestamp</w>": 3383,
      "ICO": 3384,
      "Padding</w>": 3385,
      "Box": 3386,
      "center</w>": 3387,
      "Database": 3388,
      "hasMoreElements</w>": 3389,
      "Raw": 3390,
      "Border</w>": 3391,
      "Store": 3392,
      "Produ": 3393,
      "minute": 3394,
      "ipe": 3395,
      "Valid</w>": 3396,
      "elementList</w>": 3397,
      "Create": 3398,
      "packed</w>": 3399,
      "Policy</w>": 3400,
      "EO": 3401,
      "Font": 3402,
      "off": 3403,
      "face": 3404,
      "Labels</w>": 3405,
      "UpperCase</w>": 3406,
      "dst</w>": 3407,
      "uid</w>": 3408,
      "newMap</w>": 3409,
      "Compo": 3410,
      "Suffix</w>": 3411,
      "struct": 3412,
      "Positions</w>": 3413,
      "Socket</w>": 3414,
      "'-": 3415,
      "76</w>": 3416,
      "CT</w>": 3417,
      "Scope</w>": 3418,
      "TY</w>": 3419,
      "sort": 3420,
      "stream": 3421,
      "ative</w>": 3422,
      "prefix": 3423,
      "Unit": 3424,
      "assword": 3425,
      "'-'</w>": 3426,
      "ific": 3427,
      "ical": 3428,
      "begin": 3429,
      "DateFormat</w>": 3430,
      "Radians</w>": 3431,
      "isDebugEnabled</w>": 3432,
      "Extern": 3433,
      "Proto": 3434,
      "0x3": 3435,
      "LOGGER</w>": 3436,
      "BYT": 3437,
      "DT": 3438,
      "mit": 3439,
      "ynam": 3440,
      "inst": 3441,
      "uri": 3442,
      "ATTR": 3443,
      "Util": 3444,
      "TED</w>": 3445,
      "channel</w>": 3446,
      "User</w>": 3447,
      "One": 3448,
      "OFF": 3449,
      "Width": 3450,
      "Wrapper</w>": 3451,
      "cent</w>": 3452,
      "setValue</w>": 3453,
      "Build": 3454,
      "Depth</w>": 3455,
      "Dir": 3456,
      "STR": 3457,
      "Interval</w>": 3458,
      "clean": 3459,
      "KEY": 3460,
      "coding": 3461,
      "gest": 3462,
      "arg</w>": 3463,
      "bottom": 3464,
      "Transform</w>": 3465,
      "Window</w>": 3466,
      "posit": 3467,
      "Handle</w>": 3468,
      "Port": 3469,
      "TT": 3470,
      "of": 3471,
      "Props</w>": 3472,
      "locity": 3473,
      "floor</w>": 3474,
      "Level": 3475,
      "CODE_": 3476,
      "FFFF": 3477,
      "destin": 3478,
      "digit</w>": 3479,
      "ED_": 3480,
      "FT</w>": 3481,
      "df": 3482,
      "businessObject": 3483,
      "toHexString</w>": 3484,
      "termin": 3485,
      "Internal</w>": 3486,
      "LayoutParams</w>": 3487,
      "Der": 3488,
      "native": 3489,
      "sIn": 3490,
      "produ": 3491,
      "Program</w>": 3492,
      "Get</w>": 3493,
      "Schema</w>": 3494,
      "Native": 3495,
      "cp</w>": 3496,
      "t1</w>": 3497,
      "debug": 3498,
      "getAbsolute": 3499,
      "total</w>": 3500,
      "INDE": 3501,
      "FormatException</w>": 3502,
      "parameter": 3503,
      "step</w>": 3504,
      "Metrics</w>": 3505,
      "COLUM": 3506,
      "False</w>": 3507,
      "IT</w>": 3508,
      "So": 3509,
      "oom": 3510,
      "constra": 3511,
      "Retur": 3512,
      "param</w>": 3513,
      "gine": 3514,
      "we": 3515,
      "need": 3516,
      "results</w>": 3517,
      "part</w>": 3518,
      "Scan": 3519,
      "Case": 3520,
      "ANC": 3521,
      "Slop</w>": 3522,
      "24": 3523,
      "wi": 3524,
      "inc": 3525,
      "inputStream</w>": 3526,
      "reset": 3527,
      "stack": 3528,
      "paces</w>": 3529,
      "ationException</w>": 3530,
      "runn": 3531,
      "Insn</w>": 3532,
      "BLOC": 3533,
      "Cap": 3534,
      "setAttribute</w>": 3535,
      "Total": 3536,
      "shape</w>": 3537,
      "Shi": 3538,
      "Hex</w>": 3539,
      "attribute</w>": 3540,
      "Right": 3541,
      "tical</w>": 3542,
      "BufferedReader</w>": 3543,
      "SP": 3544,
      "Tup": 3545,
      "ba": 3546,
      "g2": 3547,
      "rege": 3548,
      "anch": 3549,
      "Flag</w>": 3550,
      "IGHT</w>": 3551,
      "lobal": 3552,
      "req</w>": 3553,
      "Buc": 3554,
      "IN_": 3555,
      "Distribu": 3556,
      "readUnsigned": 3557,
      "template": 3558,
      "cc</w>": 3559,
      "et</w>": 3560,
      "grid": 3561,
      "m1</w>": 3562,
      "float": 3563,
      "Headers</w>": 3564,
      "require": 3565,
      "mark": 3566,
      "Session": 3567,
      "Category": 3568,
      "IB": 3569,
      "butt": 3570,
      "Diff</w>": 3571,
      "Bean</w>": 3572,
      "Network": 3573,
      "extract": 3574,
      "Folder</w>": 3575,
      "Orig": 3576,
      "find</w>": 3577,
      "measureSpec</w>": 3578,
      "Allow": 3579,
      "SECON": 3580,
      "1024</w>": 3581,
      "Sol": 3582,
      "bc</w>": 3583,
      "mValues</w>": 3584,
      "ns": 3585,
      "rog": 3586,
      "Encoding</w>": 3587,
      "RESO": 3588,
      "dataIndex</w>": 3589,
      "timeout</w>": 3590,
      "ferred": 3591,
      "Command": 3592,
      "Future</w>": 3593,
      "Graph</w>": 3594,
      "UUID</w>": 3595,
      "half": 3596,
      "getItem": 3597,
      "cell</w>": 3598,
      "Cont": 3599,
      "version": 3600,
      "param": 3601,
      "assertFalse</w>": 3602,
      "0x80</w>": 3603,
      "parser</w>": 3604,
      "Assert</w>": 3605,
      "eek": 3606,
      "series</w>": 3607,
      "Optional</w>": 3608,
      "rotate": 3609,
      "RDFS</w>": 3610,
      "Download": 3611,
      "SAXException</w>": 3612,
      "Esc": 3613,
      "bar</w>": 3614,
      "hel": 3615,
      "sr</w>": 3616,
      "Length": 3617,
      "older": 3618,
      "NO_": 3619,
      "NOT_": 3620,
      "MODE_": 3621,
      "cur</w>": 3622,
      "xsl": 3623,
      "setVisible</w>": 3624,
      "short": 3625,
      "nextToken</w>": 3626,
      "OutOf": 3627,
      "LON": 3628,
      "vider": 3629,
      "Elem": 3630,
      "Certificate</w>": 3631,
      "RG": 3632,
      "Vis": 3633,
      "bind": 3634,
      "pi</w>": 3635,
      "enable": 3636,
      "tail</w>": 3637,
      "pay": 3638,
      "scrip": 3639,
      "gine</w>": 3640,
      "Filter": 3641,
      "General": 3642,
      "Packet</w>": 3643,
      "dw</w>": 3644,
      "son</w>": 3645,
      "fore</w>": 3646,
      "signature</w>": 3647,
      "ResultSet</w>": 3648,
      "gram": 3649,
      "Whitespace</w>": 3650,
      "self</w>": 3651,
      "89</w>": 3652,
      "inal": 3653,
      "ant</w>": 3654,
      "dist": 3655,
      "ending": 3656,
      "Single": 3657,
      "SE</w>": 3658,
      "WOR": 3659,
      "dum": 3660,
      "ie</w>": 3661,
      "getSize</w>": 3662,
      "length": 3663,
      "ATION</w>": 3664,
      "should": 3665,
      "Extension</w>": 3666,
      "Step</w>": 3667,
      "11": 3668,
      "ES_": 3669,
      "Ori": 3670,
      "plot</w>": 3671,
      "flow": 3672,
      "Background</w>": 3673,
      "CI": 3674,
      "_data</w>": 3675,
      "side": 3676,
      "writeObject</w>": 3677,
      "columns</w>": 3678,
      "Mapping</w>": 3679,
      "_offset</w>": 3680,
      "ld</w>": 3681,
      "mTouch": 3682,
      "inst</w>": 3683,
      "getLength</w>": 3684,
      "execute</w>": 3685,
      "specSize</w>": 3686,
      "bs</w>": 3687,
      "pop</w>": 3688,
      "dimension</w>": 3689,
      "AR_": 3690,
      "New</w>": 3691,
      "Trace": 3692,
      "Visib": 3693,
      "HttpServlet": 3694,
      "specMode</w>": 3695,
      "Instruction</w>": 3696,
      "sing</w>": 3697,
      "Progress": 3698,
      "Diff": 3699,
      "mapSize</w>": 3700,
      "Desc</w>": 3701,
      "99": 3702,
      "Boo": 3703,
      "ln": 3704,
      "m2</w>": 3705,
      "p0</w>": 3706,
      "parts</w>": 3707,
      "prepa": 3708,
      "ision</w>": 3709,
      "views</w>": 3710,
      "client</w>": 3711,
      "command": 3712,
      "Policy": 3713,
      "style</w>": 3714,
      "Pixel": 3715,
      "adjust": 3716,
      "Device": 3717,
      "createStatement</w>": 3718,
      "COLO": 3719,
      "indent</w>": 3720,
      "alizer</w>": 3721,
      "gnost": 3722,
      "Flags</w>": 3723,
      "Nan": 3724,
      "TER_": 3725,
      "XY": 3726,
      "h1</w>": 3727,
      "sv": 3728,
      "allow": 3729,
      "Fix": 3730,
      "Argument</w>": 3731,
      "translate</w>": 3732,
      "centa": 3733,
      "visit</w>": 3734,
      "Zero</w>": 3735,
      "component": 3736,
      "Region</w>": 3737,
      "Amount</w>": 3738,
      "warn</w>": 3739,
      "ReilHelpers</w>": 3740,
      "Lite": 3741,
      "MES": 3742,
      "Multi": 3743,
      "Te": 3744,
      "hs</w>": 3745,
      "lean": 3746,
      "Instance": 3747,
      "Noti": 3748,
      "FILE_": 3749,
      "alpha": 3750,
      "1f</w>": 3751,
      "da</w>": 3752,
      "rt": 3753,
      "Form": 3754,
      "comple": 3755,
      "Sum</w>": 3756,
      "filter": 3757,
      "namespace": 3758,
      "Modifier</w>": 3759,
      "DOMConstants</w>": 3760,
      "TEXT_": 3761,
      "Alias</w>": 3762,
      "FR": 3763,
      "IN</w>": 3764,
      "getSelected": 3765,
      "Pay": 3766,
      "Direct": 3767,
      "127</w>": 3768,
      "Annotation": 3769,
      "pendenc": 3770,
      "c_": 3771,
      "ured": 3772,
      "zer": 3773,
      "Default</w>": 3774,
      "TreeNode</w>": 3775,
      "Predictor</w>": 3776,
      "Partition": 3777,
      "oredCriteria</w>": 3778,
      "Literal</w>": 3779,
      "MESSA": 3780,
      "OP": 3781,
      "VE": 3782,
      "that</w>": 3783,
      "status": 3784,
      "Param": 3785,
      "COUN": 3786,
      "ESPAC": 3787,
      "parameters</w>": 3788,
      "Permission</w>": 3789,
      "SI": 3790,
      "pt</w>": 3791,
      "decoder</w>": 3792,
      "ish</w>": 3793,
      "Poly": 3794,
      "StringUtils</w>": 3795,
      "StringTokenizer</w>": 3796,
      "Preconditions</w>": 3797,
      "zzBuffer</w>": 3798,
      "description</w>": 3799,
      "schema": 3800,
      "Publ": 3801,
      "allbacks</w>": 3802,
      "Rendering": 3803,
      "ynamic": 3804,
      "Vir": 3805,
      "X5": 3806,
      "bound": 3807,
      "den": 3808,
      "icon": 3809,
      "amb": 3810,
      "down</w>": 3811,
      "Animation": 3812,
      "BUFF": 3813,
      "Binding": 3814,
      "module": 3815,
      "Center</w>": 3816,
      "40</w>": 3817,
      "Bar</w>": 3818,
      "Round": 3819,
      "SS": 3820,
      "h2</w>": 3821,
      "uments</w>": 3822,
      "pose</w>": 3823,
      "Popup": 3824,
      "Env</w>": 3825,
      "Motion": 3826,
      "Matrix": 3827,
      "SET</w>": 3828,
      "empty</w>": 3829,
      "Generic": 3830,
      "DS</w>": 3831,
      "GL": 3832,
      "PI": 3833,
      "high": 3834,
      "iv": 3835,
      "trim": 3836,
      "annot": 3837,
      "ign</w>": 3838,
      "abet</w>": 3839,
      "CharArray</w>": 3840,
      "Lock": 3841,
      "box</w>": 3842,
      "Namespace</w>": 3843,
      "Member": 3844,
      "48</w>": 3845,
      "Bug": 3846,
      "permis": 3847,
      "0x00": 3848,
      "ARG": 3849,
      "Export": 3850,
      "Swit": 3851,
      "Memory": 3852,
      "Definition</w>": 3853,
      "WAR": 3854,
      "ial": 3855,
      "ves</w>": 3856,
      "abstra": 3857,
      "identi": 3858,
      "service</w>": 3859,
      "iction": 3860,
      "Mode": 3861,
      "Quali": 3862,
      "checkNotNull</w>": 3863,
      "sync": 3864,
      "Order": 3865,
      "ClassLoader</w>": 3866,
      "curr_": 3867,
      "Editor": 3868,
      "NUL": 3869,
      "cmd</w>": 3870,
      "fy</w>": 3871,
      "stmt</w>": 3872,
      "ties": 3873,
      "getX": 3874,
      "unit</w>": 3875,
      "direction</w>": 3876,
      "utable": 3877,
      "Bound": 3878,
      "decoded": 3879,
      "fieldName</w>": 3880,
      "pivo": 3881,
      "Job": 3882,
      "hi</w>": 3883,
      "mask": 3884,
      "x_": 3885,
      "orted</w>": 3886,
      "getCurrent": 3887,
      "core": 3888,
      "lat</w>": 3889,
      "intValue</w>": 3890,
      "lush": 3891,
      "NODE</w>": 3892,
      "GROUND_": 3893,
      "Details</w>": 3894,
      "requireNonNull</w>": 3895,
      "Gra": 3896,
      "bScale</w>": 3897,
      "pack": 3898,
      "intent</w>": 3899,
      "enter": 3900,
      "our</w>": 3901,
      "segment": 3902,
      "ICON_": 3903,
      "frag": 3904,
      "dec": 3905,
      "Media": 3906,
      "span": 3907,
      "TimeZone</w>": 3908,
      "Trace</w>": 3909,
      "getPadding": 3910,
      "deltaY</w>": 3911,
      "component</w>": 3912,
      "Module": 3913,
      "Surrog": 3914,
      "getAbsolutePath</w>": 3915,
      "g2d</w>": 3916,
      "Virtual": 3917,
      "PH": 3918,
      "Squ": 3919,
      "day</w>": 3920,
      "Inc</w>": 3921,
      "Dataset</w>": 3922,
      "ared</w>": 3923,
      "Activity": 3924,
      "iod</w>": 3925,
      "Style": 3926,
      "Card": 3927,
      "Look": 3928,
      "nd</w>": 3929,
      "yj</w>": 3930,
      "isLogg": 3931,
      "ading": 3932,
      "ext": 3933,
      "proto": 3934,
      "newArray</w>": 3935,
      "Direction</w>": 3936,
      "Root": 3937,
      "Project</w>": 3938,
      "factory</w>": 3939,
      "CLAS": 3940,
      "Clause</w>": 3941,
      "Kind</w>": 3942,
      "lease": 3943,
      "00000000": 3944,
      "Modified</w>": 3945,
      "18": 3946,
      "3_": 3947,
      "ST</w>": 3948,
      "duration</w>": 3949,
      "peek</w>": 3950,
      "include": 3951,
      "encryp": 3952,
      "model": 3953,
      "metr": 3954,
      "symbol": 3955,
      "Transl": 3956,
      "Domain": 3957,
      "Namespace": 3958,
      "pool</w>": 3959,
      "Orientation</w>": 3960,
      "Db": 3961,
      "Password</w>": 3962,
      "dim": 3963,
      "go": 3964,
      "json": 3965,
      "ow</w>": 3966,
      "swa": 3967,
      "alized</w>": 3968,
      "Arr</w>": 3969,
      "NoSu": 3970,
      "Parser": 3971,
      "shut": 3972,
      "codes</w>": 3973,
      "FileOutputStream</w>": 3974,
      "feature": 3975,
      "Delta": 3976,
      "Series": 3977,
      "skip</w>": 3978,
      "Binary": 3979,
      "FLA": 3980,
      "Same": 3981,
      "ice": 3982,
      "strip": 3983,
      "m_mapSize</w>": 3984,
      "creen</w>": 3985,
      "ARRA": 3986,
      "Transi": 3987,
      "cache</w>": 3988,
      "supported": 3989,
      "abstract</w>": 3990,
      "DN</w>": 3991,
      "For</w>": 3992,
      "UE</w>": 3993,
      "Weight</w>": 3994,
      "mProfile": 3995,
      "r1</w>": 3996,
      "coords</w>": 3997,
      "toCharArray</w>": 3998,
      "addTo": 3999,
      "Dia": 4000,
      "selection": 4001,
      "columnName</w>": 4002,
      "Exception": 4003,
      "NoSuch": 4004,
      "Ato": 4005,
      "Call": 4006,
      "Crop": 4007,
      "mY": 4008,
      "stop</w>": 4009,
      "toUpperCase</w>": 4010,
      "Events</w>": 4011,
      "Constant</w>": 4012,
      "angle": 4013,
      "delimiter</w>": 4014,
      "Addr</w>": 4015,
      "Visible": 4016,
      "ories</w>": 4017,
      "Check</w>": 4018,
      "Visibility</w>": 4019,
      "mouse": 4020,
      "t2</w>": 4021,
      "tes</w>": 4022,
      "depth</w>": 4023,
      "thread</w>": 4024,
      "sertion": 4025,
      "ClassNotFoundException</w>": 4026,
      "copyOf</w>": 4027,
      "equ": 4028,
      "tex</w>": 4029,
      "getY": 4030,
      "mapp": 4031,
      "writeInt</w>": 4032,
      "Animation</w>": 4033,
      "statement</w>": 4034,
      "Volume": 4035,
      "Alphabet</w>": 4036,
      "volume": 4037,
      "Extra</w>": 4038,
      "Pi": 4039,
      "cro": 4040,
      "candid": 4041,
      "draw</w>": 4042,
      "vect": 4043,
      "iso": 4044,
      "Recei": 4045,
      "Threshold</w>": 4046,
      "Required</w>": 4047,
      "Interface</w>": 4048,
      "ClassName</w>": 4049,
      "Decimal": 4050,
      "resolve": 4051,
      "MIN_VALUE</w>": 4052,
      "Cipher": 4053,
      "Sin": 4054,
      "h0</w>": 4055,
      "Insets</w>": 4056,
      "cover": 4057,
      "prop": 4058,
      "digest</w>": 4059,
      "medi": 4060,
      "export": 4061,
      "files</w>": 4062,
      "Diagnost": 4063,
      "Tic": 4064,
      "focus": 4065,
      "ression": 4066,
      "record": 4067,
      "pattern": 4068,
      "Annotation</w>": 4069,
      "PATTER": 4070,
      "':": 4071,
      "AV": 4072,
      "TIT": 4073,
      "found": 4074,
      "lap": 4075,
      "o2</w>": 4076,
      "ution": 4077,
      "isValid": 4078,
      "getElement": 4079,
      "access": 4080,
      "Sets</w>": 4081,
      "Timer</w>": 4082,
      "ERV": 4083,
      "URC": 4084,
      "CH_": 4085,
      "Binding</w>": 4086,
      "RectangleEdge</w>": 4087,
      "frame": 4088,
      "Alpha</w>": 4089,
      "Remote": 4090,
      "':'</w>": 4091,
      "By</w>": 4092,
      "Ow": 4093,
      "insets</w>": 4094,
      "getAttribute</w>": 4095,
      "file_": 4096,
      "second</w>": 4097,
      "auto": 4098,
      "Copy": 4099,
      "BorderLayout</w>": 4100,
      "PREFIX</w>": 4101,
      "MIM": 4102,
      "SIZ": 4103,
      "iv</w>": 4104,
      "nx</w>": 4105,
      "ular": 4106,
      "orts</w>": 4107,
      "charset</w>": 4108,
      "ENA": 4109,
      "Channel": 4110,
      "Bean": 4111,
      "nanoTime</w>": 4112,
      "LY</w>": 4113,
      "Plot": 4114,
      "ain</w>": 4115,
      "ution</w>": 4116,
      "ser</w>": 4117,
      "tach": 4118,
      "Acces": 4119,
      "play</w>": 4120,
      "FIEL": 4121,
      "layout": 4122,
      "oneByte</w>": 4123,
      "ActionListener</w>": 4124,
      "MetaData</w>": 4125,
      "shift</w>": 4126,
      "settings</w>": 4127,
      "prepare": 4128,
      "Multip": 4129,
      "US</w>": 4130,
      "mItem": 4131,
      "port": 4132,
      "ons</w>": 4133,
      "Strings</w>": 4134,
      "area</w>": 4135,
      "bitmap": 4136,
      "Comment</w>": 4137,
      "tmpVar": 4138,
      "Space": 4139,
      "bar": 4140,
      "ciph": 4141,
      "fos</w>": 4142,
      "pe</w>": 4143,
      "uti": 4144,
      "zip": 4145,
      "Inst": 4146,
      "ables</w>": 4147,
      "oldValue</w>": 4148,
      "valid</w>": 4149,
      "tempBitmap</w>": 4150,
      "Marker</w>": 4151,
      "Annotations</w>": 4152,
      "Obj</w>": 4153,
      "chunk</w>": 4154,
      "After</w>": 4155,
      "window": 4156,
      "bucket</w>": 4157,
      "nown": 4158,
      "isLoggable</w>": 4159,
      "rg": 4160,
      "Pane": 4161,
      "RenderingH": 4162,
      "Fra": 4163,
      "Plu": 4164,
      "\\'</w>": 4165,
      "fe</w>": 4166,
      "mMonth": 4167,
      "padding</w>": 4168,
      "Coord</w>": 4169,
      "okie</w>": 4170,
      "10000</w>": 4171,
      "project</w>": 4172,
      "'\\\\'</w>": 4173,
      "swap</w>": 4174,
      "Tri": 4175,
      "Whe": 4176,
      "tup": 4177,
      "tLock</w>": 4178,
      "zes</w>": 4179,
      "measure": 4180,
      "TimeUnit</w>": 4181,
      "Audi": 4182,
      "Nanos</w>": 4183,
      "SC": 4184,
      "Wid": 4185,
      "fra": 4186,
      "lo</w>": 4187,
      "getFirst": 4188,
      "newInstance</w>": 4189,
      "readObject</w>": 4190,
      "readLine</w>": 4191,
      "AndGet</w>": 4192,
      "text1</w>": 4193,
      "headers</w>": 4194,
      "StartRead</w>": 4195,
      "zzStartRead</w>": 4196,
      "25</w>": 4197,
      "CH</w>": 4198,
      "Day</w>": 4199,
      "Diction": 4200,
      "Lon</w>": 4201,
      "flush": 4202,
      "std": 4203,
      "ility": 4204,
      "Prox": 4205,
      "ATE_": 4206,
      "Open": 4207,
      "comment</w>": 4208,
      "Transfer": 4209,
      "VALID_": 4210,
      "HEAD": 4211,
      "cancel</w>": 4212,
      "Fragment</w>": 4213,
      "with": 4214,
      "Bl": 4215,
      "Usa": 4216,
      "case": 4217,
      "ired": 4218,
      "screen": 4219,
      "tices</w>": 4220,
      "throw": 4221,
      "Remain": 4222,
      "LES": 4223,
      "dispose</w>": 4224,
      "filled": 4225,
      "UTF": 4226,
      "ixel</w>": 4227,
      "Schema": 4228,
      "Scroll</w>": 4229,
      "Cnt</w>": 4230,
      "UP</w>": 4231,
      "Use</w>": 4232,
      "o1</w>": 4233,
      "reg</w>": 4234,
      "isF": 4235,
      "isDirectory</w>": 4236,
      "imit": 4237,
      "mean</w>": 4238,
      "Symbol</w>": 4239,
      "Account": 4240,
      "numeric": 4241,
      "Vertex": 4242,
      "selector</w>": 4243,
      "Container": 4244,
      "Detail</w>": 4245,
      "anguage</w>": 4246,
      "ETYPE_": 4247,
      "Far</w>": 4248,
      "Snapsho": 4249,
      "cy</w>": 4250,
      "cation": 4251,
      "oid</w>": 4252,
      "pp</w>": 4253,
      "sequen": 4254,
      "Results</w>": 4255,
      "score</w>": 4256,
      "Short": 4257,
      "FileInputStream</w>": 4258,
      "NodeList</w>": 4259,
      "XML</w>": 4260,
      "iled": 4261,
      "MenuItem</w>": 4262,
      "COLUMN_": 4263,
      "EP": 4264,
      "MON": 4265,
      "ier": 4266,
      "pk": 4267,
      "pas": 4268,
      "sen": 4269,
      "entran": 4270,
      "sha": 4271,
      "Thumb": 4272,
      "NAMESPAC": 4273,
      "Elem</w>": 4274,
      "Managed": 4275,
      "BLED</w>": 4276,
      "success</w>": 4277,
      "Package": 4278,
      "Rol": 4279,
      "ear": 4280,
      "greg": 4281,
      "pad": 4282,
      "lease</w>": 4283,
      "legate</w>": 4284,
      "UNK": 4285,
      "Final": 4286,
      "1_": 4287,
      "90</w>": 4288,
      "Asc": 4289,
      "NOR": 4290,
      "Sum": 4291,
      "ZER": 4292,
      "pc</w>": 4293,
      "rc</w>": 4294,
      "tch": 4295,
      "Reposit": 4296,
      "Reentran": 4297,
      "kets</w>": 4298,
      "OR_": 4299,
      "hex</w>": 4300,
      "NumberOf": 4301,
      "thisVar</w>": 4302,
      "Termin": 4303,
      "visible": 4304,
      "returnVar</w>": 4305,
      "Consumer</w>": 4306,
      "reference": 4307,
      "Composi": 4308,
      "OutOfBounds": 4309,
      "ReentrantLock</w>": 4310,
      "Cance": 4311,
      "PU": 4312,
      "Up</w>": 4313,
      "mIs": 4314,
      "ps": 4315,
      "coordin": 4316,
      "test_": 4317,
      "Collection": 4318,
      "Assign": 4319,
      "TY_": 4320,
      "messages</w>": 4321,
      "Features</w>": 4322,
      "cs": 4323,
      "lamb": 4324,
      "sm": 4325,
      "ings": 4326,
      "img</w>": 4327,
      "dir": 4328,
      "0x0": 4329,
      "container": 4330,
      "Changed": 4331,
      "GridConstraints</w>": 4332,
      "orizont": 4333,
      "cancel": 4334,
      "21</w>": 4335,
      "HOR": 4336,
      "Horizontal": 4337,
      "cb</w>": 4338,
      "horizontal": 4339,
      "pw</w>": 4340,
      "utable</w>": 4341,
      "y_": 4342,
      "stro": 4343,
      "def": 4344,
      "Indic": 4345,
      "Proxy</w>": 4346,
      "ved</w>": 4347,
      "parator": 4348,
      "INT_": 4349,
      "Open</w>": 4350,
      "types</w>": 4351,
      "Float": 4352,
      "baseOffset</w>": 4353,
      "Sequence": 4354,
      "attrs</w>": 4355,
      "Condition</w>": 4356,
      "EM": 4357,
      "_x</w>": 4358,
      "gl</w>": 4359,
      "gts</w>": 4360,
      "h3</w>": 4361,
      "wrap</w>": 4362,
      "IndexOutOfBounds": 4363,
      "Domain</w>": 4364,
      "Series</w>": 4365,
      "Animator</w>": 4366,
      "Project": 4367,
      "Member</w>": 4368,
      "ified": 4369,
      "IndexOutOfBoundsException</w>": 4370,
      "IT_": 4371,
      "SV": 4372,
      "Tip": 4373,
      "ak": 4374,
      "ast": 4375,
      "ling": 4376,
      "plot": 4377,
      "ash": 4378,
      "oot": 4379,
      "locity</w>": 4380,
      "0x7": 4381,
      "indexOf": 4382,
      "Bottom": 4383,
      "translate": 4384,
      "encoded</w>": 4385,
      "Active</w>": 4386,
      "POL": 4387,
      "PrintWriter</w>": 4388,
      "centage</w>": 4389,
      "Surrogate</w>": 4390,
      "33": 4391,
      "Hour": 4392,
      "SD": 4393,
      "mv</w>": 4394,
      "org</w>": 4395,
      "ili": 4396,
      "contents</w>": 4397,
      "tence</w>": 4398,
      "Link": 4399,
      "ird": 4400,
      "tokens</w>": 4401,
      "Doc</w>": 4402,
      "Sync": 4403,
      "descrip": 4404,
      "WebXml</w>": 4405,
      "Controller</w>": 4406,
      "bucket": 4407,
      "KEYCODE_": 4408,
      "readUnsignedShort</w>": 4409,
      "Batch</w>": 4410,
      "Oc": 4411,
      "bv</w>": 4412,
      "gc</w>": 4413,
      "sPer": 4414,
      "req": 4415,
      "Replace": 4416,
      "StringWriter</w>": 4417,
      "Que": 4418,
      "Suc": 4419,
      "Dist</w>": 4420,
      "Operation": 4421,
      "Operand</w>": 4422,
      "project": 4423,
      "queue": 4424,
      "Accessi": 4425,
      "BIT": 4426,
      "TM": 4427,
      "rule</w>": 4428,
      "sbuf</w>": 4429,
      "ins</w>": 4430,
      "tered": 4431,
      "fier": 4432,
      "process</w>": 4433,
      "verify": 4434,
      "Direc": 4435,
      "MAPP": 4436,
      "valueFactory</w>": 4437,
      "ObjectOutputStream</w>": 4438,
      "layer</w>": 4439,
      "Finished</w>": 4440,
      "nameNode</w>": 4441,
      "Title": 4442,
      "shift": 4443,
      "Notification": 4444,
      "CENTER</w>": 4445,
      "orizontal</w>": 4446,
      "POR": 4447,
      "UP": 4448,
      "em": 4449,
      "hit": 4450,
      "all</w>": 4451,
      "defin": 4452,
      "provider</w>": 4453,
      "prim": 4454,
      "Anch": 4455,
      "Only": 4456,
      "DIRE": 4457,
      "tableName</w>": 4458,
      "absMin</w>": 4459,
      "theta</w>": 4460,
      "Database</w>": 4461,
      "Resolver</w>": 4462,
      "mTouchSlop</w>": 4463,
      "DF": 4464,
      "Pic": 4465,
      "ec</w>": 4466,
      "Integer": 4467,
      "END": 4468,
      "FIL": 4469,
      "Components</w>": 4470,
      "position": 4471,
      "RDF</w>": 4472,
      "FOCU": 4473,
      "BitmapFactory</w>": 4474,
      "be</w>": 4475,
      "jor": 4476,
      "ENS": 4477,
      "nextDouble</w>": 4478,
      "Previou": 4479,
      "sign</w>": 4480,
      "Nee": 4481,
      "text2</w>": 4482,
      "zzEnd": 4483,
      "Swipe": 4484,
      "Processor": 4485,
      "Constraint</w>": 4486,
      "FORMA": 4487,
      "COUNT</w>": 4488,
      "X509": 4489,
      "zzEndRead</w>": 4490,
      "FLO": 4491,
      "big": 4492,
      "pixel": 4493,
      "see": 4494,
      "fine</w>": 4495,
      "setLength</w>": 4496,
      "Encode": 4497,
      "meta": 4498,
      "Colors</w>": 4499,
      "_STR": 4500,
      "ire</w>": 4501,
      "extension</w>": 4502,
      "DateTime": 4503,
      "Processor</w>": 4504,
      "57</w>": 4505,
      "a1</w>": 4506,
      "hour": 4507,
      "Stru": 4508,
      "divid": 4509,
      "dot": 4510,
      "report": 4511,
      "seconds</w>": 4512,
      "MouseEvent</w>": 4513,
      "antity</w>": 4514,
      "comparator</w>": 4515,
      "JEC": 4516,
      "Pe": 4517,
      "ao</w>": 4518,
      "aded": 4519,
      "ptr</w>": 4520,
      "span</w>": 4521,
      "inOff</w>": 4522,
      "orth": 4523,
      "sec": 4524,
      "Sibl": 4525,
      "med</w>": 4526,
      "Move</w>": 4527,
      "force": 4528,
      "Transaction": 4529,
      "getCtx</w>": 4530,
      "Delete</w>": 4531,
      "methodName</w>": 4532,
      "20": 4533,
      "Sk": 4534,
      "gap": 4535,
      "actions</w>": 4536,
      "pol": 4537,
      "uper": 4538,
      "INVALID_": 4539,
      "Chart": 4540,
      "writeShort</w>": 4541,
      "Worker": 4542,
      "Blocks</w>": 4543,
      "labels</w>": 4544,
      "Comparable</w>": 4545,
      "Msg": 4546,
      "quote</w>": 4547,
      "H_": 4548,
      "No</w>": 4549,
      "US_": 4550,
      "cat": 4551,
      "call": 4552,
      "cluster": 4553,
      "rs": 4554,
      "curr</w>": 4555,
      "Symbol": 4556,
      "domain": 4557,
      "EST</w>": 4558,
      "Base64</w>": 4559,
      "VariableString</w>": 4560,
      "secondDigit</w>": 4561,
      "BYTE": 4562,
      "partition": 4563,
      "Clus": 4564,
      "Inet": 4565,
      "OF_": 4566,
      "TW": 4567,
      "cnt</w>": 4568,
      "chec": 4569,
      "icon</w>": 4570,
      "lip": 4571,
      "save</w>": 4572,
      "record</w>": 4573,
      "Body</w>": 4574,
      "Creator</w>": 4575,
      "segment</w>": 4576,
      "Click": 4577,
      "GLES": 4578,
      "Lat</w>": 4579,
      "SAM": 4580,
      "ain": 4581,
      "sw</w>": 4582,
      "ece</w>": 4583,
      "Conn</w>": 4584,
      "polic": 4585,
      "pred</w>": 4586,
      "expression</w>": 4587,
      "layout</w>": 4588,
      "Groups</w>": 4589,
      "ByteArrayInputStream</w>": 4590,
      "function</w>": 4591,
      "grees</w>": 4592,
      "Fixed": 4593,
      "GLES20</w>": 4594,
      "MIL": 4595,
      "Raster</w>": 4596,
      "cf": 4597,
      "cum": 4598,
      "cls</w>": 4599,
      "ging</w>": 4600,
      "warn": 4601,
      "enum": 4602,
      "road": 4603,
      "Pointer</w>": 4604,
      "tail": 4605,
      "LOG_": 4606,
      "Tags</w>": 4607,
      "PropertyChange</w>": 4608,
      "bind</w>": 4609,
      "orientation</w>": 4610,
      "Swap": 4611,
      "getNextVariableString</w>": 4612,
      "incip": 4613,
      "39</w>": 4614,
      "Bag": 4615,
      "Horizontal</w>": 4616,
      "Mask": 4617,
      "WH": 4618,
      "gh": 4619,
      "invalidate</w>": 4620,
      "tract</w>": 4621,
      "engine": 4622,
      "ned</w>": 4623,
      "finish</w>": 4624,
      "extra": 4625,
      "edge": 4626,
      "Opcodes</w>": 4627,
      "TRAN": 4628,
      "Zeros</w>": 4629,
      "ConfigurationException</w>": 4630,
      "External": 4631,
      "MIMETYPE_": 4632,
      "16": 4633,
      "BLE_": 4634,
      "e0</w>": 4635,
      "cos": 4636,
      "final": 4637,
      "renderer</w>": 4638,
      "Access</w>": 4639,
      "Alloc": 4640,
      "DataSet": 4641,
      "Vertical</w>": 4642,
      "Vals</w>": 4643,
      "TRUE</w>": 4644,
      "pending": 4645,
      "TO_ICON_": 4646,
      "MAPPING</w>": 4647,
      "MIMETYPE_TO_ICON_": 4648,
      "MIMETYPE_TO_ICON_MAPPING</w>": 4649,
      "AT_": 4650,
      "Cluster": 4651,
      "IV</w>": 4652,
      "Iter": 4653,
      "JOption": 4654,
      "TIC": 4655,
      "hist": 4656,
      "getPath</w>": 4657,
      "getParent</w>": 4658,
      "rid</w>": 4659,
      "Stand": 4660,
      "interval</w>": 4661,
      "Mark": 4662,
      "Delete": 4663,
      "JOptionPane</w>": 4664,
      "LIS": 4665,
      "Mi": 4666,
      "c0</w>": 4667,
      "dis</w>": 4668,
      "schedule": 4669,
      "Core": 4670,
      "Shared": 4671,
      "PARAM": 4672,
      "paths</w>": 4673,
      "Veto": 4674,
      "Exists</w>": 4675,
      "Primiti": 4676,
      "Aff": 4677,
      "Fail": 4678,
      "IF": 4679,
      "SW": 4680,
      "mic": 4681,
      "v3</w>": 4682,
      "Process</w>": 4683,
      "Environment</w>": 4684,
      "notific": 4685,
      "chars": 4686,
      "The": 4687,
      "ObjectInputStream</w>": 4688,
      "Matches</w>": 4689,
      "tick": 4690,
      "TIME</w>": 4691,
      "BACKGROUND_": 4692,
      "IBUT": 4693,
      "Brea": 4694,
      "Ign": 4695,
      "LD</w>": 4696,
      "boo": 4697,
      "free": 4698,
      "jar": 4699,
      "var</w>": 4700,
      "alloc</w>": 4701,
      "resScale</w>": 4702,
      "igno": 4703,
      "poll</w>": 4704,
      "Recycle": 4705,
      "viewSize</w>": 4706,
      "accept</w>": 4707,
      "Seconds</w>": 4708,
      "Geome": 4709,
      "download": 4710,
      "i1</w>": 4711,
      "gen": 4712,
      "getView": 4713,
      "excep": 4714,
      "Contents</w>": 4715,
      "edit": 4716,
      "predic": 4717,
      "Metadata</w>": 4718,
      "Template</w>": 4719,
      "wordRelation</w>": 4720,
      "Registr": 4721,
      "Proxy": 4722,
      "SwipeListener</w>": 4723,
      "84": 4724,
      "Fill": 4725,
      "Password": 4726,
      "Sn": 4727,
      "datab": 4728,
      "f_": 4729,
      "mi": 4730,
      "mLast": 4731,
      "sal": 4732,
      "toRadians</w>": 4733,
      "conn": 4734,
      "Buff</w>": 4735,
      "unch": 4736,
      "Att": 4737,
      "board</w>": 4738,
      "LEFT</w>": 4739,
      "ANG": 4740,
      "Delay</w>": 4741,
      "bytesRead</w>": 4742,
      "graphics</w>": 4743,
      "Destin": 4744,
      "amera</w>": 4745,
      "forward</w>": 4746,
      "75</w>": 4747,
      "Cl": 4748,
      "SSL": 4749,
      "VIS": 4750,
      "callback</w>": 4751,
      "weight</w>": 4752,
      "aly": 4753,
      "ced": 4754,
      "Stop": 4755,
      "context": 4756,
      "currentBuffer</w>": 4757,
      "Expan": 4758,
      "escape": 4759,
      "step": 4760,
      "'\"'</w>": 4761,
      "Clock</w>": 4762,
      "GAT": 4763,
      "Used</w>": 4764,
      "ting": 4765,
      "reverse": 4766,
      "adv": 4767,
      "thumb": 4768,
      "direct": 4769,
      "Meas": 4770,
      "dos</w>": 4771,
      "0xff": 4772,
      "parseLong</w>": 4773,
      "internal": 4774,
      "notNull</w>": 4775,
      "before": 4776,
      "clusi": 4777,
      "errorMessage</w>": 4778,
      "Function": 4779,
      "Remove</w>": 4780,
      "Wait": 4781,
      "Notification</w>": 4782,
      "Coordinate</w>": 4783,
      "member": 4784,
      "Tuple</w>": 4785,
      "MILLI": 4786,
      "NS": 4787,
      "OK</w>": 4788,
      "Tw": 4789,
      "http": 4790,
      "mt": 4791,
      "om</w>": 4792,
      "sure</w>": 4793,
      "esTo": 4794,
      "serv": 4795,
      "verse</w>": 4796,
      "newSize</w>": 4797,
      "newCapacity</w>": 4798,
      "Part": 4799,
      "matrix": 4800,
      "begin</w>": 4801,
      "existing": 4802,
      "Close": 4803,
      "FINE</w>": 4804,
      "nanos</w>": 4805,
      "Canvas</w>": 4806,
      "Allowed</w>": 4807,
      "HEADER_": 4808,
      "HORIZ": 4809,
      "14": 4810,
      "Gr": 4811,
      "Put</w>": 4812,
      "d_": 4813,
      "job": 4814,
      "sAnd": 4815,
      "Engine</w>": 4816,
      "INT</w>": 4817,
      "Link</w>": 4818,
      "scr": 4819,
      "faults</w>": 4820,
      "combin": 4821,
      "LEM": 4822,
      "Editor</w>": 4823,
      "Transaction</w>": 4824,
      "mark</w>": 4825,
      "Formatter</w>": 4826,
      "schema</w>": 4827,
      "elapsed</w>": 4828,
      "decodedData</w>": 4829,
      "17": 4830,
      "tf": 4831,
      "isSelected</w>": 4832,
      "an2</w>": 4833,
      "amount</w>": 4834,
      "adapter</w>": 4835,
      "ch2</w>": 4836,
      "distance": 4837,
      "new_": 4838,
      "Local</w>": 4839,
      "REQU": 4840,
      "ORD": 4841,
      "change</w>": 4842,
      "KEY</w>": 4843,
      "Paths</w>": 4844,
      "doubleTo": 4845,
      "Category</w>": 4846,
      "getChildCount</w>": 4847,
      "Static": 4848,
      "light": 4849,
      "ATTRIBUT": 4850,
      "lambda</w>": 4851,
      "Cro": 4852,
      "Done</w>": 4853,
      "GR": 4854,
      "JLabel</w>": 4855,
      "Lon": 4856,
      "WID": 4857,
      "ten</w>": 4858,
      "orage</w>": 4859,
      "sim": 4860,
      "oos</w>": 4861,
      "poly": 4862,
      "safe</w>": 4863,
      "scri": 4864,
      "Layer</w>": 4865,
      "block_size</w>": 4866,
      "way": 4867,
      "srcFile</w>": 4868,
      "Syntax": 4869,
      "Month</w>": 4870,
      "Extension": 4871,
      "NUMB": 4872,
      "Preferences</w>": 4873,
      "MAT": 4874,
      "O_": 4875,
      "amil": 4876,
      "IONS</w>": 4877,
      "Dimen": 4878,
      "CODE</w>": 4879,
      "llpts</w>": 4880,
      "lower": 4881,
      "StackTrace</w>": 4882,
      "Algorithm": 4883,
      "0x3f</w>": 4884,
      "Directory": 4885,
      "Struct": 4886,
      "31</w>": 4887,
      "Height": 4888,
      "Pixel</w>": 4889,
      "Rou": 4890,
      "SIG": 4891,
      "cd</w>": 4892,
      "mMin": 4893,
      "send</w>": 4894,
      "wid": 4895,
      "ere</w>": 4896,
      "dead": 4897,
      "getDefault": 4898,
      "Col</w>": 4899,
      "curView": 4900,
      "ALI": 4901,
      "Write</w>": 4902,
      "box": 4903,
      "Named": 4904,
      "selection</w>": 4905,
      "Dispatch": 4906,
      "player</w>": 4907,
      "VALUE_": 4908,
      "Swing": 4909,
      "Join": 4910,
      "Statist": 4911,
      "binarySearch</w>": 4912,
      "Custom": 4913,
      "Mid</w>": 4914,
      "TUR": 4915,
      "bo</w>": 4916,
      "dl</w>": 4917,
      "null": 4918,
      "shee": 4919,
      "body</w>": 4920,
      "TextUtils</w>": 4921,
      "firstDigit</w>": 4922,
      "Flow": 4923,
      "NAME_": 4924,
      "stateCount</w>": 4925,
      "bound</w>": 4926,
      "Closed</w>": 4927,
      "session": 4928,
      "Zero": 4929,
      "Module</w>": 4930,
      "URIs</w>": 4931,
      "XMLStreamException</w>": 4932,
      "0d</w>": 4933,
      "bin</w>": 4934,
      "gr</w>": 4935,
      "gbc</w>": 4936,
      "hs": 4937,
      "r2</w>": 4938,
      "ratio</w>": 4939,
      "Device</w>": 4940,
      "ship": 4941,
      "0xf</w>": 4942,
      "DER</w>": 4943,
      "MAX": 4944,
      "TABLE</w>": 4945,
      "TH_": 4946,
      "resources</w>": 4947,
      "Letter</w>": 4948,
      "destination": 4949,
      "01</w>": 4950,
      "Found</w>": 4951,
      "Ln": 4952,
      "im</w>": 4953,
      "k3</w>": 4954,
      "sFor": 4955,
      "t_": 4956,
      "neg": 4957,
      "getParent": 4958,
      "acing</w>": 4959,
      "Digest</w>": 4960,
      "Fast": 4961,
      "join</w>": 4962,
      "Script": 4963,
      "Missing</w>": 4964,
      "RESOURC": 4965,
      "rotateLeft</w>": 4966,
      "55": 4967,
      "global": 4968,
      "os": 4969,
      "r_": 4970,
      "ry</w>": 4971,
      "stored": 4972,
      "trig": 4973,
      "getText</w>": 4974,
      "velocity": 4975,
      "upper": 4976,
      "vertical": 4977,
      "Loc</w>": 4978,
      "Align</w>": 4979,
      "Unsupported": 4980,
      "fail</w>": 4981,
      "UM_": 4982,
      "encodedData</w>": 4983,
      "NEGAT": 4984,
      "Second": 4985,
      "Present</w>": 4986,
      "animator</w>": 4987,
      "anguage": 4988,
      "History</w>": 4989,
      "regex</w>": 4990,
      "Remaining</w>": 4991,
      "/=</w>": 4992,
      "cent": 4993,
      "holder</w>": 4994,
      "k5</w>": 4995,
      "pState</w>": 4996,
      "isValid</w>": 4997,
      "bject</w>": 4998,
      "Modi": 4999,
      "subSignature</w>": 5000,
      "rand</w>": 5001,
      "removeAll": 5002,
      "testBug": 5003,
      "sWith": 5004,
      "clip": 5005,
      "riteria": 5006,
      "appendChild</w>": 5007,
      "Chunk": 5008,
      "factor</w>": 5009,
      "digit": 5010,
      "Save": 5011,
      "Track": 5012,
      "OFFSET</w>": 5013,
      "ZERO</w>": 5014,
      "CDAT": 5015,
      "Callbacks</w>": 5016,
      "RIGHT</w>": 5017,
      "SSO": 5018,
      "_y</w>": 5019,
      "dp</w>": 5020,
      "gu": 5021,
      "plex": 5022,
      "sp</w>": 5023,
      "aster": 5024,
      "tok</w>": 5025,
      "outputStream</w>": 5026,
      "listener": 5027,
      "Shape": 5028,
      "owner</w>": 5029,
      "keyCode</w>": 5030,
      "reen</w>": 5031,
      "Before</w>": 5032,
      "connect</w>": 5033,
      "ioms</w>": 5034,
      "Signature": 5035,
      "SimpleDateFormat</w>": 5036,
      "Fully</w>": 5037,
      "Return</w>": 5038,
      "Shift</w>": 5039,
      "B_": 5040,
      "NEC": 5041,
      "VM</w>": 5042,
      "Weights</w>": 5043,
      "geo</w>": 5044,
      "determin": 5045,
      "getG": 5046,
      "getUser": 5047,
      "lay</w>": 5048,
      "Ofs</w>": 5049,
      "requenc": 5050,
      "head": 5051,
      "template</w>": 5052,
      "TagName</w>": 5053,
      "elem": 5054,
      "Step": 5055,
      "Screen</w>": 5056,
      "bon": 5057,
      "arrow": 5058,
      "issu": 5059,
      "proj</w>": 5060,
      "outOff</w>": 5061,
      "Location": 5062,
      "Records</w>": 5063,
      "Vertical": 5064,
      "blem</w>": 5065,
      "Methods</w>": 5066,
      "gerprint</w>": 5067,
      "configuration</w>": 5068,
      "Unicode": 5069,
      "JSONObject</w>": 5070,
      "proxy": 5071,
      "compareAndSwap": 5072,
      "realm</w>": 5073,
      "CC": 5074,
      "CIM": 5075,
      "Fore": 5076,
      "Mutable": 5077,
      "d3</w>": 5078,
      "mk": 5079,
      "mac": 5080,
      "push": 5081,
      "isWhitespace</w>": 5082,
      "getLong</w>": 5083,
      "getVal</w>": 5084,
      "Actions</w>": 5085,
      "Adap": 5086,
      "signal</w>": 5087,
      "CONNEC": 5088,
      "DOM3_": 5089,
      "LongBits</w>": 5090,
      "ignment</w>": 5091,
      "POSITIVE_INFINITY</w>": 5092,
      "Needed</w>": 5093,
      "Pack": 5094,
      "RAN": 5095,
      "_log</w>": 5096,
      "b0</w>": 5097,
      "mIn": 5098,
      "mRenderer</w>": 5099,
      "ub</w>": 5100,
      "v0</w>": 5101,
      "atts</w>": 5102,
      "less": 5103,
      "isDigit</w>": 5104,
      "reser": 5105,
      "proxy</w>": 5106,
      "ATE</w>": 5107,
      "nextBytes</w>": 5108,
      "Assert": 5109,
      "GridBag": 5110,
      "Place": 5111,
      "MET": 5112,
      "Register": 5113,
      "Available</w>": 5114,
      "tml": 5115,
      "Piece</w>": 5116,
      "CAR": 5117,
      "Zone": 5118,
      "card</w>": 5119,
      "mime": 5120,
      "err</w>": 5121,
      "cores</w>": 5122,
      "fis</w>": 5123,
      "Choo": 5124,
      "assertNotNull</w>": 5125,
      "currentTime</w>": 5126,
      "ITY_": 5127,
      "STAR": 5128,
      "Supported</w>": 5129,
      "CHAR": 5130,
      "tokenizer</w>": 5131,
      "destFile</w>": 5132,
      "Player": 5133,
      "Decode": 5134,
      "sisten": 5135,
      "packageName</w>": 5136,
      "PATTERN</w>": 5137,
      "37</w>": 5138,
      "AT</w>": 5139,
      "Tile": 5140,
      "evalu": 5141,
      "Total</w>": 5142,
      "Select": 5143,
      "Interse": 5144,
      "Speed</w>": 5145,
      "childData</w>": 5146,
      "BufferPos</w>": 5147,
      "InputStream": 5148,
      "Workflow</w>": 5149,
      "CharacterData</w>": 5150,
      "HORIZON": 5151,
      "Area": 5152,
      "AUT": 5153,
      "Zoom": 5154,
      "dr</w>": 5155,
      "k4</w>": 5156,
      "reas": 5157,
      "assign": 5158,
      "Main": 5159,
      "currentThread</w>": 5160,
      "bytesTo": 5161,
      "textArea</w>": 5162,
      "lower</w>": 5163,
      "Marker": 5164,
      "iom</w>": 5165,
      "execut": 5166,
      "Complete</w>": 5167,
      "axioms</w>": 5168,
      "scheme</w>": 5169,
      "after": 5170,
      "Circle</w>": 5171,
      "MONTH</w>": 5172,
      "Blan": 5173,
      "CRE": 5174,
      "_input": 5175,
      "multi": 5176,
      "mFirst": 5177,
      "slot</w>": 5178,
      "uuid</w>": 5179,
      "weight": 5180,
      "zone</w>": 5181,
      "nemon": 5182,
      "fingerprint</w>": 5183,
      "Dependenc": 5184,
      "ING": 5185,
      "INTER": 5186,
      "ectRatio</w>": 5187,
      "ranch": 5188,
      "Shad": 5189,
      "ASE_": 5190,
      "imageSize</w>": 5191,
      "deltaX</w>": 5192,
      "commit": 5193,
      "BYTE_": 5194,
      "Dynamic": 5195,
      "IBLE</w>": 5196,
      "Sim": 5197,
      "nkeys</w>": 5198,
      "ry": 5199,
      "ud": 5200,
      "in_": 5201,
      "conc": 5202,
      "Real": 5203,
      "ict": 5204,
      "Dialog": 5205,
      "Preferred": 5206,
      "DEL": 5207,
      "filePath</w>": 5208,
      "Address": 5209,
      "SED</w>": 5210,
      "childCount</w>": 5211,
      "transform": 5212,
      "previous</w>": 5213,
      "Axiom</w>": 5214,
      "register</w>": 5215,
      "diffs</w>": 5216,
      "Fragment": 5217,
      "activity</w>": 5218,
      "StatementEnum</w>": 5219,
      "anchor</w>": 5220,
      "BindingSet</w>": 5221,
      "']": 5222,
      "36</w>": 5223,
      "BJEC": 5224,
      "Sm": 5225,
      "font</w>": 5226,
      "known": 5227,
      "no</w>": 5228,
      "sList</w>": 5229,
      "inBufferPos</w>": 5230,
      "adj": 5231,
      "ount": 5232,
      "Post": 5233,
      "Distance": 5234,
      "phone": 5235,
      "Properties": 5236,
      "maximum</w>": 5237,
      "Layer": 5238,
      "Prior": 5239,
      "initialize</w>": 5240,
      "Obj": 5241,
      "Term</w>": 5242,
      "PlaPoint": 5243,
      "switch": 5244,
      "Call</w>": 5245,
      "base64Data</w>": 5246,
      "RGB</w>": 5247,
      "GeneralPath</w>": 5248,
      "Switch": 5249,
      "Atomic": 5250,
      "ilities</w>": 5251,
      "Sibling</w>": 5252,
      "NEGATIVE_INFINITY</w>": 5253,
      "METHO": 5254,
      "']'</w>": 5255,
      "''</w>": 5256,
      "Vide": 5257,
      "ach": 5258,
      "bed": 5259,
      "cv</w>": 5260,
      "mD": 5261,
      "indices</w>": 5262,
      "rev": 5263,
      "readFully</w>": 5264,
      "UND": 5265,
      "extension": 5266,
      "LINE_": 5267,
      "'\\''</w>": 5268,
      "JSONException</w>": 5269,
      "Decoder</w>": 5270,
      "v_x</w>": 5271,
      "_nbr</w>": 5272,
      "region": 5273,
      "DAY_": 5274,
      "character</w>": 5275,
      "Executor</w>": 5276,
      "Audio": 5277,
      "'[": 5278,
      "Age": 5279,
      "EAR</w>": 5280,
      "lon</w>": 5281,
      "option</w>": 5282,
      "info": 5283,
      "cel": 5284,
      "Coords</w>": 5285,
      "Listener": 5286,
      "Side</w>": 5287,
      "lash": 5288,
      "Paw": 5289,
      "Parag": 5290,
      "compile</w>": 5291,
      "Prepa": 5292,
      "DES": 5293,
      "Selector</w>": 5294,
      "Common": 5295,
      "iled</w>": 5296,
      "waitFor": 5297,
      "Predicate</w>": 5298,
      "emptyList</w>": 5299,
      "category</w>": 5300,
      "trol</w>": 5301,
      "Standard": 5302,
      "WIDTH</w>": 5303,
      "'['</w>": 5304,
      "Ag": 5305,
      "Ms</w>": 5306,
      "PDF": 5307,
      "S2": 5308,
      "Trip": 5309,
      "pie": 5310,
      "env</w>": 5311,
      "getRow": 5312,
      "asp": 5313,
      "setVisibility</w>": 5314,
      "Build</w>": 5315,
      "shal": 5316,
      "link": 5317,
      "blocksize</w>": 5318,
      "localName</w>": 5319,
      "Feature</w>": 5320,
      "Running</w>": 5321,
      "SampleSize</w>": 5322,
      "DOWN</w>": 5323,
      "VERSION</w>": 5324,
      "minutes</w>": 5325,
      "Escap": 5326,
      "Public": 5327,
      "Dictionary": 5328,
      "ignore": 5329,
      "exception": 5330,
      "VISIBLE</w>": 5331,
      "deadline</w>": 5332,
      "BA": 5333,
      "FE</w>": 5334,
      "VO": 5335,
      "a2</w>": 5336,
      "bi": 5337,
      "inte": 5338,
      "ffix": 5339,
      "setName</w>": 5340,
      "imi": 5341,
      "sym</w>": 5342,
      "mary</w>": 5343,
      "Relative": 5344,
      "mCallback</w>": 5345,
      "Commit": 5346,
      "relation</w>": 5347,
      "Foc": 5348,
      "FAL": 5349,
      "GE": 5350,
      "Loo": 5351,
      "Screen": 5352,
      "lang": 5353,
      "plu": 5354,
      "ya</w>": 5355,
      "dered": 5356,
      "illis": 5357,
      "Times</w>": 5358,
      "formed": 5359,
      "minX</w>": 5360,
      "faces</w>": 5361,
      "STY": 5362,
      "interrup": 5363,
      "Hashtable</w>": 5364,
      "imate": 5365,
      "Section</w>": 5366,
      "CHAR</w>": 5367,
      "cluded</w>": 5368,
      "UIResource</w>": 5369,
      "desiredWidth</w>": 5370,
      "PROPERTY</w>": 5371,
      "Equip": 5372,
      "install": 5373,
      "Mirro": 5374,
      "Blu": 5375,
      "EV": 5376,
      "ied</w>": 5377,
      "alle": 5378,
      "secur": 5379,
      "Incre": 5380,
      "finite</w>": 5381,
      "ooter</w>": 5382,
      "render": 5383,
      "m_blocksize</w>": 5384,
      "Leg": 5385,
      "ENC": 5386,
      "Declar": 5387,
      "Changes</w>": 5388,
      "upper</w>": 5389,
      "Compu": 5390,
      "evt</w>": 5391,
      "Numeric": 5392,
      "Serial": 5393,
      "normalize": 5394,
      "Final</w>": 5395,
      "invoke</w>": 5396,
      "runnable</w>": 5397,
      "Original": 5398,
      "identifier</w>": 5399,
      "warning</w>": 5400,
      "Full</w>": 5401,
      "PER_": 5402,
      "Rt": 5403,
      "dc": 5404,
      "ex</w>": 5405,
      "fm</w>": 5406,
      "re</w>": 5407,
      "tx": 5408,
      "year</w>": 5409,
      "onList</w>": 5410,
      "seq</w>": 5411,
      "Sizes</w>": 5412,
      "lash</w>": 5413,
      "Defaults</w>": 5414,
      "vide": 5415,
      "createC": 5416,
      "trans</w>": 5417,
      "EST_": 5418,
      "working": 5419,
      "initialize": 5420,
      "packet</w>": 5421,
      "increment</w>": 5422,
      "volume</w>": 5423,
      "v_y</w>": 5424,
      "fragment</w>": 5425,
      "Vetoable": 5426,
      "Gap": 5427,
      "My": 5428,
      "PR": 5429,
      "ging": 5430,
      "mSelected": 5431,
      "release": 5432,
      "ath": 5433,
      "roun": 5434,
      "ulation</w>": 5435,
      "ilon</w>": 5436,
      "coeff": 5437,
      "Deprec": 5438,
      "Low": 5439,
      "Load</w>": 5440,
      "Adjust": 5441,
      "common": 5442,
      "Head</w>": 5443,
      "TAG_": 5444,
      "IMUM_": 5445,
      "super": 5446,
      "destro": 5447,
      "MODE</w>": 5448,
      "EXACT": 5449,
      "Background": 5450,
      "IVE</w>": 5451,
      "join": 5452,
      "executeQuery</w>": 5453,
      "util</w>": 5454,
      "JComponent</w>": 5455,
      "Kit</w>": 5456,
      "NING</w>": 5457,
      "OF": 5458,
      "RV</w>": 5459,
      "Trig": 5460,
      "b4</w>": 5461,
      "book": 5462,
      "rb</w>": 5463,
      "vplex": 5464,
      "ness</w>": 5465,
      "abilities</w>": 5466,
      "setPaint</w>": 5467,
      "addPropertyChangeListener</w>": 5468,
      "addActionListener</w>": 5469,
      "link</w>": 5470,
      "fetch": 5471,
      "transfer": 5472,
      "Princip": 5473,
      "latform": 5474,
      "Longitude</w>": 5475,
      "singlet": 5476,
      "Certificate": 5477,
      "Script</w>": 5478,
      "DatabaseCreator</w>": 5479,
      "Since": 5480,
      "Indicator</w>": 5481,
      "cnt": 5482,
      "ive": 5483,
      "Stmt</w>": 5484,
      "tooth": 5485,
      "ToFile</w>": 5486,
      "sub</w>": 5487,
      "metadata</w>": 5488,
      "Dist": 5489,
      "Accep": 5490,
      "LEVE": 5491,
      "Vars</w>": 5492,
      "TAL</w>": 5493,
      "used</w>": 5494,
      "DateTime</w>": 5495,
      "Memory</w>": 5496,
      "Tasks</w>": 5497,
      "Offsets</w>": 5498,
      "TEXT</w>": 5499,
      "Manager": 5500,
      "nanos": 5501,
      "Imm": 5502,
      "XMLStreamWriter</w>": 5503,
      "decim": 5504,
      "focusable": 5505,
      "EXACTLY</w>": 5506,
      "36": 5507,
      "Pending": 5508,
      "af</w>": 5509,
      "game": 5510,
      "mG": 5511,
      "midd": 5512,
      "rc": 5513,
      "squ": 5514,
      "tten</w>": 5515,
      "stitu": 5516,
      "ged": 5517,
      "delay</w>": 5518,
      "getData": 5519,
      "ames</w>": 5520,
      "ressed": 5521,
      "mail</w>": 5522,
      "itr</w>": 5523,
      "problem</w>": 5524,
      "Typed": 5525,
      "part": 5526,
      "ER_SIZE</w>": 5527,
      "createElement</w>": 5528,
      "removeAll</w>": 5529,
      "_SU": 5530,
      "STANC": 5531,
      "S_XSL": 5532,
      "DefaultEditor": 5533,
      "projected": 5534,
      "Uniform": 5535,
      "RenderingHints</w>": 5536,
      "NAMESPACE": 5537,
      "DefaultEditorKit</w>": 5538,
      "Plot</w>": 5539,
      "TION</w>": 5540,
      "ac</w>": 5541,
      "custom": 5542,
      "instan": 5543,
      "device</w>": 5544,
      "ist</w>": 5545,
      "getData</w>": 5546,
      "ici": 5547,
      "Protec": 5548,
      "Ops</w>": 5549,
      "BitsTo": 5550,
      "comment": 5551,
      "Interval": 5552,
      "VarNode</w>": 5553,
      "radix</w>": 5554,
      "normalized": 5555,
      "contentType</w>": 5556,
      "Observer</w>": 5557,
      "actualWidth</w>": 5558,
      "longValue</w>": 5559,
      "scaled": 5560,
      "LINE</w>": 5561,
      "Packet": 5562,
      "Surface": 5563,
      "SpanInc</w>": 5564,
      "compareAndSet</w>": 5565,
      "Gravity</w>": 5566,
      "Wheel": 5567,
      "SAML": 5568,
      "DataSetChanged</w>": 5569,
      "FALSE</w>": 5570,
      "Blue": 5571,
      "2f</w>": 5572,
      "Bad": 5573,
      "CAL": 5574,
      "ELEM": 5575,
      "QName</w>": 5576,
      "bg": 5577,
      "que</w>": 5578,
      "sMap</w>": 5579,
      "ine</w>": 5580,
      "algorith": 5581,
      "getLine": 5582,
      "percentage</w>": 5583,
      "Filename</w>": 5584,
      "page</w>": 5585,
      "Forw": 5586,
      "COR": 5587,
      "COL_": 5588,
      "END_": 5589,
      "Timeout": 5590,
      "removed": 5591,
      "_SH": 5592,
      "blocks</w>": 5593,
      "sql": 5594,
      "Line2D</w>": 5595,
      "IC_": 5596,
      "trah": 5597,
      "moveTo</w>": 5598,
      "allocate</w>": 5599,
      "desiredHeight</w>": 5600,
      "ToolTip": 5601,
      "baos</w>": 5602,
      "Polyg": 5603,
      "Snmp": 5604,
      "Package</w>": 5605,
      "Api": 5606,
      "ED": 5607,
      "IO</w>": 5608,
      "SY": 5609,
      "b_": 5610,
      "bl</w>": 5611,
      "sb": 5612,
      "sle": 5613,
      "usa": 5614,
      "isData</w>": 5615,
      "isEnabled</w>": 5616,
      "Ind": 5617,
      "rac": 5618,
      "Reas": 5619,
      "Prob": 5620,
      "mean": 5621,
      "redund": 5622,
      "checkArgument</w>": 5623,
      "checkHorizontal</w>": 5624,
      "checkVertical</w>": 5625,
      "BitSet</w>": 5626,
      "nodeName</w>": 5627,
      "property</w>": 5628,
      "CHUNK": 5629,
      "Handler": 5630,
      "objects</w>": 5631,
      "glGet": 5632,
      "HOST_": 5633,
      "Report</w>": 5634,
      "Projection</w>": 5635,
      "DATA_": 5636,
      "isInfinite</w>": 5637,
      "module</w>": 5638,
      "import": 5639,
      "Phone": 5640,
      "Vector2</w>": 5641,
      "Latitude</w>": 5642,
      "base64Alphabet</w>": 5643,
      "BYTE</w>": 5644,
      "HttpServletRequest</w>": 5645,
      "MotionEvent</w>": 5646,
      "getElementsBy": 5647,
      "ENABLED</w>": 5648,
      "Er": 5649,
      "Schedule": 5650,
      "_index</w>": 5651,
      "ped</w>": 5652,
      "alar": 5653,
      "nels</w>": 5654,
      "is_": 5655,
      "third": 5656,
      "qualified": 5657,
      "LON</w>": 5658,
      "ITE</w>": 5659,
      "Interpol": 5660,
      "Org": 5661,
      "filler</w>": 5662,
      "Application": 5663,
      "Player</w>": 5664,
      "operation</w>": 5665,
      "DBIDs</w>": 5666,
      "BusinessObjectData": 5667,
      "Transformer": 5668,
      "Solr": 5669,
      "Previous": 5670,
      "testBug7": 5671,
      "BB</w>": 5672,
      "Sq": 5673,
      "SMS": 5674,
      "done</w>": 5675,
      "nn": 5676,
      "sm</w>": 5677,
      "oud": 5678,
      "getMode</w>": 5679,
      "major": 5680,
      "dimen": 5681,
      "shape": 5682,
      "END</w>": 5683,
      "startPos</w>": 5684,
      "open</w>": 5685,
      "ROL": 5686,
      "errors</w>": 5687,
      "printStackTrace</w>": 5688,
      "elementData</w>": 5689,
      "resultLen</w>": 5690,
      "Close</w>": 5691,
      "ERROR_": 5692,
      "actualHeight</w>": 5693,
      "THRES": 5694,
      "ReferenceVariable</w>": 5695,
      "GridBagConstraints</w>": 5696,
      "THRESHO": 5697,
      "')": 5698,
      "BIT</w>": 5699,
      "Den": 5700,
      "Sort</w>": 5701,
      "Year</w>": 5702,
      "aa</w>": 5703,
      "cc": 5704,
      "cir": 5705,
      "d4</w>": 5706,
      "mc</w>": 5707,
      "pup</w>": 5708,
      "getLast": 5709,
      "getSystem": 5710,
      "tool": 5711,
      "Reg</w>": 5712,
      "sync</w>": 5713,
      "reques": 5714,
      "timeout": 5715,
      "Secret": 5716,
      "MessageFormat</w>": 5717,
      "ACTION</w>": 5718,
      "Counts</w>": 5719,
      "Codes</w>": 5720,
      "java_": 5721,
      "diff_": 5722,
      "notifyDataSetChanged</w>": 5723,
      "Variables</w>": 5724,
      "Vec</w>": 5725,
      "'\\\"'</w>": 5726,
      "peer</w>": 5727,
      "modifiable": 5728,
      "templateElements</w>": 5729,
      "Primitive</w>": 5730,
      "S_XSLNAMESPACE": 5731,
      "Bluetooth": 5732,
      "')'</w>": 5733,
      "S_XSLNAMESPACEURL</w>": 5734,
      "',": 5735,
      "CLO": 5736,
      "bit</w>": 5737,
      "wrapper</w>": 5738,
      "team": 5739,
      "ners</w>": 5740,
      "siz": 5741,
      "Extent</w>": 5742,
      "oom</w>": 5743,
      "Control</w>": 5744,
      "Seed</w>": 5745,
      "priority</w>": 5746,
      "Acqu": 5747,
      "keyword</w>": 5748,
      "disable": 5749,
      "defaultValue</w>": 5750,
      "ify</w>": 5751,
      "parameter</w>": 5752,
      "title": 5753,
      "WebXml": 5754,
      "eps": 5755,
      "Push": 5756,
      "socket</w>": 5757,
      "Job</w>": 5758,
      "Rotation</w>": 5759,
      "Register</w>": 5760,
      "vector</w>": 5761,
      "Tick</w>": 5762,
      "check</w>": 5763,
      "connProps</w>": 5764,
      "redundant": 5765,
      "','</w>": 5766,
      "18</w>": 5767,
      "BL": 5768,
      "Mime": 5769,
      "On</w>": 5770,
      "TION_": 5771,
      "mBuffer": 5772,
      "tly</w>": 5773,
      "rem</w>": 5774,
      "lear": 5775,
      "getParameter": 5776,
      "Inform": 5777,
      "sible": 5778,
      "identity": 5779,
      "take": 5780,
      "unmodifiable": 5781,
      "nextChar</w>": 5782,
      "testCase": 5783,
      "Before": 5784,
      "tableFuture</w>": 5785,
      "Priv": 5786,
      "EXP": 5787,
      "CacheObject</w>": 5788,
      "CompletableFuture</w>": 5789,
      "style": 5790,
      "refresh": 5791,
      "Definition": 5792,
      "reference</w>": 5793,
      "Removed</w>": 5794,
      "forward": 5795,
      "elapsed": 5796,
      "DerOutputStream</w>": 5797,
      "Role</w>": 5798,
      "InputStreamReader</w>": 5799,
      "17</w>": 5800,
      "22</w>": 5801,
      "77": 5802,
      "DING</w>": 5803,
      "Epo": 5804,
      "HTT": 5805,
      "VI": 5806,
      "dit": 5807,
      "hyp": 5808,
      "mBounds": 5809,
      "sq</w>": 5810,
      "resses</w>": 5811,
      "stats</w>": 5812,
      "m_path</w>": 5813,
      "saved": 5814,
      "ized": 5815,
      "Quad": 5816,
      "Weak": 5817,
      "Failed": 5818,
      "getChildAt</w>": 5819,
      "businessObjectData": 5820,
      "pivot": 5821,
      "dims</w>": 5822,
      "mediate": 5823,
      "STYLE_": 5824,
      "THRESHOLD</w>": 5825,
      "'>": 5826,
      "15": 5827,
      "El": 5828,
      "Ex</w>": 5829,
      "NONE</w>": 5830,
      "WIN": 5831,
      "bc": 5832,
      "dt": 5833,
      "mContext</w>": 5834,
      "org": 5835,
      "getH": 5836,
      "getStart": 5837,
      "idx": 5838,
      "idle": 5839,
      "Seq</w>": 5840,
      "addListener</w>": 5841,
      "pad</w>": 5842,
      "ize": 5843,
      "subtrah": 5844,
      "redu": 5845,
      "Split": 5846,
      "EN_": 5847,
      "ALIG": 5848,
      "byteBuffer</w>": 5849,
      "Display</w>": 5850,
      "Operand": 5851,
      "mapSettings</w>": 5852,
      "TRA": 5853,
      "radius": 5854,
      "month</w>": 5855,
      "moveTo": 5856,
      "flag</w>": 5857,
      "background": 5858,
      "ValuesHolder</w>": 5859,
      "category": 5860,
      "Circle": 5861,
      "precision</w>": 5862,
      "MESSAGE</w>": 5863,
      "getFirstChild</w>": 5864,
      "stroke": 5865,
      "orthing</w>": 5866,
      "'>'</w>": 5867,
      "subtrahend": 5868,
      "Cr": 5869,
      "Soot": 5870,
      "Tur": 5871,
      "i2</w>": 5872,
      "mF": 5873,
      "sorted": 5874,
      "zoom": 5875,
      "release</w>": 5876,
      "getAttribute": 5877,
      "getLabel</w>": 5878,
      "Std": 5879,
      "setLocation</w>": 5880,
      "conf</w>": 5881,
      "vertices</w>": 5882,
      "Degrees</w>": 5883,
      "sublen</w>": 5884,
      "AndRef": 5885,
      "ASCI": 5886,
      "Validator</w>": 5887,
      "available": 5888,
      "INDEX_": 5889,
      "hours</w>": 5890,
      "Geometry</w>": 5891,
      "determine": 5892,
      "Cat": 5893,
      "Gap</w>": 5894,
      "Language</w>": 5895,
      "OP_": 5896,
      "RT": 5897,
      "Week</w>": 5898,
      "YEAR</w>": 5899,
      "_11</w>": 5900,
      "bility": 5901,
      "sep</w>": 5902,
      "chan</w>": 5903,
      "Paint": 5904,
      "TranMer": 5905,
      "Errors</w>": 5906,
      "SET_": 5907,
      "layer": 5908,
      "Import": 5909,
      "DIS": 5910,
      "TestOptions</w>": 5911,
      "Base64": 5912,
      "registerNode": 5913,
      "backup": 5914,
      "window</w>": 5915,
      "getNodeType</w>": 5916,
      "Negative": 5917,
      "Cipher</w>": 5918,
      "VERSION_": 5919,
      "generate</w>": 5920,
      "Protocol": 5921,
      "candidate</w>": 5922,
      "Composite</w>": 5923,
      "HORIZONTAL</w>": 5924,
      "'(": 5925,
      "CS": 5926,
      "UI</w>": 5927,
      "_cell": 5928,
      "cm</w>": 5929,
      "cScale</w>": 5930,
      "dri": 5931,
      "eren": 5932,
      "hi": 5933,
      "une": 5934,
      "wild": 5935,
      "orm</w>": 5936,
      "ous": 5937,
      "getIn": 5938,
      "getKey</w>": 5939,
      "Cost": 5940,
      "Rege": 5941,
      "rename": 5942,
      "Encoding": 5943,
      "strings</w>": 5944,
      "Leading": 5945,
      "DataOutputStream</w>": 5946,
      "removeSuffix</w>": 5947,
      "MAN": 5948,
      "Tail</w>": 5949,
      "Current</w>": 5950,
      "replacement</w>": 5951,
      "job</w>": 5952,
      "Rules</w>": 5953,
      "EMPTY</w>": 5954,
      "LONG_": 5955,
      "filled_cell": 5956,
      "cells</w>": 5957,
      "redundantOp": 5958,
      "'('</w>": 5959,
      "filled_cell_11</w>": 5960,
      "AN</w>": 5961,
      "CTED</w>": 5962,
      "Game": 5963,
      "HTM": 5964,
      "Ix</w>": 5965,
      "MS</w>": 5966,
      "back</w>": 5967,
      "slo": 5968,
      "tp</w>": 5969,
      "allen": 5970,
      "ell": 5971,
      "Cookie</w>": 5972,
      "ock": 5973,
      "divi": 5974,
      "andsha": 5975,
      "Units</w>": 5976,
      "ITER</w>": 5977,
      "lication</w>": 5978,
      "drawImage</w>": 5979,
      "iler</w>": 5980,
      "Chunks</w>": 5981,
      "Authenti": 5982,
      "Guid</w>": 5983,
      "bufOff</w>": 5984,
      "Pixels</w>": 5985,
      "Usage</w>": 5986,
      "Break": 5987,
      "Prepared": 5988,
      "nanosTimeout</w>": 5989,
      "testBug710": 5990,
      "19": 5991,
      "Da": 5992,
      "TE</w>": 5993,
      "Uri": 5994,
      "bset</w>": 5995,
      "f2</w>": 5996,
      "ok</w>": 5997,
      "snapsho": 5998,
      "added": 5999,
      "threshold</w>": 6000,
      "sig</w>": 6001,
      "progress": 6002,
      "Provider": 6003,
      "verage": 6004,
      "divis": 6005,
      "mem": 6006,
      "Quie": 6007,
      "minimum</w>": 6008,
      "line_": 6009,
      "disk": 6010,
      "One</w>": 6011,
      "FIR": 6012,
      "Percent</w>": 6013,
      "alias</w>": 6014,
      "Modifiers</w>": 6015,
      "relation": 6016,
      "responseCode</w>": 6017,
      "Coordinates</w>": 6018,
      "SoFar</w>": 6019,
      "Squared</w>": 6020,
      "ARRAY</w>": 6021,
      "descriptor</w>": 6022,
      "Cluster</w>": 6023,
      "84Assert": 6024,
      "testBug71084Assert": 6025,
      "testBug71084AssertCase</w>": 6026,
      "Ade": 6027,
      "ARE": 6028,
      "CAP": 6029,
      "Equal": 6030,
      "Famil": 6031,
      "HL": 6032,
      "clus": 6033,
      "fs": 6034,
      "mView": 6035,
      "wrap": 6036,
      "rest": 6037,
      "lege": 6038,
      "sity</w>": 6039,
      "setText": 6040,
      "setMax": 6041,
      "setLayout</w>": 6042,
      "vec</w>": 6043,
      "charCount</w>": 6044,
      "0x8": 6045,
      "FileChannel</w>": 6046,
      "valueTo": 6047,
      "TypeId</w>": 6048,
      "selected</w>": 6049,
      "tokenItem</w>": 6050,
      "normalize</w>": 6051,
      "glBind": 6052,
      "formatter</w>": 6053,
      "notifyItem": 6054,
      "Velocity": 6055,
      "relative": 6056,
      "firePropertyChange</w>": 6057,
      "Initial": 6058,
      "tadata": 6059,
      "hexString</w>": 6060,
      "Available": 6061,
      "Algorithm</w>": 6062,
      "COMM": 6063,
      "amera": 6064,
      "incrementAndGet</w>": 6065,
      "OMGraph": 6066,
      "SECONDS</w>": 6067,
      "HttpServletResponse</w>": 6068,
      "Black</w>": 6069,
      "mFirstPosition</w>": 6070,
      "200</w>": 6071,
      "32": 6072,
      "Bi": 6073,
      "IMA": 6074,
      "pc": 6075,
      "rhs</w>": 6076,
      "repaint</w>": 6077,
      "blue</w>": 6078,
      "coe": 6079,
      "unc": 6080,
      "unit": 6081,
      "period</w>": 6082,
      "lider</w>": 6083,
      "whe": 6084,
      "outStream</w>": 6085,
      "scrap": 6086,
      "currentPosition</w>": 6087,
      "Thro": 6088,
      "minY</w>": 6089,
      "numRead</w>": 6090,
      "bos</w>": 6091,
      "FIED</w>": 6092,
      "AST</w>": 6093,
      "ElementAt</w>": 6094,
      "wait</w>": 6095,
      "Url": 6096,
      "classname</w>": 6097,
      "marker</w>": 6098,
      "okie": 6099,
      "Tables</w>": 6100,
      "destDir</w>": 6101,
      "Validate</w>": 6102,
      "Serializ": 6103,
      "condition</w>": 6104,
      "accepts</w>": 6105,
      "PLIC": 6106,
      "BusinessObjectFormat": 6107,
      "Affine": 6108,
      "salt</w>": 6109,
      "getElementsByTagName</w>": 6110,
      "1L</w>": 6111,
      "Gradi": 6112,
      "Nav": 6113,
      "Ptr</w>": 6114,
      "WR": 6115,
      "mi</w>": 6116,
      "mid": 6117,
      "sFrom": 6118,
      "scope</w>": 6119,
      "getIndex</w>": 6120,
      "getSub": 6121,
      "loaded": 6122,
      "acqu": 6123,
      "teral": 6124,
      "m_last": 6125,
      "Mag</w>": 6126,
      "meas": 6127,
      "records</w>": 6128,
      "spr": 6129,
      "removed</w>": 6130,
      "Writer": 6131,
      "counter": 6132,
      "missing": 6133,
      "username</w>": 6134,
      "resultSet</w>": 6135,
      "Serializer</w>": 6136,
      "orderBy": 6137,
      "Convers": 6138,
      "systemId</w>": 6139,
      "chunkSize</w>": 6140,
      "constraint</w>": 6141,
      "Queue": 6142,
      "Deprecated</w>": 6143,
      "epsilon</w>": 6144,
      "28</w>": 6145,
      "EE": 6146,
      "Fo": 6147,
      "fBuffer</w>": 6148,
      "l1</w>": 6149,
      "mData": 6150,
      "sCount</w>": 6151,
      "ul</w>": 6152,
      "invalid": 6153,
      "ence": 6154,
      "def</w>": 6155,
      "retVal</w>": 6156,
      "ToUse</w>": 6157,
      "phi</w>": 6158,
      "colors</w>": 6159,
      "maxWidth</w>": 6160,
      "ALLO": 6161,
      "DELE": 6162,
      "observer</w>": 6163,
      "Vertex</w>": 6164,
      "copyOf": 6165,
      "Animator": 6166,
      "Replication": 6167,
      "VERTIC": 6168,
      "Partition</w>": 6169,
      "Binary</w>": 6170,
      "changed</w>": 6171,
      "CRL": 6172,
      "lookup": 6173,
      "SUB": 6174,
      "rgb</w>": 6175,
      "Anchor</w>": 6176,
      "Ignite": 6177,
      "AffineTransform</w>": 6178,
      "70</w>": 6179,
      "JMenuItem</w>": 6180,
      "Late": 6181,
      "SERV": 6182,
      "WA": 6183,
      "limit": 6184,
      "np</w>": 6185,
      "offer</w>": 6186,
      "px</w>": 6187,
      "sy</w>": 6188,
      "tre": 6189,
      "x3</w>": 6190,
      "inStream</w>": 6191,
      "geo": 6192,
      "ges": 6193,
      "detail": 6194,
      "getKey": 6195,
      "dialog</w>": 6196,
      "newBuffer</w>": 6197,
      "Digest": 6198,
      "edges</w>": 6199,
      "spe": 6200,
      "option": 6201,
      "dataSet</w>": 6202,
      "Expression": 6203,
      "TOP</w>": 6204,
      "month": 6205,
      "swer</w>": 6206,
      "256</w>": 6207,
      "components</w>": 6208,
      "ACTION_MODE_": 6209,
      "Equal</w>": 6210,
      "COLOR</w>": 6211,
      "componentType</w>": 6212,
      "Notify": 6213,
      "Adapter": 6214,
      "DAY_OF_": 6215,
      "divide</w>": 6216,
      "180</w>": 6217,
      "Ep": 6218,
      "OU": 6219,
      "Run</w>": 6220,
      "Super": 6221,
      "_pos</w>": 6222,
      "handle</w>": 6223,
      "xOffset</w>": 6224,
      "ence</w>": 6225,
      "device": 6226,
      "getAnd": 6227,
      "simple": 6228,
      "dit</w>": 6229,
      "newLength</w>": 6230,
      "curren": 6231,
      "codewords</w>": 6232,
      "Cap</w>": 6233,
      "sigma</w>": 6234,
      "Transition</w>": 6235,
      "beta</w>": 6236,
      "CONFI": 6237,
      "decoded</w>": 6238,
      "srcAndRef": 6239,
      "MOV": 6240,
      "Complex": 6241,
      "Face": 6242,
      "Extensions</w>": 6243,
      "support</w>": 6244,
      "centerX</w>": 6245,
      "PrintStream</w>": 6246,
      "Safe": 6247,
      "Quote</w>": 6248,
      "Pressed</w>": 6249,
      "ffffffff": 6250,
      "MathUtils</w>": 6251,
      "Builder": 6252,
      "clusive</w>": 6253,
      "thirdDigit</w>": 6254,
      "srcAndRefPositions</w>": 6255,
      "Ari": 6256,
      "AGE_": 6257,
      "CUR": 6258,
      "Clear": 6259,
      "Pull": 6260,
      "Plan": 6261,
      "band": 6262,
      "cmp</w>": 6263,
      "dId</w>": 6264,
      "k7</w>": 6265,
      "mn</w>": 6266,
      "mData</w>": 6267,
      "plo": 6268,
      "getEnd": 6269,
      "amma</w>": 6270,
      "iling": 6271,
      "raf</w>": 6272,
      "rest</w>": 6273,
      "ach</w>": 6274,
      "addi": 6275,
      "dirs</w>": 6276,
      "distribu": 6277,
      "Def": 6278,
      "endant": 6279,
      "scro": 6280,
      "maximum": 6281,
      "TimeIn": 6282,
      "signal": 6283,
      "attrName</w>": 6284,
      "remaining": 6285,
      "two</w>": 6286,
      "STATE_": 6287,
      "SecurityException</w>": 6288,
      "INDEX</w>": 6289,
      "WARNING</w>": 6290,
      "Accessibility": 6291,
      "Destination</w>": 6292,
      "Ct": 6293,
      "Dat": 6294,
      "OBJEC": 6295,
      "_length</w>": 6296,
      "dy": 6297,
      "k0</w>": 6298,
      "mOriginal": 6299,
      "ating": 6300,
      "alf</w>": 6301,
      "des</w>": 6302,
      "getFile": 6303,
      "Inser": 6304,
      "ech</w>": 6305,
      "Exp</w>": 6306,
      "atio": 6307,
      "Arg</w>": 6308,
      "Mac</w>": 6309,
      "shad": 6310,
      "readByte</w>": 6311,
      "doStack</w>": 6312,
      "Texture</w>": 6313,
      "Indexes</w>": 6314,
      "Period</w>": 6315,
      "Clip": 6316,
      "PropertyChange": 6317,
      "srcOffset</w>": 6318,
      "normal": 6319,
      "projection</w>": 6320,
      "IVE_": 6321,
      "rangeAxis</w>": 6322,
      "two": 6323,
      "DAY</w>": 6324,
      "businessObjectFormat": 6325,
      "Return": 6326,
      "web": 6327,
      "SPEC": 6328,
      "payload</w>": 6329,
      "PopupMenu</w>": 6330,
      "Translation": 6331,
      "cross": 6332,
      "ierarch": 6333,
      "3f</w>": 6334,
      "dt</w>": 6335,
      "f1</w>": 6336,
      "l2</w>": 6337,
      "nc": 6338,
      "n2</w>": 6339,
      "sur": 6340,
      "ugh": 6341,
      "let</w>": 6342,
      "isNot": 6343,
      "getCount</w>": 6344,
      "getPrefix</w>": 6345,
      "getLocal": 6346,
      "side</w>": 6347,
      "putInt</w>": 6348,
      "putExtra</w>": 6349,
      "stand": 6350,
      "Analy": 6351,
      "remote": 6352,
      "0000</w>": 6353,
      "CharAt</w>": 6354,
      "maxX</w>": 6355,
      "compo": 6356,
      "removePropertyChangeListener</w>": 6357,
      "CHEC": 6358,
      "used": 6359,
      "EventListener</w>": 6360,
      "ssl": 6361,
      "Positive": 6362,
      "corner</w>": 6363,
      "consumer</w>": 6364,
      "COMPACTION_MODE_": 6365,
      "anchor": 6366,
      "button</w>": 6367,
      "PlotOrientation</w>": 6368,
      "Skip": 6369,
      "COMPACTION_MODE_LAT": 6370,
      "Eff": 6371,
      "EST": 6372,
      "mCur": 6373,
      "mStart": 6374,
      "nvalues</w>": 6375,
      "tiss": 6376,
      "orter</w>": 6377,
      "polog": 6378,
      "mod</w>": 6379,
      "Form</w>": 6380,
      "codeIndex</w>": 6381,
      "Writable": 6382,
      "bom": 6383,
      "Decor": 6384,
      "cessor</w>": 6385,
      "Tax": 6386,
      "UND</w>": 6387,
      "cached": 6388,
      "Connections</w>": 6389,
      "notFull</w>": 6390,
      "Gen</w>": 6391,
      "Secure": 6392,
      "Delimiter</w>": 6393,
      "Abs": 6394,
      "Relation": 6395,
      "Segments</w>": 6396,
      "stringTo": 6397,
      "Sync</w>": 6398,
      "axis": 6399,
      "groups</w>": 6400,
      "Cert": 6401,
      "Unique": 6402,
      "digits</w>": 6403,
      "convertTo": 6404,
      "rules</w>": 6405,
      "Focusability</w>": 6406,
      "have": 6407,
      "Bucket": 6408,
      "Repository": 6409,
      "Cancel": 6410,
      "dividual": 6411,
      "curViewBound</w>": 6412,
      "Episo": 6413,
      "endantFocusability</w>": 6414,
      "tissa</w>": 6415,
      "Async</w>": 6416,
      "X2</w>": 6417,
      "gle": 6418,
      "rd": 6419,
      "rs_": 6420,
      "round": 6421,
      "choo": 6422,
      "Exit</w>": 6423,
      "finish": 6424,
      "bundle</w>": 6425,
      "fiers</w>": 6426,
      "setup": 6427,
      "Sep</w>": 6428,
      "unManaged": 6429,
      "m_ops</w>": 6430,
      "meta</w>": 6431,
      "formed</w>": 6432,
      "startpos</w>": 6433,
      "Added</w>": 6434,
      "Decl</w>": 6435,
      "Worker</w>": 6436,
      "coder": 6437,
      "clamp": 6438,
      "crc</w>": 6439,
      "Cells</w>": 6440,
      "Execution": 6441,
      "cacheObject</w>": 6442,
      "corner": 6443,
      "ButtonPainter</w>": 6444,
      "Calc": 6445,
      "pool": 6446,
      "Product": 6447,
      "cipher</w>": 6448,
      "Recycler": 6449,
      "ORDER_": 6450,
      "Foo</w>": 6451,
      "&=</w>": 6452,
      "66</w>": 6453,
      "Book": 6454,
      "Est": 6455,
      "Ligh": 6456,
      "drop": 6457,
      "iq": 6458,
      "mScroll": 6459,
      "vec": 6460,
      "was": 6461,
      "yb</w>": 6462,
      "stati": 6463,
      "setTime</w>": 6464,
      "construct": 6465,
      "Construct": 6466,
      "Arrow": 6467,
      "uplic": 6468,
      "IOUtils</w>": 6469,
      "ending</w>": 6470,
      "shared": 6471,
      "submenu</w>": 6472,
      "startI</w>": 6473,
      "ALL_": 6474,
      "Heap": 6475,
      "Board</w>": 6476,
      "arest": 6477,
      "Edges</w>": 6478,
      "Combo": 6479,
      "Disable": 6480,
      "Assertion": 6481,
      "ScrollPane</w>": 6482,
      "ctionDigits</w>": 6483,
      "flag": 6484,
      "Mapper</w>": 6485,
      "centerJ</w>": 6486,
      "gnitude</w>": 6487,
      "allocate": 6488,
      "getColumnCount</w>": 6489,
      "after</w>": 6490,
      "DayOf": 6491,
      "unique": 6492,
      "HighSurrogate</w>": 6493,
      "Preference": 6494,
      "POSITION</w>": 6495,
      "caption": 6496,
      "EMPTY_": 6497,
      "FontMetrics</w>": 6498,
      "POLIC": 6499,
      "ClickListener</w>": 6500,
      "TRANS": 6501,
      "PARAME": 6502,
      "Gram": 6503,
      "Unicode_": 6504,
      "Sorted": 6505,
      "Spaces</w>": 6506,
      "green</w>": 6507,
      "hoo": 6508,
      "mEvent": 6509,
      "ub": 6510,
      "delegate</w>": 6511,
      "search</w>": 6512,
      "loader</w>": 6513,
      "resh</w>": 6514,
      "mar</w>": 6515,
      "Pop": 6516,
      "apply</w>": 6517,
      "vices</w>": 6518,
      "createR": 6519,
      "ranges</w>": 6520,
      "Launch": 6521,
      "ALPH": 6522,
      "opt": 6523,
      "ACC": 6524,
      "Need": 6525,
      "TEST_": 6526,
      "lendar": 6527,
      "UTF_": 6528,
      "channel": 6529,
      "radians</w>": 6530,
      "derer": 6531,
      "fillRect</w>": 6532,
      "show</w>": 6533,
      "eventName</w>": 6534,
      "l_subtrahend": 6535,
      "ParameterSpec</w>": 6536,
      "Attrs</w>": 6537,
      "Merge": 6538,
      "region</w>": 6539,
      "characters</w>": 6540,
      "shutdown": 6541,
      "sequence": 6542,
      "Measured": 6543,
      "scratch</w>": 6544,
      "mkdirs</w>": 6545,
      "Focus</w>": 6546,
      "VetoableChangeListener</w>": 6547,
      "10000": 6548,
      "52</w>": 6549,
      "Midd": 6550,
      "SHO": 6551,
      "cup": 6552,
      "ib": 6553,
      "mT": 6554,
      "mLock</w>": 6555,
      "py</w>": 6556,
      "password": 6557,
      "isC": 6558,
      "getParameter</w>": 6559,
      "Inner": 6560,
      "public": 6561,
      "keep": 6562,
      "pow": 6563,
      "Encryp": 6564,
      "Attach": 6565,
      "endTime</w>": 6566,
      "uture": 6567,
      "ready": 6568,
      "readShort</w>": 6569,
      "subtract</w>": 6570,
      "Chart</w>": 6571,
      "currentNode</w>": 6572,
      "startY</w>": 6573,
      "READ_": 6574,
      "changes</w>": 6575,
      "methods</w>": 6576,
      "stringBuilder</w>": 6577,
      "aggreg": 6578,
      "Sensi": 6579,
      "DTM</w>": 6580,
      "needs": 6581,
      "SECOND</w>": 6582,
      "primary": 6583,
      "FLOAT</w>": 6584,
      "doubleToLongBits</w>": 6585,
      "mBoundsPoints</w>": 6586,
      "Async": 6587,
      "OUT": 6588,
      "PE": 6589,
      "aw": 6590,
      "ci</w>": 6591,
      "rp</w>": 6592,
      "ur</w>": 6593,
      "uend": 6594,
      "ycle</w>": 6595,
      "year": 6596,
      "atan2</w>": 6597,
      "Conf": 6598,
      "prob": 6599,
      "prop</w>": 6600,
      "unsafe</w>": 6601,
      "newcount</w>": 6602,
      "Panel": 6603,
      "Moves</w>": 6604,
      "minuend": 6605,
      "Recur": 6606,
      "indexes</w>": 6607,
      "valueType</w>": 6608,
      "STOR": 6609,
      "Patch": 6610,
      "firstIndex</w>": 6611,
      "TypeName</w>": 6612,
      "DISA": 6613,
      "XML11": 6614,
      "HOUR": 6615,
      "DEFAULT</w>": 6616,
      "DATE_": 6617,
      "TIME_": 6618,
      "Specific": 6619,
      "Sentence</w>": 6620,
      "function": 6621,
      "_no</w>": 6622,
      "tml</w>": 6623,
      "destination</w>": 6624,
      "Distribution</w>": 6625,
      "pivot</w>": 6626,
      "shutdown</w>": 6627,
      "Owner": 6628,
      "asting</w>": 6629,
      "ATTRIBUTE_": 6630,
      "Dimension": 6631,
      "Increment</w>": 6632,
      "TransformerException</w>": 6633,
      "andshake": 6634,
      "divisor</w>": 6635,
      "AD</w>": 6636,
      "Amt</w>": 6637,
      "Just": 6638,
      "Ker": 6639,
      "dp": 6640,
      "dWord": 6641,
      "fer</w>": 6642,
      "irs</w>": 6643,
      "mand": 6644,
      "rec</w>": 6645,
      "ating</w>": 6646,
      "separator": 6647,
      "get_": 6648,
      "cer</w>": 6649,
      "ther": 6650,
      "ell</w>": 6651,
      "build</w>": 6652,
      "fied": 6653,
      "Res</w>": 6654,
      "prime</w>": 6655,
      "stars</w>": 6656,
      "Parts</w>": 6657,
      "assertNull</w>": 6658,
      "Split</w>": 6659,
      "required": 6660,
      "S_PER_": 6661,
      "AsString</w>": 6662,
      "Priority</w>": 6663,
      "document": 6664,
      "MINIMUM_": 6665,
      "notifyAll</w>": 6666,
      "commit</w>": 6667,
      "viders</w>": 6668,
      "PATH</w>": 6669,
      "Quotes</w>": 6670,
      "menuItem": 6671,
      "hasMoreTokens</w>": 6672,
      "PROPERTI": 6673,
      "Contact": 6674,
      "seek</w>": 6675,
      "Quietly</w>": 6676,
      "JText": 6677,
      "Off": 6678,
      "Pas": 6679,
      "Sv": 6680,
      "Sample</w>": 6681,
      "_dbClient</w>": 6682,
      "bas": 6683,
      "lr": 6684,
      "ping": 6685,
      "isM": 6686,
      "Chat": 6687,
      "newData</w>": 6688,
      "Account</w>": 6689,
      "dows</w>": 6690,
      "recycle": 6691,
      "minor": 6692,
      "grow": 6693,
      "children": 6694,
      "sum2</w>": 6695,
      "Dot</w>": 6696,
      "MOST</w>": 6697,
      "ResultSet": 6698,
      "EnumSet</w>": 6699,
      "LABE": 6700,
      "Uniform</w>": 6701,
      "SecurityManager</w>": 6702,
      "generator</w>": 6703,
      "button": 6704,
      "RESOL": 6705,
      "protocol</w>": 6706,
      "EPSI": 6707,
      "AT_MOST</w>": 6708,
      "LIST</w>": 6709,
      "mimeType</w>": 6710,
      "nemonic</w>": 6711,
      "additional": 6712,
      "captionPut</w>": 6713,
      "Cash": 6714,
      "Drop": 6715,
      "IP</w>": 6716,
      "SR": 6717,
      "her": 6718,
      "mBuilder</w>": 6719,
      "xs</w>": 6720,
      "leName</w>": 6721,
      "level": 6722,
      "getF": 6723,
      "Inset": 6724,
      "may": 6725,
      "img": 6726,
      "newValues</w>": 6727,
      "lement": 6728,
      "Detec": 6729,
      "Pad</w>": 6730,
      "Written</w>": 6731,
      "bose</w>": 6732,
      "closed</w>": 6733,
      "HashCode</w>": 6734,
      "Expr</w>": 6735,
      "before</w>": 6736,
      "tmp_": 6737,
      "orig</w>": 6738,
      "TableName</w>": 6739,
      "train</w>": 6740,
      "formatted": 6741,
      "getSche": 6742,
      "Codewords</w>": 6743,
      "Angle": 6744,
      "vision": 6745,
      "Permission": 6746,
      "Letters</w>": 6747,
      "Scanner</w>": 6748,
      "Widget</w>": 6749,
      "Snapshot</w>": 6750,
      "widget</w>": 6751,
      "piece": 6752,
      "OperandSize</w>": 6753,
      "copyOfRange</w>": 6754,
      "bomEnc</w>": 6755,
      "27</w>": 6756,
      "Draw</w>": 6757,
      "Jar": 6758,
      "ML": 6759,
      "Old": 6760,
      "Score": 6761,
      "TL": 6762,
      "VM": 6763,
      "_logger</w>": 6764,
      "border": 6765,
      "qName</w>": 6766,
      "rnd</w>": 6767,
      "ality</w>": 6768,
      "outer": 6769,
      "getR": 6770,
      "getNumberOf": 6771,
      "Init</w>": 6772,
      "Chain</w>": 6773,
      "address": 6774,
      "velocity</w>": 6775,
      "div</w>": 6776,
      "lim</w>": 6777,
      "Spacing</w>": 6778,
      "0x10000</w>": 6779,
      "symbol</w>": 6780,
      "FileUtils</w>": 6781,
      "Unti": 6782,
      "fail": 6783,
      "DOU": 6784,
      "Mark</w>": 6785,
      "serialize": 6786,
      "Validation": 6787,
      "vars</w>": 6788,
      "Issu": 6789,
      "chedule</w>": 6790,
      "mxResources</w>": 6791,
      "arguments</w>": 6792,
      "ensureCapacity</w>": 6793,
      "Moved</w>": 6794,
      "LONG</w>": 6795,
      "dump": 6796,
      "dump</w>": 6797,
      "SIZE": 6798,
      "DIRECT": 6799,
      "pixels</w>": 6800,
      "database</w>": 6801,
      "Statistics</w>": 6802,
      "Principal</w>": 6803,
      "LEVEL_": 6804,
      "34</w>": 6805,
      "Gl": 6806,
      "Grid</w>": 6807,
      "await": 6808,
      "cut": 6809,
      "future</w>": 6810,
      "json</w>": 6811,
      "incom": 6812,
      "err": 6813,
      "exce": 6814,
      "extern": 6815,
      "Restri": 6816,
      "m_out</w>": 6817,
      "newNode</w>": 6818,
      "Site": 6819,
      "lass</w>": 6820,
      "Fire": 6821,
      "startX</w>": 6822,
      "Calendar": 6823,
      "Selector": 6824,
      "parseFloat</w>": 6825,
      "transi": 6826,
      "Performed</w>": 6827,
      "ConfigProperties</w>": 6828,
      "escap": 6829,
      "Minute": 6830,
      "UTF</w>": 6831,
      "connect": 6832,
      "Without": 6833,
      "Report": 6834,
      "latitude</w>": 6835,
      "longitude</w>": 6836,
      "Libr": 6837,
      "StorageSystem</w>": 6838,
      "merged": 6839,
      "Quoted": 6840,
      "quote": 6841,
      "timestamp": 6842,
      "Highligh": 6843,
      "getItemCount</w>": 6844,
      "encrypted": 6845,
      "FractionDigits</w>": 6846,
      "POLICY_": 6847,
      "AX": 6848,
      "KS</w>": 6849,
      "Mac": 6850,
      "Tx</w>": 6851,
      "Zoom</w>": 6852,
      "bb": 6853,
      "bi</w>": 6854,
      "clic": 6855,
      "ize</w>": 6856,
      "n1": 6857,
      "od": 6858,
      "ra</w>": 6859,
      "att</w>": 6860,
      "alformed": 6861,
      "roid": 6862,
      "coord</w>": 6863,
      "Example": 6864,
      "term</w>": 6865,
      "pointer": 6866,
      "modi": 6867,
      "Meta</w>": 6868,
      "share": 6869,
      "CODE": 6870,
      "This": 6871,
      "Share": 6872,
      "FileNotFoundException</w>": 6873,
      "Adv": 6874,
      "expon": 6875,
      "Neur": 6876,
      "interval": 6877,
      "Static</w>": 6878,
      "counters</w>": 6879,
      "Supplier</w>": 6880,
      "RectF</w>": 6881,
      "manager</w>": 6882,
      "KEN</w>": 6883,
      "Dot": 6884,
      "Labels": 6885,
      "getSource</w>": 6886,
      "fillIn": 6887,
      "Projection": 6888,
      "centerY</w>": 6889,
      "Region": 6890,
      "Converter</w>": 6891,
      "days</w>": 6892,
      "innerState</w>": 6893,
      "multiplier</w>": 6894,
      "Invocation": 6895,
      "symbols</w>": 6896,
      "DecimalFormat</w>": 6897,
      "cipher": 6898,
      "SVG": 6899,
      "BITS</w>": 6900,
      "riteriaInternal</w>": 6901,
      "aspectRatio</w>": 6902,
      "createCriteriaInternal</w>": 6903,
      "algorithm</w>": 6904,
      "EPSILON</w>": 6905,
      "';": 6906,
      "39": 6907,
      "33</w>": 6908,
      "41</w>": 6909,
      "AN_": 6910,
      "Candid": 6911,
      "I_": 6912,
      "MAR": 6913,
      "NN": 6914,
      "PLA": 6915,
      "WN</w>": 6916,
      "YP": 6917,
      "crop": 6918,
      "k6</w>": 6919,
      "pt": 6920,
      "rh": 6921,
      "weights</w>": 6922,
      "yOffset</w>": 6923,
      "restore": 6924,
      "alPredictor</w>": 6925,
      "env": 6926,
      "decl": 6927,
      "puts</w>": 6928,
      "section": 6929,
      "rier</w>": 6930,
      "Stamp</w>": 6931,
      "igr": 6932,
      "Cost</w>": 6933,
      "quantity</w>": 6934,
      "proces": 6935,
      "post</w>": 6936,
      "addBatch</w>": 6937,
      "lib": 6938,
      "assertSame": 6939,
      "Alignment</w>": 6940,
      "maxY</w>": 6941,
      "ases</w>": 6942,
      "ops": 6943,
      "Cursor": 6944,
      "AME_": 6945,
      "Translate": 6946,
      "Characters</w>": 6947,
      "nodeId</w>": 6948,
      "call</w>": 6949,
      "escape</w>": 6950,
      "targetPosition</w>": 6951,
      "Lists</w>": 6952,
      "MINUT": 6953,
      "mCenter": 6954,
      "computeProgram</w>": 6955,
      "remainder</w>": 6956,
      "Java2D</w>": 6957,
      "operation": 6958,
      "resolve</w>": 6959,
      "Vector3</w>": 6960,
      "invoke": 6961,
      "Boolean": 6962,
      "metrics</w>": 6963,
      "FLAG_": 6964,
      "UTF8</w>": 6965,
      "Assignable": 6966,
      "Markers</w>": 6967,
      "SWT</w>": 6968,
      "';'</w>": 6969,
      "CLI": 6970,
      "Evalu": 6971,
      "FFI": 6972,
      "Html": 6973,
      "jour": 6974,
      "mr": 6975,
      "rm</w>": 6976,
      "dependenc": 6977,
      "ascent</w>": 6978,
      "ump": 6979,
      "upto</w>": 6980,
      "newbuf</w>": 6981,
      "Deleg": 6982,
      "Delegate</w>": 6983,
      "recip": 6984,
      "current_": 6985,
      "_SERV": 6986,
      "Manif": 6987,
      "interpo": 6988,
      "TED_": 6989,
      "Supported": 6990,
      "Minimum": 6991,
      "TOKEN</w>": 6992,
      "alive": 6993,
      "attributeName</w>": 6994,
      "Backup": 6995,
      "Velocity</w>": 6996,
      "CTM</w>": 6997,
      "best_": 6998,
      "Condition": 6999,
      "Scrol": 7000,
      "MESSAGE_": 7001,
      "Styleshee": 7002,
      "jsonObj": 7003,
      "Diagnostic</w>": 7004,
      "Multiplier</w>": 7005,
      "Install": 7006,
      "tuples</w>": 7007,
      "define": 7008,
      "sistency": 7009,
      "DELIM": 7010,
      "Triple": 7011,
      "java_lang": 7012,
      "Catalog": 7013,
      "registerNodeValue": 7014,
      "Conversation": 7015,
      "TimeInMillis</w>": 7016,
      "SPECI": 7017,
      "clampMag</w>": 7018,
      "DB</w>": 7019,
      "MIS": 7020,
      "TE_": 7021,
      "fli": 7022,
      "fDOM": 7023,
      "gap</w>": 7024,
      "mTime": 7025,
      "pack</w>": 7026,
      "igid": 7027,
      "ingMode</w>": 7028,
      "Separator": 7029,
      "Engine": 7030,
      "ToBytes</w>": 7031,
      "park</w>": 7032,
      "Classi": 7033,
      "Compat</w>": 7034,
      "max_": 7035,
      "Head": 7036,
      "sum1</w>": 7037,
      "Betw": 7038,
      "XMP": 7039,
      "Trailing": 7040,
      "columnNames</w>": 7041,
      "fromIndex</w>": 7042,
      "train": 7043,
      "numberString</w>": 7044,
      "QUO": 7045,
      "diction": 7046,
      "rapped": 7047,
      "wind</w>": 7048,
      "TIMEO": 7049,
      "turn": 7050,
      "cert": 7051,
      "Negative</w>": 7052,
      "intersection": 7053,
      "ZipEntry</w>": 7054,
      "External</w>": 7055,
      "Levels</w>": 7056,
      "BLOCK</w>": 7057,
      "Shift": 7058,
      "regex": 7059,
      "LockSupport</w>": 7060,
      "Widget": 7061,
      "X509Certificate</w>": 7062,
      "boolean": 7063,
      "Modific": 7064,
      "Mirror</w>": 7065,
      "Rtcp": 7066,
      "Private": 7067,
      "createRigid": 7068,
      "TIMEOU": 7069,
      "createRigidArea</w>": 7070,
      "2000</w>": 7071,
      "66": 7072,
      "Asp": 7073,
      "FER": 7074,
      "FAC": 7075,
      "IS</w>": 7076,
      "JScrollPane</w>": 7077,
      "a1": 7078,
      "dynamic": 7079,
      "et": 7080,
      "iNode</w>": 7081,
      "pm</w>": 7082,
      "pcl</w>": 7083,
      "rewind</w>": 7084,
      "tile": 7085,
      "Seq": 7086,
      "prob</w>": 7087,
      "Times": 7088,
      "INSTANC": 7089,
      "createTemp": 7090,
      "checksum</w>": 7091,
      "dispatch": 7092,
      "filters</w>": 7093,
      "bean</w>": 7094,
      "Subscri": 7095,
      "AST_": 7096,
      "extended": 7097,
      "FieldType</w>": 7098,
      "clude</w>": 7099,
      "monitor</w>": 7100,
      "Settings": 7101,
      "offsets</w>": 7102,
      "network": 7103,
      "Sensor": 7104,
      "Quote": 7105,
      "samples</w>": 7106,
      "Track</w>": 7107,
      "CONTENT_": 7108,
      "havi": 7109,
      "STRING</w>": 7110,
      "Tuple": 7111,
      "script": 7112,
      "Temp</w>": 7113,
      "FORMAT_": 7114,
      "advance</w>": 7115,
      "Aggreg": 7116,
      "Polygon</w>": 7117,
      "TranMerc_": 7118,
      "exception</w>": 7119,
      "%'</w>": 7120,
      "'<": 7121,
      "'%'</w>": 7122,
      "AS_": 7123,
      "JButton</w>": 7124,
      "Old</w>": 7125,
      "SC_": 7126,
      "Wrap": 7127,
      "nPos": 7128,
      "norm</w>": 7129,
      "watch": 7130,
      "xx</w>": 7131,
      "zone": 7132,
      "resize": 7133,
      "itor": 7134,
      "setSelected</w>": 7135,
      "imiter": 7136,
      "Rep</w>": 7137,
      "Rest": 7138,
      "Now</w>": 7139,
      "ById</w>": 7140,
      "addEdge</w>": 7141,
      "Pairs</w>": 7142,
      "And</w>": 7143,
      "white": 7144,
      "domain</w>": 7145,
      "0x00</w>": 7146,
      "ENT": 7147,
      "next_": 7148,
      "Cached": 7149,
      "ARRO": 7150,
      "data_": 7151,
      "closure</w>": 7152,
      "Arguments</w>": 7153,
      "STO": 7154,
      "internal</w>": 7155,
      "Linear": 7156,
      "EventType</w>": 7157,
      "DOM_": 7158,
      "Identifier": 7159,
      "topic</w>": 7160,
      "XmlPull": 7161,
      "Waiter</w>": 7162,
      "peg": 7163,
      "visitInsn</w>": 7164,
      "Carbon": 7165,
      "FIELD_": 7166,
      "coordinates</w>": 7167,
      "FORMAT</w>": 7168,
      "BYTES</w>": 7169,
      "InetAddress</w>": 7170,
      "Information</w>": 7171,
      "java_lang_": 7172,
      "'<'</w>": 7173,
      "Back</w>": 7174,
      "Hyp": 7175,
      "Hierarch": 7176,
      "Jvm": 7177,
      "az": 7178,
      "fw</w>": 7179,
      "millis": 7180,
      "padding": 7181,
      "sn": 7182,
      "wn</w>": 7183,
      "ulation": 7184,
      "Strateg": 7185,
      "getState</w>": 7186,
      "getContext</w>": 7187,
      "umb</w>": 7188,
      "mail": 7189,
      "to_": 7190,
      "tags</w>": 7191,
      "Types": 7192,
      "Bigdata": 7193,
      "Unpack": 7194,
      "DataSet</w>": 7195,
      "MAP": 7196,
      "entials</w>": 7197,
      "Collector</w>": 7198,
      "cast": 7199,
      "Login": 7200,
      "later</w>": 7201,
      "000000": 7202,
      "FieldValue</w>": 7203,
      "mantissa</w>": 7204,
      "orian": 7205,
      "Dom</w>": 7206,
      "ContentType</w>": 7207,
      "Processing": 7208,
      "Optional": 7209,
      "rotated": 7210,
      "scaleX</w>": 7211,
      "resourceName</w>": 7212,
      "Timestamp": 7213,
      "EdgeType</w>": 7214,
      "mMaxWidth</w>": 7215,
      "mMaxHeight</w>": 7216,
      "populate": 7217,
      "NULL</w>": 7218,
      "tuple</w>": 7219,
      "PUT_": 7220,
      "Peer</w>": 7221,
      "notification": 7222,
      "AlgorithmException</w>": 7223,
      "sleep</w>": 7224,
      "Indent</w>": 7225,
      "SIZEPOLICY_": 7226,
      "46</w>": 7227,
      "Ap": 7228,
      "CP": 7229,
      "Free": 7230,
      "GRE": 7231,
      "It</w>": 7232,
      "Limit": 7233,
      "Mock": 7234,
      "NV</w>": 7235,
      "cb": 7236,
      "ca</w>": 7237,
      "ddl</w>": 7238,
      "ev</w>": 7239,
      "k8</w>": 7240,
      "mImage": 7241,
      "rh</w>": 7242,
      "sB": 7243,
      "ys</w>": 7244,
      "reClause</w>": 7245,
      "sem": 7246,
      "sel</w>": 7247,
      "ric": 7248,
      "account": 7249,
      "Expon": 7250,
      "len1</w>": 7251,
      "Coded": 7252,
      "api": 7253,
      "perform": 7254,
      "Timer": 7255,
      "Metadata": 7256,
      "shif": 7257,
      "Alar": 7258,
      "Quantity</w>": 7259,
      "byteCount</w>": 7260,
      "expan": 7261,
      "parsed": 7262,
      "nodeType</w>": 7263,
      "SEPARATOR</w>": 7264,
      "ASN": 7265,
      "IDs</w>": 7266,
      "BufferSize</w>": 7267,
      "origin</w>": 7268,
      "getCenter": 7269,
      "HttpStatus</w>": 7270,
      "buffered": 7271,
      "101</w>": 7272,
      "mCrop": 7273,
      "merge</w>": 7274,
      "Identity": 7275,
      "segments</w>": 7276,
      "Second</w>": 7277,
      "nown</w>": 7278,
      "DragRange</w>": 7279,
      "History": 7280,
      "URLConnection</w>": 7281,
      "STATUS_": 7282,
      "EmptyBlock</w>": 7283,
      "commands</w>": 7284,
      "permission</w>": 7285,
      "Switch</w>": 7286,
      "sequence</w>": 7287,
      "Registry</w>": 7288,
      "trigger": 7289,
      "Video": 7290,
      "Pawns</w>": 7291,
      "WeakReference</w>": 7292,
      "SecureRandom</w>": 7293,
      "AB": 7294,
      "CM": 7295,
      "Dra": 7296,
      "Greg": 7297,
      "HAL": 7298,
      "Ite": 7299,
      "Json</w>": 7300,
      "Spri": 7301,
      "TTO": 7302,
      "css": 7303,
      "dat": 7304,
      "language": 7305,
      "mRadius</w>": 7306,
      "mScale": 7307,
      "nl</w>": 7308,
      "ny</w>": 7309,
      "peek": 7310,
      "rd</w>": 7311,
      "sLevel</w>": 7312,
      "tered</w>": 7313,
      "stride</w>": 7314,
      "getColor</w>": 7315,
      "cookie</w>": 7316,
      "Stm": 7317,
      "ingListeners</w>": 7318,
      "exit</w>": 7319,
      "dialog": 7320,
      "safe": 7321,
      "Direct</w>": 7322,
      "minimum": 7323,
      "plain": 7324,
      "firm": 7325,
      "Decls</w>": 7326,
      "ORT_": 7327,
      "TypeReference</w>": 7328,
      "CHANG": 7329,
      "Activ": 7330,
      "elementCount</w>": 7331,
      "ICE_": 7332,
      "Repe": 7333,
      "ActionEvent</w>": 7334,
      "messageEnabled</w>": 7335,
      "BOTTO": 7336,
      "Center": 7337,
      "_STAR": 7338,
      "systemName</w>": 7339,
      "SocketAddress</w>": 7340,
      "cleanup": 7341,
      "help": 7342,
      "Visitor</w>": 7343,
      "enabled</w>": 7344,
      "annotation": 7345,
      "permissions</w>": 7346,
      "getPaddingTop</w>": 7347,
      "Diagnostic": 7348,
      "Plugin": 7349,
      "evaluate</w>": 7350,
      "Turn": 7351,
      "valueToJava2D</w>": 7352,
      "Navig": 7353,
      "Gregorian": 7354,
      "63</w>": 7355,
      "Cred": 7356,
      "JC": 7357,
      "JSO": 7358,
      "MX": 7359,
      "Mtr": 7360,
      "MGR": 7361,
      "Was": 7362,
      "XY</w>": 7363,
      "cri": 7364,
      "sn</w>": 7365,
      "storage</w>": 7366,
      "getBoolean</w>": 7367,
      "sid": 7368,
      "acc</w>": 7369,
      "Stat</w>": 7370,
      "addSeparator</w>": 7371,
      "tan</w>": 7372,
      "putLock</w>": 7373,
      "sax</w>": 7374,
      "forE": 7375,
      "prep</w>": 7376,
      "Cols</w>": 7377,
      "Compact": 7378,
      "REG": 7379,
      "lastIndex</w>": 7380,
      "oldCapacity</w>": 7381,
      "AndResponse</w>": 7382,
      "With</w>": 7383,
      "ACH": 7384,
      "UNSA": 7385,
      "signature": 7386,
      "Discover": 7387,
      "Connected</w>": 7388,
      "Clip</w>": 7389,
      "ASS": 7390,
      "Price</w>": 7391,
      "EXT": 7392,
      "Containers</w>": 7393,
      "NumberFormatException</w>": 7394,
      "currTime</w>": 7395,
      "point_": 7396,
      "Threads</w>": 7397,
      "timer</w>": 7398,
      "times</w>": 7399,
      "consumed</w>": 7400,
      "idden": 7401,
      "alpha_": 7402,
      "getXIndex</w>": 7403,
      "equal</w>": 7404,
      "mMonthTitle": 7405,
      "ChangedListener</w>": 7406,
      "domainAxis</w>": 7407,
      "decimal": 7408,
      "Err</w>": 7409,
      "PreparedStatement</w>": 7410,
      "fDOMConfigProperties</w>": 7411,
      "<<=</w>": 7412,
      "Best": 7413,
      "DRA": 7414,
      "IFT</w>": 7415,
      "PS": 7416,
      "Platform": 7417,
      "Weight": 7418,
      "_count</w>": 7419,
      "_idx</w>": 7420,
      "fn</w>": 7421,
      "flat": 7422,
      "gradi": 7423,
      "mu</w>": 7424,
      "n1</w>": 7425,
      "nf</w>": 7426,
      "sz</w>": 7427,
      "vy</w>": 7428,
      "ware": 7429,
      "engine</w>": 7430,
      "answer</w>": 7431,
      "getT": 7432,
      "getModifiers</w>": 7433,
      "getMeasured": 7434,
      "amount": 7435,
      "Stub</w>": 7436,
      "Const</w>": 7437,
      "INF": 7438,
      "StringUtil</w>": 7439,
      "utf": 7440,
      "dot</w>": 7441,
      "phase": 7442,
      "rection": 7443,
      "Sho": 7444,
      "Undo": 7445,
      "oldSize</w>": 7446,
      "Curren": 7447,
      "Idle": 7448,
      "bitCount</w>": 7449,
      "ObjectName</w>": 7450,
      "Assoc": 7451,
      "ASE</w>": 7452,
      "contact": 7453,
      "expect</w>": 7454,
      "CurrentPos</w>": 7455,
      "Formats</w>": 7456,
      "closePath</w>": 7457,
      "RADI": 7458,
      "Lib": 7459,
      "support": 7460,
      "Warning</w>": 7461,
      "PATH": 7462,
      "NUM_": 7463,
      "Destro": 7464,
      "BasicBlock</w>": 7465,
      "Normal": 7466,
      "Primary": 7467,
      "PORT</w>": 7468,
      "listenerList</w>": 7469,
      "GregorianCalendar</w>": 7470,
      "29</w>": 7471,
      "BI": 7472,
      "HAS": 7473,
      "Malformed": 7474,
      "Send": 7475,
      "Vend": 7476,
      "dam": 7477,
      "ding": 7478,
      "fol": 7479,
      "kel": 7480,
      "lc</w>": 7481,
      "mit</w>": 7482,
      "narrow": 7483,
      "sbr</w>": 7484,
      "uff": 7485,
      "stat</w>": 7486,
      "atyp": 7487,
      "getValue": 7488,
      "ect</w>": 7489,
      "sist": 7490,
      "apse": 7491,
      "m_m": 7492,
      "cursor": 7493,
      "Paren": 7494,
      "where</w>": 7495,
      "readLong</w>": 7496,
      "Caret": 7497,
      "OpMap</w>": 7498,
      "DataType</w>": 7499,
      "Prec</w>": 7500,
      "KeySpec</w>": 7501,
      "ITE_": 7502,
      "IMulti": 7503,
      "Begin</w>": 7504,
      "Train": 7505,
      "columnIndex</w>": 7506,
      "getC_": 7507,
      "swap": 7508,
      "Create</w>": 7509,
      "SystemClock</w>": 7510,
      "Literal": 7511,
      "Workflow": 7512,
      "getNodeName</w>": 7513,
      "BUFFER_": 7514,
      "ParserException</w>": 7515,
      "tmpVar1</w>": 7516,
      "Two": 7517,
      "requency</w>": 7518,
      "START_": 7519,
      "Intersection</w>": 7520,
      "executor</w>": 7521,
      "concat</w>": 7522,
      "glGetUniform": 7523,
      "INDEX_LENGTH</w>": 7524,
      "Sensitive</w>": 7525,
      "exponent</w>": 7526,
      "rho</w>": 7527,
      "MAPINDEX_LENGTH</w>": 7528,
      "#'</w>": 7529,
      "'#'</w>": 7530,
      "Band": 7531,
      "Brac": 7532,
      "EL</w>": 7533,
      "Emo": 7534,
      "HS": 7535,
      "Pie": 7536,
      "Wal": 7537,
      "Watch": 7538,
      "batch": 7539,
      "cast</w>": 7540,
      "dc</w>": 7541,
      "e2</w>": 7542,
      "emo": 7543,
      "ived": 7544,
      "ped": 7545,
      "rn": 7546,
      "ures": 7547,
      "uid": 7548,
      "y3</w>": 7549,
      "inOfs</w>": 7550,
      "encoding": 7551,
      "decre": 7552,
      "isRead": 7553,
      "getDisplay": 7554,
      "len2</w>": 7555,
      "profile</w>": 7556,
      "provider": 7557,
      "pointer</w>": 7558,
      "popup": 7559,
      "Dim</w>": 7560,
      "Numbers</w>": 7561,
      "start_": 7562,
      "ally": 7563,
      "ARY_": 7564,
      "opt</w>": 7565,
      "Require": 7566,
      "lice</w>": 7567,
      "ctl</w>": 7568,
      "Factory": 7569,
      "UpBase64": 7570,
      "Persis": 7571,
      "DOC": 7572,
      "bins": 7573,
      "ticks</w>": 7574,
      "closeQuietly</w>": 7575,
      "Term": 7576,
      "l_minuend": 7577,
      "AccessException</w>": 7578,
      "lookUpBase64": 7579,
      "_STAT": 7580,
      "_STATE_": 7581,
      "BEG": 7582,
      "constraints</w>": 7583,
      "Lookup</w>": 7584,
      "FIELD</w>": 7585,
      "Repository</w>": 7586,
      "Protection": 7587,
      "CHUNK_SEPARATOR</w>": 7588,
      "requested": 7589,
      "IMAGE_": 7590,
      "VERTICAL</w>": 7591,
      "COMPACTION_MODE_LATCH</w>": 7592,
      "rs_dis": 7593,
      "PROPERTIES_": 7594,
      "RESOLUT": 7595,
      "lookUpBase64Alphabet</w>": 7596,
      "CMap</w>": 7597,
      "Go": 7598,
      "Global": 7599,
      "Heights</w>": 7600,
      "IC</w>": 7601,
      "OC": 7602,
      "_is": 7603,
      "cr</w>": 7604,
      "fron": 7605,
      "inc</w>": 7606,
      "attach": 7607,
      "getAttributes</w>": 7608,
      "getError": 7609,
      "thme": 7610,
      "cho": 7611,
      "Stage</w>": 7612,
      "setString</w>": 7613,
      "setSelected": 7614,
      "Endi": 7615,
      "ToAdd</w>": 7616,
      "vertex": 7617,
      "vertex</w>": 7618,
      "local</w>": 7619,
      "Leaf": 7620,
      "Than": 7621,
      "Show</w>": 7622,
      "ALL</w>": 7623,
      "numNew</w>": 7624,
      "Bits": 7625,
      "Reco": 7626,
      "printer</w>": 7627,
      "textGrid": 7628,
      "lineHeight</w>": 7629,
      "Ordered": 7630,
      "IMP": 7631,
      "transl": 7632,
      "Geo</w>": 7633,
      "zzUnpack": 7634,
      "audi": 7635,
      "xmlEnc</w>": 7636,
      "serialize</w>": 7637,
      "Feed": 7638,
      "Terra": 7639,
      "servers</w>": 7640,
      "Save</w>": 7641,
      "Wait</w>": 7642,
      "WhiteSpace</w>": 7643,
      "floatTo": 7644,
      "policy</w>": 7645,
      "Priority": 7646,
      "Epoch</w>": 7647,
      "Regex</w>": 7648,
      "ALLOW_": 7649,
      "Arithme": 7650,
      "zzUnpackCMap</w>": 7651,
      "'+": 7652,
      "Prec": 7653,
      "fv</w>": 7654,
      "folder</w>": 7655,
      "k9</w>": 7656,
      "mTemp": 7657,
      "pdf</w>": 7658,
      "sLogger</w>": 7659,
      "score": 7660,
      "inSampleSize</w>": 7661,
      "recur": 7662,
      "onts</w>": 7663,
      "getter": 7664,
      "rable</w>": 7665,
      "resp</w>": 7666,
      "Consistency": 7667,
      "vert</w>": 7668,
      "locale": 7669,
      "paren": 7670,
      "endOf": 7671,
      "Loader": 7672,
      "Compare": 7673,
      "Compare</w>": 7674,
      "writeByte</w>": 7675,
      "maxValue</w>": 7676,
      "Recover": 7677,
      "val1</w>": 7678,
      "ential": 7679,
      "ctxt</w>": 7680,
      "intervals</w>": 7681,
      "Layers</w>": 7682,
      "Hashes</w>": 7683,
      "drawText</w>": 7684,
      "cause</w>": 7685,
      "ANTI": 7686,
      "Delay": 7687,
      "absol": 7688,
      "processBlock</w>": 7689,
      "makeMeasureSpec</w>": 7690,
      "Closed": 7691,
      "longBitsTo": 7692,
      "bytesWritten</w>": 7693,
      "PROPERTY_": 7694,
      "Checked": 7695,
      "partition</w>": 7696,
      "receiver</w>": 7697,
      "Executor": 7698,
      "LengthException</w>": 7699,
      "zeros</w>": 7700,
      "CLASS_": 7701,
      "Direction": 7702,
      "Chooser</w>": 7703,
      "middle</w>": 7704,
      "LeadingZeros</w>": 7705,
      "Inserted</w>": 7706,
      "flip</w>": 7707,
      "INFO</w>": 7708,
      "'+'</w>": 7709,
      "longBitsToDouble</w>": 7710,
      "BR": 7711,
      "Folder": 7712,
      "Half": 7713,
      "Por": 7714,
      "Pdf": 7715,
      "USE": 7716,
      "_base</w>": 7717,
      "eq</w>": 7718,
      "eta": 7719,
      "folder": 7720,
      "k1": 7721,
      "language</w>": 7722,
      "millis</w>": 7723,
      "mDrag": 7724,
      "pat</w>": 7725,
      "rx</w>": 7726,
      "sam": 7727,
      "snap": 7728,
      "neigh": 7729,
      "isNull": 7730,
      "retValue</w>": 7731,
      "getAD_": 7732,
      "adj</w>": 7733,
      "added</w>": 7734,
      "quad": 7735,
      "setBorder</w>": 7736,
      "icList</w>": 7737,
      "m_array</w>": 7738,
      "peri": 7739,
      "locations</w>": 7740,
      "suffix": 7741,
      "strlen</w>": 7742,
      "media": 7743,
      "preferen": 7744,
      "readBytes</w>": 7745,
      "createB": 7746,
      "currentChar</w>": 7747,
      "Nodes": 7748,
      "Vertices</w>": 7749,
      "OrP": 7750,
      "Typeface</w>": 7751,
      "HashEntry</w>": 7752,
      "HashTable</w>": 7753,
      "Ranges</w>": 7754,
      "alization": 7755,
      "CHAN": 7756,
      "uses</w>": 7757,
      "userSettings</w>": 7758,
      "seconds": 7759,
      "audit": 7760,
      "count2</w>": 7761,
      "count1</w>": 7762,
      "statement": 7763,
      "TagId</w>": 7764,
      "descendantFocusability</w>": 7765,
      "IfNe": 7766,
      "Comparis": 7767,
      "MethodName</w>": 7768,
      "styles</w>": 7769,
      "extra</w>": 7770,
      "tasks</w>": 7771,
      "threadId</w>": 7772,
      "Letter": 7773,
      "members</w>": 7774,
      "binaryData</w>": 7775,
      "inality</w>": 7776,
      "denom</w>": 7777,
      "iven": 7778,
      "MediaType</w>": 7779,
      "CLASS</w>": 7780,
      "Encoded": 7781,
      "policy": 7782,
      "DOM3_DEFAULT_": 7783,
      "Paragraph": 7784,
      "focusableMode</w>": 7785,
      "WINDOW": 7786,
      "AssertionError</w>": 7787,
      "Insets": 7788,
      "journal": 7789,
      "UNSAFE</w>": 7790,
      "IMultiPoint</w>": 7791,
      "neighb": 7792,
      "19</w>": 7793,
      "AM</w>": 7794,
      "Core</w>": 7795,
      "DPL": 7796,
      "IX": 7797,
      "JMenu</w>": 7798,
      "RC": 7799,
      "Sq</w>": 7800,
      "SPAC": 7801,
      "Week": 7802,
      "X1</w>": 7803,
      "duration": 7804,
      "ihoo": 7805,
      "lp": 7806,
      "mas": 7807,
      "vb</w>": 7808,
      "xMid</w>": 7809,
      "trunc": 7810,
      "black</w>": 7811,
      "isNode": 7812,
      "isAssignable": 7813,
      "ouch</w>": 7814,
      "getImage": 7815,
      "ceip": 7816,
      "ing_": 7817,
      "Conf</w>": 7818,
      "percent": 7819,
      "currentOffset</w>": 7820,
      "FileWriter</w>": 7821,
      "Verify": 7822,
      "transaction": 7823,
      "manage": 7824,
      "runTest</w>": 7825,
      "normalized</w>": 7826,
      "Frames</w>": 7827,
      "Functions</w>": 7828,
      "differen": 7829,
      "scaleY</w>": 7830,
      "accept": 7831,
      "WindowNo</w>": 7832,
      "Click</w>": 7833,
      "ified</w>": 7834,
      "Bucket</w>": 7835,
      "metric": 7836,
      "DbClient</w>": 7837,
      "destroy</w>": 7838,
      "ELEMENT_": 7839,
      "sized": 7840,
      "Acquire</w>": 7841,
      "Constructor": 7842,
      "MINIMUM_RESOLUT": 7843,
      "kelihoo": 7844,
      "DPLX_": 7845,
      "'=": 7846,
      "417": 7847,
      "GM": 7848,
      "Same</w>": 7849,
      "Sparse": 7850,
      "XPath": 7851,
      "ber</w>": 7852,
      "btree": 7853,
      "mTransi": 7854,
      "nud": 7855,
      "olen</w>": 7856,
      "pur": 7857,
      "si</w>": 7858,
      "tc</w>": 7859,
      "reams</w>": 7860,
      "den</w>": 7861,
      "Strict": 7862,
      "ang</w>": 7863,
      "access</w>": 7864,
      "Ext</w>": 7865,
      "quick": 7866,
      "approx": 7867,
      "under": 7868,
      "div": 7869,
      "park": 7870,
      "subject</w>": 7871,
      "for_": 7872,
      "Measure": 7873,
      "createNew": 7874,
      "ENCODE</w>": 7875,
      "DataInputStream</w>": 7876,
      "byteArray</w>": 7877,
      "testStm": 7878,
      "timed</w>": 7879,
      "ision": 7880,
      "blockCount</w>": 7881,
      "Home</w>": 7882,
      "decodeByteArray</w>": 7883,
      "userId</w>": 7884,
      "projection": 7885,
      "LOCK</w>": 7886,
      "CheckBox</w>": 7887,
      "Scheme</w>": 7888,
      "Mapping": 7889,
      "bufferSize</w>": 7890,
      "WorkQueue</w>": 7891,
      "BOO": 7892,
      "obj1</w>": 7893,
      "getMinY</w>": 7894,
      "24Hour": 7895,
      "BLOCK": 7896,
      "getPaddingBottom</w>": 7897,
      "stripe</w>": 7898,
      "NoSuchAlgorithmException</w>": 7899,
      "plotArea</w>": 7900,
      "LnConstants</w>": 7901,
      "Shadow</w>": 7902,
      "METHOD_": 7903,
      "Trigger": 7904,
      "unmodifiableList</w>": 7905,
      "CONFIG_": 7906,
      "maybe": 7907,
      "incoming": 7908,
      "declar": 7909,
      "Strategy</w>": 7910,
      "Associ": 7911,
      "'='</w>": 7912,
      "30": 7913,
      "6_": 7914,
      "CANC": 7915,
      "Ns</w>": 7916,
      "SE_": 7917,
      "Tile</w>": 7918,
      "_name</w>": 7919,
      "aded</w>": 7920,
      "cw</w>": 7921,
      "mHeader": 7922,
      "schedule</w>": 7923,
      "tan": 7924,
      "wptr</w>": 7925,
      "xName</w>": 7926,
      "inct</w>": 7927,
      "invalidate": 7928,
      "enter</w>": 7929,
      "deleg": 7930,
      "delim</w>": 7931,
      "getEx": 7932,
      "lour": 7933,
      "ch1</w>": 7934,
      "Reader": 7935,
      "Arti": 7936,
      "Propos": 7937,
      "addLast</w>": 7938,
      "application": 7939,
      "newElements</w>": 7940,
      "tenant": 7941,
      "Any": 7942,
      "createAnd</w>": 7943,
      "ranch</w>": 7944,
      "Shut": 7945,
      "DataLength</w>": 7946,
      "BitBoard</w>": 7947,
      "Subject</w>": 7948,
      "Expired</w>": 7949,
      "Entities</w>": 7950,
      "p_point</w>": 7951,
      "FieldName</w>": 7952,
      "ticip": 7953,
      "BufferedWriter</w>": 7954,
      "CodeWords</w>": 7955,
      "Windows</w>": 7956,
      "actionPerformed</w>": 7957,
      "HEIGHT</w>": 7958,
      "Guess": 7959,
      "getColumnIndex</w>": 7960,
      "certific": 7961,
      "modifiers</w>": 7962,
      "registr": 7963,
      "CONTENT</w>": 7964,
      "Distributed": 7965,
      "RoundingMode</w>": 7966,
      "equip": 7967,
      "Summary</w>": 7968,
      "SDK_": 7969,
      "Success": 7970,
      "Encoded</w>": 7971,
      "TWO_": 7972,
      "enumer": 7973,
      "CDATA</w>": 7974,
      "SSOException</w>": 7975,
      "PreferredSize</w>": 7976,
      "shaller</w>": 7977,
      "Reason</w>": 7978,
      "mBuffersBy": 7979,
      "disk_nbr</w>": 7980,
      "data_disk_nbr</w>": 7981,
      "HALF_": 7982,
      "PROPERTIES_NS</w>": 7983,
      "&'</w>": 7984,
      "'&'</w>": 7985,
      "3D": 7986,
      "58</w>": 7987,
      "EM_": 7988,
      "RS</w>": 7989,
      "_last": 7990,
      "a0</w>": 7991,
      "cq": 7992,
      "cx</w>": 7993,
      "fd</w>": 7994,
      "ifier</w>": 7995,
      "mRe": 7996,
      "nn</w>": 7997,
      "ust</w>": 7998,
      "wn": 7999,
      "wal": 8000,
      "star</w>": 8001,
      "ones</w>": 8002,
      "only": 8003,
      "getChild</w>": 8004,
      "accum": 8005,
      "Storage</w>": 8006,
      "setDisplay": 8007,
      "private": 8008,
      "most": 8009,
      "strument": 8010,
      "outLen</w>": 8011,
      "collap": 8012,
      "MAC": 8013,
      "MAX</w>": 8014,
      "ROO": 8015,
      "board": 8016,
      "Naming": 8017,
      "TA_": 8018,
      "mbed": 8019,
      "findBy": 8020,
      "tablePrefix</w>": 8021,
      "repe": 8022,
      "GroupNode</w>": 8023,
      "XMLChar</w>": 8024,
      "xmlGuess": 8025,
      "CodePoint</w>": 8026,
      "requestAndResponse</w>": 8027,
      "IntBits</w>": 8028,
      "packet": 8029,
      "dayOf": 8030,
      "Instruction": 8031,
      "SocketFactory</w>": 8032,
      "Product</w>": 8033,
      "Protocol</w>": 8034,
      "helper</w>": 8035,
      "WORD</w>": 8036,
      "DeltaY</w>": 8037,
      "mItemCount</w>": 8038,
      "numericCount</w>": 8039,
      "beforeParam</w>": 8040,
      "servlet": 8041,
      "velocityY</w>": 8042,
      "CARD_": 8043,
      "S2Point</w>": 8044,
      "EncodingException</w>": 8045,
      "redundantOpCount</w>": 8046,
      "PARAMETER_": 8047,
      "MINIMUM_RESOLUTION</w>": 8048,
      "SDK_INT</w>": 8049,
      "xmlGuessEnc</w>": 8050,
      "Brid": 8051,
      "Branch": 8052,
      "CE": 8053,
      "Mgr</w>": 8054,
      "a2": 8055,
      "c3</w>": 8056,
      "cas": 8057,
      "ian": 8058,
      "mm": 8059,
      "mContainers</w>": 8060,
      "rad": 8061,
      "ting</w>": 8062,
      "xctxt</w>": 8063,
      "inString</w>": 8064,
      "atures": 8065,
      "role": 8066,
      "ulate</w>": 8067,
      "isTrace": 8068,
      "isPrimitive</w>": 8069,
      "ants</w>": 8070,
      "getDomain": 8071,
      "mac</w>": 8072,
      "finished</w>": 8073,
      "Encoder</w>": 8074,
      "motion": 8075,
      "newName</w>": 8076,
      "prefs</w>": 8077,
      "COP": 8078,
      "minValue</w>": 8079,
      "FilePath</w>": 8080,
      "array1</w>": 8081,
      "Optim": 8082,
      "_SY": 8083,
      "KeyCode</w>": 8084,
      "keySet</w>": 8085,
      "Comment": 8086,
      "Transfer</w>": 8087,
      "OnWheel": 8088,
      "ANT_": 8089,
      "Digit": 8090,
      "items": 8091,
      "Margin": 8092,
      "Requests</w>": 8093,
      "BufferedInputStream</w>": 8094,
      "Constraint": 8095,
      "mxUtils</w>": 8096,
      "DATE</w>": 8097,
      "single": 8098,
      "Running": 8099,
      "SHA": 8100,
      "possible": 8101,
      "script</w>": 8102,
      "Payment": 8103,
      "BUFFER_SIZE</w>": 8104,
      "NULL_": 8105,
      "Boundary</w>": 8106,
      "fragment": 8107,
      "vector": 8108,
      "DIRECTED</w>": 8109,
      "Picker</w>": 8110,
      "_STRING_": 8111,
      "INVALID_POSITION</w>": 8112,
      "WHITE</w>": 8113,
      "velocityX</w>": 8114,
      "PDF417": 8115,
      "BASE": 8116,
      "InsetsUIResource</w>": 8117,
      "isTraceEnabled</w>": 8118,
      "'*": 8119,
      "BASE_": 8120,
      "CACH": 8121,
      "FUL": 8122,
      "RE_": 8123,
      "Sel": 8124,
      "Src</w>": 8125,
      "border</w>": 8126,
      "cf</w>": 8127,
      "eps</w>": 8128,
      "footer</w>": 8129,
      "iel": 8130,
      "jo</w>": 8131,
      "mult": 8132,
      "mAnimation": 8133,
      "mFinal": 8134,
      "qname</w>": 8135,
      "rl</w>": 8136,
      "sample</w>": 8137,
      "inner</w>": 8138,
      "insertion": 8139,
      "isRunning</w>": 8140,
      "orth</w>": 8141,
      "getBase": 8142,
      "Stop</w>": 8143,
      "Expr": 8144,
      "move</w>": 8145,
      "lier": 8146,
      "shard": 8147,
      "Low</w>": 8148,
      "subList</w>": 8149,
      "0xFFFF": 8150,
      "world</w>": 8151,
      "nextLine</w>": 8152,
      "rawllpts</w>": 8153,
      "checkNot": 8154,
      "testGet": 8155,
      "FILE</w>": 8156,
      "SELE": 8157,
      "mainLock</w>": 8158,
      "alizable": 8159,
      "Append": 8160,
      "buffIndex</w>": 8161,
      "Modified": 8162,
      "ReadObject</w>": 8163,
      "Obser": 8164,
      "rotation</w>": 8165,
      "system</w>": 8166,
      "Controller": 8167,
      "CRIP": 8168,
      "SHAP": 8169,
      "med3</w>": 8170,
      "ARGUM": 8171,
      "Receiver</w>": 8172,
      "Owner</w>": 8173,
      "RenderingHint</w>": 8174,
      "pass</w>": 8175,
      "sentence</w>": 8176,
      "WorkerTask</w>": 8177,
      "Failure</w>": 8178,
      "SIGN</w>": 8179,
      "compareAndSwapInt</w>": 8180,
      "PlaPointInt</w>": 8181,
      "SootMethod</w>": 8182,
      "memory": 8183,
      "ploy": 8184,
      "RecyclerView</w>": 8185,
      "SHOW_": 8186,
      "glGetUniformLocation</w>": 8187,
      "ANTIALI": 8188,
      "absolute": 8189,
      "isAssignableFrom</w>": 8190,
      "'*'</w>": 8191,
      "65": 8192,
      "98</w>": 8193,
      "AA": 8194,
      "Aler": 8195,
      "Hold": 8196,
      "Padding": 8197,
      "SM": 8198,
      "TS": 8199,
      "UP_": 8200,
      "callback": 8201,
      "ion": 8202,
      "jor</w>": 8203,
      "pic": 8204,
      "sent": 8205,
      "nearest": 8206,
      "orary": 8207,
      "getDefault</w>": 8208,
      "ressed</w>": 8209,
      "account</w>": 8210,
      "toString": 8211,
      "terms</w>": 8212,
      "example</w>": 8213,
      "setSize</w>": 8214,
      "profile": 8215,
      "Polar": 8216,
      "Proces": 8217,
      "unpack": 8218,
      "ByteOrder</w>": 8219,
      "endTag</w>": 8220,
      "ERR_": 8221,
      "ForTest": 8222,
      "arrays</w>": 8223,
      "DataSource": 8224,
      "writeLong</w>": 8225,
      "optim": 8226,
      "MAC</w>": 8227,
      "Decl": 8228,
      "AC_": 8229,
      "parseDouble</w>": 8230,
      "Indexed": 8231,
      "TAIN": 8232,
      "AND": 8233,
      "select</w>": 8234,
      "XML_": 8235,
      "CHEM": 8236,
      "Filters</w>": 8237,
      "normNumber</w>": 8238,
      "dbc": 8239,
      "glyp": 8240,
      "states</w>": 8241,
      "typeName</w>": 8242,
      "TreeSet</w>": 8243,
      "ServiceTest</w>": 8244,
      "Monitor</w>": 8245,
      "chunks</w>": 8246,
      "Buttons</w>": 8247,
      "BytesRef</w>": 8248,
      "Tabbed": 8249,
      "NUMER": 8250,
      "USE_": 8251,
      "AbstractServiceTest</w>": 8252,
      "controller</w>": 8253,
      "Utility</w>": 8254,
      "PublicKey</w>": 8255,
      "Equipment</w>": 8256,
      "SurfaceData</w>": 8257,
      "OBJECT</w>": 8258,
      "Minutes</w>": 8259,
      "MINUTE</w>": 8260,
      "ASN1": 8261,
      "BOTTOM</w>": 8262,
      "JSON</w>": 8263,
      "28": 8264,
      "BIN": 8265,
      "OV": 8266,
      "bt</w>": 8267,
      "cg": 8268,
      "e1</w>": 8269,
      "hide": 8270,
      "hour</w>": 8271,
      "ied": 8272,
      "nc</w>": 8273,
      "urls</w>": 8274,
      "art": 8275,
      "getPosition</w>": 8276,
      "getScale": 8277,
      "ched</w>": 8278,
      "eclass</w>": 8279,
      "site": 8280,
      "sive": 8281,
      "setBackground</w>": 8282,
      "Bund": 8283,
      "ByName</w>": 8284,
      "newState</w>": 8285,
      "trip": 8286,
      "INTE": 8287,
      "0xFF": 8288,
      "URL_": 8289,
      "spins</w>": 8290,
      "codePoint": 8291,
      "failed</w>": 8292,
      "Started</w>": 8293,
      "Android": 8294,
      "TextView</w>": 8295,
      "TypeBB</w>": 8296,
      "bean": 8297,
      "myByte": 8298,
      "ites</w>": 8299,
      "marker": 8300,
      "field2</w>": 8301,
      "Based": 8302,
      "defaultCharset</w>": 8303,
      "defaultReadObject</w>": 8304,
      "special": 8305,
      "rotate</w>": 8306,
      "Checksum</w>": 8307,
      "scaleFactor</w>": 8308,
      "APPLIC": 8309,
      "Descriptor": 8310,
      "texts</w>": 8311,
      "Permissions</w>": 8312,
      "Tracker</w>": 8313,
      "activ": 8314,
      "intersect": 8315,
      "received": 8316,
      "trimTo": 8317,
      "flushBuffer</w>": 8318,
      "Snapshot": 8319,
      "hitLast</w>": 8320,
      "gapLen</w>": 8321,
      "Blank</w>": 8322,
      "Cryp": 8323,
      "Thrott": 8324,
      "gester</w>": 8325,
      "pieceTypeBB</w>": 8326,
      "external": 8327,
      "BORDER_": 8328,
      "Io": 8329,
      "IP_": 8330,
      "XPATH": 8331,
      "branch": 8332,
      "cts</w>": 8333,
      "cDir</w>": 8334,
      "hm</w>": 8335,
      "mDraw": 8336,
      "mObjects</w>": 8337,
      "ning": 8338,
      "uc": 8339,
      "individual": 8340,
      "inJust": 8341,
      "dev</w>": 8342,
      "depend": 8343,
      "ise": 8344,
      "retain": 8345,
      "getV": 8346,
      "Inclusive</w>": 8347,
      "asn1": 8348,
      "ilar": 8349,
      "magnitude</w>": 8350,
      "ingClass</w>": 8351,
      "Challen": 8352,
      "addItem</w>": 8353,
      "end_": 8354,
      "created": 8355,
      "doFinal</w>": 8356,
      "arrayA</w>": 8357,
      "maxHeight</w>": 8358,
      "Adj": 8359,
      "Addi": 8360,
      "Prefs</w>": 8361,
      "ITI": 8362,
      "S_DOM3_": 8363,
      "World": 8364,
      "OnChange</w>": 8365,
      "indent": 8366,
      "Expand": 8367,
      "rowCount</w>": 8368,
      "imated": 8369,
      "Operator": 8370,
      "ImageSize</w>": 8371,
      "TOR</w>": 8372,
      "margin</w>": 8373,
      "zzCurrentPos</w>": 8374,
      "clone": 8375,
      "WithSub": 8376,
      "trast": 8377,
      "glUse": 8378,
      "ScrollBar": 8379,
      "NumberFormat</w>": 8380,
      "Setting</w>": 8381,
      "fixed": 8382,
      "ndf</w>": 8383,
      "PRES": 8384,
      "OutputStream": 8385,
      "TEXTUR": 8386,
      "numberOfElements</w>": 8387,
      "LENGTH_": 8388,
      "Initialized</w>": 8389,
      "Targets</w>": 8390,
      "Img</w>": 8391,
      "mapper</w>": 8392,
      "exportGroup</w>": 8393,
      "prepareStatement</w>": 8394,
      "throwable</w>": 8395,
      "hitFirst</w>": 8396,
      "tickLabel": 8397,
      "Cloud": 8398,
      "DecodeBounds</w>": 8399,
      "Forward": 8400,
      "ALIGN_": 8401,
      "interpolate</w>": 8402,
      "inJustDecodeBounds</w>": 8403,
      "S_DOM3_PROPERTIES_NS</w>": 8404,
      "glUseProgram</w>": 8405,
      "$'</w>": 8406,
      "'$'</w>": 8407,
      "Future": 8408,
      "NX": 8409,
      "Vi": 8410,
      "_de": 8411,
      "een": 8412,
      "ii": 8413,
      "tg": 8414,
      "tors</w>": 8415,
      "leran": 8416,
      "trIndicator</w>": 8417,
      "isVisible</w>": 8418,
      "getElement</w>": 8419,
      "getShort</w>": 8420,
      "getAm": 8421,
      "celer": 8422,
      "ected": 8423,
      "mend": 8424,
      "setOn": 8425,
      "imu": 8426,
      "constan": 8427,
      "addAttribute</w>": 8428,
      "m_n": 8429,
      "m_Num": 8430,
      "newSymbol</w>": 8431,
      "Attri": 8432,
      "readAnnotation": 8433,
      "CharBuffer</w>": 8434,
      "Compati": 8435,
      "DataSource</w>": 8436,
      "DataLengthException</w>": 8437,
      "checkFor": 8438,
      "_SC": 8439,
      "NodeRef</w>": 8440,
      "cessary</w>": 8441,
      "ACK</w>": 8442,
      "ampm</w>": 8443,
      "Perio": 8444,
      "Runner</w>": 8445,
      "Handlers</w>": 8446,
      "ESS": 8447,
      "workBase</w>": 8448,
      "Filled</w>": 8449,
      "BufferIndex</w>": 8450,
      "TestUtil</w>": 8451,
      "registered": 8452,
      "GridCache": 8453,
      "getSuper": 8454,
      "Replic": 8455,
      "s_logger</w>": 8456,
      "insertPoint</w>": 8457,
      "Network</w>": 8458,
      "resolved": 8459,
      "getMaxY</w>": 8460,
      "originalModel</w>": 8461,
      "AxisEdge</w>": 8462,
      "Details": 8463,
      "CONTRO": 8464,
      "mPending": 8465,
      "effec": 8466,
      "Usage": 8467,
      "Queu": 8468,
      "InetSocketAddress</w>": 8469,
      "LOG_TAG</w>": 8470,
      "advance": 8471,
      "UnsupportedEncodingException</w>": 8472,
      "reserve": 8473,
      "Agent</w>": 8474,
      "Agent": 8475,
      "security</w>": 8476,
      "Declaration</w>": 8477,
      "SAML2": 8478,
      "Interpolator</w>": 8479,
      "Pusher</w>": 8480,
      "Estim": 8481,
      "dWordSize</w>": 8482,
      "ConversationStates</w>": 8483,
      "Navigation": 8484,
      "sidual": 8485,
      "Vendor</w>": 8486,
      ">>=</w>": 8487,
      "Card</w>": 8488,
      "DER": 8489,
      "Flush</w>": 8490,
      "Language": 8491,
      "Sl": 8492,
      "Scores</w>": 8493,
      "Slash</w>": 8494,
      "Wild": 8495,
      "_re": 8496,
      "aus": 8497,
      "dn</w>": 8498,
      "fl": 8499,
      "oc</w>": 8500,
      "ogram</w>": 8501,
      "rb": 8502,
      "yLabel</w>": 8503,
      "stor</w>": 8504,
      "ense</w>": 8505,
      "isStatic</w>": 8506,
      "getRequest": 8507,
      "cost": 8508,
      "quanti": 8509,
      "exec</w>": 8510,
      "setBounds</w>": 8511,
      "setStyle</w>": 8512,
      "setStroke</w>": 8513,
      "ArrayIndexOutOfBoundsException</w>": 8514,
      "dom": 8515,
      "0xc0</w>": 8516,
      "Unknown": 8517,
      "Opt</w>": 8518,
      "Adj</w>": 8519,
      "removeListener</w>": 8520,
      "expand</w>": 8521,
      "bom</w>": 8522,
      "textR</w>": 8523,
      "Texture": 8524,
      "Upload": 8525,
      "TypeAnnotations</w>": 8526,
      "SED_": 8527,
      "ASH</w>": 8528,
      "Behavi": 8529,
      "Train</w>": 8530,
      "NODE_": 8531,
      "Matching": 8532,
      "TOU": 8533,
      "userName</w>": 8534,
      "ICE</w>": 8535,
      "Serie</w>": 8536,
      "totalRead</w>": 8537,
      "kernel</w>": 8538,
      "foEnabled</w>": 8539,
      "lat1</w>": 8540,
      "errorDetails</w>": 8541,
      "isInfoEnabled</w>": 8542,
      "HEA": 8543,
      "Instanti": 8544,
      "EntryPusher</w>": 8545,
      "episo": 8546,
      "PACK": 8547,
      "CRL</w>": 8548,
      "Conversion": 8549,
      "MEDI": 8550,
      "consume": 8551,
      "activity": 8552,
      "TickCount</w>": 8553,
      "Invoice": 8554,
      "Widths</w>": 8555,
      "binding": 8556,
      "payload": 8557,
      "allowed": 8558,
      "zero": 8559,
      "fraction</w>": 8560,
      "IntegerDigits</w>": 8561,
      "StaticFlow": 8562,
      "Route</w>": 8563,
      "getRowCount</w>": 8564,
      "Immutable</w>": 8565,
      "FailedException</w>": 8566,
      "Authentic": 8567,
      "Gradient": 8568,
      "UTF_8</w>": 8569,
      "DISABLED</w>": 8570,
      "Requirements</w>": 8571,
      "IfNecessary</w>": 8572,
      "StaticFlowEntryPusher</w>": 8573,
      "C2</w>": 8574,
      "DML": 8575,
      "Ele</w>": 8576,
      "IS_": 8577,
      "bbuf</w>": 8578,
      "best</w>": 8579,
      "ctr": 8580,
      "dh": 8581,
      "done": 8582,
      "fEntity": 8583,
      "ires": 8584,
      "kit</w>": 8585,
      "mut": 8586,
      "mOver": 8587,
      "mary": 8588,
      "mNotify": 8589,
      "qk": 8590,
      "rw</w>": 8591,
      "slot": 8592,
      "wi</w>": 8593,
      "align</w>": 8594,
      "delay": 8595,
      "decoding": 8596,
      "decessor</w>": 8597,
      "ulative": 8598,
      "isFile</w>": 8599,
      "isJava": 8600,
      "Into": 8601,
      "cost</w>": 8602,
      "acked": 8603,
      "mag": 8604,
      "ater": 8605,
      "setUser": 8606,
      "Release</w>": 8607,
      "Arc": 8608,
      "diag": 8609,
      "perio": 8610,
      "putShort</w>": 8611,
      "readLength</w>": 8612,
      "Loaded": 8613,
      "startTag</w>": 8614,
      "DataUtils</w>": 8615,
      "llp</w>": 8616,
      "LED</w>": 8617,
      "srp": 8618,
      "bits": 8619,
      "usted": 8620,
      "channels</w>": 8621,
      "NameValuesHolder</w>": 8622,
      "replic": 8623,
      "processor</w>": 8624,
      "Copied</w>": 8625,
      "IfNeeded</w>": 8626,
      "bufferInfo</w>": 8627,
      "Alpha": 8628,
      "FORM": 8629,
      "obj2</w>": 8630,
      "getMaximum": 8631,
      "TIFI": 8632,
      "TemplateElem</w>": 8633,
      "USER_": 8634,
      "BoxLayout</w>": 8635,
      "Dirty": 8636,
      "DerValue</w>": 8637,
      "moduleSize</w>": 8638,
      "Modules</w>": 8639,
      "UNKNO": 8640,
      "Ascent</w>": 8641,
      "csq</w>": 8642,
      "Success</w>": 8643,
      "ProcessorTemplateElem</w>": 8644,
      "catalog": 8645,
      "notification</w>": 8646,
[...]
