{
  "version": "1.0",
  "truncation": null,
  "padding": null,
  "added_tokens": [
    {
      "id": 0,
      "content": "<pad>",
      "single_word": false,
      "lstrip": false,
      "rstrip": false,
      "normalized": false,
      "special": true
    },
    {
      "id": 1,
      "content": "<unk>",
      "single_word": false,
      "lstrip": false,
      "rstrip": false,
      "normalized": false,
      "special": true
    },
    {
      "id": 2,
      "content": "<s>",
      "single_word": false,
      "lstrip": false,
      "rstrip": false,
      "normalized": false,
      "special": true
    },
    {
      "id": 3,
      "content": "</s>",
      "single_word": false,
      "lstrip": false,
      "rstrip": false,
      "normalized": false,
      "special": true
    },
    {
      "id": 4,
      "content": "\"<str>\"",
      "single_word": false,
      "lstrip": false,
      "rstrip": false,
      "normalized": false,
      "special": true
    },
    {
      "id": 5,
      "content": "<cls>",
      "single_word": false,
      "lstrip": false,
      "rstrip": false,
      "normalized": false,
      "special": true
    }
  ],
  "normalizer": {
    "type": "Sequence",
    "normalizers": [
      {
        "type": "NFD"
      },
      {
        "type": "StripAccents"
      },
      {
        "type": "Strip",
        "strip_left": true,
        "strip_right": true
      }
    ]
  },
  "pre_tokenizer": {
    "type": "Whitespace"
  },
  "post_processor": null,
  "decoder": null,
  "model": {
    "type": "BPE",
    "dropout": null,
    "unk_token": "<unk>",
    "continuing_subword_prefix": null,
    "end_of_word_suffix": "</w>",
    "fuse_unk": false,
    "vocab": {
      "<pad>": 0,
      "<unk>": 1,
      "<s>": 2,
      "</s>": 3,
      "\"<str>\"": 4,
      "<cls>": 5,
      "!": 6,
      "\"": 7,
      "#": 8,
      "$": 9,
      "%": 10,
      "&": 11,
      "'": 12,
      "(": 13,
      ")": 14,
      "*": 15,
      "+": 16,
      ",": 17,
      "-": 18,
      "/": 19,
      "0": 20,
      "1": 21,
      "2": 22,
      "3": 23,
      "4": 24,
      "5": 25,
      "6": 26,
      "7": 27,
      "8": 28,
      "9": 29,
      ":": 30,
      ";": 31,
      "<": 32,
      "=": 33,
      ">": 34,
      "?": 35,
      "[": 36,
      "\\": 37,
      "]": 38,
      "^": 39,
      "_": 40,
      "`": 41,
      "a": 42,
      "b": 43,
      "c": 44,
      "d": 45,
      "e": 46,
      "f": 47,
      "g": 48,
      "h": 49,
      "i": 50,
      "j": 51,
      "k": 52,
      "l": 53,
      "m": 54,
      "n": 55,
      "o": 56,
      "p": 57,
      "q": 58,
      "r": 59,
      "s": 60,
      "t": 61,
      "u": 62,
      "v": 63,
      "w": 64,
      "x": 65,
      "y": 66,
      "z": 67,
      "{": 68,
      "|": 69,
      "}": 70,
      "~": 71,
      "s</w>": 72,
      "t</w>": 73,
      "d</w>": 74,
      "n</w>": 75,
      "y</w>": 76,
      "r</w>": 77,
      "e</w>": 78,
      "h</w>": 79,
      ")</w>": 80,
      "g</w>": 81,
      "b</w>": 82,
      "=</w>": 83,
      "/</w>": 84,
      "c</w>": 85,
      "!</w>": 86,
      "a</w>": 87,
      "l</w>": 88,
      "v</w>": 89,
      "w</w>": 90,
      "p</w>": 91,
      "8</w>": 92,
      "k</w>": 93,
      "x</w>": 94,
      ";</w>": 95,
      "2</w>": 96,
      "m</w>": 97,
      "o</w>": 98,
      "7</w>": 99,
      "f</w>": 100,
      "i</w>": 101,
      "3</w>": 102,
      "6</w>": 103,
      "{</w>": 104,
      "'</w>": 105,
      "0</w>": 106,
      "1</w>": 107,
      "<</w>": 108,
      "q</w>": 109,
      "j</w>": 110,
      ",</w>": 111,
      "`</w>": 112,
      "]</w>": 113,
      "z</w>": 114,
      "+</w>": 115,
      "5</w>": 116,
      "\"</w>": 117,
      "_</w>": 118,
      "></w>": 119,
      "u</w>": 120,
      "4</w>": 121,
      "[</w>": 122,
      "&</w>": 123,
      "(</w>": 124,
      "$</w>": 125,
      "-</w>": 126,
      "9</w>": 127,
      "*</w>": 128,
      "\\</w>": 129,
      "#</w>": 130,
      "?</w>": 131,
      "%</w>": 132,
      "|</w>": 133,
      "}</w>": 134,
      ":</w>": 135,
      "~</w>": 136,
      "^</w>": 137,
      "th": 138,
      "the</w>": 139,
      "re": 140,
      "in": 141,
      "te": 142,
      "at": 143,
      "en": 144,
      "an": 145,
      "co": 146,
      "to</w>": 147,
      "st": 148,
      "ing</w>": 149,
      "al": 150,
      "ar": 151,
      "er": 152,
      "on</w>": 153,
      "ed</w>": 154,
      "is</w>": 155,
      "ec": 156,
      "ro": 157,
      "ti": 158,
      "er</w>": 159,
      "of</w>": 160,
      "es</w>": 161,
      "ur": 162,
      "fi": 163,
      "or</w>": 164,
      "or": 165,
      "ac": 166,
      "en</w>": 167,
      "it": 168,
      "in</w>": 169,
      "as": 170,
      "ad": 171,
      "le</w>": 172,
      "ch": 173,
      "on": 174,
      "and</w>": 175,
      "iv": 176,
      "ts</w>": 177,
      "con": 178,
      "is": 179,
      "me": 180,
      "de": 181,
      "this</w>": 182,
      "an</w>": 183,
      "tur": 184,
      "retur": 185,
      "se": 186,
      "ion</w>": 187,
      "for</w>": 188,
      "tes</w>": 189,
      "lo": 190,
      "at</w>": 191,
      "le": 192,
      "sp": 193,
      "str": 194,
      "giv": 195,
      "tr": 196,
      "given</w>": 197,
      "un": 198,
      "us": 199,
      "if</w>": 200,
      "ns</w>": 201,
      "ate</w>": 202,
      "fro": 203,
      "returns</w>": 204,
      "from</w>": 205,
      "tion</w>": 206,
      "val": 207,
      "ue</w>": 208,
      "ul": 209,
      "ation</w>": 210,
      "mp": 211,
      "ter": 212,
      "rea": 213,
      "si": 214,
      "men": 215,
      "wh": 216,
      "ra": 217,
      "ex": 218,
      "ds</w>": 219,
      "mo": 220,
      "ab": 221,
      "res": 222,
      "ma": 223,
      "pro": 224,
      "no": 225,
      "di": 226,
      "string</w>": 227,
      "me</w>": 228,
      "tho": 229,
      "ce</w>": 230,
      "eci": 231,
      "qu": 232,
      "lis": 233,
      "po": 234,
      "bu": 235,
      "as</w>": 236,
      "wit": 237,
      "metho": 238,
      "speci": 239,
      "that</w>": 240,
      "ted</w>": 241,
      "with</w>": 242,
      "ne": 243,
      "specifi": 244,
      "al</w>": 245,
      "method</w>": 246,
      "il": 247,
      "um": 248,
      "ri": 249,
      "ter</w>": 250,
      "de</w>": 251,
      "it</w>": 252,
      "ver": 253,
      "vi": 254,
      "st</w>": 255,
      "ou": 256,
      "cal": 257,
      "ren": 258,
      "specified</w>": 259,
      "ge</w>": 260,
      "cl": 261,
      "te</w>": 262,
      "ob": 263,
      "jec": 264,
      "ly</w>": 265,
      "for": 266,
      "ap": 267,
      "value</w>": 268,
      "ce": 269,
      "ten": 270,
      "by</w>": 271,
      "su": 272,
      "ta": 273,
      "par": 274,
      "objec": 275,
      "mov": 276,
      "per": 277,
      "be": 278,
      "na": 279,
      "ment</w>": 280,
      "comp": 281,
      "all</w>": 282,
      "be</w>": 283,
      "pu": 284,
      "ge": 285,
      "pl": 286,
      "list</w>": 287,
      "do": 288,
      "ic": 289,
      "dat": 290,
      "arra": 291,
      "able</w>": 292,
      "chec": 293,
      "cur": 294,
      "remov": 295,
      "ss": 296,
      "ates</w>": 297,
      "sh": 298,
      "ser": 299,
      "set</w>": 300,
      "array</w>": 301,
      "ther</w>": 302,
      "object</w>": 303,
      "num": 304,
      "adds</w>": 305,
      "file</w>": 306,
      "by": 307,
      "ent</w>": 308,
      "numb": 309,
      "av": 310,
      "ke": 311,
      "new</w>": 312,
      "curren": 313,
      "cre": 314,
      "tw": 315,
      "ff": 316,
      "ks</w>": 317,
      "to": 318,
      "el": 319,
      "into</w>": 320,
      "char": 321,
      "ons</w>": 322,
      "put</w>": 323,
      "bo": 324,
      "add</w>": 325,
      "up": 326,
      "tri": 327,
      "pres": 328,
      "strea": 329,
      "name</w>": 330,
      "data</w>": 331,
      "number</w>": 332,
      "ding</w>": 333,
      "se</w>": 334,
      "ded</w>": 335,
      "so": 336,
      "form": 337,
      "stream</w>": 338,
      "loc": 339,
      "ele": 340,
      "tex": 341,
      "iz": 342,
      "yp": 343,
      "not</w>": 344,
      "age</w>": 345,
      "stan": 346,
      "are</w>": 347,
      "crea": 348,
      "sc": 349,
      "red</w>": 350,
      "clas": 351,
      "one</w>": 352,
      "ine</w>": 353,
      "current</w>": 354,
      "ace</w>": 355,
      "charac": 356,
      "gen": 357,
      "call": 358,
      "ar</w>": 359,
      "ty</w>": 360,
      "read": 361,
      "que": 362,
      "int</w>": 363,
      "ig": 364,
      "gener": 365,
      "id</w>": 366,
      "inter": 367,
      "creates</w>": 368,
      "ing": 369,
      "typ": 370,
      "whe": 371,
      "return</w>": 372,
      "pre": 373,
      "conver": 374,
      "col": 375,
      "removes</w>": 376,
      "text</w>": 377,
      "der</w>": 378,
      "com": 379,
      "date</w>": 380,
      "whether</w>": 381,
      "listen": 382,
      "valu": 383,
      "ers</w>": 384,
      "fin": 385,
      "when</w>": 386,
      "rec": 387,
      "its</w>": 388,
      "true</w>": 389,
      "ated</w>": 390,
      "ters</w>": 391,
      "ite": 392,
      "op": 393,
      "star": 394,
      "ments</w>": 395,
      "used</w>": 396,
      "ting</w>": 397,
      "lec": 398,
      "cor": 399,
      "ch</w>": 400,
      "ev": 401,
      "conta": 402,
      "th</w>": 403,
      "get</w>": 404,
      "im": 405,
      "ity</w>": 406,
      "aliz": 407,
      "ase</w>": 408,
      "end</w>": 409,
      "checks</w>": 410,
      "chan": 411,
      "type</w>": 412,
      "create</w>": 413,
      "read</w>": 414,
      "tation</w>": 415,
      "buff": 416,
      "ol": 417,
      "sion</w>": 418,
      "presen": 419,
      "posi": 420,
      "out": 421,
      "using</w>": 422,
      "class</w>": 423,
      "ati": 424,
      "code</w>": 425,
      "id": 426,
      "pa": 427,
      "mess": 428,
      "values</w>": 429,
      "has</w>": 430,
      "contain": 431,
      "sho": 432,
      "pat": 433,
      "he": 434,
      "reg": 435,
      "ill</w>": 436,
      "inde": 437,
      "byte</w>": 438,
      "represen": 439,
      "ack</w>": 440,
      "two</w>": 441,
      "rit": 442,
      "key</w>": 443,
      "ive</w>": 444,
      "writ": 445,
      "vie": 446,
      "fil": 447,
      "stance</w>": 448,
      "up</w>": 449,
      "will</w>": 450,
      "term": 451,
      "ult</w>": 452,
      "ses</w>": 453,
      "tiv": 454,
      "app": 455,
      "listener</w>": 456,
      "wri": 457,
      "nec": 458,
      "check</w>": 459,
      "mat": 460,
      "ory</w>": 461,
      "ator</w>": 462,
      "test</w>": 463,
      "any</w>": 464,
      "ran": 465,
      "time</w>": 466,
      "element</w>": 467,
      "buffer</w>": 468,
      "tribu": 469,
      "ss</w>": 470,
      "attribu": 471,
      "node</w>": 472,
      "ction</w>": 473,
      "ger</w>": 474,
      "ere</w>": 475,
      "index</w>": 476,
      "sts</w>": 477,
      "and": 478,
      "character</w>": 479,
      "proper": 480,
      "out</w>": 481,
      "dis": 482,
      "enti": 483,
      "res</w>": 484,
      "input</w>": 485,
      "line</w>": 486,
      "sy": 487,
      "called</w>": 488,
      "tions</w>": 489,
      "sed</w>": 490,
      "fiel": 491,
      "message</w>": 492,
      "wor": 493,
      "la": 494,
      "fa": 495,
      "use</w>": 496,
      "li": 497,
      "sa": 498,
      "bas": 499,
      "user</w>": 500,
      "fir": 501,
      "por": 502,
      "tran": 503,
      "sig": 504,
      "comm": 505,
      "table</w>": 506,
      "siz": 507,
      "gu": 508,
      "tor</w>": 509,
      "ws</w>": 510,
      "pr": 511,
      "view</w>": 512,
      "ary</w>": 513,
      "determ": 514,
      "sub": 515,
      "reque": 516,
      "scri": 517,
      "bytes</w>": 518,
      "fun": 519,
      "ich</w>": 520,
      "which</w>": 521,
      "write</w>": 522,
      "rect": 523,
      "iti": 524,
      "urce</w>": 525,
      "ull</w>": 526,
      "output</w>": 527,
      "proce": 528,
      "ver</w>": 529,
      "ci": 530,
      "ces</w>": 531,
      "state</w>": 532,
      "ast</w>": 533,
      "--": 534,
      "the": 535,
      "wi": 536,
      "equ": 537,
      "conten": 538,
      "map</w>": 539,
      "cul": 540,
      "fe": 541,
      "provi": 542,
      "can</w>": 543,
      "ure</w>": 544,
      "remove</w>": 545,
      "writes</w>": 546,
      "instance</w>": 547,
      "ges</w>": 548,
      "first</w>": 549,
      "clo": 550,
      "uld</w>": 551,
      "enco": 552,
      "size</w>": 553,
      "position</w>": 554,
      "tt": 555,
      "ach": 556,
      "el</w>": 557,
      "ble</w>": 558,
      "hand": 559,
      "initi": 560,
      "we</w>": 561,
      "trans": 562,
      "path</w>": 563,
      "ste": 564,
      "connec": 565,
      "update</w>": 566,
      "ore</w>": 567,
      "tive</w>": 568,
      "sup": 569,
      "cu": 570,
      "cop": 571,
      "try</w>": 572,
      "confi": 573,
      "ints</w>": 574,
      "para": 575,
      "point</w>": 576,
      "reads</w>": 577,
      "twe": 578,
      "gra": 579,
      "cep": 580,
      "representation</w>": 581,
      "function</w>": 582,
      "pas": 583,
      "ave</w>": 584,
      "eng": 585,
      "tween</w>": 586,
      "ines</w>": 587,
      "sto": 588,
      "space</w>": 589,
      "des</w>": 590,
      "between</w>": 591,
      "selec": 592,
      "inte": 593,
      "ad</w>": 594,
      "uc": 595,
      "ima": 596,
      "ack": 597,
      "ate": 598,
      "has": 599,
      "ress</w>": 600,
      "form</w>": 601,
      "attribute</w>": 602,
      "resp": 603,
      "ht</w>": 604,
      "imp": 605,
      "tion": 606,
      "sets</w>": 607,
      "converts</w>": 608,
      "elements</w>": 609,
      "other</w>": 610,
      "oper": 611,
      "wa": 612,
      "field</w>": 613,
      "sign": 614,
      "defa": 615,
      "request</w>": 616,
      "calcul": 617,
      "dele": 618,
      "ative</w>": 619,
      "pla": 620,
      "cle": 621,
      "les</w>": 622,
      "gro": 623,
      "only</w>": 624,
      "seri": 625,
      "ke</w>": 626,
      "compu": 627,
      "should</w>": 628,
      "dra": 629,
      "ning</w>": 630,
      "null</w>": 631,
      "per</w>": 632,
      "descri": 633,
      "parame": 634,
      "buil": 635,
      "exp": 636,
      "convert</w>": 637,
      "direct": 638,
      "start</w>": 639,
      "regis": 640,
      "was</w>": 641,
      "ings</w>": 642,
      "based</w>": 643,
      "ml</w>": 644,
      "respon": 645,
      "emp": 646,
      "default</w>": 647,
      "sing": 648,
      "characters</w>": 649,
      "leng": 650,
      "wn</w>": 651,
      "ecu": 652,
      "event</w>": 653,
      "af": 654,
      "nal</w>": 655,
      "lon": 656,
      "ls</w>": 657,
      "ard</w>": 658,
      "dic": 659,
      "length</w>": 660,
      "ed": 661,
      "run": 662,
      "so</w>": 663,
      "upd": 664,
      "entry</w>": 665,
      "ari": 666,
      "nex": 667,
      "been</w>": 668,
      "format</w>": 669,
      "item</w>": 670,
      "ys</w>": 671,
      "order</w>": 672,
      "ic</w>": 673,
      "ail": 674,
      "ms</w>": 675,
      "ence</w>": 676,
      "ol</w>": 677,
      "single</w>": 678,
      "vice</w>": 679,
      "der": 680,
      "bloc": 681,
      "ends</w>": 682,
      "next</w>": 683,
      "ations</w>": 684,
      "ph": 685,
      "empty</w>": 686,
      "vec": 687,
      "tifi": 688,
      "ents</w>": 689,
      "und</w>": 690,
      "execu": 691,
      "have</w>": 692,
      "load": 693,
      "case</w>": 694,
      "exi": 695,
      "queue</w>": 696,
      "provided</w>": 697,
      "after</w>": 698,
      "cach": 699,
      "initializ": 700,
      "compon": 701,
      "pri": 702,
      "coun": 703,
      "quer": 704,
      "repl": 705,
      "no</w>": 706,
      "reso": 707,
      "inser": 708,
      "thread</w>": 709,
      "sting</w>": 710,
      "nam": 711,
      "collec": 712,
      "ug": 713,
      "integer</w>": 714,
      "face</w>": 715,
      "chil": 716,
      "property</w>": 717,
      "am": 718,
      "head": 719,
      "match": 720,
      "mem": 721,
      "avail": 722,
      "mar": 723,
      "pp": 724,
      "syste": 725,
      "determines</w>": 726,
      "struc": 727,
      "log</w>": 728,
      "argu": 729,
      "erro": 730,
      "ach</w>": 731,
      "config": 732,
      "ok": 733,
      "ating</w>": 734,
      "jav": 735,
      "directory</w>": 736,
      "back</w>": 737,
      "same</w>": 738,
      "port</w>": 739,
      "log": 740,
      "available</w>": 741,
      "au": 742,
      "ree</w>": 743,
      "vari": 744,
      "sequ": 745,
      "last</w>": 746,
      "excep": 747,
      "fix</w>": 748,
      "ag": 749,
      "feren": 750,
      "imple": 751,
      "interface</w>": 752,
      "there</w>": 753,
      "over": 754,
      "valid</w>": 755,
      "thro": 756,
      "does</w>": 757,
      "system</w>": 758,
      "()</w>": 759,
      "action</w>": 760,
      "result</w>": 761,
      "stack</w>": 762,
      "dou": 763,
      "uration</w>": 764,
      "source</w>": 765,
      "dom</w>": 766,
      "colum": 767,
      "image</w>": 768,
      "main</w>": 769,
      "xml</w>": 770,
      "load</w>": 771,
      "ties</w>": 772,
      "us</w>": 773,
      "indic": 774,
      "gets</w>": 775,
      "man": 776,
      "serializ": 777,
      "updates</w>": 778,
      "server</w>": 779,
      "tests</w>": 780,
      "inv": 781,
      "ies</w>": 782,
      "connection</w>": 783,
      "rent</w>": 784,
      "each</w>": 785,
      "incl": 786,
      "error</w>": 787,
      "ying</w>": 788,
      "passed</w>": 789,
      "ho": 790,
      "ru": 791,
      "oc": 792,
      "sear": 793,
      "docu": 794,
      "query</w>": 795,
      "fra": 796,
      "sor": 797,
      "hash</w>": 798,
      "white": 799,
      "um</w>": 800,
      "box</w>": 801,
      "ir</w>": 802,
      "aces</w>": 803,
      "defin": 804,
      "led</w>": 805,
      "objects</w>": 806,
      "range</w>": 807,
      "mul": 808,
      "generates</w>": 809,
      "tas": 810,
      "tly</w>": 811,
      "du": 812,
      "vector</w>": 813,
      "tu": 814,
      "low</w>": 815,
      "rece": 816,
      "ending</w>": 817,
      "can": 818,
      "if": 819,
      "tok": 820,
      "process</w>": 821,
      "hel": 822,
      "mal</w>": 823,
      "version</w>": 824,
      "comple": 825,
      "internal</w>": 826,
      "ang": 827,
      "cache</w>": 828,
      "temp": 829,
      "add": 830,
      "cli": 831,
      "content</w>": 832,
      "tar": 833,
      "uti": 834,
      "mple</w>": 835,
      "din": 836,
      "ied</w>": 837,
      "rol": 838,
      "copy</w>": 839,
      "url</w>": 840,
      "than</w>": 841,
      "sequence</w>": 842,
      "double</w>": 843,
      "qui": 844,
      "context</w>": 845,
      "equal</w>": 846,
      "sec": 847,
      "ut</w>": 848,
      "side</w>": 849,
      "java</w>": 850,
      "sch": 851,
      "location</w>": 852,
      "displa": 853,
      "bin": 854,
      "fl": 855,
      "tific": 856,
      "off": 857,
      "ally</w>": 858,
      "prog": 859,
      "ust</w>": 860,
      "contains</w>": 861,
      "random</w>": 862,
      "do</w>": 863,
      "min": 864,
      "act</w>": 865,
      "low": 866,
      "change</w>": 867,
      "long</w>": 868,
      "exception</w>": 869,
      "iter": 870,
      "fo": 871,
      "call</w>": 872,
      "header</w>": 873,
      "prefix</w>": 874,
      "process": 875,
      "configuration</w>": 876,
      "end": 877,
      "containing</w>": 878,
      "then</w>": 879,
      "but</w>": 880,
      "contents</w>": 881,
      "collection</w>": 882,
      "calculates</w>": 883,
      "bit</w>": 884,
      "cont": 885,
      "----": 886,
      "recor": 887,
      "ors</w>": 888,
      "ready</w>": 889,
      "format": 890,
      "group</w>": 891,
      "document</w>": 892,
      "ler</w>": 893,
      "ps</w>": 894,
      "exten": 895,
      "ight</w>": 896,
      "find</w>": 897,
      "resource</w>": 898,
      "progress</w>": 899,
      "ordin": 900,
      "back": 901,
      "tree</w>": 902,
      "with": 903,
      "plied</w>": 904,
      "referen": 905,
      "witho": 906,
      "target</w>": 907,
      "another</w>": 908,
      "descrip": 909,
      "without</w>": 910,
      "properties</w>": 911,
      "block</w>": 912,
      "more</w>": 913,
      "where</w>": 914,
      "tim": 915,
      "child</w>": 916,
      "store</w>": 917,
      "pol": 918,
      "kes</w>": 919,
      "parses</w>": 920,
      "component</w>": 921,
      "inclu": 922,
      "determine</w>": 923,
      "cer": 924,
      "generated</w>": 925,
      "encoded</w>": 926,
      "nor": 927,
      "jo": 928,
      "win": 929,
      "time": 930,
      "uri</w>": 931,
      "neg": 932,
      "specific</w>": 933,
      "sing</w>": 934,
      "ars</w>": 935,
      "ess": 936,
      "identi": 937,
      "expres": 938,
      "mode": 939,
      "ket</w>": 940,
      "boun": 941,
      "service</w>": 942,
      "et</w>": 943,
      "lin": 944,
      "mi": 945,
      "asso": 946,
      "column</w>": 947,
      "separ": 948,
      "forms</w>": 949,
      "within</w>": 950,
      "helper</w>": 951,
      "associ": 952,
      "ged</w>": 953,
      "windo": 954,
      "lev": 955,
      "tries</w>": 956,
      "pan": 957,
      "formation</w>": 958,
      "coordin": 959,
      "als</w>": 960,
      "pos": 961,
      "supplied</w>": 962,
      "butt": 963,
      "imum</w>": 964,
      "lay": 965,
      "command</w>": 966,
      "count</w>": 967,
      "datab": 968,
      "dec": 969,
      "uni": 970,
      "argument</w>": 971,
      "already</w>": 972,
      "modi": 973,
      "handle</w>": 974,
      "tag</w>": 975,
      "nee": 976,
      "fore</w>": 977,
      "operation</w>": 978,
      "vis": 979,
      "rel": 980,
      "changes</w>": 981,
      "parameters</w>": 982,
      "dep": 983,
      "positive</w>": 984,
      "points</w>": 985,
      "mis": 986,
      "strings</w>": 987,
      "ecimal</w>": 988,
      "parse</w>": 989,
      "before</w>": 990,
      "amp</w>": 991,
      "negative</w>": 992,
      "we": 993,
      "fol": 994,
      "stri": 995,
      "plug": 996,
      "ifi": 997,
      "non</w>": 998,
      "rig": 999,
      "necess": 1000,
      "word</w>": 1001,
      "fal": 1002,
      "mode</w>": 1003,
      "files</w>": 1004,
      "king</w>": 1005,
      "set": 1006,
      "numbers</w>": 1007,
      "database</w>": 1008,
      "sions</w>": 1009,
      "necessary</w>": 1010,
      "bat": 1011,
      "ca": 1012,
      "scre": 1013,
      "ut": 1014,
      "task</w>": 1015,
      "offset</w>": 1016,
      "distance</w>": 1017,
      "model</w>": 1018,
      "see</w>": 1019,
      "em": 1020,
      "zer": 1021,
      "nodes</w>": 1022,
      "names</w>": 1023,
      "ft</w>": 1024,
      "put": 1025,
      "enum": 1026,
      "response</w>": 1027,
      "send</w>": 1028,
      "information</w>": 1029,
      "ables</w>": 1030,
      "mapp": 1031,
      "requi": 1032,
      "generator</w>": 1033,
      "transl": 1034,
      "ot</w>": 1035,
      "ise</w>": 1036,
      "appends</w>": 1037,
      "plugin</w>": 1038,
      "tional</w>": 1039,
      "receiv": 1040,
      "diff": 1041,
      "attributes</w>": 1042,
      "hes</w>": 1043,
      "appl": 1044,
      "generate</w>": 1045,
      "compute</w>": 1046,
      "address</w>": 1047,
      "big": 1048,
      "appro": 1049,
      "events</w>": 1050,
      "implemen": 1051,
      "spl": 1052,
      "right</w>": 1053,
      "fac": 1054,
      "lab": 1055,
      "re</w>": 1056,
      "patter": 1057,
      "token</w>": 1058,
      "enumer": 1059,
      "syn": 1060,
      "parameter</w>": 1061,
      "items</w>": 1062,
      "angle</w>": 1063,
      "part</w>": 1064,
      "parti": 1065,
      "screen</w>": 1066,
      "ature</w>": 1067,
      "icate</w>": 1068,
      "computes</w>": 1069,
      "gs</w>": 1070,
      "commun": 1071,
      "sum": 1072,
      "tool</w>": 1073,
      "ve</w>": 1074,
      "construc": 1075,
      "under": 1076,
      "pool</w>": 1077,
      "starts</w>": 1078,
      "describ": 1079,
      "multi": 1080,
      "false</w>": 1081,
      "ker</w>": 1082,
      "sure</w>": 1083,
      "entity</w>": 1084,
      "inserts</w>": 1085,
      "overri": 1086,
      "reference</w>": 1087,
      "expression</w>": 1088,
      "diffe": 1089,
      "make</w>": 1090,
      "cally</w>": 1091,
      "memb": 1092,
      "matri": 1093,
      "htt": 1094,
      "row</w>": 1095,
      "ain": 1096,
      "esc": 1097,
      "max": 1098,
      "color</w>": 1099,
      "existing</w>": 1100,
      "some</w>": 1101,
      "down</w>": 1102,
      "wra": 1103,
      "prints</w>": 1104,
      "ant</w>": 1105,
      "shor": 1106,
      "encoding</w>": 1107,
      "register</w>": 1108,
      "bit": 1109,
      "cap": 1110,
      "pe": 1111,
      "stat": 1112,
      "activ": 1113,
      "stand": 1114,
      "starting</w>": 1115,
      "enumeration</w>": 1116,
      "war": 1117,
      "extr": 1118,
      "scal": 1119,
      "append</w>": 1120,
      "cr": 1121,
      "top</w>": 1122,
      "client</w>": 1123,
      "our</w>": 1124,
      "sol": 1125,
      "lim": 1126,
      "currently</w>": 1127,
      "incre": 1128,
      "present</w>": 1129,
      "options</w>": 1130,
      "search</w>": 1131,
      "zero</w>": 1132,
      "wid": 1133,
      "being</w>": 1134,
      "associated</w>": 1135,
      "modifi": 1136,
      "over</w>": 1137,
      "valid": 1138,
      "escap": 1139,
      "stati": 1140,
      "alo": 1141,
      "accor": 1142,
      "ture</w>": 1143,
      "compa": 1144,
      "fy</w>": 1145,
      "tered</w>": 1146,
      "state": 1147,
      "itu": 1148,
      "thing</w>": 1149,
      "resul": 1150,
      "max</w>": 1151,
      "ics</w>": 1152,
      "boo": 1153,
      "indicates</w>": 1154,
      "left</w>": 1155,
      "projec": 1156,
      "igh": 1157,
      "putstream</w>": 1158,
      "pattern</w>": 1159,
      "distri": 1160,
      "previ": 1161,
      "closes</w>": 1162,
      "level</w>": 1163,
      "communicate</w>": 1164,
      "standard</w>": 1165,
      "distribu": 1166,
      "runs</w>": 1167,
      "frame</w>": 1168,
      "button</w>": 1169,
      "ling</w>": 1170,
      "added</w>": 1171,
      "whitebox</w>": 1172,
      "pi": 1173,
      "delete</w>": 1174,
      "invok": 1175,
      "bar</w>": 1176,
      "my": 1177,
      "clears</w>": 1178,
      "exists</w>": 1179,
      "ip</w>": 1180,
      "ph</w>": 1181,
      "anim": 1182,
      "main": 1183,
      "filter</w>": 1184,
      "window</w>": 1185,
      "div": 1186,
      "decimal</w>": 1187,
      "fo</w>": 1188,
      "acce": 1189,
      "ous</w>": 1190,
      "curs": 1191,
      "defined</w>": 1192,
      "ging</w>": 1193,
      "sm": 1194,
      "name": 1195,
      "fields</w>": 1196,
      "graph</w>": 1197,
      "util": 1198,
      "match</w>": 1199,
      "draws</w>": 1200,
      "notific": 1201,
      "ear</w>": 1202,
      "old</w>": 1203,
      "them</w>": 1204,
      "lar": 1205,
      "local</w>": 1206,
      "classes</w>": 1207,
      "mon": 1208,
      "clus": 1209,
      "base</w>": 1210,
      "flo": 1211,
      "wise</w>": 1212,
      "scrol": 1213,
      "callback</w>": 1214,
      "loads</w>": 1215,
      "wn": 1216,
      "ite</w>": 1217,
      "menu</w>": 1218,
      "correspon": 1219,
      "their</w>": 1220,
      "graph": 1221,
      "selected</w>": 1222,
      "matrix</w>": 1223,
      "ff</w>": 1224,
      "que</w>": 1225,
      "display</w>": 1226,
      "utility</w>": 1227,
      "gment</w>": 1228,
      "lying</w>": 1229,
      "listeners</w>": 1230,
      "according</w>": 1231,
      "oth": 1232,
      "til</w>": 1233,
      "dialo": 1234,
      "container</w>": 1235,
      "until</w>": 1236,
      "calculate</w>": 1237,
      "da": 1238,
      "entries</w>": 1239,
      "prin": 1240,
      "underlying</w>": 1241,
      "describing</w>": 1242,
      "device</w>": 1243,
      "cel": 1244,
      "parent</w>": 1245,
      "compares</w>": 1246,
      "00": 1247,
      "64</w>": 1248,
      "ten</w>": 1249,
      "deletes</w>": 1250,
      "matches</w>": 1251,
      "variable</w>": 1252,
      "possi": 1253,
      "root</w>": 1254,
      "http</w>": 1255,
      "ked</w>": 1256,
      "ensu": 1257,
      "nel</w>": 1258,
      "extension</w>": 1259,
      "hi": 1260,
      "tic": 1261,
      "makes</w>": 1262,
      "dimen": 1263,
      "performs</w>": 1264,
      "run</w>": 1265,
      "iterator</w>": 1266,
      "orig": 1267,
      "identifi": 1268,
      "info</w>": 1269,
      "changed</w>": 1270,
      "status</w>": 1271,
      "sav": 1272,
      "ref": 1273,
      "ron": 1274,
      "handler</w>": 1275,
      "registers</w>": 1276,
      "ality</w>": 1277,
      "build</w>": 1278,
      "asser": 1279,
      "perform</w>": 1280,
      "beg": 1281,
      "signed</w>": 1282,
      "js": 1283,
      "els</w>": 1284,
      "tual</w>": 1285,
      "different</w>": 1286,
      "ax": 1287,
      "inal</w>": 1288,
      "get": 1289,
      "print</w>": 1290,
      "initialize</w>": 1291,
      "ensures</w>": 1292,
      "pac": 1293,
      "condi": 1294,
      "rect</w>": 1295,
      "hash": 1296,
      "batis</w>": 1297,
      "are": 1298,
      "ages</w>": 1299,
      "other": 1300,
      "may</w>": 1301,
      "builder</w>": 1302,
      "flus": 1303,
      "secon": 1304,
      "both</w>": 1305,
      "stored</w>": 1306,
      "expec": 1307,
      "record</w>": 1308,
      "ned</w>": 1309,
      "ori": 1310,
      "such</w>": 1311,
      "mana": 1312,
      "bounds</w>": 1313,
      "mybatis</w>": 1314,
      "anno": 1315,
      "prob": 1316,
      "ility</w>": 1317,
      "memory</w>": 1318,
      "char</w>": 1319,
      "lock</w>": 1320,
      "appropri": 1321,
      "cation</w>": 1322,
      "mer": 1323,
      "vol": 1324,
      "fix": 1325,
      "ist</w>": 1326,
      "implementation</w>": 1327,
      "solu": 1328,
      "otherwise</w>": 1329,
      "ei": 1330,
      "adding</w>": 1331,
      "tain</w>": 1332,
      "needed</w>": 1333,
      "[]</w>": 1334,
      "cket</w>": 1335,
      "stru": 1336,
      "height</w>": 1337,
      "they</w>": 1338,
      "sq": 1339,
      "roun": 1340,
      "width</w>": 1341,
      "ens</w>": 1342,
      "ches</w>": 1343,
      "sess": 1344,
      "resol": 1345,
      "ication</w>": 1346,
      "mapping</w>": 1347,
      "base": 1348,
      "boole": 1349,
      "pus": 1350,
      "page</w>": 1351,
      "sl": 1352,
      "stor": 1353,
      "multip": 1354,
      "quo": 1355,
      "ical</w>": 1356,
      "required</w>": 1357,
      "boolean</w>": 1358,
      "il</w>": 1359,
      "pack": 1360,
      "datas": 1361,
      "keys</w>": 1362,
      "running</w>": 1363,
      "itude</w>": 1364,
      "session</w>": 1365,
      "less</w>": 1366,
      "close</w>": 1367,
      "),</w>": 1368,
      "cen": 1369,
      "clear</w>": 1370,
      "corresponding</w>": 1371,
      "axis</w>": 1372,
      "instan": 1373,
      "copies</w>": 1374,
      "including</w>": 1375,
      "maximum</w>": 1376,
      "sen": 1377,
      "norm": 1378,
      "appropriate</w>": 1379,
      "either</w>": 1380,
      "ame</w>": 1381,
      "fu": 1382,
      "compres": 1383,
      "panel</w>": 1384,
      "invoked</w>": 1385,
      "just</w>": 1386,
      "ases</w>": 1387,
      "adap": 1388,
      "puts</w>": 1389,
      "writer</w>": 1390,
      "initializes</w>": 1391,
      "description</w>": 1392,
      "ause</w>": 1393,
      "dialog</w>": 1394,
      "instru": 1395,
      "new": 1396,
      "cy</w>": 1397,
      "tou": 1398,
      "sty": 1399,
      "dig": 1400,
      "ugh</w>": 1401,
      "notification</w>": 1402,
      "rad": 1403,
      "stamp</w>": 1404,
      "full</w>": 1405,
      "rs</w>": 1406,
      "deco": 1407,
      "finds</w>": 1408,
      "distribution</w>": 1409,
      "mu": 1410,
      "mil": 1411,
      "reset</w>": 1412,
      "retri": 1413,
      "text": 1414,
      "way</w>": 1415,
      "manager</w>": 1416,
      "car": 1417,
      "tle</w>": 1418,
      "addi": 1419,
      "representing</w>": 1420,
      "area</w>": 1421,
      "must</w>": 1422,
      "pul": 1423,
      "uses</w>": 1424,
      "need</w>": 1425,
      "verifi": 1426,
      "hex</w>": 1427,
      "sin": 1428,
      "onto</w>": 1429,
      "simple</w>": 1430,
      "exist</w>": 1431,
      "open</w>": 1432,
      "selection</w>": 1433,
      "retriev": 1434,
      "ser</w>": 1435,
      "urces</w>": 1436,
      "channel</w>": 1437,
      "like</w>": 1438,
      "components</w>": 1439,
      "sk": 1440,
      "ance</w>": 1441,
      "active</w>": 1442,
      "stores</w>": 1443,
      "hed</w>": 1444,
      "rele": 1445,
      "types</w>": 1446,
      "arguments</w>": 1447,
      "through</w>": 1448,
      "layout</w>": 1449,
      "static</w>": 1450,
      "results</w>": 1451,
      "ose</w>": 1452,
      "abled</w>": 1453,
      "ation": 1454,
      "messages</w>": 1455,
      "work</w>": 1456,
      "signature</w>": 1457,
      "statement</w>": 1458,
      "accep": 1459,
      "compar": 1460,
      "arrays</w>": 1461,
      "pair</w>": 1462,
      "replac": 1463,
      "section</w>": 1464,
      "formats</w>": 1465,
      "duc": 1466,
      "ful": 1467,
      "lines</w>": 1468,
      "usly</w>": 1469,
      "down": 1470,
      "whitespace</w>": 1471,
      "coordinates</w>": 1472,
      "gn": 1473,
      "resets</w>": 1474,
      "vali": 1475,
      "reader</w>": 1476,
      "label</w>": 1477,
      "den": 1478,
      "ans</w>": 1479,
      "least</w>": 1480,
      "methods</w>": 1481,
      "series</w>": 1482,
      "rule</w>": 1483,
      "original</w>": 1484,
      "remain": 1485,
      "tel": 1486,
      "meas": 1487,
      "unit</w>": 1488,
      "about</w>": 1489,
      "cance": 1490,
      "att": 1491,
      "attemp": 1492,
      "alg": 1493,
      "spaces</w>": 1494,
      "ular</w>": 1495,
      "key": 1496,
      "finis": 1497,
      "scrip": 1498,
      "again": 1499,
      "float</w>": 1500,
      "against</w>": 1501,
      "met": 1502,
      "move</w>": 1503,
      "replaces</w>": 1504,
      "sql</w>": 1505,
      "radi": 1506,
      "ever": 1507,
      "native</w>": 1508,
      "conv": 1509,
      "isten": 1510,
      "created</w>": 1511,
      "calls</w>": 1512,
      "project</w>": 1513,
      "twor": 1514,
      "trig": 1515,
      "contained</w>": 1516,
      "show</w>": 1517,
      "represents</w>": 1518,
      "begin": 1519,
      "vm</w>": 1520,
      "val</w>": 1521,
      "iting</w>": 1522,
      "medi": 1523,
      "work": 1524,
      "support</w>": 1525,
      "override</w>": 1526,
      "instruction</w>": 1527,
      "uring</w>": 1528,
      "sett": 1529,
      "shif": 1530,
      "complete</w>": 1531,
      "sched": 1532,
      "processing</w>": 1533,
      "ely</w>": 1534,
      "dest": 1535,
      "decode</w>": 1536,
      "local": 1537,
      "play": 1538,
      "insert</w>": 1539,
      "child": 1540,
      "auth": 1541,
      "certain</w>": 1542,
      "member</w>": 1543,
      "since</w>": 1544,
      "ain</w>": 1545,
      "kno": 1546,
      "tto": 1547,
      "ren</w>": 1548,
      "noti": 1549,
      "popul": 1550,
      "pub": 1551,
      "matching</w>": 1552,
      "wing</w>": 1553,
      "loo": 1554,
      "notifi": 1555,
      "clic": 1556,
      "fail": 1557,
      "stop</w>": 1558,
      "replace</w>": 1559,
      "found</w>": 1560,
      "descriptor</w>": 1561,
      "certific": 1562,
      "fact": 1563,
      "est": 1564,
      "off</w>": 1565,
      "itor</w>": 1566,
      "chun": 1567,
      "cons": 1568,
      "socket</w>": 1569,
      "execute</w>": 1570,
      "contro": 1571,
      "normaliz": 1572,
      "amo": 1573,
      "br": 1574,
      "inside</w>": 1575,
      "suc": 1576,
      "botto": 1577,
      "pass": 1578,
      "multiple</w>": 1579,
      "encode</w>": 1580,
      "alloc": 1581,
      "debu": 1582,
      "returning</w>": 1583,
      "calling</w>": 1584,
      "written</w>": 1585,
      "handles</w>": 1586,
      "defini": 1587,
      "orith": 1588,
      "verifies</w>": 1589,
      "algorith": 1590,
      "evalu": 1591,
      "xy</w>": 1592,
      "testing</w>": 1593,
      "dered</w>": 1594,
      "suppor": 1595,
      "ify</w>": 1596,
      "--------": 1597,
      "application</w>": 1598,
      "compressed</w>": 1599,
      "succe": 1600,
      "fla": 1601,
      "permis": 1602,
      "option</w>": 1603,
      "cular</w>": 1604,
      "binary</w>": 1605,
      "timestamp</w>": 1606,
      "short</w>": 1607,
      "animation</w>": 1608,
      "expected</w>": 1609,
      "bro": 1610,
      "flow</w>": 1611,
      "sent</w>": 1612,
      "save</w>": 1613,
      "enabled</w>": 1614,
      "ability</w>": 1615,
      "shap": 1616,
      "visi": 1617,
      "touch</w>": 1618,
      "bottom</w>": 1619,
      "tal</w>": 1620,
      "ve": 1621,
      "util</w>": 1622,
      "base64</w>": 1623,
      "storage</w>": 1624,
      "settings</w>": 1625,
      "children</w>": 1626,
      "lan": 1627,
      "sym": 1628,
      "gram</w>": 1629,
      "activity</w>": 1630,
      "cro": 1631,
      "ip": 1632,
      "sends</w>": 1633,
      "kee": 1634,
      "ized</w>": 1635,
      "ateg": 1636,
      "lowed</w>": 1637,
      "bitmap</w>": 1638,
      "validates</w>": 1639,
      "json</w>": 1640,
      "adapter</w>": 1641,
      "oo": 1642,
      "coordinate</w>": 1643,
      "split</w>": 1644,
      "previous</w>": 1645,
      "possible</w>": 1646,
      "allo": 1647,
      "region</w>": 1648,
      "namespace</w>": 1649,
      "identifier</w>": 1650,
      "additional</w>": 1651,
      "recurs": 1652,
      "unt</w>": 1653,
      "operations</w>": 1654,
      "fully</w>": 1655,
      "conven": 1656,
      "sn": 1657,
      "produ": 1658,
      "bean</w>": 1659,
      "equality</w>": 1660,
      "draw</w>": 1661,
      "implements</w>": 1662,
      "access</w>": 1663,
      "package</w>": 1664,
      "ume</w>": 1665,
      "tec": 1666,
      "segment</w>": 1667,
      "produc": 1668,
      "sub</w>": 1669,
      "config</w>": 1670,
      "occurren": 1671,
      "bigdecimal</w>": 1672,
      "also</w>": 1673,
      "magn": 1674,
      "resources</w>": 1675,
      "minimum</w>": 1676,
      "validate</w>": 1677,
      "password</w>": 1678,
      "done</w>": 1679,
      "poin": 1680,
      "ops</w>": 1681,
      "host</w>": 1682,
      "bi": 1683,
      "check": 1684,
      "creating</w>": 1685,
      "func": 1686,
      "templ": 1687,
      "schem": 1688,
      "dataset</w>": 1689,
      "factory</w>": 1690,
      "yo": 1691,
      "trace</w>": 1692,
      "ules</w>": 1693,
      "sum</w>": 1694,
      "variables</w>": 1695,
      "sort</w>": 1696,
      "den</w>": 1697,
      "verify</w>": 1698,
      "tags</w>": 1699,
      "correct</w>": 1700,
      "received</w>": 1701,
      "extrac": 1702,
      "amount</w>": 1703,
      "conveni": 1704,
      "magnitude</w>": 1705,
      "once</w>": 1706,
      "removed</w>": 1707,
      "custo": 1708,
      "vig": 1709,
      "navig": 1710,
      "byte": 1711,
      "regi": 1712,
      "symbo": 1713,
      "tab</w>": 1714,
      "index": 1715,
      "termin": 1716,
      "impor": 1717,
      "registered</w>": 1718,
      "vect": 1719,
      "setting</w>": 1720,
      "construct</w>": 1721,
      "control</w>": 1722,
      "you</w>": 1723,
      "bits</w>": 1724,
      "ins</w>": 1725,
      "ect</w>": 1726,
      "acity</w>": 1727,
      "rest</w>": 1728,
      "direc": 1729,
      "networ": 1730,
      "gest</w>": 1731,
      "sample</w>": 1732,
      "divi": 1733,
      "shape</w>": 1734,
      "gri": 1735,
      "ht": 1736,
      "mas": 1737,
      "remo": 1738,
      "inputstream</w>": 1739,
      "chro": 1740,
      "returned</w>": 1741,
      "compare</w>": 1742,
      "contain</w>": 1743,
      "views</w>": 1744,
      "fills</w>": 1745,
      "appear</w>": 1746,
      "builds</w>": 1747,
      "edge</w>": 1748,
      "annotation</w>": 1749,
      "slas": 1750,
      "beginning</w>": 1751,
      "dy</w>": 1752,
      "ward</w>": 1753,
      "zone</w>": 1754,
      "numer": 1755,
      "regular</w>": 1756,
      "fill</w>": 1757,
      "translation</w>": 1758,
      "convenience</w>": 1759,
      "es": 1760,
      "mark</w>": 1761,
      "volume</w>": 1762,
      "schema</w>": 1763,
      "sted</w>": 1764,
      "file": 1765,
      "ival": 1766,
      "consi": 1767,
      "mouse</w>": 1768,
      "wait</w>": 1769,
      "relative</w>": 1770,
      "ie</w>": 1771,
      "p_": 1772,
      "exa": 1773,
      "cryp": 1774,
      "ders</w>": 1775,
      "wer</w>": 1776,
      "absolu": 1777,
      "comment</w>": 1778,
      "equival": 1779,
      "ground</w>": 1780,
      "pped</w>": 1781,
      "algorithm</w>": 1782,
      "assum": 1783,
      "under</w>": 1784,
      "buffe": 1785,
      "blocks</w>": 1786,
      "separator</w>": 1787,
      "limi": 1788,
      "saves</w>": 1789,
      "instances</w>": 1790,
      "template</w>": 1791,
      "ators</w>": 1792,
      "endi": 1793,
      "ensure</w>": 1794,
      "constan": 1795,
      "sel": 1796,
      "open": 1797,
      "rectangle</w>": 1798,
      "waiting</w>": 1799,
      "expi": 1800,
      "depend": 1801,
      "capacity</w>": 1802,
      "ids</w>": 1803,
      "ner</w>": 1804,
      "report</w>": 1805,
      "allow</w>": 1806,
      "actions</w>": 1807,
      "ively</w>": 1808,
      "stra": 1809,
      "modu": 1810,
      "note</w>": 1811,
      "initial</w>": 1812,
      "particular</w>": 1813,
      "notify</w>": 1814,
      "definition</w>": 1815,
      "absolute</w>": 1816,
      "ha": 1817,
      "clamp</w>": 1818,
      "sha": 1819,
      "cir": 1820,
      "named</w>": 1821,
      "background</w>": 1822,
      "polic": 1823,
      "cell</w>": 1824,
      "style</w>": 1825,
      "\",</w>": 1826,
      "ously</w>": 1827,
      "ty": 1828,
      "yn": 1829,
      "whose</w>": 1830,
      "ell</w>": 1831,
      "select</w>": 1832,
      "receiver</w>": 1833,
      "chunk</w>": 1834,
      "cle</w>": 1835,
      "categ": 1836,
      "ile</w>": 1837,
      "oid</w>": 1838,
      "rows</w>": 1839,
      "title</w>": 1840,
      "body</w>": 1841,
      "sorts</w>": 1842,
      "cluster</w>": 1843,
      "network</w>": 1844,
      "00</w>": 1845,
      "cum": 1846,
      "hal": 1847,
      "asyn": 1848,
      "closing</w>": 1849,
      "expan": 1850,
      "loader</w>": 1851,
      "auto": 1852,
      "poly": 1853,
      "job</w>": 1854,
      "module</w>": 1855,
      "grea": 1856,
      "slo": 1857,
      "test": 1858,
      "ato": 1859,
      "via</w>": 1860,
      "takes</w>": 1861,
      "encodes</w>": 1862,
      "unique</w>": 1863,
      "remaining</w>": 1864,
      "bec": 1865,
      "string": 1866,
      "most</w>": 1867,
      "chart</w>": 1868,
      "lic</w>": 1869,
      "sign</w>": 1870,
      "closed</w>": 1871,
      "needs</w>": 1872,
      "folder</w>": 1873,
      "dimensions</w>": 1874,
      "success": 1875,
      "chrono": 1876,
      "et": 1877,
      "fe</w>": 1878,
      "fon": 1879,
      "reas": 1880,
      "actual</w>": 1881,
      "group": 1882,
      "occur": 1883,
      "certificate</w>": 1884,
      "snap": 1885,
      "ap</w>": 1886,
      "ico": 1887,
      "consum": 1888,
      "look": 1889,
      "let": 1890,
      "spe": 1891,
      "verse</w>": 1892,
      "compo": 1893,
      "core</w>": 1894,
      "outside</w>": 1895,
      "apply</w>": 1896,
      "equals</w>": 1897,
      "receive</w>": 1898,
      "scale</w>": 1899,
      "hashcode</w>": 1900,
      "allows</w>": 1901,
      "divide</w>": 1902,
      "dro": 1903,
      "pending</w>": 1904,
      "enou": 1905,
      "delimi": 1906,
      "simul": 1907,
      "proxy</w>": 1908,
      "those</w>": 1909,
      "sorted</w>": 1910,
      "warning</w>": 1911,
      "scroll</w>": 1912,
      "navigation</w>": 1913,
      "grid</w>": 1914,
      "self</w>": 1915,
      "because</w>": 1916,
      "enoug": 1917,
      "ker": 1918,
      "track</w>": 1919,
      "abs": 1920,
      "parser</w>": 1921,
      "provider</w>": 1922,
      "executed</w>": 1923,
      "primi": 1924,
      "times</w>": 1925,
      "example</w>": 1926,
      "enough</w>": 1927,
      "inst": 1928,
      "ent": 1929,
      "def": 1930,
      "forward</w>": 1931,
      "execution</w>": 1932,
      "records</w>": 1933,
      "timer</w>": 1934,
      "previously</w>": 1935,
      "day</w>": 1936,
      "proto": 1937,
      "data": 1938,
      "interval</w>": 1939,
      "step</w>": 1940,
      "columns</w>": 1941,
      "control": 1942,
      "modified</w>": 1943,
      "custom</w>": 1944,
      "pic": 1945,
      "repe": 1946,
      "asci": 1947,
      "pai": 1948,
      "path": 1949,
      "transaction</w>": 1950,
      "serialization</w>": 1951,
      "tempor": 1952,
      "constructs</w>": 1953,
      "cumul": 1954,
      "let</w>": 1955,
      "real</w>": 1956,
      "absm": 1957,
      "qual": 1958,
      "outputstream</w>": 1959,
      "lowing</w>": 1960,
      "policy</w>": 1961,
      "absmax</w>": 1962,
      "primitive</w>": 1963,
      "ascii</w>": 1964,
      "absmin</w>": 1965,
      "eff": 1966,
      "cover": 1967,
      "asc": 1968,
      "api</w>": 1969,
      "parsing</w>": 1970,
      "preferen": 1971,
      "shows</w>": 1972,
      "marker</w>": 1973,
      "pix": 1974,
      "cursor</w>": 1975,
      "push</w>": 1976,
      "hold</w>": 1977,
      "shown</w>": 1978,
      "lay</w>": 1979,
      "requests</w>": 1980,
      "searches</w>": 1981,
      "jour": 1982,
      "second</w>": 1983,
      "fixed</w>": 1984,
      "script</w>": 1985,
      "remote</w>": 1986,
      "endian</w>": 1987,
      "snapsho": 1988,
      "gers</w>": 1989,
      "high": 1990,
      "ename</w>": 1991,
      "encryp": 1992,
      "conca": 1993,
      "constra": 1994,
      "exter": 1995,
      "wheel</w>": 1996,
      "sche": 1997,
      "html</w>": 1998,
      "greater</w>": 1999,
      "concaten": 2000,
      "during</w>": 2001,
      "go": 2002,
      "io": 2003,
      "threads</w>": 2004,
      "ech": 2005,
      "ories</w>": 2006,
      "adat": 2007,
      "serv": 2008,
      "feature</w>": 2009,
      "loaded</w>": 2010,
      "invo": 2011,
      "formatted</w>": 2012,
      "packs</w>": 2013,
      "condition</w>": 2014,
      "ski": 2015,
      "metadat": 2016,
      "notified</w>": 2017,
      "journal</w>": 2018,
      "min</w>": 2019,
      "t_": 2020,
      "reach": 2021,
      "ones</w>": 2022,
      "detec": 2023,
      "unpacks</w>": 2024,
      "bound</w>": 2025,
      "structure</w>": 2026,
      "tasks</w>": 2027,
      "layer</w>": 2028,
      "packet</w>": 2029,
      "download</w>": 2030,
      "ement</w>": 2031,
      "mary</w>": 2032,
      "ui</w>": 2033,
      "stic</w>": 2034,
      "bean": 2035,
      "priv": 2036,
      "configu": 2037,
      "serialize</w>": 2038,
      "registr": 2039,
      "constant</w>": 2040,
      "qualifi": 2041,
      "dy": 2042,
      "rup": 2043,
      "sur": 2044,
      "yed</w>": 2045,
      "ination</w>": 2046,
      "rot": 2047,
      "del": 2048,
      "tract</w>": 2049,
      "domain</w>": 2050,
      "some": 2051,
      "tical</w>": 2052,
      "public</w>": 2053,
      "tab": 2054,
      "use": 2055,
      "repor": 2056,
      "sion": 2057,
      "ization</w>": 2058,
      "final</w>": 2059,
      "image": 2060,
      "longer</w>": 2061,
      "inclus": 2062,
      "escaped</w>": 2063,
      "known</w>": 2064,
      "consisten": 2065,
      "buffered</w>": 2066,
      "pairs</w>": 2067,
      "metadata</w>": 2068,
      "don</w>": 2069,
      "swit": 2070,
      "adj": 2071,
      "moves</w>": 2072,
      "removing</w>": 2073,
      "words</w>": 2074,
      "audi": 2075,
      "separated</w>": 2076,
      "depending</w>": 2077,
      "utf</w>": 2078,
      "asserts</w>": 2079,
      "visible</w>": 2080,
      "gging</w>": 2081,
      "wo": 2082,
      "alph": 2083,
      "ading</w>": 2084,
      "cho": 2085,
      "dere": 2086,
      "lob": 2087,
      "what</w>": 2088,
      "popu": 2089,
      "safe</w>": 2090,
      "portion</w>": 2091,
      "fragment</w>": 2092,
      "icon</w>": 2093,
      "cast</w>": 2094,
      "hex": 2095,
      "plo": 2096,
      "sw": 2097,
      "scop": 2098,
      "any": 2099,
      "cook": 2100,
      "deque</w>": 2101,
      "und": 2102,
      "interrup": 2103,
      "optional</w>": 2104,
      "transi": 2105,
      "headers</w>": 2106,
      "unicode</w>": 2107,
      "labels</w>": 2108,
      "digits</w>": 2109,
      "every</w>": 2110,
      "player</w>": 2111,
      "permission</w>": 2112,
      "langu": 2113,
      "recursively</w>": 2114,
      "extracts</w>": 2115,
      "dynam": 2116,
      "pe</w>": 2117,
      "ual</w>": 2118,
      "story</w>": 2119,
      "arch": 2120,
      "ordered</w>": 2121,
      "ade</w>": 2122,
      "deta": 2123,
      "leg": 2124,
      "coming</w>": 2125,
      "transform</w>": 2126,
      "executes</w>": 2127,
      "throw</w>": 2128,
      "symbol</w>": 2129,
      "32</w>": 2130,
      "fre": 2131,
      "special</w>": 2132,
      "take</w>": 2133,
      "paint</w>": 2134,
      "writing</w>": 2135,
      "deriv": 2136,
      "how</w>": 2137,
      "included</w>": 2138,
      "history</w>": 2139,
      "seconds</w>": 2140,
      "equivalent</w>": 2141,
      "temporary</w>": 2142,
      "scheme</w>": 2143,
      "bly</w>": 2144,
      "df</w>": 2145,
      "ency</w>": 2146,
      "tra": 2147,
      "unsigned</w>": 2148,
      "exce": 2149,
      "abstr": 2150,
      "calend": 2151,
      "app</w>": 2152,
      "disk</w>": 2153,
      "declar": 2154,
      "splits</w>": 2155,
      "supported</w>": 2156,
      "would</w>": 2157,
      "200": 2158,
      "brea": 2159,
      "site</w>": 2160,
      "tre": 2161,
      "metr": 2162,
      "paints</w>": 2163,
      "filename</w>": 2164,
      "substring</w>": 2165,
      "requested</w>": 2166,
      "operator</w>": 2167,
      "cached</w>": 2168,
      "serializes</w>": 2169,
      "relation</w>": 2170,
      "limit</w>": 2171,
      "refres": 2172,
      "probability</w>": 2173,
      "mutable</w>": 2174,
      "destination</w>": 2175,
      "authenti": 2176,
      "--</w>": 2177,
      "bl": 2178,
      "ffi": 2179,
      "squ": 2180,
      "itable</w>": 2181,
      "ong</w>": 2182,
      "else</w>": 2183,
      "prepa": 2184,
      "throws</w>": 2185,
      "link</w>": 2186,
      "flush</w>": 2187,
      "attempts</w>": 2188,
      "flag</w>": 2189,
      "vectors</w>": 2190,
      "external</w>": 2191,
      "here</w>": 2192,
      "ound</w>": 2193,
      "pur": 2194,
      "were</w>": 2195,
      "col</w>": 2196,
      "ority</w>": 2197,
      "acqui": 2198,
      "while</w>": 2199,
      "viron": 2200,
      "dom": 2201,
      "expon": 2202,
      "runn": 2203,
      "search": 2204,
      "timeout</w>": 2205,
      "flushes</w>": 2206,
      "digit</w>": 2207,
      "popup</w>": 2208,
      "cookie</w>": 2209,
      "calendar</w>": 2210,
      "card</w>": 2211,
      "db</w>": 2212,
      "hol": 2213,
      "ok</w>": 2214,
      "rules</w>": 2215,
      "uid</w>": 2216,
      "ali": 2217,
      "allowed</w>": 2218,
      "post</w>": 2219,
      "charset</w>": 2220,
      "formed</w>": 2221,
      "comb": 2222,
      "head</w>": 2223,
      "tionally</w>": 2224,
      "dering</w>": 2225,
      "displayed</w>": 2226,
      "biginteger</w>": 2227,
      "assert</w>": 2228,
      "accept</w>": 2229,
      "cancel</w>": 2230,
      "16</w>": 2231,
      "econ": 2232,
      "gments</w>": 2233,
      "ml": 2234,
      "incoming</w>": 2235,
      "around</w>": 2236,
      "dit</w>": 2237,
      "lisecon": 2238,
      "igno": 2239,
      "predic": 2240,
      "started</w>": 2241,
      "correct": 2242,
      "represented</w>": 2243,
      "samp": 2244,
      "finished</w>": 2245,
      "expired</w>": 2246,
      "private</w>": 2247,
      "scope</w>": 2248,
      "vironment</w>": 2249,
      "date": 2250,
      "want</w>": 2251,
      "stics</w>": 2252,
      "nothing</w>": 2253,
      "ils</w>": 2254,
      "rendere": 2255,
      "force</w>": 2256,
      "place</w>": 2257,
      "class": 2258,
      "prepar": 2259,
      "tokens</w>": 2260,
      "pane</w>": 2261,
      "ful</w>": 2262,
      "millisecon": 2263,
      "produce</w>": 2264,
      "big</w>": 2265,
      "shared</w>": 2266,
      "duration</w>": 2267,
      "inste": 2268,
      "environment</w>": 2269,
      "chars</w>": 2270,
      "board</w>": 2271,
      "basic</w>": 2272,
      "edges</w>": 2273,
      "processes</w>": 2274,
      "tells</w>": 2275,
      "font</w>": 2276,
      "snapshot</w>": 2277,
      "configured</w>": 2278,
      "language</w>": 2279,
      "os</w>": 2280,
      "ta</w>": 2281,
      "tup": 2282,
      "anti": 2283,
      "program</w>": 2284,
      "pers": 2285,
      "readable</w>": 2286,
      "listening</w>": 2287,
      "gui</w>": 2288,
      "connect</w>": 2289,
      "bound": 2290,
      "extract</w>": 2291,
      "graphics</w>": 2292,
      "category</w>": 2293,
      "inclusive</w>": 2294,
      "ffici": 2295,
      "runnable</w>": 2296,
      "',</w>": 2297,
      "-></w>": 2298,
      "hum": 2299,
      "ath</w>": 2300,
      "simp": 2301,
      "ump</w>": 2302,
      "compil": 2303,
      "servi": 2304,
      "signs</w>": 2305,
      "provide</w>": 2306,
      "updated</w>": 2307,
      "clip</w>": 2308,
      "wards</w>": 2309,
      "smal": 2310,
      "release</w>": 2311,
      "locale</w>": 2312,
      "controller</w>": 2313,
      "instead</w>": 2314,
      "ice</w>": 2315,
      "int": 2316,
      "leading</w>": 2317,
      "optim": 2318,
      "start": 2319,
      "worker</w>": 2320,
      "connected</w>": 2321,
      "priority</w>": 2322,
      "divid": 2323,
      "possibly</w>": 2324,
      "resolv": 2325,
      "quotes</w>": 2326,
      "tell</w>": 2327,
      "pointer</w>": 2328,
      "circle</w>": 2329,
      "asynchrono": 2330,
      "etc</w>": 2331,
      "metrics</w>": 2332,
      "glob": 2333,
      "red": 2334,
      "ine": 2335,
      "inten": 2336,
      "tex</w>": 2337,
      "stops</w>": 2338,
      "stric": 2339,
      "term</w>": 2340,
      "raw</w>": 2341,
      "exclus": 2342,
      "vir": 2343,
      "classi": 2344,
      "pay": 2345,
      "common</w>": 2346,
      "counts</w>": 2347,
      "windows</w>": 2348,
      "decodes</w>": 2349,
      "keep</w>": 2350,
      "occurrence</w>": 2351,
      "slash</w>": 2352,
      "mati": 2353,
      "ping</w>": 2354,
      "tations</w>": 2355,
      "un</w>": 2356,
      "indi": 2357,
      "teri": 2358,
      "quanti": 2359,
      "combin": 2360,
      "subtract</w>": 2361,
      "configur": 2362,
      "future</w>": 2363,
      "workflow</w>": 2364,
      "reason": 2365,
      "audio</w>": 2366,
      "&#</w>": 2367,
      "63</w>": 2368,
      "hig": 2369,
      "pper</w>": 2370,
      "ined</w>": 2371,
      "roo": 2372,
      "rou": 2373,
      "imate</w>": 2374,
      "ately</w>": 2375,
      "ways</w>": 2376,
      "editor</w>": 2377,
      "normal</w>": 2378,
      "batch</w>": 2379,
      "comparis": 2380,
      "numeric</w>": 2381,
      "something</w>": 2382,
      "correctly</w>": 2383,
      "renderer</w>": 2384,
      "deci": 2385,
      "dden</w>": 2386,
      "gb</w>": 2387,
      "happ": 2388,
      "rn</w>": 2389,
      "zoo": 2390,
      "could</w>": 2391,
      "round</w>": 2392,
      "itself</w>": 2393,
      "adv": 2394,
      "specification</w>": 2395,
      "clause</w>": 2396,
      "ssed</w>": 2397,
      "interpol": 2398,
      "write": 2399,
      "liter": 2400,
      "libr": 2401,
      "transforms</w>": 2402,
      "integers</w>": 2403,
      "indicate</w>": 2404,
      "serialized</w>": 2405,
      "links</w>": 2406,
      "mically</w>": 2407,
      "members</w>": 2408,
      "escape</w>": 2409,
      "replacing</w>": 2410,
      "function": 2411,
      "prepare</w>": 2412,
      "lat": 2413,
      "well</w>": 2414,
      "zip</w>": 2415,
      "ted": 2416,
      "roid</w>": 2417,
      "chron": 2418,
      "context": 2419,
      "desi": 2420,
      "ment": 2421,
      "mod": 2422,
      "proper</w>": 2423,
      "umes</w>": 2424,
      "parts</w>": 2425,
      "scan</w>": 2426,
      "factor</w>": 2427,
      "overridden</w>": 2428,
      "center</w>": 2429,
      "retrieves</w>": 2430,
      "debug</w>": 2431,
      "mask</w>": 2432,
      "dynamic</w>": 2433,
      "milliseconds</w>": 2434,
      "effici": 2435,
      "rate</w>": 2436,
      "rota": 2437,
      "oriz": 2438,
      "trail": 2439,
      "vertex</w>": 2440,
      "perio": 2441,
      "immedi": 2442,
      "property": 2443,
      "provides</w>": 2444,
      "pping</w>": 2445,
      "web": 2446,
      "following</w>": 2447,
      "increases</w>": 2448,
      "every": 2449,
      "details</w>": 2450,
      "//</w>": 2451,
      "gon</w>": 2452,
      "fit</w>": 2453,
      "adecimal</w>": 2454,
      "segments</w>": 2455,
      "node": 2456,
      "does": 2457,
      "heap</w>": 2458,
      "later</w>": 2459,
      "transf": 2460,
      "pass</w>": 2461,
      "clear": 2462,
      "loading</w>": 2463,
      "manag": 2464,
      "tually</w>": 2465,
      "canon": 2466,
      "lower</w>": 2467,
      "reflec": 2468,
      "proble": 2469,
      "normalized</w>": 2470,
      "checksum</w>": 2471,
      "bytebuffer</w>": 2472,
      "assuming</w>": 2473,
      "protocol</w>": 2474,
      "pixels</w>": 2475,
      "hexadecimal</w>": 2476,
      "exclusive</w>": 2477,
      "trailing</w>": 2478,
      "doesn</w>": 2479,
      "cri": 2480,
      "lit": 2481,
      "ring</w>": 2482,
      "sity</w>": 2483,
      "aly": 2484,
      "always</w>": 2485,
      "erred</w>": 2486,
      "ity": 2487,
      "maps</w>": 2488,
      "charsequence</w>": 2489,
      "even</w>": 2490,
      "random": 2491,
      "android</w>": 2492,
      "subclasses</w>": 2493,
      "measu": 2494,
      "schedu": 2495,
      "schedul": 2496,
      "atomically</w>": 2497,
      "groups</w>": 2498,
      "qualified</w>": 2499,
      "switch</w>": 2500,
      "ignored</w>": 2501,
      "classifi": 2502,
      "25": 2503,
      "2d</w>": 2504,
      "==</w>": 2505,
      "d_": 2506,
      "made</w>": 2507,
      "padding</w>": 2508,
      "individ": 2509,
      "code": 2510,
      "all": 2511,
      "acks</w>": 2512,
      "assigned</w>": 2513,
      "iss": 2514,
      "union</w>": 2515,
      "diag": 2516,
      "clu": 2517,
      "ject</w>": 2518,
      "suf": 2519,
      "view": 2520,
      "laun": 2521,
      "subscri": 2522,
      "close": 2523,
      "engine</w>": 2524,
      "interes": 2525,
      "directly</w>": 2526,
      "initialized</w>": 2527,
      "addres": 2528,
      "processor</w>": 2529,
      "synchron": 2530,
      "scales</w>": 2531,
      "printable</w>": 2532,
      "measure</w>": 2533,
      "debugging</w>": 2534,
      "evaluates</w>": 2535,
      "global</w>": 2536,
      "matically</w>": 2537,
      "desired</w>": 2538,
      "br</w>": 2539,
      "ically</w>": 2540,
      "sending</w>": 2541,
      "analy": 2542,
      "tip</w>": 2543,
      "itted</w>": 2544,
      "track": 2545,
      "below</w>": 2546,
      "geo": 2547,
      "array": 2548,
      "checking</w>": 2549,
      "aving</w>": 2550,
      "positions</w>": 2551,
      "filled</w>": 2552,
      "ciph": 2553,
      "fet": 2554,
      "deleg": 2555,
      "logs</w>": 2556,
      "missing</w>": 2557,
      "applies</w>": 2558,
      "approx": 2559,
      "differen": 2560,
      "cells</w>": 2561,
      "retrieve</w>": 2562,
      "occurrences</w>": 2563,
      "direction</w>": 2564,
      "legal</w>": 2565,
      "human</w>": 2566,
      "indices</w>": 2567,
      "reasonable</w>": 2568,
      "bund": 2569,
      "edit</w>": 2570,
      "lt</w>": 2571,
      "none</w>": 2572,
      "sr": 2573,
      "yet</w>": 2574,
      "come</w>": 2575,
      "ural</w>": 2576,
      "usage</w>": 2577,
      "digest</w>": 2578,
      "suitable</w>": 2579,
      "places</w>": 2580,
      "shut": 2581,
      "ign": 2582,
      "conversion</w>": 2583,
      "dispat": 2584,
      "subm": 2585,
      "signals</w>": 2586,
      "clean</w>": 2587,
      "doub": 2588,
      "statistics</w>": 2589,
      "rounds</w>": 2590,
      "skips</w>": 2591,
      "abstract</w>": 2592,
      "age": 2593,
      "away</w>": 2594,
      "mp</w>": 2595,
      "vent</w>": 2596,
      "instruc": 2597,
      "accumul": 2598,
      "spath</w>": 2599,
      "able": 2600,
      "profile</w>": 2601,
      "power</w>": 2602,
      "beha": 2603,
      "total</w>": 2604,
      "elim": 2605,
      "tric</w>": 2606,
      "pressed</w>": 2607,
      "opens</w>": 2608,
      "changing</w>": 2609,
      "entire</w>": 2610,
      "lists</w>": 2611,
      "completed</w>": 2612,
      "buttons</w>": 2613,
      "month</w>": 2614,
      "populate</w>": 2615,
      "invoke</w>": 2616,
      "beancontext": 2617,
      "tuple</w>": 2618,
      "behavi": 2619,
      "bran": 2620,
      "ced</w>": 2621,
      "free</w>": 2622,
      "hid": 2623,
      "horiz": 2624,
      "mes</w>": 2625,
      "ple": 2626,
      "exclu": 2627,
      "pop</w>": 2628,
      "poses</w>": 2629,
      "plat": 2630,
      "creation</w>": 2631,
      "prefix": 2632,
      "matched</w>": 2633,
      "sequen": 2634,
      "related</w>": 2635,
      "increments</w>": 2636,
      "scrolling</w>": 2637,
      "getting</w>": 2638,
      "destro": 2639,
      "drop</w>": 2640,
      "ascending</w>": 2641,
      "high</w>": 2642,
      "comparison</w>": 2643,
      "==": 2644,
      "bus": 2645,
      "border</w>": 2646,
      "cy": 2647,
      "cat": 2648,
      "cal</w>": 2649,
      "nat": 2650,
      "along</w>": 2651,
      "chain</w>": 2652,
      "isn</w>": 2653,
      "exac": 2654,
      "mail</w>": 2655,
      "bed": 2656,
      "todo</w>": 2657,
      "classpath</w>": 2658,
      "queu": 2659,
      "change": 2660,
      "appe": 2661,
      "commit</w>": 2662,
      "these</w>": 2663,
      "defaul": 2664,
      "directories</w>": 2665,
      "join</w>": 2666,
      "large</w>": 2667,
      "merge</w>": 2668,
      "attempt</w>": 2669,
      "delimiter</w>": 2670,
      "paths</w>": 2671,
      "reached</w>": 2672,
      "derived</w>": 2673,
      "library</w>": 2674,
      "problem</w>": 2675,
      "suffix</w>": 2676,
      "horizon": 2677,
      "platform</w>": 2678,
      "dr": 2679,
      "score</w>": 2680,
      "uuid</w>": 2681,
      "xml": 2682,
      "assign": 2683,
      "user": 2684,
      "white</w>": 2685,
      "plic": 2686,
      "she": 2687,
      "tostring</w>": 2688,
      "reading</w>": 2689,
      "optionally</w>": 2690,
      "ever</w>": 2691,
      "ities</w>": 2692,
      "gram": 2693,
      "clean": 2694,
      "counter</w>": 2695,
      "decre": 2696,
      "validation</w>": 2697,
      "trigger</w>": 2698,
      "loop</w>": 2699,
      "literal</w>": 2700,
      "everything</w>": 2701,
      "10</w>": 2702,
      "gl": 2703,
      "jd": 2704,
      "ld</w>": 2705,
      "aster</w>": 2706,
      "spar": 2707,
      "bug</w>": 2708,
      "immutable</w>": 2709,
      "buffers</w>": 2710,
      "paren": 2711,
      "entities</w>": 2712,
      "fire</w>": 2713,
      "drag</w>": 2714,
      "queries</w>": 2715,
      "except</w>": 2716,
      "agg": 2717,
      "decla": 2718,
      "followed</w>": 2719,
      "wrapped</w>": 2720,
      "wrapper</w>": 2721,
      "rounding</w>": 2722,
      "product</w>": 2723,
      "indexes</w>": 2724,
      "lookup</w>": 2725,
      "square</w>": 2726,
      "configurations</w>": 2727,
      "little</w>": 2728,
      "diagno": 2729,
      "interested</w>": 2730,
      "elimin": 2731,
      "gre": 2732,
      "jar</w>": 2733,
      "nt</w>": 2734,
      "sli": 2735,
      "tables</w>": 2736,
      "year</w>": 2737,
      "ands</w>": 2738,
      "metric</w>": 2739,
      "lex": 2740,
      "ness</w>": 2741,
      "obta": 2742,
      "doc": 2743,
      "upper</w>": 2744,
      "prec": 2745,
      "colors</w>": 2746,
      "primary</w>": 2747,
      "marks</w>": 2748,
      "processed</w>": 2749,
      "contin": 2750,
      "references</w>": 2751,
      "wrap</w>": 2752,
      "increment</w>": 2753,
      "statements</w>": 2754,
      "projection</w>": 2755,
      "replacement</w>": 2756,
      "cancels</w>": 2757,
      "failed</w>": 2758,
      "filesystem</w>": 2759,
      "authentication</w>": 2760,
      "exponent</w>": 2761,
      "exactly</w>": 2762,
      "arest</w>": 2763,
      "dump</w>": 2764,
      "gt</w>": 2765,
      "own</w>": 2766,
      "own": 2767,
      "sis</w>": 2768,
      "wable</w>": 2769,
      "atu": 2770,
      "tic</w>": 2771,
      "usted</w>": 2772,
      "tering</w>": 2773,
      "nearest</w>": 2774,
      "renders</w>": 2775,
      "clone</w>": 2776,
      "compaction</w>": 2777,
      "kets</w>": 2778,
      "lip": 2779,
      "waits</w>": 2780,
      "logging</w>": 2781,
      "web</w>": 2782,
      "implemented</w>": 2783,
      "graphic</w>": 2784,
      "comparator</w>": 2785,
      "permissions</w>": 2786,
      "occurs</w>": 2787,
      "preference</w>": 2788,
      "highl": 2789,
      "addresses</w>": 2790,
      "instructions</w>": 2791,
      "om": 2792,
      "redu": 2793,
      "restore</w>": 2794,
      "rout": 2795,
      "ace": 2796,
      "account</w>": 2797,
      "iso</w>": 2798,
      "delay</w>": 2799,
      "unc": 2800,
      "simil": 2801,
      "mac</w>": 2802,
      "compati": 2803,
      "gest": 2804,
      "ssl</w>": 2805,
      "avoid</w>": 2806,
      "upon</w>": 2807,
      "ize</w>": 2808,
      "connections</w>": 2809,
      "deleted</w>": 2810,
      "token": 2811,
      "secur": 2812,
      "foo</w>": 2813,
      "identity</w>": 2814,
      "merges</w>": 2815,
      "cards</w>": 2816,
      "attach": 2817,
      "media</w>": 2818,
      "notifies</w>": 2819,
      "polygon</w>": 2820,
      "effec": 2821,
      "declaration</w>": 2822,
      "boundary</w>": 2823,
      "schedule</w>": 2824,
      "issue</w>": 2825,
      "many</w>": 2826,
      "your</w>": 2827,
      "stop": 2828,
      "conso": 2829,
      "issu": 2830,
      "units</w>": 2831,
      "now</w>": 2832,
      "tool": 2833,
      "intersec": 2834,
      "indicating</w>": 2835,
      "mappings</w>": 2836,
      "solution</w>": 2837,
      "density</w>": 2838,
      "spec</w>": 2839,
      "instal": 2840,
      "repeated</w>": 2841,
      "constraints</w>": 2842,
      "refresh</w>": 2843,
      "managed</w>": 2844,
      "bundle</w>": 2845,
      "))</w>": 2846,
      "cs": 2847,
      "ct</w>": 2848,
      "ually</w>": 2849,
      "repos": 2850,
      "invalid</w>": 2851,
      "tely</w>": 2852,
      "stu": 2853,
      "stitu": 2854,
      "ard": 2855,
      "who": 2856,
      "vide": 2857,
      "gether</w>": 2858,
      "plan": 2859,
      "shad": 2860,
      "together</w>": 2861,
      "locks</w>": 2862,
      "caller</w>": 2863,
      "works</w>": 2864,
      "super</w>": 2865,
      "selects</w>": 2866,
      "logger</w>": 2867,
      "auto</w>": 2868,
      "displays</w>": 2869,
      "extensions</w>": 2870,
      "saved</w>": 2871,
      "begin</w>": 2872,
      "functions</w>": 2873,
      "automatically</w>": 2874,
      "slop</w>": 2875,
      "define</w>": 2876,
      "going</w>": 2877,
      "alias</w>": 2878,
      "predicate</w>": 2879,
      "immediately</w>": 2880,
      "classifier</w>": 2881,
      "console</w>": 2882,
      "reposit": 2883,
      "bility</w>": 2884,
      "dn</w>": 2885,
      "email</w>": 2886,
      "ir": 2887,
      "three</w>": 2888,
      "devi": 2889,
      "train</w>": 2890,
      "exit</w>": 2891,
      "dist": 2892,
      "tail</w>": 2893,
      "moving</w>": 2894,
      "server": 2895,
      "pref": 2896,
      "transp": 2897,
      "selector</w>": 2898,
      "iff</w>": 2899,
      "endpoint</w>": 2900,
      "depth</w>": 2901,
      "embed": 2902,
      "translates</w>": 2903,
      "sync</w>": 2904,
      "quoted</w>": 2905,
      "newline</w>": 2906,
      "look</w>": 2907,
      "crossed</w>": 2908,
      "consumer</w>": 2909,
      "intent</w>": 2910,
      "virtual</w>": 2911,
      "closest</w>": 2912,
      "shutdown</w>": 2913,
      "branch</w>": 2914,
      "dates</w>": 2915,
      "go</w>": 2916,
      "swi": 2917,
      "xx": 2918,
      "restric": 2919,
      "enable</w>": 2920,
      "ash</w>": 2921,
      "consu": 2922,
      "ision</w>": 2923,
      "det": 2924,
      "lea": 2925,
      "export</w>": 2926,
      "direct</w>": 2927,
      "observer</w>": 2928,
      "top": 2929,
      "ignor": 2930,
      "filters</w>": 2931,
      "comma</w>": 2932,
      "executor</w>": 2933,
      "prior</w>": 2934,
      "marsh": 2935,
      "logic</w>": 2936,
      "implement</w>": 2937,
      "include</w>": 2938,
      "mime</w>": 2939,
      "pushes</w>": 2940,
      "sensi": 2941,
      "meta</w>": 2942,
      "shift</w>": 2943,
      "population</w>": 2944,
      "click</w>": 2945,
      "clicked</w>": 2946,
      "failure</w>": 2947,
      "adju": 2948,
      "advan": 2949,
      "individual</w>": 2950,
      "doubles</w>": 2951,
      "declared</w>": 2952,
      "eliminate</w>": 2953,
      "security</w>": 2954,
      "having</w>": 2955,
      "jvm</w>": 2956,
      "lon</w>": 2957,
      "mach": 2958,
      "ret</w>": 2959,
      "rebuild</w>": 2960,
      "ently</w>": 2961,
      "ersh": 2962,
      "asing</w>": 2963,
      "train": 2964,
      "observ": 2965,
      "intersection</w>": 2966,
      "alized</w>": 2967,
      "cus</w>": 2968,
      "signal</w>": 2969,
      "drawing</w>": 2970,
      "runtime</w>": 2971,
      "serializer</w>": 2972,
      "tures</w>": 2973,
      "modify</w>": 2974,
      "partition</w>": 2975,
      "printing</w>": 2976,
      "hier": 2977,
      "skip</w>": 2978,
      "recursive</w>": 2979,
      "import</w>": 2980,
      "slashes</w>": 2981,
      "letter</w>": 2982,
      "exceed</w>": 2983,
      "samples</w>": 2984,
      "video</w>": 2985,
      "ek</w>": 2986,
      "ms": 2987,
      "mid": 2988,
      "pen": 2989,
      "sat": 2990,
      "uth</w>": 2991,
      "rep": 2992,
      "rever": 2993,
      "inner</w>": 2994,
      "actually</w>": 2995,
      "desc": 2996,
      "lest</w>": 2997,
      "spec": 2998,
      "usable</w>": 2999,
      "map": 3000,
      "super": 3001,
      "ranges</w>": 3002,
      "built</w>": 3003,
      "mark": 3004,
      "marked</w>": 3005,
      "mani": 3006,
      "requires</w>": 3007,
      "escapes</w>": 3008,
      "dimension": 3009,
      "probab": 3010,
      "volumes</w>": 3011,
      "resolve</w>": 3012,
      "remainder</w>": 3013,
      "allocated</w>": 3014,
      "stringbuffer</w>": 3015,
      "effect</w>": 3016,
      "registry</w>": 3017,
      "archy</w>": 3018,
      "frequ": 3019,
      "sheet</w>": 3020,
      "aggreg": 3021,
      "ignoring</w>": 3022,
      "dt": 3023,
      "ions</w>": 3024,
      "might</w>": 3025,
      "rgb</w>": 3026,
      "tun": 3027,
      "wat": 3028,
      "states</w>": 3029,
      "tile</w>": 3030,
      "ched</w>": 3031,
      "cher</w>": 3032,
      "mouse": 3033,
      "pose</w>": 3034,
      "gex</w>": 3035,
      "dot</w>": 3036,
      "too</w>": 3037,
      "trim</w>": 3038,
      "scan": 3039,
      "handling</w>": 3040,
      "operand</w>": 3041,
      "block": 3042,
      "serializable</w>": 3043,
      "cannot</w>": 3044,
      "separate</w>": 3045,
      "setup</w>": 3046,
      "result": 3047,
      "tick</w>": 3048,
      "json": 3049,
      "conditions</w>": 3050,
      "round_": 3051,
      "releases</w>": 3052,
      "----------------": 3053,
      "constraint</w>": 3054,
      "2000</w>": 3055,
      "persisten": 3056,
      "iness</w>": 3057,
      "arraylist</w>": 3058,
      "cipher</w>": 3059,
      "horizontal</w>": 3060,
      "repository</w>": 3061,
      "embedded</w>": 3062,
      "machine</w>": 3063,
      "hierarchy</w>": 3064,
      "cp</w>": 3065,
      "ck</w>": 3066,
      "game</w>": 3067,
      "her": 3068,
      "ler": 3069,
      "mb": 3070,
      "ma</w>": 3071,
      "rati": 3072,
      "ene</w>": 3073,
      "urce": 3074,
      "fired</w>": 3075,
      "ache": 3076,
      "means</w>": 3077,
      "seed</w>": 3078,
      "lob</w>": 3079,
      "sible</w>": 3080,
      "bucket</w>": 3081,
      "render</w>": 3082,
      "parsed</w>": 3083,
      "dating</w>": 3084,
      "streams</w>": 3085,
      "interval": 3086,
      "commands</w>": 3087,
      "ception</w>": 3088,
      "long": 3089,
      "errors</w>": 3090,
      "frames</w>": 3091,
      "complex</w>": 3092,
      "focus</w>": 3093,
      "separators</w>": 3094,
      "weigh": 3095,
      "extra</w>": 3096,
      "modifier</w>": 3097,
      "distributed</w>": 3098,
      "dimension</w>": 3099,
      "publis": 3100,
      "broad": 3101,
      "vector": 3102,
      "successfully</w>": 3103,
      "echan": 3104,
      "traver": 3105,
      "period</w>": 3106,
      "randomly</w>": 3107,
      "whole</w>": 3108,
      "\"\\</w>": 3109,
      ");</w>": 3110,
      "://</w>": 3111,
      "bal": 3112,
      "gg": 3113,
      "hing</w>": 3114,
      "pdf</w>": 3115,
      "ration</w>": 3116,
      "sine</w>": 3117,
      "thum": 3118,
      "ref</w>": 3119,
      "reverse</w>": 3120,
      "regex</w>": 3121,
      "inverse</w>": 3122,
      "ants</w>": 3123,
      "still</w>": 3124,
      "alig": 3125,
      "row": 3126,
      "sever": 3127,
      "post": 3128,
      "object": 3129,
      "plus</w>": 3130,
      "shell</w>": 3131,
      "intern": 3132,
      "event": 3133,
      "cies</w>": 3134,
      "select": 3135,
      "longs</w>": 3136,
      "initialization</w>": 3137,
      "java": 3138,
      "throwing</w>": 3139,
      "minu": 3140,
      "described</w>": 3141,
      "membersh": 3142,
      "annotations</w>": 3143,
      "merged</w>": 3144,
      "flags</w>": 3145,
      "considered</w>": 3146,
      "expands</w>": 3147,
      "preferences</w>": 3148,
      "alpha</w>": 3149,
      "plot</w>": 3150,
      "interrupted</w>": 3151,
      "purposes</w>": 3152,
      "smallest</w>": 3153,
      "canonical</w>": 3154,
      "subscrib": 3155,
      "swipe</w>": 3156,
      "bar": 3157,
      "cdata</w>": 3158,
      "jpe": 3159,
      "ken</w>": 3160,
      "xor</w>": 3161,
      "ind": 3162,
      "tele": 3163,
      "ering</w>": 3164,
      "unless</w>": 3165,
      "front</w>": 3166,
      "expor": 3167,
      "quic": 3168,
      "aps</w>": 3169,
      "comes</w>": 3170,
      "world</w>": 3171,
      "atemethod</w>": 3172,
      "diction": 3173,
      "hook</w>": 3174,
      "binding</w>": 3175,
      "flat": 3176,
      "peer</w>": 3177,
      "invokes</w>": 3178,
      "notifications</w>": 3179,
      "instanti": 3180,
      "style": 3181,
      "estimate</w>": 3182,
      "simulatemethod</w>": 3183,
      "delta</w>": 3184,
      "reports</w>": 3185,
      "prefixes</w>": 3186,
      "business</w>": 3187,
      "routine</w>": 3188,
      "dimensional</w>": 3189,
      "[]": 3190,
      "aw": 3191,
      "emo": 3192,
      "fying</w>": 3193,
      "sl</w>": 3194,
      "wil": 3195,
      "thres": 3196,
      "represent</w>": 3197,
      "init</w>": 3198,
      "codes</w>": 3199,
      "era</w>": 3200,
      "mps</w>": 3201,
      "ilities</w>": 3202,
      "tax</w>": 3203,
      "perform": 3204,
      "best</w>": 3205,
      "outputs</w>": 3206,
      "disable</w>": 3207,
      "initial": 3208,
      "images</w>": 3209,
      "respect</w>": 3210,
      "plain</w>": 3211,
      "drawn</w>": 3212,
      "ecutive</w>": 3213,
      "update": 3214,
      "arith": 3215,
      "inserted</w>": 3216,
      "logical</w>": 3217,
      "invoc": 3218,
      "iteration</w>": 3219,
      "formatting</w>": 3220,
      "expressions</w>": 3221,
      "linear</w>": 3222,
      "mission</w>": 3223,
      "cause</w>": 3224,
      "translate</w>": 3225,
      "small</w>": 3226,
      "namespaces</w>": 3227,
      "shift_": 3228,
      "consecutive</w>": 3229,
      "brac": 3230,
      "dependent</w>": 3231,
      "halve</w>": 3232,
      "asynchronous</w>": 3233,
      "rotates</w>": 3234,
      "difference</w>": 3235,
      "diagnostic</w>": 3236,
      "atures</w>": 3237,
      "distin": 3238,
      "frequency</w>": 3239,
      "dictionary</w>": 3240,
      "aver": 3241,
      "cs</w>": 3242,
      "cam": 3243,
      "df": 3244,
      "fact</w>": 3245,
      "ier</w>": 3246,
      "ical": 3247,
      "ming</w>": 3248,
      "rf": 3249,
      "rm</w>": 3250,
      "ryp": 3251,
      "ti</w>": 3252,
      "tted</w>": 3253,
      "coeffici": 3254,
      "rotation</w>": 3255,
      "fires</w>": 3256,
      "acts</w>": 3257,
      "turn</w>": 3258,
      "try": 3259,
      "protec": 3260,
      "ily</w>": 3261,
      "vertical</w>": 3262,
      "rendering</w>": 3263,
      "tage</w>": 3264,
      "become</w>": 3265,
      "izer</w>": 3266,
      "appending</w>": 3267,
      "transactions</w>": 3268,
      "various</w>": 3269,
      "again</w>": 3270,
      "completion</w>": 3271,
      "decryp": 3272,
      "split": 3273,
      "matrices</w>": 3274,
      "escaping</w>": 3275,
      "book</w>": 3276,
      "largest</w>": 3277,
      "dialog": 3278,
      "hashtable</w>": 3279,
      "cart</w>": 3280,
      "allocate</w>": 3281,
      "dependency</w>": 3282,
      "rotating</w>": 3283,
      "prepares</w>": 3284,
      "functional": 3285,
      "queues</w>": 3286,
      "changelistener</w>": 3287,
      "defaults</w>": 3288,
      "jpeg</w>": 3289,
      "threshold</w>": 3290,
      "foc": 3291,
      "ga": 3292,
      "gam": 3293,
      "len</w>": 3294,
      "pt</w>": 3295,
      "raster</w>": 3296,
      "ving</w>": 3297,
      "stage</w>": 3298,
      "arc</w>": 3299,
      "role</w>": 3300,
      "span</w>": 3301,
      "when": 3302,
      "ablis": 3303,
      "specify</w>": 3304,
      "net</w>": 3305,
      "apsed</w>": 3306,
      "percen": 3307,
      "curve</w>": 3308,
      "shu": 3309,
      "updating</w>": 3310,
      "textual</w>": 3311,
      "generic</w>": 3312,
      "prevent</w>": 3313,
      "coll": 3314,
      "recy": 3315,
      "terminal</w>": 3316,
      "properly</w>": 3317,
      "pre</w>": 3318,
      "subtree</w>": 3319,
      "cut</w>": 3320,
      "exceptions</w>": 3321,
      "indicated</w>": 3322,
      "candi": 3323,
      "monitor</w>": 3324,
      "multiply</w>": 3325,
      "decoded</w>": 3326,
      "radix</w>": 3327,
      "establis": 3328,
      "normalizes</w>": 3329,
      "install</w>": 3330,
      "concatenates</w>": 3331,
      "zoom</w>": 3332,
      "interpolator</w>": 3333,
      "transfer</w>": 3334,
      "ignore</w>": 3335,
      "hidden</w>": 3336,
      "appears</w>": 3337,
      "obtains</w>": 3338,
      "distinct</w>": 3339,
      "functionality": 3340,
      "percentage</w>": 3341,
      "**": 3342,
      "01</w>": 3343,
      "ear": 3344,
      "far</w>": 3345,
      "mig": 3346,
      "ng</w>": 3347,
      "non": 3348,
      "rary</w>": 3349,
      "wal": 3350,
      "restores</w>": 3351,
      "enum</w>": 3352,
      "enables</w>": 3353,
      "anch": 3354,
      "arbit": 3355,
      "mean</w>": 3356,
      "turns</w>": 3357,
      "give</w>": 3358,
      "explic": 3359,
      "reser": 3360,
      "poten": 3361,
      "never</w>": 3362,
      "crete</w>": 3363,
      "box": 3364,
      "patch</w>": 3365,
      "laz": 3366,
      "like": 3367,
      "substitu": 3368,
      "steps</w>": 3369,
      "play</w>": 3370,
      "explo": 3371,
      "blocking</w>": 3372,
      "sorting</w>": 3373,
      "translated</w>": 3374,
      "stats</w>": 3375,
      "widget</w>": 3376,
      "rong</w>": 3377,
      "newly</w>": 3378,
      "keyboard</w>": 3379,
      "looks</w>": 3380,
      "normalize</w>": 3381,
      "supports</w>": 3382,
      "terminates</w>": 3383,
      "delimited</w>": 3384,
      "kernel</w>": 3385,
      "higher</w>": 3386,
      "rotate</w>": 3387,
      "consistency</w>": 3388,
      "alphab": 3389,
      "beancontextchild</w>": 3390,
      "behavior</w>": 3391,
      "owner</w>": 3392,
      "sensitive</w>": 3393,
      "stylesheet</w>": 3394,
      "average</w>": 3395,
      "whenever</w>": 3396,
      "potenti": 3397,
      "cas</w>": 3398,
      "cases</w>": 3399,
      "fast</w>": 3400,
      "lic": 3401,
      "ud": 3402,
      "ux</w>": 3403,
      "thread": 3404,
      "reco": 3405,
      "resiz": 3406,
      "relev": 3407,
      "ats</w>": 3408,
      "stack": 3409,
      "urls</w>": 3410,
      "ased</w>": 3411,
      "seq</w>": 3412,
      "seman": 3413,
      "verti": 3414,
      "cla": 3415,
      "trims</w>": 3416,
      "texts</w>": 3417,
      "pain": 3418,
      "field": 3419,
      "param</w>": 3420,
      "multi</w>": 3421,
      "bind</w>": 3422,
      "formatter</w>": 3423,
      "unix</w>": 3424,
      "wraps</w>": 3425,
      "access": 3426,
      "finish</w>": 3427,
      "radius</w>": 3428,
      "brow": 3429,
      "broker": 3430,
      "half</w>": 3431,
      "expanded</w>": 3432,
      "composite</w>": 3433,
      "cumulative</w>": 3434,
      "service": 3435,
      "services</w>": 3436,
      "resolves</w>": 3437,
      "quantity</w>": 3438,
      "decim": 3439,
      "src</w>": 3440,
      "natural</w>": 3441,
      "similar</w>": 3442,
      "compatible</w>": 3443,
      "csv</w>": 3444,
      "leaf</w>": 3445,
      "manife": 3446,
      "ratio</w>": 3447,
      "camera</w>": 3448,
      "arbitrary</w>": 3449,
      "ban": 3450,
      "backs</w>": 3451,
      "clock</w>": 3452,
      "dto": 3453,
      "mm</w>": 3454,
      "mechan": 3455,
      "tter</w>": 3456,
      "ans": 3457,
      "colo": 3458,
      "str</w>": 3459,
      "mean": 3460,
      "trunc": 3461,
      "abo": 3462,
      "perc": 3463,
      "gered</w>": 3464,
      "doc</w>": 3465,
      "interpre": 3466,
      "imm</w>": 3467,
      "disables</w>": 3468,
      "ential</w>": 3469,
      "list": 3470,
      "expand</w>": 3471,
      "collected</w>": 3472,
      "completely</w>": 3473,
      "sections</w>": 3474,
      "contact</w>": 3475,
      "backup</w>": 3476,
      "face": 3477,
      "syntax</w>": 3478,
      "scaling</w>": 3479,
      "monit": 3480,
      "textview</w>": 3481,
      "triggered</w>": 3482,
      "import": 3483,
      "successful</w>": 3484,
      "acquire</w>": 3485,
      "relevant</w>": 3486,
      "manifest</w>": 3487,
      "/></w>": 3488,
      "ber": 3489,
      "cf": 3490,
      "eof</w>": 3491,
      "eas": 3492,
      "goo": 3493,
      "lda": 3494,
      "mut": 3495,
      "ped</w>": 3496,
      "vas</w>": 3497,
      "resize</w>": 3498,
      "ind</w>": 3499,
      "sta": 3500,
      "undo</w>": 3501,
      "apse</w>": 3502,
      "perm": 3503,
      "performed</w>": 3504,
      "pret": 3505,
      "terms</w>": 3506,
      "latest</w>": 3507,
      "proced": 3508,
      "closure</w>": 3509,
      "login</w>": 3510,
      "overlay</w>": 3511,
      "invol": 3512,
      "canvas</w>": 3513,
      "help</w>": 3514,
      "binds</w>": 3515,
      "flic": 3516,
      "foo": 3517,
      "linux</w>": 3518,
      "applic": 3519,
      "modification</w>": 3520,
      "quote</w>": 3521,
      "know</w>": 3522,
      "fails</w>": 3523,
      "certificates</w>": 3524,
      "ipv": 3525,
      "produces</w>": 3526,
      "producing</w>": 3527,
      "numerical</w>": 3528,
      "opening</w>": 3529,
      "useful</w>": 3530,
      "consistent</w>": 3531,
      "transition</w>": 3532,
      "holder</w>": 3533,
      "route</w>": 3534,
      "scheduled</w>": 3535,
      "sequences</w>": 3536,
      "cleanup</w>": 3537,
      "topic</w>": 3538,
      "decimals</w>": 3539,
      "mechanis": 3540,
      "ldap</w>": 3541,
      "bc</w>": 3542,
      "ft": 3543,
      "iv</w>": 3544,
      "la</w>": 3545,
      "lback</w>": 3546,
      "mac": 3547,
      "ution</w>": 3548,
      "vo": 3549,
      "var": 3550,
      "real": 3551,
      "refills</w>": 3552,
      "encies</w>": 3553,
      "cost</w>": 3554,
      "allowing</w>": 3555,
      "pos</w>": 3556,
      "verbo": 3557,
      "applied</w>": 3558,
      "taking</w>": 3559,
      "checked</w>": 3560,
      "sources</w>": 3561,
      "converted</w>": 3562,
      "comments</w>": 3563,
      "imation</w>": 3564,
      "discover": 3565,
      "cip": 3566,
      "deletion</w>": 3567,
      "auth</w>": 3568,
      "variant</w>": 3569,
      "agent</w>": 3570,
      "documents</w>": 3571,
      "dupl": 3572,
      "weight</w>": 3573,
      "receives</w>": 3574,
      "applying</w>": 3575,
      "summary</w>": 3576,
      "larger</w>": 3577,
      "identified</w>": 3578,
      "workspace</w>": 3579,
      "pixel</w>": 3580,
      "reporting</w>": 3581,
      "propertychangelistener</w>": 3582,
      "clearbit</w>": 3583,
      "satis": 3584,
      "several</w>": 3585,
      "recycl": 3586,
      ">,</w>": 3587,
      "bri": 3588,
      "da</w>": 3589,
      "dout</w>": 3590,
      "eu": 3591,
      "gged</w>": 3592,
      "job": 3593,
      "m_": 3594,
      "sor</w>": 3595,
      "sal</w>": 3596,
      "tcp</w>": 3597,
      "vple": 3598,
      "art</w>": 3599,
      "org": 3600,
      "aced</w>": 3601,
      "ching</w>": 3602,
      "users</w>": 3603,
      "sian</w>": 3604,
      "rather</w>": 3605,
      "making</w>": 3606,
      "specifies</w>": 3607,
      "renam": 3608,
      "obj</w>": 3609,
      "currency</w>": 3610,
      "cred": 3611,
      "upload</w>": 3612,
      "formul": 3613,
      "izing</w>": 3614,
      "scra": 3615,
      "typed</w>": 3616,
      "message": 3617,
      "dispose</w>": 3618,
      "connects</w>": 3619,
      "passes</w>": 3620,
      "calculated</w>": 3621,
      "parameter": 3622,
      "phone</w>": 3623,
      "logarith": 3624,
      "host": 3625,
      "lower": 3626,
      "extended</w>": 3627,
      "backed</w>": 3628,
      "joins</w>": 3629,
      "deplo": 3630,
      "resulting</w>": 3631,
      "animate</w>": 3632,
      "acces": 3633,
      "graphical</w>": 3634,
      "days</w>": 3635,
      "centered</w>": 3636,
      "measuring</w>": 3637,
      "finishes</w>": 3638,
      "author": 3639,
      "clicking</w>": 3640,
      "bytecode</w>": 3641,
      "terminated</w>": 3642,
      "assumes</w>": 3643,
      "servlet</w>": 3644,
      "archive</w>": 3645,
      "asynchronously</w>": 3646,
      "payload</w>": 3647,
      "happens</w>": 3648,
      "latitude</w>": 3649,
      "nodelist</w>": 3650,
      "critical</w>": 3651,
      "sparse</w>": 3652,
      "highligh": 3653,
      "advances</w>": 3654,
      "reply</w>": 3655,
      "intervals</w>": 3656,
      "rfc</w>": 3657,
      "focusable</w>": 3658,
      "anchor</w>": 3659,
      "above</w>": 3660,
      "vplex</w>": 3661,
      "\")</w>": 3662,
      "12</w>": 3663,
      "ba": 3664,
      "blob</w>": 3665,
      "due</w>": 3666,
      "dable</w>": 3667,
      "ep</w>": 3668,
      "f_": 3669,
      "hy": 3670,
      "swa": 3671,
      "wrong</w>": 3672,
      "xpath</w>": 3673,
      "inher": 3674,
      "ort</w>": 3675,
      "order": 3676,
      "acing</w>": 3677,
      "action": 3678,
      "asp": 3679,
      "ive": 3680,
      "truth</w>": 3681,
      "mar</w>": 3682,
      "prox": 3683,
      "neigh": 3684,
      "percase</w>": 3685,
      "share</w>": 3686,
      "ket": 3687,
      "create": 3688,
      "callbacks</w>": 3689,
      "type": 3690,
      "preview</w>": 3691,
      "even": 3692,
      "subset</w>": 3693,
      "rectang": 3694,
      "transformation</w>": 3695,
      "operating</w>": 3696,
      "iterates</w>": 3697,
      "mapped</w>": 3698,
      "validity</w>": 3699,
      "origin</w>": 3700,
      "saving</w>": 3701,
      "conditional</w>": 3702,
      "resolver</w>": 3703,
      "definitions</w>": 3704,
      "occurred</w>": 3705,
      "measure": 3706,
      "launch</w>": 3707,
      "geome": 3708,
      "precision</w>": 3709,
      "continu": 3710,
      "gesture</w>": 3711,
      "servers</w>": 3712,
      "adjusts</w>": 3713,
      "dialogue</w>": 3714,
      "browser</w>": 3715,
      "eucli": 3716,
      "_parent</w>": 3717,
      "db": 3718,
      "evi": 3719,
      "est</w>": 3720,
      "lat</w>": 3721,
      "of": 3722,
      "x5": 3723,
      "temp</w>": 3724,
      "ended</w>": 3725,
      "oring</w>": 3726,
      "acti": 3727,
      "degre": 3728,
      "exper": 3729,
      "maj": 3730,
      "math": 3731,
      "becomes</w>": 3732,
      "eline</w>": 3733,
      "book": 3734,
      "lock": 3735,
      "discards</w>": 3736,
      "params</w>": 3737,
      "drawable</w>": 3738,
      "matcher</w>": 3739,
      "occu": 3740,
      "completes</w>": 3741,
      "secure</w>": 3742,
      "visitor</w>": 3743,
      "setbit</w>": 3744,
      "synchrono": 3745,
      "wrap_": 3746,
      "short": 3747,
      "piec": 3748,
      "princip": 3749,
      "pushed</w>": 3750,
      "sensor</w>": 3751,
      "accepts</w>": 3752,
      "replaced</w>": 3753,
      "evaluation</w>": 3754,
      "symbols</w>": 3755,
      "picker</w>": 3756,
      "detector</w>": 3757,
      "anything</w>": 3758,
      "interrupt</w>": 3759,
      "transitions</w>": 3760,
      "declarations</w>": 3761,
      "resolved</w>": 3762,
      "payment</w>": 3763,
      "delegate</w>": 3764,
      "preferred</w>": 3765,
      "marshal": 3766,
      "broadcast</w>": 3767,
      "internally</w>": 3768,
      "flatten</w>": 3769,
      "gamma</w>": 3770,
      "functionalitytest</w>": 3771,
      "involving</w>": 3772,
      "realm</w>": 3773,
      "organ": 3774,
      "degrees</w>": 3775,
      "wrap_content</w>": 3776,
      "(\"</w>": 3777,
      "16": 3778,
      "blan": 3779,
      "cing</w>": 3780,
      "ep": 3781,
      "gar": 3782,
      "md": 3783,
      "mbean</w>": 3784,
      "nan</w>": 3785,
      "ved</w>": 3786,
      "injec": 3787,
      "entered</w>": 3788,
      "ale</w>": 3789,
      "aler": 3790,
      "alive</w>": 3791,
      "arti": 3792,
      "fied</w>": 3793,
      "ordering</w>": 3794,
      "onsiz": 3795,
      "dean</w>": 3796,
      "dest</w>": 3797,
      "strateg": 3798,
      "mental</w>": 3799,
      "tenant</w>": 3800,
      "compose</w>": 3801,
      "shard</w>": 3802,
      "toler": 3803,
      "elapsed</w>": 3804,
      "triangle</w>": 3805,
      "located</w>": 3806,
      "locations</w>": 3807,
      "texture</w>": 3808,
      "izes</w>": 3809,
      "correc": 3810,
      "idle</w>": 3811,
      "filtering</w>": 3812,
      "subclass</w>": 3813,
      "subscrip": 3814,
      "subject</w>": 3815,
      "javasc": 3816,
      "thrown</w>": 3817,
      "ifd</w>": 3818,
      "anged</w>": 3819,
      "backend</w>": 3820,
      "require": 3821,
      "senten": 3822,
      "estima": 3823,
      "veto": 3824,
      "dependencies</w>": 3825,
      "half_": 3826,
      "echanged</w>": 3827,
      "break</w>": 3828,
      "combo</w>": 3829,
      "reflection</w>": 3830,
      "approximate</w>": 3831,
      "exclude</w>": 3832,
      "grammar</w>": 3833,
      "stopped</w>": 3834,
      "deviation</w>": 3835,
      "midd": 3836,
      "traversal</w>": 3837,
      "balan": 3838,
      "wild": 3839,
      "meaning</w>": 3840,
      "important</w>": 3841,
      "mechanism</w>": 3842,
      "duplicate</w>": 3843,
      "swap</w>": 3844,
      "euclidean</w>": 3845,
      "onsizechanged</w>": 3846,
      "javascri": 3847,
      "css</w>": 3848,
      "eded</w>": 3849,
      "hour</w>": 3850,
      "ior</w>": 3851,
      "ide": 3852,
      "nul": 3853,
      "pad": 3854,
      "pse": 3855,
      "rp": 3856,
      "rr": 3857,
      "tors</w>": 3858,
      "ur</w>": 3859,
      "ysi": 3860,
      "remember</w>": 3861,
      "input": 3862,
      "alter": 3863,
      "uri": 3864,
      "itly</w>": 3865,
      "onatt": 3866,
      "exact</w>": 3867,
      "mage</w>": 3868,
      "materi": 3869,
      "notes</w>": 3870,
      "outs</w>": 3871,
      "obtain</w>": 3872,
      "compile</w>": 3873,
      "togg": 3874,
      "scans</w>": 3875,
      "pad</w>": 3876,
      "signal": 3877,
      "responds</w>": 3878,
      "phase</w>": 3879,
      "physi": 3880,
      "executing</w>": 3881,
      "query": 3882,
      "match_parent</w>": 3883,
      "marg": 3884,
      "hoo": 3885,
      "octe": 3886,
      "frame": 3887,
      "backslash</w>": 3888,
      "timed</w>": 3889,
      "norm</w>": 3890,
      "identify</w>": 3891,
      "bounding</w>": 3892,
      "patterns</w>": 3893,
      "partial</w>": 3894,
      "shorter</w>": 3895,
      "crl</w>": 3896,
      "hide</w>": 3897,
      "orien": 3898,
      "rounded</w>": 3899,
      "resolution</w>": 3900,
      "dataso": 3901,
      "deno": 3902,
      "radians</w>": 3903,
      "twork": 3904,
      "populates</w>": 3905,
      "allocates</w>": 3906,
      "evaluate</w>": 3907,
      "cross</w>": 3908,
      "allotted</w>": 3909,
      "pointing</w>": 3910,
      "atom</w>": 3911,
      "speed</w>": 3912,
      "repeat</w>": 3913,
      "encrypted</w>": 3914,
      "imagecontainer</w>": 3915,
      "authentic": 3916,
      "black</w>": 3917,
      "acquires</w>": 3918,
      "simply</w>": 3919,
      "intro": 3920,
      "analysis</w>": 3921,
      "driv": 3922,
      "shado": 3923,
      "xxx</w>": 3924,
      "consume</w>": 3925,
      "training</w>": 3926,
      "resultset</w>": 3927,
      "achedto": 3928,
      "recogn": 3929,
      "verbose</w>": 3930,
      "tolerance</w>": 3931,
      "subscription</w>": 3932,
      "onattachedto": 3933,
      "onattachedtowindow</w>": 3934,
      "0x": 3935,
      "100</w>": 3936,
      "20": 3937,
      "3d</w>": 3938,
      "ared</w>": 3939,
      "bage</w>": 3940,
      "dge</w>": 3941,
      "etwork": 3942,
      "flip": 3943,
      "ib": 3944,
      "ited</w>": 3945,
      "kind</w>": 3946,
      "sv": 3947,
      "sal": 3948,
      "ves</w>": 3949,
      "recur": 3950,
      "infin": 3951,
      "inline</w>": 3952,
      "atches</w>": 3953,
      "answ": 3954,
      "uris</w>": 3955,
      "fig": 3956,
      "ory": 3957,
      "ask</w>": 3958,
      "chain": 3959,
      "ond</w>": 3960,
      "confir": 3961,
      "unregister</w>": 3962,
      "exif</w>": 3963,
      "mock</w>": 3964,
      "promp": 3965,
      "quality</w>": 3966,
      "bus</w>": 3967,
      "nested</w>": 3968,
      "tax": 3969,
      "parsen": 3970,
      "moved</w>": 3971,
      "compress</w>": 3972,
      "topo": 3973,
      "soc": 3974,
      "general</w>": 3975,
      "ingly</w>": 3976,
      "converting</w>": 3977,
      "tively</w>": 3978,
      "safe": 3979,
      "guts</w>": 3980,
      "--></w>": 3981,
      "encoun": 3982,
      "encodable</w>": 3983,
      "copied</w>": 3984,
      "editing</w>": 3985,
      "caches</w>": 3986,
      "structures</w>": 3987,
      "overflow</w>": 3988,
      "column": 3989,
      "recorded</w>": 3990,
      "timezone</w>": 3991,
      "associates</w>": 3992,
      "levels</w>": 3993,
      "visual</w>": 3994,
      "caret</w>": 3995,
      "emit</w>": 3996,
      "limits</w>": 3997,
      "animations</w>": 3998,
      "corresponds</w>": 3999,
      "print": 4000,
      "decoder</w>": 4001,
      "consisting</w>": 4002,
      "looking</w>": 4003,
      "table": 4004,
      "prepared</w>": 4005,
      "smaller</w>": 4006,
      "installs</w>": 4007,
      "detatches</w>": 4008,
      "msg</w>": 4009,
      "markers</w>": 4010,
      "round_half_": 4011,
      "persistent</w>": 4012,
      "aligned</w>": 4013,
      "indent</w>": 4014,
      "shift_imm</w>": 4015,
      "footer</w>": 4016,
      "formula</w>": 4017,
      "neighb": 4018,
      "mathcontext</w>": 4019,
      "principal</w>": 4020,
      "garbage</w>": 4021,
      "middle</w>": 4022,
      "javascript</w>": 4023,
      "etworkresponse</w>": 4024,
      "flipbit</w>": 4025,
      "answers</w>": 4026,
      "parsenetworkresponse</w>": 4027,
      "):</w>": 4028,
      "bul": 4029,
      "ey</w>": 4030,
      "ets</w>": 4031,
      "fr": 4032,
      "ilo": 4033,
      "ible</w>": 4034,
      "light</w>": 4035,
      "nan": 4036,
      "nonce</w>": 4037,
      "p1</w>": 4038,
      "ue": 4039,
      "yy": 4040,
      "yond</w>": 4041,
      "cosine</w>": 4042,
      "alty</w>": 4043,
      "aran": 4044,
      "args</w>": 4045,
      "ror</w>": 4046,
      "accur": 4047,
      "concrete</w>": 4048,
      "dex": 4049,
      "ses": 4050,
      "unprintable</w>": 4051,
      "moment</w>": 4052,
      "dir</w>": 4053,
      "diff</w>": 4054,
      "pool": 4055,
      "posed</w>": 4056,
      "ned": 4057,
      "beyond</w>": 4058,
      "ples</w>": 4059,
      "aves</w>": 4060,
      "uppercase</w>": 4061,
      "locked</w>": 4062,
      "filtered</w>": 4063,
      "attribute": 4064,
      "entials</w>": 4065,
      "submission</w>": 4066,
      "copying</w>": 4067,
      "imal</w>": 4068,
      "respec": 4069,
      "operators</w>": 4070,
      "cleans</w>": 4071,
      "computed</w>": 4072,
      "collections</w>": 4073,
      "logy</w>": 4074,
      "cancel": 4075,
      "held</w>": 4076,
      "target": 4077,
      "includes</w>": 4078,
      "identical</w>": 4079,
      "associate</w>": 4080,
      "visit</w>": 4081,
      "week</w>": 4082,
      "modifies</w>": 4083,
      "histo": 4084,
      "solutions</w>": 4085,
      "accepted</w>": 4086,
      "keystore</w>": 4087,
      "localized</w>": 4088,
      "velo": 4089,
      "master</w>": 4090,
      "equivalents</w>": 4091,
      "categories</w>": 4092,
      "slot</w>": 4093,
      "deferred</w>": 4094,
      "encryption</w>": 4095,
      "tabs</w>": 4096,
      "combines</w>": 4097,
      "startup</w>": 4098,
      "room</w>": 4099,
      "happen</w>": 4100,
      "fetch</w>": 4101,
      "====": 4102,
      "catch</w>": 4103,
      "xmlserializer</w>": 4104,
      "assignment</w>": 4105,
      "username</w>": 4106,
      "jdbc</w>": 4107,
      "penalty</w>": 4108,
      "probabilities</w>": 4109,
      "jsonobject</w>": 4110,
      "minutes</w>": 4111,
      "membership</w>": 4112,
      "invocation</w>": 4113,
      "candidate</w>": 4114,
      "alphabet</w>": 4115,
      "credentials</w>": 4116,
      "major</w>": 4117,
      "\"/": 4118,
      "+----------------": 4119,
      "],</w>": 4120,
      "bed</w>": 4121,
      "eg</w>": 4122,
      "eds</w>": 4123,
      "ess</w>": 4124,
      "fus": 4125,
      "finterface</w>": 4126,
      "gle</w>": 4127,
      "gradi": 4128,
      "ipi": 4129,
      "ka</w>": 4130,
      "nn</w>": 4131,
      "sd": 4132,
      "sen</w>": 4133,
      "tor": 4134,
      "tness</w>": 4135,
      "won</w>": 4136,
      "xsl</w>": 4137,
      "y_": 4138,
      "ye": 4139,
      "tid</w>": 4140,
      "org</w>": 4141,
      "ass": 4142,
      "adjust</w>": 4143,
      "choo": 4144,
      "onal</w>": 4145,
      "isions</w>": 4146,
      "seen</w>": 4147,
      "spring</w>": 4148,
      "unregisters</w>": 4149,
      "menting</w>": 4150,
      "modes</w>": 4151,
      "ression</w>": 4152,
      "mas</w>": 4153,
      "versions</w>": 4154,
      "obj": 4155,
      "place": 4156,
      "shop": 4157,
      "current": 4158,
      "quest": 4159,
      "generation</w>": 4160,
      "regression</w>": 4161,
      "lier</w>": 4162,
      "guid</w>": 4163,
      "signer</w>": 4164,
      "exifinterface</w>": 4165,
      "collect</w>": 4166,
      "configure</w>": 4167,
      "throwable</w>": 4168,
      "dumps</w>": 4169,
      "displaying</w>": 4170,
      "fore": 4171,
      "backing</w>": 4172,
      "line": 4173,
      "strip</w>": 4174,
      "cap</w>": 4175,
      "constructed</w>": 4176,
      "scaled</w>": 4177,
      "crash</w>": 4178,
      "increase</w>": 4179,
      "money</w>": 4180,
      "printer</w>": 4181,
      "hashmap</w>": 4182,
      "expect</w>": 4183,
      "releasing</w>": 4184,
      "keyword</w>": 4185,
      "schedules</w>": 4186,
      "algorithms</w>": 4187,
      "keeping</w>": 4188,
      "leton</w>": 4189,
      "composi": 4190,
      "concatenated</w>": 4191,
      "adjac": 4192,
      "classname</w>": 4193,
      "compilation</w>": 4194,
      "criteri": 4195,
      "synchronization</w>": 4196,
      "tracking</w>": 4197,
      "jdk</w>": 4198,
      "reduce</w>": 4199,
      "tokenizer</w>": 4200,
      "attached</w>": 4201,
      "dtd</w>": 4202,
      "longitude</w>": 4203,
      "export": 4204,
      "pretty</w>": 4205,
      "procedure</w>": 4206,
      "experi": 4207,
      "strategy</w>": 4208,
      "datasource</w>": 4209,
      "'/": 4210,
      "'\\</w>": 4211,
      "20</w>": 4212,
      "4j</w>": 4213,
      "bin</w>": 4214,
      "dings</w>": 4215,
      "fat": 4216,
      "faces</w>": 4217,
      "gran": 4218,
      "her</w>": 4219,
      "js</w>": 4220,
      "ll</w>": 4221,
      "p2</w>": 4222,
      "padded</w>": 4223,
      "sp</w>": 4224,
      "void</w>": 4225,
      "ware</w>": 4226,
      "reactive</w>": 4227,
      "ance": 4228,
      "stro": 4229,
      "stale</w>": 4230,
      "chall": 4231,
      "conflic": 4232,
      "ised</w>": 4233,
      "deserialization</w>": 4234,
      "deserialize</w>": 4235,
      "sem": 4236,
      "trust</w>": 4237,
      "unused</w>": 4238,
      "mption</w>": 4239,
      "modate</w>": 4240,
      "abling</w>": 4241,
      "did</w>": 4242,
      "pops</w>": 4243,
      "forwar": 4244,
      "scene</w>": 4245,
      "prece": 4246,
      "entity": 4247,
      "signed": 4248,
      "interest</w>": 4249,
      "hashes</w>": 4250,
      "dragging</w>": 4251,
      "responsible</w>": 4252,
      "singleton</w>": 4253,
      "aries</w>": 4254,
      "collects</w>": 4255,
      "logged</w>": 4256,
      "variance</w>": 4257,
      "defines</w>": 4258,
      "offer</w>": 4259,
      "recording</w>": 4260,
      "mial</w>": 4261,
      "layers</w>": 4262,
      "visu": 4263,
      "casts</w>": 4264,
      "require</w>": 4265,
      "synapse</w>": 4266,
      "partition": 4267,
      "overrides</w>": 4268,
      "http": 4269,
      "limit": 4270,
      "accord": 4271,
      "ticks</w>": 4272,
      "manage": 4273,
      "attack</w>": 4274,
      "begins</w>": 4275,
      "players</w>": 4276,
      "chunks</w>": 4277,
      "controls</w>": 4278,
      "production</w>": 4279,
      "regions</w>": 4280,
      "imports</w>": 4281,
      "goes</w>": 4282,
      "registration</w>": 4283,
      "surface</w>": 4284,
      "chosen</w>": 4285,
      "datetime</w>": 4286,
      "classloader</w>": 4287,
      "simple": 4288,
      "functionality</w>": 4289,
      "synchronized</w>": 4290,
      "approximation</w>": 4291,
      "destroy</w>": 4292,
      "destroys</w>": 4293,
      "lipse</w>": 4294,
      "superclass</w>": 4295,
      "thumb</w>": 4296,
      "answer</w>": 4297,
      "lowercase</w>": 4298,
      "requirements</w>": 4299,
      "histogram</w>": 4300,
      "criteria</w>": 4301,
      "(),</w>": 4302,
      "+/": 4303,
      "am</w>": 4304,
      "cdf</w>": 4305,
      "dd</w>": 4306,
      "dence</w>": 4307,
      "fur": 4308,
      "har": 4309,
      "live</w>": 4310,
      "ni": 4311,
      "np</w>": 4312,
      "oth</w>": 4313,
      "py": 4314,
      "ths</w>": 4315,
      "reto</w>": 4316,
      "inden": 4317,
      "te_": 4318,
      "alar": 4319,
      "urs</w>": 4320,
      "ash": 4321,
      "assigns</w>": 4322,
      "chat</w>": 4323,
      "ises</w>": 4324,
      "ded": 4325,
      "decor": 4326,
      "usually</w>": 4327,
      "program": 4328,
      "notation</w>": 4329,
      "illegal</w>": 4330,
      "permu": 4331,
      "source": 4332,
      "item": 4333,
      "alize</w>": 4334,
      "showing</w>": 4335,
      "appended</w>": 4336,
      "fail</w>": 4337,
      "listing</w>": 4338,
      "features</w>": 4339,
      "connector</w>": 4340,
      "passing</w>": 4341,
      "delete": 4342,
      "computing</w>": 4343,
      "ario</w>": 4344,
      "task": 4345,
      "minor</w>": 4346,
      "iterate</w>": 4347,
      "iterable</w>": 4348,
      "extends</w>": 4349,
      "backwards</w>": 4350,
      "bounded</w>": 4351,
      "wea": 4352,
      "causes</w>": 4353,
      "utf": 4354,
      "emits</w>": 4355,
      "pip": 4356,
      "divis": 4357,
      "000</w>": 4358,
      "0000</w>": 4359,
      "getter</w>": 4360,
      "condition": 4361,
      "normally</w>": 4362,
      "much</w>": 4363,
      "released</w>": 4364,
      "validat": 4365,
      "triggers</w>": 4366,
      "playlist</w>": 4367,
      "success</w>": 4368,
      "visited</w>": 4369,
      "crop</w>": 4370,
      "custom": 4371,
      "simulation</w>": 4372,
      "coverage</w>": 4373,
      "encrypts</w>": 4374,
      "breaks</w>": 4375,
      "refreshes</w>": 4376,
      "blue": 4377,
      "searching</w>": 4378,
      "modules</w>": 4379,
      "256": 4380,
      "analyz": 4381,
      "decrements</w>": 4382,
      "slider</w>": 4383,
      "highlight</w>": 4384,
      "intersects</w>": 4385,
      "installed</w>": 4386,
      "observed</w>": 4387,
      "performing</w>": 4388,
      "bracket</w>": 4389,
      "ipv4</w>": 4390,
      "geometry</w>": 4391,
      "occur</w>": 4392,
      "blank</w>": 4393,
      "alert</w>": 4394,
      "vetoable</w>": 4395,
      "pseu": 4396,
      "orientation</w>": 4397,
      "driver</w>": 4398,
      "figure</w>": 4399,
      "nano": 4400,
      "objx</w>": 4401,
      "adjacent</w>": 4402,
      "fatal</w>": 4403,
      "accordingly</w>": 4404,
      "dto</w>": 4405,
      "ex</w>": 4406,
      "hard": 4407,
      "lar</w>": 4408,
      "op</w>": 4409,
      "past</w>": 4410,
      "pend": 4411,
      "sd</w>": 4412,
      "sle": 4413,
      "tle": 4414,
      "uint": 4415,
      "wants</w>": 4416,
      "yes</w>": 4417,
      "reta": 4418,
      "revis": 4419,
      "incomplete</w>": 4420,
      "ens": 4421,
      "anima": 4422,
      "rog": 4423,
      "ross</w>": 4424,
      "across</w>": 4425,
      "contract</w>": 4426,
      "dem": 4427,
      "see": 4428,
      "leset</w>": 4429,
      "leaves</w>": 4430,
      "span": 4431,
      "trusted</w>": 4432,
      "mentation</w>": 4433,
      "existen": 4434,
      "resumes</w>": 4435,
      "nomin": 4436,
      "buf</w>": 4437,
      "net": 4438,
      "forces</w>": 4439,
      "sug": 4440,
      "belongs</w>": 4441,
      "shallow</w>": 4442,
      "trie</w>": 4443,
      "stances</w>": 4444,
      "ign</w>": 4445,
      "opcode</w>": 4446,
      "corner</w>": 4447,
      "channe": 4448,
      "shoul": 4449,
      "tivity</w>": 4450,
      "disabled</w>": 4451,
      "working</w>": 4452,
      "lap</w>": 4453,
      "sax</w>": 4454,
      "ache</w>": 4455,
      "signifi": 4456,
      "draw": 4457,
      "replic": 4458,
      "replication</w>": 4459,
      "resource": 4460,
      "manually</w>": 4461,
      "sors</w>": 4462,
      "fling</w>": 4463,
      "referenced</w>": 4464,
      "relation": 4465,
      "zeros</w>": 4466,
      "bigdecimals</w>": 4467,
      "capit": 4468,
      "active": 4469,
      "warn</w>": 4470,
      "scrolled</w>": 4471,
      "printed</w>": 4472,
      "identifies</w>": 4473,
      "cardin": 4474,
      "retrieved</w>": 4475,
      "acceptable</w>": 4476,
      "shifts</w>": 4477,
      "extracted</w>": 4478,
      "polyno": 4479,
      "consumes</w>": 4480,
      "protocol": 4481,
      "skipped</w>": 4482,
      "break": 4483,
      "combination</w>": 4484,
      "canonical": 4485,
      "scheduler</w>": 4486,
      "255</w>": 4487,
      "subscribe</w>": 4488,
      "cycl": 4489,
      "assignable</w>": 4490,
      "continue</w>": 4491,
      "effects</w>": 4492,
      "intersect</w>": 4493,
      "shader</w>": 4494,
      "transport</w>": 4495,
      "consumption</w>": 4496,
      "quick": 4497,
      "quick</w>": 4498,
      "shuts</w>": 4499,
      "explicitly</w>": 4500,
      "potentially</w>": 4501,
      "semantic</w>": 4502,
      "colour</w>": 4503,
      "discovery</w>": 4504,
      "aspect</w>": 4505,
      "x50": 4506,
      "shadow</w>": 4507,
      "bulk</w>": 4508,
      "cancelled</w>": 4509,
      "pseudo</w>": 4510,
      "significan": 4511,
      "19": 4512,
      "58</w>": 4513,
      "86": 4514,
      "aes</w>": 4515,
      "ben": 4516,
      "co</w>": 4517,
      "cra": 4518,
      "car</w>": 4519,
      "cass": 4520,
      "fs</w>": 4521,
      "fres": 4522,
      "gc</w>": 4523,
      "got</w>": 4524,
      "had</w>": 4525,
      "man</w>": 4526,
      "mne": 4527,
      "rt</w>": 4528,
      "sa</w>": 4529,
      "tl</w>": 4530,
      "uf": 4531,
      "zon": 4532,
      "insensitive</w>": 4533,
      "enqueue</w>": 4534,
      "allocation</w>": 4535,
      "ony": 4536,
      "loss</w>": 4537,
      "left": 4538,
      "gives</w>": 4539,
      "trying</w>": 4540,
      "unknown</w>": 4541,
      "mented</w>": 4542,
      "who</w>": 4543,
      "rier</w>": 4544,
      "obo": 4545,
      "forwards</w>": 4546,
      "ices</w>": 4547,
      "checker</w>": 4548,
      "shut</w>": 4549,
      "press</w>": 4550,
      "soft</w>": 4551,
      "yph": 4552,
      "intercep": 4553,
      "interior</w>": 4554,
      "recent</w>": 4555,
      "correlation</w>": 4556,
      "filling</w>": 4557,
      "apping</w>": 4558,
      "lamb": 4559,
      "famil": 4560,
      "equation</w>": 4561,
      "initiate</w>": 4562,
      "initiates</w>": 4563,
      "grow</w>": 4564,
      "next": 4565,
      "counters</w>": 4566,
      "overl": 4567,
      "indicator</w>": 4568,
      "hosts</w>": 4569,
      "progres": 4570,
      "minimal</w>": 4571,
      "------": 4572,
      "mix": 4573,
      "panels</w>": 4574,
      "strips</w>": 4575,
      "bigger</w>": 4576,
      "label": 4577,
      "capture</w>": 4578,
      "animator</w>": 4579,
      "accessed</w>": 4580,
      "floating</w>": 4581,
      "graphs</w>": 4582,
      "newlines</w>": 4583,
      "addition</w>": 4584,
      "canceled</w>": 4585,
      "visibility</w>": 4586,
      "assumed</w>": 4587,
      "expiration</w>": 4588,
      "async</w>": 4589,
      "letters</w>": 4590,
      "composed</w>": 4591,
      "invoice</w>": 4592,
      "surface": 4593,
      "optimized</w>": 4594,
      "virtu": 4595,
      "quantile</w>": 4596,
      "combined</w>": 4597,
      "advance</w>": 4598,
      "modbus</w>": 4599,
      "dispatch</w>": 4600,
      "accumulated</w>": 4601,
      "accumulator</w>": 4602,
      "hides</w>": 4603,
      "catalo": 4604,
      "parents</w>": 4605,
      "reduction</w>": 4606,
      "issues</w>": 4607,
      "scanning</w>": 4608,
      "weights</w>": 4609,
      "weighted</w>": 4610,
      "thumb": 4611,
      "coefficient</w>": 4612,
      "coefficients</w>": 4613,
      "protected</w>": 4614,
      "vertices</w>": 4615,
      "percent</w>": 4616,
      "google</w>": 4617,
      "hostname</w>": 4618,
      "eventually</w>": 4619,
      "measurement</w>": 4620,
      "sentence</w>": 4621,
      "question</w>": 4622,
      "experiment</w>": 4623,
      "blueto": 4624,
      "cassand": 4625,
      "lambda</w>": 4626,
      "cp": 4627,
      "dar": 4628,
      "don": 4629,
      "ec</w>": 4630,
      "epo": 4631,
      "fri": 4632,
      "gc": 4633,
      "hh</w>": 4634,
      "iel": 4635,
      "ju": 4636,
      "knn</w>": 4637,
      "lers</w>": 4638,
      "ligh": 4639,
      "mfire</w>": 4640,
      "ql</w>": 4641,
      "sna": 4642,
      "sms</w>": 4643,
      "tx</w>": 4644,
      "ud</w>": 4645,
      "xx</w>": 4646,
      "thon</w>": 4647,
      "thus</w>": 4648,
      "recon": 4649,
      "recover": 4650,
      "infl": 4651,
      "url": 4652,
      "fies</w>": 4653,
      "act": 4654,
      "acy</w>": 4655,
      "oned</w>": 4656,
      "deserializes</w>": 4657,
      "tral</w>": 4658,
      "from": 4659,
      "exp</w>": 4660,
      "exits</w>": 4661,
      "abor": 4662,
      "propos": 4663,
      "diction</w>": 4664,
      "buc": 4665,
      "method": 4666,
      "very</w>": 4667,
      "suite</w>": 4668,
      "tag": 4669,
      "taken</w>": 4670,
      "movement</w>": 4671,
      "compact</w>": 4672,
      "geo</w>": 4673,
      "gemfire</w>": 4674,
      "dataf": 4675,
      "charseq</w>": 4676,
      "scen": 4677,
      "generating</w>": 4678,
      "prediction</w>": 4679,
      "value": 4680,
      "recently</w>": 4681,
      "pag": 4682,
      "regar": 4683,
      "viewer</w>": 4684,
      "fast": 4685,
      "committed</w>": 4686,
      "guaran": 4687,
      "thesis</w>": 4688,
      "cloud</w>": 4689,
      "paragraph</w>": 4690,
      "deleting</w>": 4691,
      "building</w>": 4692,
      "longest</w>": 4693,
      "upda": 4694,
      "deroutputstream</w>": 4695,
      "initializer</w>": 4696,
      "insert": 4697,
      "collector</w>": 4698,
      "receip": 4699,
      "rollback</w>": 4700,
      "secret</w>": 4701,
      "bindings</w>": 4702,
      "poll</w>": 4703,
      "models</w>": 4704,
      "uniform": 4705,
      "uniform</w>": 4706,
      "emon</w>": 4707,
      "partitions</w>": 4708,
      "solr</w>": 4709,
      "mysql</w>": 4710,
      "mainta": 4711,
      "named": 4712,
      "monic</w>": 4713,
      "assertion</w>": 4714,
      "flushed</w>": 4715,
      "flushing</w>": 4716,
      "duced</w>": 4717,
      "attach</w>": 4718,
      "ipment</w>": 4719,
      "keeps</w>": 4720,
      "produced</w>": 4721,
      "opened</w>": 4722,
      "circular</w>": 4723,
      "fonts</w>": 4724,
      "datagram</w>": 4725,
      "picture</w>": 4726,
      "echart</w>": 4727,
      "detected</w>": 4728,
      "qualifier</w>": 4729,
      "surrog": 4730,
      "choose</w>": 4731,
      "choice</w>": 4732,
      "holding</w>": 4733,
      "combining</w>": 4734,
      "clearing</w>": 4735,
      "measures</w>": 4736,
      "slice</w>": 4737,
      "tooltip</w>": 4738,
      "barrier</w>": 4739,
      "brackets</w>": 4740,
      "gaus": 4741,
      "migration</w>": 4742,
      "reserved</w>": 4743,
      "likely</w>": 4744,
      "explore": 4745,
      "jobs</w>": 4746,
      "rectangles</w>": 4747,
      "signalled</w>": 4748,
      "recognized</w>": 4749,
      "gradient</w>": 4750,
      "'/'</w>": 4751,
      "challen": 4752,
      "signeddata</w>": 4753,
      "further</w>": 4754,
      "pipeline</w>": 4755,
      "thumbna": 4756,
      "\"-</w>": 4757,
      ")\"</w>": 4758,
      "02": 4759,
      "12": 4760,
      "aff": 4761,
      "ahead</w>": 4762,
      "bs</w>": 4763,
      "band</w>": 4764,
      "cise</w>": 4765,
      "dp</w>": 4766,
      "his</w>": 4767,
      "hit</w>": 4768,
      "hull</w>": 4769,
      "las": 4770,
      "mid</w>": 4771,
      "ni</w>": 4772,
      "ot": 4773,
      "pi</w>": 4774,
      "ra</w>": 4775,
      "ro</w>": 4776,
      "rin": 4777,
      "reload</w>": 4778,
      "tens</w>": 4779,
      "tear</w>": 4780,
      "enter</w>": 4781,
      "ense</w>": 4782,
      "encap": 4783,
      "enclosed</w>": 4784,
      "coded</w>": 4785,
      "cover</w>": 4786,
      "stic": 4787,
      "align": 4788,
      "art": 4789,
      "arity</w>": 4790,
      "arranges</w>": 4791,
      "ech</w>": 4792,
      "orders</w>": 4793,
      "ono": 4794,
      "cond</w>": 4795,
      "def</w>": 4796,
      "lows</w>": 4797,
      "sil": 4798,
      "quad</w>": 4799,
      "bub": 4800,
      "vities</w>": 4801,
      "rename</w>": 4802,
      "obfus": 4803,
      "better</w>": 4804,
      "ship</w>": 4805,
      "characteri": 4806,
      "interfaces</w>": 4807,
      "commodate</w>": 4808,
      "finding</w>": 4809,
      "openg": 4810,
      "corn": 4811,
      "alizes</w>": 4812,
      "outline</w>": 4813,
      "independ": 4814,
      "maton</w>": 4815,
      "life</w>": 4816,
      "commits</w>": 4817,
      "sizes</w>": 4818,
      "request": 4819,
      "content": 4820,
      "handled</w>": 4821,
      "supple": 4822,
      "cuts</w>": 4823,
      "grams</w>": 4824,
      "implic": 4825,
      "editable</w>": 4826,
      "phon": 4827,
      "country</w>": 4828,
      "insertion</w>": 4829,
      "overlap</w>": 4830,
      "ture": 4831,
      "offsets</w>": 4832,
      "mir": 4833,
      "separating</w>": 4834,
      "follows</w>": 4835,
      "zero": 4836,
      "constructing</w>": 4837,
      "multipl": 4838,
      "multipart</w>": 4839,
      "activate</w>": 4840,
      "activated</w>": 4841,
      "modifiers</w>": 4842,
      "compareto</w>": 4843,
      "clusters</w>": 4844,
      "graphic": 4845,
      "graphically</w>": 4846,
      "origin": 4847,
      "second": 4848,
      "sqrt</w>": 4849,
      "packages</w>": 4850,
      "central</w>": 4851,
      "dense</w>": 4852,
      "vered</w>": 4853,
      "keeper</w>": 4854,
      "point": 4855,
      "indexed</w>": 4856,
      "termination</w>": 4857,
      "consists</w>": 4858,
      "polyline</w>": 4859,
      "stringbuilder</w>": 4860,
      "reason</w>": 4861,
      "beancontext</w>": 4862,
      "traverse</w>": 4863,
      "tree": 4864,
      "squared</w>": 4865,
      "holds</w>": 4866,
      "combobo": 4867,
      "writedata</w>": 4868,
      "fetches</w>": 4869,
      "decrement</w>": 4870,
      "stub</w>": 4871,
      "restriction</w>": 4872,
      "adjust": 4873,
      "probably</w>": 4874,
      "watch</w>": 4875,
      "vector2</w>": 4876,
      "membership": 4877,
      "splitting</w>": 4878,
      "shuff": 4879,
      "established</w>": 4880,
      "applicable</w>": 4881,
      "logarithm</w>": 4882,
      "activities</w>": 4883,
      "synchronously</w>": 4884,
      "wildcard</w>": 4885,
      "toggle</w>": 4886,
      "physical</w>": 4887,
      "chaining</w>": 4888,
      "topology</w>": 4889,
      "encountered</w>": 4890,
      "printf</w>": 4891,
      "foreign</w>": 4892,
      "ancest": 4893,
      "python</w>": 4894,
      "uint8</w>": 4895,
      "polynomial</w>": 4896,
      "significant</w>": 4897,
      "family</w>": 4898,
      "bluetooth</w>": 4899,
      "cassandra</w>": 4900,
      "dataflow</w>": 4901,
      "updater</w>": 4902,
      "gaussian</w>": 4903,
      "obfusc": 4904,
      "opengl</w>": 4905,
      "\"\"</w>": 4906,
      "'%": 4907,
      "')</w>": 4908,
      "11</w>": 4909,
      "100": 4910,
      "50</w>": 4911,
      "ay</w>": 4912,
      "ball</w>": 4913,
      "bcryp": 4914,
      "du</w>": 4915,
      "fine</w>": 4916,
      "gr": 4917,
      "gs": 4918,
      "gzip</w>": 4919,
      "han": 4920,
      "im</w>": 4921,
      "ide</w>": 4922,
      "iev": 4923,
      "ips</w>": 4924,
      "k_": 4925,
      "kb</w>": 4926,
      "l_": 4927,
      "ls": 4928,
      "mer</w>": 4929,
      "mat</w>": 4930,
      "p256": 4931,
      "sco": 4932,
      "sul": 4933,
      "tal": 4934,
      "vm": 4935,
      "xsl": 4936,
      "zier</w>": 4937,
      "ining</w>": 4938,
      "tection</w>": 4939,
      "enqueues</w>": 4940,
      "coor": 4941,
      "arrow</w>": 4942,
      "uron</w>": 4943,
      "accoun": 4944,
      "asn</w>": 4945,
      "assign</w>": 4946,
      "conf</w>": 4947,
      "constr": 4948,
      "sprit": 4949,
      "space": 4950,
      "silon</w>": 4951,
      "exemp": 4952,
      "exha": 4953,
      "dir": 4954,
      "distances</w>": 4955,
      "quot</w>": 4956,
      "listen</w>": 4957,
      "neuron</w>": 4958,
      "iling</w>": 4959,
      "rendered</w>": 4960,
      "tenance</w>": 4961,
      "sun</w>": 4962,
      "park</w>": 4963,
      "beat</w>": 4964,
      "ick</w>": 4965,
      "soap</w>": 4966,
      "locate</w>": 4967,
      "locity</w>": 4968,
      "ype</w>": 4969,
      "scipi": 4970,
      "predec": 4971,
      "converter</w>": 4972,
      "find": 4973,
      "opt</w>": 4974,
      "presence</w>": 4975,
      "regard": 4976,
      "dismis": 4977,
      "discar": 4978,
      "discard</w>": 4979,
      "entially</w>": 4980,
      "first": 4981,
      "command": 4982,
      "equipment</w>": 4983,
      "encoder</w>": 4984,
      "transm": 4985,
      "transformed</w>": 4986,
      "stepping</w>": 4987,
      "connecting</w>": 4988,
      "computation</w>": 4989,
      "response": 4990,
      "logical": 4991,
      "sequential</w>": 4992,
      "duplic": 4993,
      "secp256": 4994,
      "follow</w>": 4995,
      "setdescriptor</w>": 4996,
      "partici": 4997,
      "https</w>": 4998,
      "bitset</w>": 4999,
      "warn": 5000,
      "piechart</w>": 5001,
      "maintenance</w>": 5002,
      "floats</w>": 5003,
      "daemon</w>": 5004,
      "dimenisions</w>": 5005,
      "identifiers</w>": 5006,
      "base58</w>": 5007,
      "datasets</w>": 5008,
      "decoding</w>": 5009,
      "ational</w>": 5010,
      "comparable</w>": 5011,
      "scripts</w>": 5012,
      "trigono": 5013,
      "estim": 5014,
      "velocity</w>": 5015,
      "imported</w>": 5016,
      "expanding</w>": 5017,
      "slots</w>": 5018,
      "successive</w>": 5019,
      "consumed</w>": 5020,
      "datainput</w>": 5021,
      "pick</w>": 5022,
      "reaches</w>": 5023,
      "detect</w>": 5024,
      "adjusted</w>": 5025,
      "anymore</w>": 5026,
      "free": 5027,
      "frees</w>": 5028,
      "exceeded</w>": 5029,
      "searchable</w>": 5030,
      "optimizing</w>": 5031,
      "strictly</w>": 5032,
      "rotated</w>": 5033,
      "immediate</w>": 5034,
      "websocket</w>": 5035,
      "reflect</w>": 5036,
      "launcher</w>": 5037,
      "tracked</w>": 5038,
      "tracker</w>": 5039,
      "cipher": 5040,
      "delegates</w>": 5041,
      "differences</w>": 5042,
      "submit</w>": 5043,
      "submitted</w>": 5044,
      "default": 5045,
      "lexico": 5046,
      "compatibility</w>": 5047,
      "stuff</w>": 5048,
      "reversed</w>": 5049,
      "aggregate</w>": 5050,
      "vector3</w>": 5051,
      "eventsetdescriptor</w>": 5052,
      "minute</w>": 5053,
      "subscriber</w>": 5054,
      "initialise</w>": 5055,
      "lazily</w>": 5056,
      "likeli": 5057,
      "potential</w>": 5058,
      "painting</w>": 5059,
      "bank</w>": 5060,
      "interpreted</w>": 5061,
      "accessible</w>": 5062,
      "authorization</w>": 5063,
      "highlights</w>": 5064,
      "hyper": 5065,
      "shortcut</w>": 5066,
      "pieces</w>": 5067,
      "pads</w>": 5068,
      "margin</w>": 5069,
      "hood</w>": 5070,
      "octet</w>": 5071,
      "framework</w>": 5072,
      "neighbor</w>": 5073,
      "forwarded</w>": 5074,
      "revision</w>": 5075,
      "8601</w>": 5076,
      "fresh</w>": 5077,
      "mnemonic</w>": 5078,
      "catalog</w>": 5079,
      "epoch</w>": 5080,
      "guarante": 5081,
      "uniformly</w>": 5082,
      "encapsul": 5083,
      "independent</w>": 5084,
      "bcrypt</w>": 5085,
      "sprite</w>": 5086,
      "exhausted</w>": 5087,
      "scipio</w>": 5088,
      "predecess": 5089,
      "regardless</w>": 5090,
      "duplicates</w>": 5091,
      "secp256k": 5092,
      "trigonometric</w>": 5093,
      "!--</w>": 5094,
      "'\\": 5095,
      "))": 5096,
      "-<</w>": 5097,
      "32": 5098,
      "<!--</w>": 5099,
      ">></w>": 5100,
      "[<</w>": 5101,
      "az": 5102,
      "ber</w>": 5103,
      "ble": 5104,
      "care</w>": 5105,
      "dd": 5106,
      "gaps</w>": 5107,
      "hard</w>": 5108,
      "jm": 5109,
      "jump</w>": 5110,
      "lli": 5111,
      "nu": 5112,
      "ome</w>": 5113,
      "pk": 5114,
      "pack</w>": 5115,
      "rm": 5116,
      "si</w>": 5117,
      "smo": 5118,
      "tang": 5119,
      "var</w>": 5120,
      "wid</w>": 5121,
      "yy</w>": 5122,
      "rely</w>": 5123,
      "replay</w>": 5124,
      "inlin": 5125,
      "entry": 5126,
      "com</w>": 5127,
      "costing</w>": 5128,
      "coden": 5129,
      "stdout</w>": 5130,
      "alle": 5131,
      "arr": 5132,
      "ery</w>": 5133,
      "timal</w>": 5134,
      "acl</w>": 5135,
      "accommodate</w>": 5136,
      "itting</w>": 5137,
      "concer": 5138,
      "deep</w>": 5139,
      "sed": 5140,
      "locally</w>": 5141,
      "led": 5142,
      "lear": 5143,
      "lets</w>": 5144,
      "lease</w>": 5145,
      "leaving</w>": 5146,
      "spaced</w>": 5147,
      "spacing</w>": 5148,
      "giving</w>": 5149,
      "unequal</w>": 5150,
      "unmanage": 5151,
      "sip</w>": 5152,
      "menu": 5153,
      "mag": 5154,
      "probe</w>": 5155,
      "promis": 5156,
      "listed</w>": 5157,
      "clones</w>": 5158,
      "observers</w>": 5159,
      "susp": 5160,
      "paralle": 5161,
      "persi": 5162,
      "behave</w>": 5163,
      "bezier</w>": 5164,
      "company": 5165,
      "plan</w>": 5166,
      "datain": 5167,
      "removal</w>": 5168,
      "shar": 5169,
      "share": 5170,
      "towards</w>": 5171,
      "trip</w>": 5172,
      "preser": 5173,
      "texception</w>": 5174,
      "readobject</w>": 5175,
      "commen": 5176,
      "commas</w>": 5177,
      "valueof</w>": 5178,
      "optimal</w>": 5179,
      "page": 5180,
      "pages</w>": 5181,
      "math</w>": 5182,
      "ports</w>": 5183,
      "determined</w>": 5184,
      "subdirectories</w>": 5185,
      "subnet</w>": 5186,
      "signatures</w>": 5187,
      "growing</w>": 5188,
      "dragged</w>": 5189,
      "expand": 5190,
      "phi</w>": 5191,
      "price</w>": 5192,
      "tuples</w>": 5193,
      "offset": 5194,
      "minim": 5195,
      "expressed</w>": 5196,
      "layouts</w>": 5197,
      "maxim": 5198,
      "shortest</w>": 5199,
      "bitlength</w>": 5200,
      "capab": 5201,
      "capability</w>": 5202,
      "crc</w>": 5203,
      "solr": 5204,
      "increasing</w>": 5205,
      "projects</w>": 5206,
      "ightly</w>": 5207,
      "tics</w>": 5208,
      "appropriately</w>": 5209,
      "struction</w>": 5210,
      "storing</w>": 5211,
      "sensors</w>": 5212,
      "compression</w>": 5213,
      "tright</w>": 5214,
      "worker": 5215,
      "shiftright</w>": 5216,
      "debug": 5217,
      "terminate</w>": 5218,
      "constants</w>": 5219,
      "slope</w>": 5220,
      "test_": 5221,
      "dropped</w>": 5222,
      "simulates</w>": 5223,
      "encrypt</w>": 5224,
      "detects</w>": 5225,
      "configures</w>": 5226,
      "choices</w>": 5227,
      "dynamically</w>": 5228,
      "compiled</w>": 5229,
      "roots</w>": 5230,
      "routing</w>": 5231,
      "zookeeper</w>": 5232,
      "efficiently</w>": 5233,
      "reflective</w>": 5234,
      "individu": 5235,
      "dispatcher</w>": 5236,
      "submits</w>": 5237,
      "beancontextmembership": 5238,
      "queued</w>": 5239,
      "appear": 5240,
      "attachment</w>": 5241,
      "ird</w>": 5242,
      "restrictions</w>": 5243,
      "selectfunctionalitytest</w>": 5244,
      "instantiate</w>": 5245,
      "performance</w>": 5246,
      "initialises</w>": 5247,
      "****": 5248,
      "explicit</w>": 5249,
      "boxes</w>": 5250,
      "clauses</w>": 5251,
      "field2</w>": 5252,
      "macro</w>": 5253,
      "bridge</w>": 5254,
      "scrap</w>": 5255,
      "deploy": 5256,
      "actionlistener</w>": 5257,
      "bookmark</w>": 5258,
      "epsilon</w>": 5259,
      "svg</w>": 5260,
      "infinite</w>": 5261,
      "prompt</w>": 5262,
      "safely</w>": 5263,
      "fraction</w>": 5264,
      "accuracy</w>": 5265,
      "dexception</w>": 5266,
      "\"/\"</w>": 5267,
      "exportmask</w>": 5268,
      "stroke</w>": 5269,
      "+/-<</w>": 5270,
      "divisor</w>": 5271,
      "retains</w>": 5272,
      "nominal</w>": 5273,
      "shouldn</w>": 5274,
      "receipt</w>": 5275,
      "namedbean</w>": 5276,
      "characteristic</w>": 5277,
      "warnings</w>": 5278,
      "lexicographically</w>": 5279,
      "tangent</w>": 5280,
      "companyid</w>": 5281,
      "datainputstream</w>": 5282,
      "beancontextmembershiplistener</w>": 5283,
      "!!</w>": 5284,
      "15": 5285,
      "200</w>": 5286,
      ":=</w>": 5287,
      "_shift_": 5288,
      "cv</w>": 5289,
      "cat</w>": 5290,
      "cations</w>": 5291,
      "cache": 5292,
      "clock": 5293,
      "four</w>": 5294,
      "gp": 5295,
      "gl</w>": 5296,
      "hand</w>": 5297,
      "hint</w>": 5298,
      "io</w>": 5299,
      "jp": 5300,
      "jni</w>": 5301,
      "luc": 5302,
      "mg": 5303,
      "my</w>": 5304,
      "med</w>": 5305,
      "mic</w>": 5306,
      "msyn": 5307,
      "os": 5308,
      "pc</w>": 5309,
      "pap": 5310,
      "ping": 5311,
      "qnames</w>": 5312,
      "rt": 5313,
      "rat": 5314,
      "san": 5315,
      "son</w>": 5316,
      "sable</w>": 5317,
      "x1</w>": 5318,
      "zip": 5319,
      "inf": 5320,
      "inject</w>": 5321,
      "atively</w>": 5322,
      "enters</w>": 5323,
      "encloses</w>": 5324,
      "enclosing</w>": 5325,
      "enabling</w>": 5326,
      "ecd": 5327,
      "fitness</w>": 5328,
      "asset</w>": 5329,
      "chi</w>": 5330,
      "concurrency</w>": 5331,
      "construction</w>": 5332,
      "ish</w>": 5333,
      "leave</w>": 5334,
      "spa": 5335,
      "uncompressed</w>": 5336,
      "unwrap</w>": 5337,
      "mples</w>": 5338,
      "reas</w>": 5339,
      "reated</w>": 5340,
      "sim</w>": 5341,
      "mail": 5342,
      "mapper</w>": 5343,
      "noun</w>": 5344,
      "specialized</w>": 5345,
      "rich</w>": 5346,
      "rence</w>": 5347,
      "ape</w>": 5348,
      "tay</w>": 5349,
      "plural</w>": 5350,
      "doper": 5351,
      "domin": 5352,
      "bolic</w>": 5353,
      "uploads</w>": 5354,
      "triang": 5355,
      "locates</w>": 5356,
      "locator</w>": 5357,
      "prefixed</w>": 5358,
      "heuri": 5359,
      "prun": 5360,
      "subarray</w>": 5361,
      "subdirectory</w>": 5362,
      "cial</w>": 5363,
      "there": 5364,
      "suppl": 5365,
      "impli": 5366,
      "deration</w>": 5367,
      "initializing</w>": 5368,
      "throw": 5369,
      "rolling</w>": 5370,
      "lowest</w>": 5371,
      "ordinate</w>": 5372,
      "backward</w>": 5373,
      "timing</w>": 5374,
      "button": 5375,
      "depends</w>": 5376,
      "falls</w>": 5377,
      "wrapping</w>": 5378,
      "activity": 5379,
      "scalar</w>": 5380,
      "cron</w>": 5381,
      "invoking</w>": 5382,
      "floor</w>": 5383,
      "scroll": 5384,
      "scrolls</w>": 5385,
      "correspond</w>": 5386,
      "refers</w>": 5387,
      "volati": 5388,
      "slightly</w>": 5389,
      "storage": 5390,
      "vec</w>": 5391,
      "cross": 5392,
      "buffere": 5393,
      "automaton</w>": 5394,
      "grouping</w>": 5395,
      "compound</w>": 5396,
      "simulate</w>": 5397,
      "reachable</w>": 5398,
      "deltay</w>": 5399,
      "consistency": 5400,
      "plot": 5401,
      "plotter</w>": 5402,
      "derivative</w>": 5403,
      "2006</w>": 5404,
      "treat</w>": 5405,
      "black": 5406,
      "dateformat</w>": 5407,
      "redund": 5408,
      "rooted</w>": 5409,
      "decide</w>": 5410,
      "modul": 5411,
      "webapp</w>": 5412,
      "256</w>": 5413,
      "cycle</w>": 5414,
      "effective</w>": 5415,
      "toolbar</w>": 5416,
      "plane</w>": 5417,
      "reverses</w>": 5418,
      "descend": 5419,
      "tuner</w>": 5420,
      "publish</w>": 5421,
      "balance</w>": 5422,
      "establish</w>": 5423,
      "brokerb</w>": 5424,
      "brokera</w>": 5425,
      "monito": 5426,
      "monitoring</w>": 5427,
      "voice</w>": 5428,
      "renames</w>": 5429,
      "scrap": 5430,
      "inherited</w>": 5431,
      "evic": 5432,
      "organization</w>": 5433,
      "correction</w>": 5434,
      "estimates</w>": 5435,
      "nulls</w>": 5436,
      "years</w>": 5437,
      "utf8</w>": 5438,
      "hardware</w>": 5439,
      "cardinality</w>": 5440,
      "protocols</w>": 5441,
      "x509": 5442,
      "leftmost</w>": 5443,
      "progress": 5444,
      "virtual": 5445,
      "dont</w>": 5446,
      "buckets</w>": 5447,
      "regarding</w>": 5448,
      "thumbnail</w>": 5449,
      "022</w>": 5450,
      "alignment</w>": 5451,
      "combobox</w>": 5452,
      "exemplar</w>": 5453,
      "logical_shift_": 5454,
      "hyperbolic</w>": 5455,
      "predecessor</w>": 5456,
      "shared": 5457,
      "capabilities</w>": 5458,
      "individuals</w>": 5459,
      "10": 5460,
      "18": 5461,
      "25</w>": 5462,
      "43": 5463,
      "::=</w>": 5464,
      "\\\\</w>": 5465,
      "areas</w>": 5466,
      "bre": 5467,
      "cg</w>": 5468,
      "cup": 5469,
      "fli": 5470,
      "ger": 5471,
      "gif</w>": 5472,
      "grad": 5473,
      "gap</w>": 5474,
      "jun": 5475,
      "kilo": 5476,
      "lis</w>": 5477,
      "lare</w>": 5478,
      "mt": 5479,
      "mt</w>": 5480,
      "mic": 5481,
      "mactive": 5482,
      "mscrap": 5483,
      "nate</w>": 5484,
      "num</w>": 5485,
      "oc</w>": 5486,
      "py</w>": 5487,
      "piv": 5488,
      "pdf": 5489,
      "ru</w>": 5490,
      "s3</w>": 5491,
      "swing</w>": 5492,
      "tt</w>": 5493,
      "tally</w>": 5494,
      "treated</w>": 5495,
      "vor": 5496,
      "ven</w>": 5497,
      "ww": 5498,
      "wt</w>": 5499,
      "things</w>": 5500,
      "third</w>": 5501,
      "retry</w>": 5502,
      "recompose</w>": 5503,
      "recommen": 5504,
      "info": 5505,
      "informs</w>": 5506,
      "invalidates</w>": 5507,
      "attr": 5508,
      "anony": 5509,
      "coal": 5510,
      "covered</w>": 5511,
      "acting</w>": 5512,
      "actical</w>": 5513,
      "assu": 5514,
      "ashes</w>": 5515,
      "che": 5516,
      "cons</w>": 5517,
      "isol": 5518,
      "deprec": 5519,
      "develo": 5520,
      "seg": 5521,
      "sec</w>": 5522,
      "traces</w>": 5523,
      "tracing</w>": 5524,
      "ter_": 5525,
      "mous</w>": 5526,
      "lish</w>": 5527,
      "bugs</w>": 5528,
      "near</w>": 5529,
      "apses</w>": 5530,
      "part": 5531,
      "objective</w>": 5532,
      "pers</w>": 5533,
      "belong</w>": 5534,
      "compli": 5535,
      "dots</w>": 5536,
      "number": 5537,
      "avo": 5538,
      "twice</w>": 5539,
      "trim": 5540,
      "standing</w>": 5541,
      "scape</w>": 5542,
      "recip": 5543,
      "imuth</w>": 5544,
      "older</w>": 5545,
      "position": 5546,
      "heart": 5547,
      "reground</w>": 5548,
      "filter": 5549,
      "apped</w>": 5550,
      "rank</w>": 5551,
      "disconnected</w>": 5552,
      "sys": 5553,
      "word": 5554,
      "last": 5555,
      "lays</w>": 5556,
      "guess</w>": 5557,
      "subtr": 5558,
      "wik": 5559,
      "few</w>": 5560,
      "transform": 5561,
      "grab": 5562,
      "hasn</w>": 5563,
      "impl</w>": 5564,
      "wait": 5565,
      "wakes</w>": 5566,
      "calculation</w>": 5567,
      "calculating</w>": 5568,
      "serial</w>": 5569,
      "compute": 5570,
      "pho": 5571,
      "naming</w>": 5572,
      "ught</w>": 5573,
      "aging</w>": 5574,
      "fragments</w>": 5575,
      "ifying</w>": 5576,
      "clients</w>": 5577,
      "flight</w>": 5578,
      "iterations</w>": 5579,
      "foreground</w>": 5580,
      "contacts</w>": 5581,
      "backslashes</w>": 5582,
      "joined</w>": 5583,
      "timesta": 5584,
      "linked</w>": 5585,
      "association</w>": 5586,
      "declare</w>": 5587,
      "modifying</w>": 5588,
      "fallback</w>": 5589,
      "came": 5590,
      "caused</w>": 5591,
      "implementing</w>": 5592,
      "synt": 5593,
      "communic": 5594,
      "communication</w>": 5595,
      "underscore</w>": 5596,
      "peek</w>": 5597,
      "activation</w>": 5598,
      "widgets</w>": 5599,
      "modifiable</w>": 5600,
      "notification": 5601,
      "hashing</w>": 5602,
      "compresses</w>": 5603,
      "ationexception</w>": 5604,
      "comparing</w>": 5605,
      "full": 5606,
      "downscaling</w>": 5607,
      "attr</w>": 5608,
      "crowid</w>": 5609,
      "producer</w>": 5610,
      "checkbox</w>": 5611,
      "templates</w>": 5612,
      "divider</w>": 5613,
      "html": 5614,
      "examples</w>": 5615,
      "polyg": 5616,
      "snapshots</w>": 5617,
      "skipping</w>": 5618,
      "delive": 5619,
      "swf</w>": 5620,
      "purges</w>": 5621,
      "acquired</w>": 5622,
      "sampling</w>": 5623,
      "simpli": 5624,
      "compiles</w>": 5625,
      "decides</w>": 5626,
      "mentprocessor</w>": 5627,
      "transfer": 5628,
      "behaviors</w>": 5629,
      "diagnostics</w>": 5630,
      "obtained</w>": 5631,
      "similarity</w>": 5632,
      "issuer</w>": 5633,
      "transpa": 5634,
      "descending</w>": 5635,
      "dtm</w>": 5636,
      "publisher</w>": 5637,
      "java2d</w>": 5638,
      "telementprocessor</w>": 5639,
      "awt</w>": 5640,
      "decrypts</w>": 5641,
      "candidates</w>": 5642,
      "early</w>": 5643,
      "earlier</w>": 5644,
      "resizing</w>": 5645,
      "accessor</w>": 5646,
      "percenti": 5647,
      "mutator</w>": 5648,
      "parameterized</w>": 5649,
      "hypo": 5650,
      "proxy": 5651,
      "16022</w>": 5652,
      "material</w>": 5653,
      "recursion</w>": 5654,
      "socket": 5655,
      "entityreference</w>": 5656,
      "visual": 5657,
      "indentation</w>": 5658,
      "nanoseconds</w>": 5659,
      "ensuring</w>": 5660,
      "animated</w>": 5661,
      "demo</w>": 5662,
      "channels</w>": 5663,
      "proposal</w>": 5664,
      "faststringbuffer</w>": 5665,
      "surrogate</w>": 5666,
      "challenge</w>": 5667,
      "bubble</w>": 5668,
      "ancestor</w>": 5669,
      "xsltelementprocessor</w>": 5670,
      "coords</w>": 5671,
      "dirty</w>": 5672,
      "participan": 5673,
      "estimator</w>": 5674,
      "likelihood</w>": 5675,
      "azimuth</w>": 5676,
      "unmanaged": 5677,
      "msyncrowid</w>": 5678,
      "paper</w>": 5679,
      "monitored</w>": 5680,
      "mactiveviews</w>": 5681,
      "mscrapviews</w>": 5682,
      "anonymous</w>": 5683,
      "deprecated</w>": 5684,
      "delivered</w>": 5685,
      "\"%</w>": 5686,
      "/,</w>": 5687,
      "64": 5688,
      "<<</w>": 5689,
      "ame": 5690,
      "ager</w>": 5691,
      "bun": 5692,
      "biz": 5693,
      "blob": 5694,
      "edi": 5695,
      "fading</w>": 5696,
      "faster</w>": 5697,
      "gwt</w>": 5698,
      "hu": 5699,
      "hon": 5700,
      "ix</w>": 5701,
      "ites</w>": 5702,
      "kil": 5703,
      "ld": 5704,
      "land": 5705,
      "mr</w>": 5706,
      "mation</w>": 5707,
      "na</w>": 5708,
      "ode</w>": 5709,
      "pr</w>": 5710,
      "ple</w>": 5711,
      "pan</w>": 5712,
      "pment</w>": 5713,
      "pull</w>": 5714,
      "qty</w>": 5715,
      "ry</w>": 5716,
      "ri</w>": 5717,
      "sb": 5718,
      "sh</w>": 5719,
      "sun": 5720,
      "ske": 5721,
      "sket": 5722,
      "vp</w>": 5723,
      "voc": 5724,
      "vend": 5725,
      "ya": 5726,
      "ym</w>": 5727,
      "yiel": 5728,
      "zes</w>": 5729,
      "ret": 5730,
      "repaint</w>": 5731,
      "ins": 5732,
      "ator": 5733,
      "alone</w>": 5734,
      "arg</w>": 5735,
      "arre</w>": 5736,
      "argb</w>": 5737,
      "tically</w>": 5738,
      "acle</w>": 5739,
      "acement</w>": 5740,
      "itter</w>": 5741,
      "aster": 5742,
      "ado</w>": 5743,
      "adoc</w>": 5744,
      "chat": 5745,
      "isk</w>": 5746,
      "met</w>": 5747,
      "meet</w>": 5748,
      "deg": 5749,
      "designer</w>": 5750,
      "turing</w>": 5751,
      "turned</w>": 5752,
      "seq": 5753,
      "lex</w>": 5754,
      "less": 5755,
      "unavailable</w>": 5756,
      "unnecessary</w>": 5757,
      "unlocks</w>": 5758,
      "fron": 5759,
      "terance</w>": 5760,
      "raised</w>": 5761,
      "extre": 5762,
      "motion</w>": 5763,
      "ably</w>": 5764,
      "resume</w>": 5765,
      "proto</w>": 5766,
      "provisi": 5767,
      "dia": 5768,
      "posts</w>": 5769,
      "apache</w>": 5770,
      "suites</w>": 5771,
      "beans</w>": 5772,
      "beta</w>": 5773,
      "placement</w>": 5774,
      "ick": 5775,
      "sha</w>": 5776,
      "shrin": 5777,
      "ked": 5778,
      "currence</w>": 5779,
      "general": 5780,
      "generic": 5781,
      "valued</w>": 5782,
      "alization</w>": 5783,
      "old": 5784,
      "outstanding</w>": 5785,
      "writable</w>": 5786,
      "tives</w>": 5787,
      "disposes</w>": 5788,
      "discrete</w>": 5789,
      "faul": 5790,
      "failo": 5791,
      "lib</w>": 5792,
      "saml</w>": 5793,
      "sized</w>": 5794,
      "practical</w>": 5795,
      "subj</w>": 5796,
      "subspace</w>": 5797,
      "theme</w>": 5798,
      "wire</w>": 5799,
      "feed</w>": 5800,
      "cloud": 5801,
      "handlers</w>": 5802,
      "initially</w>": 5803,
      "connection": 5804,
      "coping</w>": 5805,
      "confidence</w>": 5806,
      "engine": 5807,
      "english</w>": 5808,
      "intelli": 5809,
      "plays</w>": 5810,
      "serial": 5811,
      "drawer</w>": 5812,
      "build": 5813,
      "empi": 5814,
      "edit": 5815,
      "memory": 5816,
      "availability</w>": 5817,
      "marker": 5818,
      "system": 5819,
      "struct</w>": 5820,
      "javadoc</w>": 5821,
      "hours</w>": 5822,
      "occup": 5823,
      "document": 5824,
      "whitespaces</w>": 5825,
      "tured</w>": 5826,
      "targets</w>": 5827,
      "utils</w>": 5828,
      "roll</w>": 5829,
      "ordinates</w>": 5830,
      "window": 5831,
      "folders</w>": 5832,
      "right": 5833,
      "utc</w>": 5834,
      "utterance</w>": 5835,
      "translator</w>": 5836,
      "translating</w>": 5837,
      "implementations</w>": 5838,
      "shorts</w>": 5839,
      "capturing</w>": 5840,
      "peers</w>": 5841,
      "crl": 5842,
      "incrementing</w>": 5843,
      "maintain</w>": 5844,
      "tick": 5845,
      "axes</w>": 5846,
      "aren</w>": 5847,
      "fixes</w>": 5848,
      "eigen": 5849,
      "packed</w>": 5850,
      "styled</w>": 5851,
      "attack": 5852,
      "clicks</w>": 5853,
      "broken</w>": 5854,
      "lang</w>": 5855,
      "considering</w>": 5856,
      "buffered": 5857,
      "limited</w>": 5858,
      "opencv</w>": 5859,
      "install": 5860,
      "entro": 5861,
      "picking</w>": 5862,
      "extern": 5863,
      "concatenate</w>": 5864,
      "concatenation</w>": 5865,
      "sometimes</w>": 5866,
      "inclusion</w>": 5867,
      "swaps</w>": 5868,
      "detail</w>": 5869,
      "exponential</w>": 5870,
      "searched</w>": 5871,
      "tupleset</w>": 5872,
      "boundaries</w>": 5873,
      "compiler</w>": 5874,
      "redis</w>": 5875,
      "transfers</w>": 5876,
      "dispatched</w>": 5877,
      "horizontally</w>": 5878,
      "ature": 5879,
      "effectively</w>": 5880,
      "prefs</w>": 5881,
      "spective</w>": 5882,
      "mapbean</w>": 5883,
      "persistence</w>": 5884,
      "align</w>": 5885,
      "selectors</w>": 5886,
      "[])</w>": 5887,
      "[])\"</w>": 5888,
      "dfs</w>": 5889,
      "trylock</w>": 5890,
      "decryption</w>": 5891,
      "alphabe": 5892,
      "stacked</w>": 5893,
      "stacktrace</w>": 5894,
      "truncates</w>": 5895,
      "mutable": 5896,
      "permitted</w>": 5897,
      "satisfied</w>": 5898,
      "accessi": 5899,
      "synchronous</w>": 5900,
      "md5</w>": 5901,
      "artifact</w>": 5902,
      "balanced</w>": 5903,
      "idea</w>": 5904,
      "alternative</w>": 5905,
      "salt</w>": 5906,
      "yyyy</w>": 5907,
      "session": 5908,
      "shopping": 5909,
      "composition</w>": 5910,
      "weak</w>": 5911,
      "conditionpassed</w>": 5912,
      "validator</w>": 5913,
      "sleep</w>": 5914,
      "cycling</w>": 5915,
      "cpu</w>": 5916,
      "scenario</w>": 5917,
      "maintained</w>": 5918,
      "corners</w>": 5919,
      "mirror</w>": 5920,
      "secondary</w>": 5921,
      "obfuscating</w>": 5922,
      "constrain": 5923,
      "dismiss</w>": 5924,
      "secp256k1</w>": 5925,
      "parallel</w>": 5926,
      "clockwise</w>": 5927,
      "lucene</w>": 5928,
      "mgrs</w>": 5929,
      "heuristic</w>": 5930,
      "volatile</w>": 5931,
      "junction</w>": 5932,
      "kilobytes</w>": 5933,
      "micro": 5934,
      "vorb": 5935,
      "www</w>": 5936,
      "heartbeat</w>": 5937,
      "bunch</w>": 5938,
      "bizarre</w>": 5939,
      "failover</w>": 5940,
      "intellij</w>": 5941,
      "'\"": 5942,
      "-,</w>": 5943,
      "-+----------------": 5944,
      "1f</w>": 5945,
      "45</w>": 5946,
      "<=</w>": 5947,
      "\\,</w>": 5948,
      "]'</w>": 5949,
      "_name</w>": 5950,
      "cc</w>": 5951,
      "ctl</w>": 5952,
      "dc</w>": 5953,
      "di</w>": 5954,
      "dum": 5955,
      "fall</w>": 5956,
      "fav": 5957,
      "h2</w>": 5958,
      "ian": 5959,
      "ile": 5960,
      "junit</w>": 5961,
      "kaf": 5962,
      "lu": 5963,
      "lc</w>": 5964,
      "lm</w>": 5965,
      "mq": 5966,
      "mbean": 5967,
      "nc": 5968,
      "pen</w>": 5969,
      "pendi": 5970,
      "png</w>": 5971,
      "rp</w>": 5972,
      "va": 5973,
      "vs</w>": 5974,
      "va</w>": 5975,
      "wed</w>": 5976,
      "wwn</w>": 5977,
      "x_": 5978,
      "x2</w>": 5979,
      "xsd</w>": 5980,
      "resi": 5981,
      "rejec": 5982,
      "restart</w>": 5983,
      "react</w>": 5984,
      "resetting</w>": 5985,
      "reject</w>": 5986,
      "redirect</w>": 5987,
      "retun": 5988,
      "ini": 5989,
      "intr": 5990,
      "intext</w>": 5991,
      "inactive</w>": 5992,
      "invalidate</w>": 5993,
      "envelo": 5994,
      "con</w>": 5995,
      "stat</w>": 5996,
      "stder": 5997,
      "erview</w>": 5998,
      "road</w>": 5999,
      "tier</w>": 6000,
      "tigu": 6001,
      "till</w>": 6002,
      "acc": 6003,
      "acamo": 6004,
      "ase": 6005,
      "ives</w>": 6006,
      "contribu": 6007,
      "contigu": 6008,
      "isation</w>": 6009,
      "designed</w>": 6010,
      "deserialized</w>": 6011,
      "sel</w>": 6012,
      "seper": 6013,
      "legen": 6014,
      "spot</w>": 6015,
      "spaw": 6016,
      "tracks</w>": 6017,
      "una</w>": 6018,
      "unescaped</w>": 6019,
      "unmarshal": 6020,
      "unmodifiable</w>": 6021,
      "ular": 6022,
      "ulary</w>": 6023,
      "terpolicy</w>": 6024,
      "site": 6025,
      "mob": 6026,
      "movi": 6027,
      "mosa": 6028,
      "abbre": 6029,
      "abulary</w>": 6030,
      "didn</w>": 6031,
      "dimage</w>": 6032,
      "pod</w>": 6033,
      "specifying</w>": 6034,
      "nei": 6035,
      "ill": 6036,
      "rid</w>": 6037,
      "rift</w>": 6038,
      "outer</w>": 6039,
      "forget</w>": 6040,
      "apk</w>": 6041,
      "perpendi": 6042,
      "gests</w>": 6043,
      "placed</w>": 6044,
      "dos</w>": 6045,
      "doing</w>": 6046,
      "datat": 6047,
      "datory</w>": 6048,
      "ssa</w>": 6049,
      "sers</w>": 6050,
      "serve</w>": 6051,
      "to_": 6052,
      "ellipse</w>": 6053,
      "ups</w>": 6054,
      "upwards</w>": 6055,
      "triple</w>": 6056,
      "presses</w>": 6057,
      "streaming</w>": 6058,
      "quest</w>": 6059,
      "typically</w>": 6060,
      "prep": 6061,
      "convers": 6062,
      "colon</w>": 6063,
      "color": 6064,
      "outlier</w>": 6065,
      "paused</w>": 6066,
      "pause</w>": 6067,
      "containers</w>": 6068,
      "heal": 6069,
      "hest</w>": 6070,
      "apps</w>": 6071,
      "applet</w>": 6072,
      "disconnect</w>": 6073,
      "fault</w>": 6074,
      "lif": 6075,
      "firing</w>": 6076,
      "guacamo": 6077,
      "closer</w>": 6078,
      "achiev": 6079,
      "handsha": 6080,
      "initiators</w>": 6081,
      "connectivity</w>": 6082,
      "cub": 6083,
      "waited</w>": 6084,
      "plaintext</w>": 6085,
      "expr</w>": 6086,
      "derive</w>": 6087,
      "caching</w>": 6088,
      "inserting</w>": 6089,
      "among</w>": 6090,
      "logout</w>": 6091,
      "ference</w>": 6092,
      "overloads</w>": 6093,
      "thrott": 6094,
      "indication</w>": 6095,
      "mandatory</w>": 6096,
      "invent": 6097,
      "home</w>": 6098,
      "rule": 6099,
      "documentation</w>": 6100,
      "angular</w>": 6101,
      "minus</w>": 6102,
      "endpoints</w>": 6103,
      "contour</w>": 6104,
      "cert</w>": 6105,
      "timeouts</w>": 6106,
      "negate</w>": 6107,
      "wee": 6108,
      "weap": 6109,
      "caught</w>": 6110,
      "mapping": 6111,
      "particle</w>": 6112,
      "escent</w>": 6113,
      "incremental</w>": 6114,
      "statistic</w>": 6115,
      "pipe</w>": 6116,
      "acceler": 6117,
      "clusterpolicy</w>": 6118,
      "others</w>": 6119,
      "damage</w>": 6120,
      "001f</w>": 6121,
      "refs</w>": 6122,
      "jsp</w>": 6123,
      "conditionally</w>": 6124,
      "annot": 6125,
      "annota": 6126,
      "merging</w>": 6127,
      "instance": 6128,
      "newer</w>": 6129,
      "newsize</w>": 6130,
      "touching</w>": 6131,
      "millis</w>": 6132,
      "retrieval</w>": 6133,
      "downloaded</w>": 6134,
      "allocating</w>": 6135,
      "extractor</w>": 6136,
      "directed</w>": 6137,
      "masks</w>": 6138,
      "remote": 6139,
      "straight</w>": 6140,
      "shares</w>": 6141,
      "expansion</w>": 6142,
      "successor</w>": 6143,
      "speech</w>": 6144,
      "datastore</w>": 6145,
      "privile": 6146,
      "registrar</w>": 6147,
      "deliv": 6148,
      "switch": 6149,
      "anywhere</w>": 6150,
      "transient</w>": 6151,
      "languages</w>": 6152,
      "trail</w>": 6153,
      "treen": 6154,
      "prepared": 6155,
      "dom4j</w>": 6156,
      "aliases</w>": 6157,
      "predictions</w>": 6158,
      "persist</w>": 6159,
      "highest</w>": 6160,
      "happen": 6161,
      "writeobject</w>": 6162,
      "efficient</w>": 6163,
      "periodi": 6164,
      "measured</w>": 6165,
      "codec</w>": 6166,
      "viewed</w>": 6167,
      "excluding</w>": 6168,
      "excluded</w>": 6169,
      "great</w>": 6170,
      "issued</w>": 6171,
      "planet</w>": 6172,
      "devices</w>": 6173,
      "detach": 6174,
      "marshal</w>": 6175,
      "trains</w>": 6176,
      "aggregation</w>": 6177,
      "javax</w>": 6178,
      "subscribed</w>": 6179,
      "walk": 6180,
      "boxed</w>": 6181,
      "substitution</w>": 6182,
      "serviceid</w>": 6183,
      "easy</w>": 6184,
      "good</w>": 6185,
      "satisfies</w>": 6186,
      "recyclerview</w>": 6187,
      "brie": 6188,
      "renamed</w>": 6189,
      "rectangular</w>": 6190,
      "actically</w>": 6191,
      "piece</w>": 6192,
      "16bit</w>": 6193,
      "wildcards</w>": 6194,
      "rrx</w>": 6195,
      "octets</w>": 6196,
      "taxa</w>": 6197,
      "taxon</w>": 6198,
      "sessions</w>": 6199,
      "conflicts</w>": 6200,
      "decorator</w>": 6201,
      "programmatically</w>": 6202,
      "existence</w>": 6203,
      "suggest": 6204,
      "gcd</w>": 6205,
      "snap</w>": 6206,
      "ddl</w>": 6207,
      "concerning</w>": 6208,
      "debugger</w>": 6209,
      "test_select": 6210,
      "implies</w>": 6211,
      "consistencygroup</w>": 6212,
      "partner</w>": 6213,
      "wordrelation</w>": 6214,
      "transparent</w>": 6215,
      "percentile</w>": 6216,
      "vocabulary</w>": 6217,
      "vendor</w>": 6218,
      "degree</w>": 6219,
      "frontier</w>": 6220,
      "entropy</w>": 6221,
      "kafka</w>": 6222,
      "contiguous</w>": 6223,
      "legend</w>": 6224,
      "mosaic</w>": 6225,
      "abbrevi": 6226,
      "perpendicular</w>": 6227,
      "guacamole</w>": 6228,
      "inventory</w>": 6229,
      "preparedstatement</w>": 6230,
      "'*": 6231,
      "36</w>": 6232,
      "30</w>": 6233,
      "66": 6234,
      "88": 6235,
      "<<<</w>": 6236,
      ">>></w>": 6237,
      "_12</w>": 6238,
      "ater": 6239,
      "aid</w>": 6240,
      "awaiting</w>": 6241,
      "awaits</w>": 6242,
      "band": 6243,
      "cau": 6244,
      "cars</w>": 6245,
      "dr</w>": 6246,
      "hl": 6247,
      "hs</w>": 6248,
      "hits</w>": 6249,
      "hints</w>": 6250,
      "hmac</w>": 6251,
      "hyph": 6252,
      "ial</w>": 6253,
      "iec</w>": 6254,
      "jar": 6255,
      "jtext": 6256,
      "jvm": 6257,
      "kit</w>": 6258,
      "ln</w>": 6259,
      "li</w>": 6260,
      "lint</w>": 6261,
      "lconnection</w>": 6262,
      "lite</w>": 6263,
      "mal": 6264,
      "mon</w>": 6265,
      "mun": 6266,
      "nb": 6267,
      "p3</w>": 6268,
      "pal": 6269,
      "pure</w>": 6270,
      "punc": 6271,
      "qname</w>": 6272,
      "rdf</w>": 6273,
      "rhum": 6274,
      "rng</w>": 6275,
      "s_": 6276,
      "ster</w>": 6277,
      "tn": 6278,
      "tmp</w>": 6279,
      "v2</w>": 6280,
      "vation</w>": 6281,
      "wle": 6282,
      "xity</w>": 6283,
      "y1</w>": 6284,
      "yes": 6285,
      "zz": 6286,
      "thin": 6287,
      "than": 6288,
      "thrift</w>": 6289,
      "reg</w>": 6290,
      "rea</w>": 6291,
      "reach</w>": 6292,
      "remin": 6293,
      "reloads</w>": 6294,
      "restored</w>": 6295,
      "reve": 6296,
      "redraw</w>": 6297,
      "recurrence</w>": 6298,
      "inform": 6299,
      "inputs</w>": 6300,
      "informed</w>": 6301,
      "tem</w>": 6302,
      "teded": 6303,
      "anager</w>": 6304,
      "core": 6305,
      "stress</w>": 6306,
      "stacks</w>": 6307,
      "aled</w>": 6308,
      "ary": 6309,
      "eclipse</w>": 6310,
      "rob": 6311,
      "tit": 6312,
      "filec": 6313,
      "orum</w>": 6314,
      "oracle</w>": 6315,
      "itation</w>": 6316,
      "asm</w>": 6317,
      "asse": 6318,
      "admin</w>": 6319,
      "oning</w>": 6320,
      "online</w>": 6321,
      "ongoing</w>": 6322,
      "conf": 6323,
      "conet</w>": 6324,
      "conforms</w>": 6325,
      "metodo</w>": 6326,
      "desig": 6327,
      "desk": 6328,
      "deserializer</w>": 6329,
      "loop": 6330,
      "loconet</w>": 6331,
      "spins</w>": 6332,
      "unpar": 6333,
      "unlock</w>": 6334,
      "unexpected</w>": 6335,
      "unsafe</w>": 6336,
      "exer": 6337,
      "exam": 6338,
      "exposed</w>": 6339,
      "profiles</w>": 6340,
      "propag": 6341,
      "protection</w>": 6342,
      "digests</w>": 6343,
      "though</w>": 6344,
      "quorum</w>": 6345,
      "listens</w>": 6346,
      "poiss": 6347,
      "illeg": 6348,
      "verifying</w>": 6349,
      "force": 6350,
      "ceiling</w>": 6351,
      "tagon</w>": 6352,
      "para</w>": 6353,
      "perspective</w>": 6354,
      "nated</w>": 6355,
      "plu": 6356,
      "domain": 6357,
      "datac": 6358,
      "bypasses</w>": 6359,
      "elec": 6360,
      "charge</w>": 6361,
      "sound</w>": 6362,
      "yph</w>": 6363,
      "callable</w>": 6364,
      "intermedi": 6365,
      "prepen": 6366,
      "converte</w>": 6367,
      "colli": 6368,
      "finally</w>": 6369,
      "ims</w>": 6370,
      "imed</w>": 6371,
      "presenter</w>": 6372,
      "presentation</w>": 6373,
      "outgoing</w>": 6374,
      "ides</w>": 6375,
      "container": 6376,
      "termar": 6377,
      "properti": 6378,
      "disconnects</w>": 6379,
      "lib": 6380,
      "says</w>": 6381,
      "basis</w>": 6382,
      "baseline</w>": 6383,
      "port": 6384,
      "commit": 6385,
      "substrings</w>": 6386,
      "subsequen": 6387,
      "subregions</w>": 6388,
      "wide</w>": 6389,
      "providing</w>": 6390,
      "providers</w>": 6391,
      "initiator</w>": 6392,
      "transmission</w>": 6393,
      "suppres": 6394,
      "selections</w>": 6395,
      "selection": 6396,
      "operands</w>": 6397,
      "wai": 6398,
      "watermar": 6399,
      "playing</w>": 6400,
      "describe</w>": 6401,
      "registering</w>": 6402,
      "singular</w>": 6403,
      "longing</w>": 6404,
      "phr": 6405,
      "component": 6406,
      "ugh": 6407,
      "header": 6408,
      "market</w>": 6409,
      "structur": 6410,
      "configuring</w>": 6411,
      "variants</w>": 6412,
      "overwrite</w>": 6413,
      "manage</w>": 6414,
      "tuation</w>": 6415,
      "angles</w>": 6416,
      "rolls</w>": 6417,
      "flav": 6418,
      "mini": 6419,
      "mini</w>": 6420,
      "foos</w>": 6421,
      "extend</w>": 6422,
      "descriptors</w>": 6423,
      "polar</w>": 6424,
      "coordinator</w>": 6425,
      "relations</w>": 6426,
      "weib": 6427,
      "screens</w>": 6428,
      "putting</w>": 6429,
      "receiving</w>": 6430,
      "approach</w>": 6431,
      "synthe": 6432,
      "overriden</w>": 6433,
      "wrap": 6434,
      "bitstream</w>": 6435,
      "activates</w>": 6436,
      "pie</w>": 6437,
      "division</w>": 6438,
      "namespace": 6439,
      "scroller</w>": 6440,
      "cell": 6441,
      "ronic": 6442,
      "future": 6443,
      "fuzz": 6444,
      "textcharacter</w>": 6445,
      "verification</w>": 6446,
      "replace": 6447,
      "attempting</w>": 6448,
      "radio</w>": 6449,
      "median</w>": 6450,
      "knows</w>": 6451,
      "notice</w>": 6452,
      "populating</w>": 6453,
      "click": 6454,
      "evaluator</w>": 6455,
      "flagged</w>": 6456,
      "schemes</w>": 6457,
      "navigate</w>": 6458,
      "directeded": 6459,
      "grid": 6460,
      "consider</w>": 6461,
      "p_other</w>": 6462,
      "selves</w>": 6463,
      "greater": 6464,
      "testsubscriber</w>": 6465,
      "snaps</w>": 6466,
      "consuming</w>": 6467,
      "drop": 6468,
      "drops</w>": 6469,
      "delimiters</w>": 6470,
      "prototype</w>": 6471,
      "covering</w>": 6472,
      "rotations</w>": 6473,
      "tabbed</w>": 6474,
      "imageto</w>": 6475,
      "abstract": 6476,
      "2001</w>": 6477,
      "ignores</w>": 6478,
      "millisecond</w>": 6479,
      "person</w>": 6480,
      "optimize</w>": 6481,
      "combinations</w>": 6482,
      "rotate_": 6483,
      "periods</w>": 6484,
      "propertybundle</w>": 6485,
      "website</w>": 6486,
      "codewords</w>": 6487,
      "double": 6488,
      "accumulate</w>": 6489,
      "native": 6490,
      "glyph</w>": 6491,
      "slide</w>": 6492,
      "dock": 6493,
      "owned</w>": 6494,
      "attaches</w>": 6495,
      "detach</w>": 6496,
      "sensitivity</w>": 6497,
      "advancing</w>": 6498,
      "saturation</w>": 6499,
      "revert</w>": 6500,
      "specs</w>": 6501,
      "manipul": 6502,
      "scanned</w>": 6503,
      "scanner</w>": 6504,
      "rowindex": 6505,
      "subscribes</w>": 6506,
      "telement</w>": 6507,
      "instantiates</w>": 6508,
      "[][]</w>": 6509,
      "emoj": 6510,
      "invocations</w>": 6511,
      "collapsed</w>": 6512,
      "collapse</w>": 6513,
      "migrate</w>": 6514,
      "wallet</w>": 6515,
      "lazy</w>": 6516,
      "resized</w>": 6517,
      "semantics</w>": 6518,
      "painted</w>": 6519,
      "accessing</w>": 6520,
      "truncate</w>": 6521,
      "interpreter</w>": 6522,
      "cfg</w>": 6523,
      "easier</w>": 6524,
      "permits</w>": 6525,
      "procedural</w>": 6526,
      "ipv6</w>": 6527,
      "recycled</w>": 6528,
      "often</w>": 6529,
      "estimated</w>": 6530,
      "rpc</w>": 6531,
      "denoting</w>": 6532,
      "introdu": 6533,
      "round_half_even</w>": 6534,
      "chooser</w>": 6535,
      "placeholder</w>": 6536,
      "shopping</w>": 6537,
      "granted</w>": 6538,
      "preceding</w>": 6539,
      "permute</w>": 6540,
      "permutation</w>": 6541,
      "spanning</w>": 6542,
      "existent</w>": 6543,
      "relationship</w>": 6544,
      "capitalizes</w>": 6545,
      "canonicalizing</w>": 6546,
      "quickly</w>": 6547,
      "197": 6548,
      "overlapping</w>": 6549,
      "surfacedata</w>": 6550,
      "friend": 6551,
      "explorer</w>": 6552,
      "affec": 6553,
      "lass</w>": 6554,
      "supplemental</w>": 6555,
      "implicit</w>": 6556,
      "zeroes</w>": 6557,
      "point2d</w>": 6558,
      "scores</w>": 6559,
      "discarded</w>": 6560,
      "guarantee</w>": 6561,
      "rmi</w>": 6562,
      "codename</w>": 6563,
      "promise</w>": 6564,
      "persists</w>": 6565,
      "offset_12</w>": 6566,
      "appearance</w>": 6567,
      "1543": 6568,
      "descendants</w>": 6569,
      "pivot</w>": 6570,
      "isolated</w>": 6571,
      "avoi": 6572,
      "recipe</w>": 6573,
      "photo</w>": 6574,
      "syntactically</w>": 6575,
      "hypothesis</w>": 6576,
      "iana</w>": 6577,
      "mqtt</w>": 6578,
      "ncname</w>": 6579,
      "stderr</w>": 6580,
      "movie</w>": 6581,
      "neither</w>": 6582,
      "handshake</w>": 6583,
      "weapon</w>": 6584,
      "suggestions</w>": 6585,
      "punctuation</w>": 6586,
      "wledge</w>": 6587,
      "designated</w>": 6588,
      "poisson</w>": 6589,
      "illegal": 6590,
      "prepended</w>": 6591,
      "subsequently</w>": 6592,
      "15438</w>": 6593,
      "!)</w>": 6594,
      "#<</w>": 6595,
      "${</w>": 6596,
      "'+": 6597,
      "'-": 6598,
      "':": 6599,
      "']'</w>": 6600,
      "(-</w>": 6601,
      "())</w>": 6602,
      ",\"</w>": 6603,
      "-)</w>": 6604,
      "0b": 6605,
      "13</w>": 6606,
      "33": 6607,
      "31</w>": 6608,
      "65</w>": 6609,
      "90</w>": 6610,
      ";'</w>": 6611,
      ";\"</w>": 6612,
      "=\"</w>": 6613,
      ">=</w>": 6614,
      "][</w>": 6615,
      "_id</w>": 6616,
      "_ie</w>": 6617,
      "bb</w>": 6618,
      "bru": 6619,
      "cr</w>": 6620,
      "c2</w>": 6621,
      "cf</w>": 6622,
      "c1</w>": 6623,
      "cms</w>": 6624,
      "cased</w>": 6625,
      "dh": 6626,
      "dns</w>": 6627,
      "dted</w>": 6628,
      "dlistener</w>": 6629,
      "dct</w>": 6630,
      "eg": 6631,
      "em</w>": 6632,
      "ean</w>": 6633,
      "eul": 6634,
      "fc": 6635,
      "fs": 6636,
      "fash": 6637,
      "gf": 6638,
      "gts</w>": 6639,
      "git</w>": 6640,
      "gall": 6641,
      "glob</w>": 6642,
      "gering</w>": 6643,
      "he</w>": 6644,
      "hic": 6645,
      "ipp": 6646,
      "kill</w>": 6647,
      "ll": 6648,
      "ly": 6649,
      "las</w>": 6650,
      "lun</w>": 6651,
      "mx": 6652,
      "mor</w>": 6653,
      "mor": 6654,
      "mware</w>": 6655,
      "nf": 6656,
      "nr</w>": 6657,
      "nion</w>": 6658,
      "ow": 6659,
      "ores</w>": 6660,
      "odes</w>": 6661,
      "oauth</w>": 6662,
      "odd</w>": 6663,
      "pin": 6664,
      "pid</w>": 6665,
      "rcs</w>": 6666,
      "rtcp</w>": 6667,
      "s2</w>": 6668,
      "s1</w>": 6669,
      "secu": 6670,
      "send": 6671,
      "svm</w>": 6672,
      "song</w>": 6673,
      "tan": 6674,
      "tleft</w>": 6675,
      "uids</w>": 6676,
      "wan": 6677,
      "wel": 6678,
      "wiz": 6679,
      "wsp</w>": 6680,
      "x0</w>": 6681,
      "ye</w>": 6682,
      "y0</w>": 6683,
      "ycle</w>": 6684,
      "zi": 6685,
      "reused</w>": 6686,
      "reuse</w>": 6687,
      "really</w>": 6688,
      "repaints</w>": 6689,
      "reconnect</w>": 6690,
      "reinterrupt</w>": 6691,
      "rebalan": 6692,
      "reduced</w>": 6693,
      "init": 6694,
      "invariant</w>": 6695,
      "ancy</w>": 6696,
      "cos</w>": 6697,
      "star</w>": 6698,
      "stret": 6699,
      "alter</w>": 6700,
      "altered</w>": 6701,
      "armor</w>": 6702,
      "ecc": 6703,
      "ecycle</w>": 6704,
      "role": 6705,
      "roles</w>": 6706,
      "fire": 6707,
      "fifo</w>": 6708,
      "assem": 6709,
      "advice</w>": 6710,
      "contr": 6711,
      "concurrent</w>": 6712,
      "concise</w>": 6713,
      "meter</w>": 6714,
      "meters</w>": 6715,
      "metic</w>": 6716,
      "dex</w>": 6717,
      "dead": 6718,
      "turno": 6719,
      "sema": 6720,
      "sewhere</w>": 6721,
      "spo": 6722,
      "unit": 6723,
      "unsuppor": 6724,
      "mpo": 6725,
      "mentexception</w>": 6726,
      "rap": 6727,
      "raft</w>": 6728,
      "raise</w>": 6729,
      "rail</w>": 6730,
      "abs</w>": 6731,
      "resen": 6732,
      "profil": 6733,
      "not": 6734,
      "dian</w>": 6735,
      "dims</w>": 6736,
      "quit</w>": 6737,
      "quater": 6738,
      "poo": 6739,
      "poke": 6740,
      "pointer": 6741,
      "neu": 6742,
      "specifically</w>": 6743,
      "umer": 6744,
      "version": 6745,
      "vipr</w>": 6746,
      "cles</w>": 6747,
      "cloned</w>": 6748,
      "obe": 6749,
      "formal</w>": 6750,
      "cely</w>": 6751,
      "tened</w>": 6752,
      "tar</w>": 6753,
      "tarea</w>": 6754,
      "parse": 6755,
      "party</w>": 6756,
      "belonging</w>": 6757,
      "compac": 6758,
      "dol": 6759,
      "dotted</w>": 6760,
      "ici": 6761,
      "remove": 6762,
      "avat": 6763,
      "ffed</w>": 6764,
      "ela": 6765,
      "elsewhere</w>": 6766,
      "bom</w>": 6767,
      "upgrad": 6768,
      "stream": 6769,
      "sof": 6770,
      "soon</w>": 6771,
      "location": 6772,
      "elem": 6773,
      "genome</w>": 6774,
      "readdata</w>": 6775,
      "igible</w>": 6776,
      "generate": 6777,
      "generally</w>": 6778,
      "prev": 6779,
      "predefined</w>": 6780,
      "finite</w>": 6781,
      "finalize</w>": 6782,
      "option": 6783,
      "oldest</w>": 6784,
      "idx</w>": 6785,
      "id3</w>": 6786,
      "writers</w>": 6787,
      "dist</w>": 6788,
      "disconnection</w>": 6789,
      "disabling</w>": 6790,
      "discover</w>": 6791,
      "disregarding</w>": 6792,
      "fake</w>": 6793,
      "firmware</w>": 6794,
      "procedu": 6795,
      "feed": 6796,
      "handle": 6797,
      "initiated</w>": 6798,
      "stem": 6799,
      "suppressed</w>": 6800,
      "imag": 6801,
      "impo": 6802,
      "impro": 6803,
      "wake</w>": 6804,
      "empty": 6805,
      "ecutor</w>": 6806,
      "afx</w>": 6807,
      "phore</w>": 6808,
      "primar": 6809,
      "collection": 6810,
      "heading</w>": 6811,
      "systems</w>": 6812,
      "argumentexception</w>": 6813,
      "javafx</w>": 6814,
      "logix</w>": 6815,
      "sequent</w>": 6816,
      "overall</w>": 6817,
      "dougl": 6818,
      "manner</w>": 6819,
      "hole</w>": 6820,
      "octagon</w>": 6821,
      "complement</w>": 6822,
      "formatters</w>": 6823,
      "extension": 6824,
      "withposition</w>": 6825,
      "decay</w>": 6826,
      "unions</w>": 6827,
      "unique": 6828,
      "folds</w>": 6829,
      "plugins</w>": 6830,
      "ified</w>": 6831,
      "casting</w>": 6832,
      "screen": 6833,
      "enumber</w>": 6834,
      "facts</w>": 6835,
      "synth</w>": 6836,
      "underline</w>": 6837,
      "pee": 6838,
      "pem</w>": 6839,
      "crhon": 6840,
      "modifications</w>": 6841,
      "mainly</w>": 6842,
      "month": 6843,
      "months</w>": 6844,
      "flows</w>": 6845,
      "hiber": 6846,
      "assert": 6847,
      "packets</w>": 6848,
      "hashset</w>": 6849,
      "fixup</w>": 6850,
      "centers</w>": 6851,
      "instant</w>": 6852,
      "sender</w>": 6853,
      "adapts</w>": 6854,
      "additionally</w>": 6855,
      "verified</w>": 6856,
      "convex</w>": 6857,
      "shifted</w>": 6858,
      "shifter_": 6859,
      "shiftleft</w>": 6860,
      "knowledge</w>": 6861,
      "notifying</w>": 6862,
      "factors</w>": 6863,
      "estimation</w>": 6864,
      "allocator</w>": 6865,
      "--------------": 6866,
      "shapes</w>": 6867,
      "vehic": 6868,
      "symmetric</w>": 6869,
      "snipp": 6870,
      "pointed</w>": 6871,
      "functional</w>": 6872,
      "extracting</w>": 6873,
      "indexof</w>": 6874,
      "directive</w>": 6875,
      "openssl</w>": 6876,
      "openam</w>": 6877,
      "ham</w>": 6878,
      "asyncrhon": 6879,
      "test2</w>": 6880,
      "testbit</w>": 6881,
      "testupdate": 6882,
      "testdelete": 6883,
      "atomic</w>": 6884,
      "ette</w>": 6885,
      "groupid</w>": 6886,
      "consumers</w>": 6887,
      "picks</w>": 6888,
      "temporal</w>": 6889,
      "concatenating</w>": 6890,
      "goto</w>": 6891,
      "invoke": 6892,
      "reported</w>": 6893,
      "imageicon</w>": 6894,
      "switches</w>": 6895,
      "audit</w>": 6896,
      "exceeds</w>": 6897,
      "breaking</w>": 6898,
      "intended</w>": 6899,
      "libraries</w>": 6900,
      "everyone</w>": 6901,
      "clearance</w>": 6902,
      "synchronize</w>": 6903,
      "approxima": 6904,
      "dispatches</w>": 6905,
      "submitter</w>": 6906,
      "behaviour</w>": 6907,
      "drive</w>": 6908,
      "cleaned</w>": 6909,
      "glyph": 6910,
      "parent": 6911,
      "parenthe": 6912,
      "parenthesis</w>": 6913,
      "lexecutor</w>": 6914,
      "stuffed</w>": 6915,
      "restricted</w>": 6916,
      "midi</w>": 6917,
      "watch": 6918,
      "watcher</w>": 6919,
      "blocksnapshot</w>": 6920,
      "jsonarray</w>": 6921,
      "intervall</w>": 6922,
      "severe</w>": 6923,
      "internal": 6924,
      "indents</w>": 6925,
      "updatefunctionality": 6926,
      "arithmetic</w>": 6927,
      "reserve</w>": 6928,
      "explored</w>": 6929,
      "license</w>": 6930,
      "udp</w>": 6931,
      "claim</w>": 6932,
      "easily</w>": 6933,
      "deploy</w>": 6934,
      "inherit": 6935,
      "geometries</w>": 6936,
      "evidence</w>": 6937,
      "toggles</w>": 6938,
      "introduced</w>": 6939,
      "round_half_up</w>": 6940,
      "pools</w>": 6941,
      "respecting</w>": 6942,
      "respective</w>": 6943,
      "========": 6944,
      "conflict</w>": 6945,
      "httpclient</w>": 6946,
      "limitline</w>": 6947,
      "nicely</w>": 6948,
      "alarm": 6949,
      "alarm</w>": 6950,
      "deletefunctionalitytest</w>": 6951,
      "slee": 6952,
      "netscape</w>": 6953,
      "quicksort</w>": 6954,
      "intercept</w>": 6955,
      "128</w>": 6956,
      "silent</w>": 6957,
      "phone": 6958,
      "multiplies</w>": 6959,
      "100000</w>": 6960,
      "ciphertext</w>": 6961,
      "encapsulates</w>": 6962,
      "jmx</w>": 6963,
      "pkcs</w>": 6964,
      "inlining</w>": 6965,
      "shards</w>": 6966,
      "workercount</w>": 6967,
      "spawn</w>": 6968,
      "dominated</w>": 6969,
      "triangul": 6970,
      "throw_ie</w>": 6971,
      "bufferedimage</w>": 6972,
      "logical_shift_left</w>": 6973,
      "sharedprefs</w>": 6974,
      "assume</w>": 6975,
      "compliant</w>": 6976,
      "trimming</w>": 6977,
      "camel</w>": 6978,
      "edited</w>": 6979,
      "yaml</w>": 6980,
      "asterisk</w>": 6981,
      "engineering</w>": 6982,
      "markerwithposition</w>": 6983,
      "installation</w>": 6984,
      "retuned</w>": 6985,
      "lifecycle</w>": 6986,
      "cubic</w>": 6987,
      "walkgraph</w>": 6988,
      "brief</w>": 6989,
      "bandwidth</w>": 6990,
      "palette</w>": 6991,
      "assemb": 6992,
      "confers</w>": 6993,
      "exercise</w>": 6994,
      "plug</w>": 6995,
      "intermediate</w>": 6996,
      "waiter</w>": 6997,
      "directededges</w>": 6998,
      "dockconstraint</w>": 6999,
      "illegalargumentexception</w>": 7000,
      "brute</w>": 7001,
      "fashion</w>": 7002,
      "gallery</w>": 7003,
      "semaphore</w>": 7004,
      "quaternion</w>": 7005,
      "pokemon</w>": 7006,
      "pointers</w>": 7007,
      "feedback</w>": 7008,
      "douglas</w>": 7009,
      "hibernate</w>": 7010,
      "vehicle</w>": 7011,
      "updatefunctionalitytest2</w>": 7012,
      "')": 7013,
      "('</w>": 7014,
      "++</w>": 7015,
      "//": 7016,
      "24": 7017,
      "24</w>": 7018,
      "39": 7019,
      "3c</w>": 7020,
      "34</w>": 7021,
      "66</w>": 7022,
      "75": 7023,
      "]\"</w>": 7024,
      "_cl": 7025,
      "_sc": 7026,
      "air</w>": 7027,
      "aka</w>": 7028,
      "bn": 7029,
      "bing</w>": 7030,
      "bid": 7031,
      "bau": 7032,
      "bars</w>": 7033,
      "bling</w>": 7034,
      "bagg": 7035,
      "bright": 7036,
      "bresen": 7037,
      "cc": 7038,
      "ctr": 7039,
      "cmy": 7040,
      "c32</w>": 7041,
      "dx</w>": 7042,
      "das</w>": 7043,
      "dashes</w>": 7044,
      "eding</w>": 7045,
      "fx": 7046,
      "fly</w>": 7047,
      "gi": 7048,
      "gab": 7049,
      "gate": 7050,
      "gps</w>": 7051,
      "gmt</w>": 7052,
      "hue</w>": 7053,
      "hack</w>": 7054,
      "href</w>": 7055,
      "hll</w>": 7056,
      "ia</w>": 7057,
      "icons</w>": 7058,
      "jms</w>": 7059,
      "jam": 7060,
      "lp": 7061,
      "lan</w>": 7062,
      "lsl</w>": 7063,
      "lru</w>": 7064,
      "mb</w>": 7065,
      "mur": 7066,
      "mfirst": 7067,
      "nth</w>": 7068,
      "ndef</w>": 7069,
      "npc</w>": 7070,
      "od": 7071,
      "ov": 7072,
      "ore": 7073,
      "oval</w>": 7074,
      "ply</w>": 7075,
      "qdesc": 7076,
      "rare</w>": 7077,
      "rating</w>": 7078,
      "slow</w>": 7079,
      "tr</w>": 7080,
      "tin": 7081,
      "tpath</w>": 7082,
      "trou": 7083,
      "tck</w>": 7084,
      "vcenter</w>": 7085,
      "vdc</w>": 7086,
      "wasn</w>": 7087,
      "xlint</w>": 7088,
      "zk": 7089,
      "ze</w>": 7090,
      "zk</w>": 7091,
      "zation</w>": 7092,
      "zones</w>": 7093,
      "ther": 7094,
      "review</w>": 7095,
      "rewrite</w>": 7096,
      "recalculates</w>": 7097,
      "reduc": 7098,
      "reallocates</w>": 7099,
      "rehashes</w>": 7100,
      "inspec": 7101,
      "tein</w>": 7102,
      "tears</w>": 7103,
      "tesian</w>": 7104,
      "tedoper": 7105,
      "atri": 7106,
      "ender</w>": 7107,
      "eness</w>": 7108,
      "stand</w>": 7109,
      "alt</w>": 7110,
      "albu": 7111,
      "allow": 7112,
      "arily</w>": 7113,
      "ary_": 7114,
      "rop</w>": 7115,
      "roman</w>": 7116,
      "tile": 7117,
      "tient</w>": 7118,
      "tiene</w>": 7119,
      "titem</w>": 7120,
      "fic</w>": 7121,
      "fits</w>": 7122,
      "aci</w>": 7123,
      "actional</w>": 7124,
      "adb</w>": 7125,
      "admini": 7126,
      "chap": 7127,
      "chmark</w>": 7128,
      "chine": 7129,
      "ivial</w>": 7130,
      "conform": 7131,
      "isted</w>": 7132,
      "meta": 7133,
      "dev": 7134,
      "dedic": 7135,
      "deals</w>": 7136,
      "loc</w>": 7137,
      "spr": 7138,
      "spi</w>": 7139,
      "sphere</w>": 7140,
      "tru": 7141,
      "trivial</w>": 7142,
      "unload</w>": 7143,
      "unchanged</w>": 7144,
      "unlinks</w>": 7145,
      "valores</w>": 7146,
      "mp4": 7147,
      "sibling</w>": 7148,
      "menus</w>": 7149,
      "whate": 7150,
      "raw": 7151,
      "exchange</w>": 7152,
      "explan": 7153,
      "mod</w>": 7154,
      "resum": 7155,
      "mathe": 7156,
      "now": 7157,
      "note": 7158,
      "thous": 7159,
      "quad": 7160,
      "poly</w>": 7161,
      "iled</w>": 7162,
      "rical</w>": 7163,
      "viol": 7164,
      "vication</w>": 7165,
      "apdu</w>": 7166,
      "cess": 7167,
      "tates</w>": 7168,
      "perman": 7169,
      "beh": 7170,
      "bered</w>": 7171,
      "pus</w>": 7172,
      "dog</w>": 7173,
      "ssl": 7174,
      "bold</w>": 7175,
      "locpath": 7176,
      "element": 7177,
      "elevation</w>": 7178,
      "scrat": 7179,
      "reader": 7180,
      "readers</w>": 7181,
      "interactive</w>": 7182,
      "interacting</w>": 7183,
      "typev": 7184,
      "where": 7185,
      "finalized</w>": 7186,
      "recipi": 7187,
      "chance</w>": 7188,
      "pauses</w>": 7189,
      "regular": 7190,
      "representations</w>": 7191,
      "append": 7192,
      "writer": 7193,
      "rant</w>": 7194,
      "ando</w>": 7195,
      "andler</w>": 7196,
      "disc</w>": 7197,
      "entiation</w>": 7198,
      "entirely</w>": 7199,
      "worst</w>": 7200,
      "fair</w>": 7201,
      "lities</w>": 7202,
      "sigma</w>": 7203,
      "guard</w>": 7204,
      "subscript</w>": 7205,
      "subsequent</w>": 7206,
      "supposed</w>": 7207,
      "ated": 7208,
      "grows</w>": 7209,
      "drain</w>": 7210,
      "builders</w>": 7211,
      "register": 7212,
      "after": 7213,
      "edt</w>": 7214,
      "edits</w>": 7215,
      "ames</w>": 7216,
      "headless</w>": 7217,
      "ago</w>": 7218,
      "overwrites</w>": 7219,
      "overwriting</w>": 7220,
      "hot": 7221,
      "sort": 7222,
      "sorted": 7223,
      "hell": 7224,
      "complete": 7225,
      "client": 7226,
      "roll": 7227,
      "quipment</w>": 7228,
      "mina</w>": 7229,
      "iterating</w>": 7230,
      "ordinal</w>": 7231,
      "backbuffer</w>": 7232,
      "north</w>": 7233,
      "joint</w>": 7234,
      "timeline</w>": 7235,
      "essentially</w>": 7236,
      "identity": 7237,
      "separation</w>": 7238,
      "level": 7239,
      "databases</w>": 7240,
      "decision</w>": 7241,
      "needing</w>": 7242,
      "apply": 7243,
      "enumerated</w>": 7244,
      "sums</w>": 7245,
      "overriding</w>": 7246,
      "shorten</w>": 7247,
      "capable</w>": 7248,
      "captures</w>": 7249,
      "captured</w>": 7250,
      "status": 7251,
      "warrant</w>": 7252,
      "crls</w>": 7253,
      "crc32</w>": 7254,
      "compared</w>": 7255,
      "animating</w>": 7256,
      "mony</w>": 7257,
      "ticket</w>": 7258,
      "expects</w>": 7259,
      "expected": 7260,
      "fixme</w>": 7261,
      "resolve": 7262,
      "push": 7263,
      "quotation</w>": 7264,
      "quotient</w>": 7265,
      "adapters</w>": 7266,
      "instrumentation</w>": 7267,
      "mute</w>": 7268,
      "mutation</w>": 7269,
      "cartesian</w>": 7270,
      "sink</w>": 7271,
      "downloads</w>": 7272,
      "downloading</w>": 7273,
      "keystroke</w>": 7274,
      "scripting</w>": 7275,
      "notivication</w>": 7276,
      "failing</w>": 7277,
      "chunked</w>": 7278,
      "brace</w>": 7279,
      "crops</w>": 7280,
      "checkpoint</w>": 7281,
      "bytearray": 7282,
      "region": 7283,
      "symbol": 7284,
      "directions</w>": 7285,
      "network": 7286,
      "esri": 7287,
      "consideration</w>": 7288,
      "circu": 7289,
      "policy": 7290,
      "reasons</w>": 7291,
      "defend</w>": 7292,
      "pathname</w>": 7293,
      "schemas</w>": 7294,
      "tabstate</w>": 7295,
      "imageview</w>": 7296,
      "alphan": 7297,
      "plots</w>": 7298,
      "swapping</w>": 7299,
      "anym</w>": 7300,
      "interrupts</w>": 7301,
      "abstrac": 7302,
      "treats</w>": 7303,
      "metric": 7304,
      "purpose</w>": 7305,
      "exponentiation</w>": 7306,
      "correctness</w>": 7307,
      "sample": 7308,
      "optimum</w>": 7309,
      "optimization</w>": 7310,
      "startdate</w>": 7311,
      "resolving</w>": 7312,
      "matic</w>": 7313,
      "indirect</w>": 7314,
      "zooms</w>": 7315,
      "interpolation</w>": 7316,
      "latl": 7317,
      "latlon": 7318,
      "managing</w>": 7319,
      "problems</w>": 7320,
      "little": 7321,
      "scheduling</w>": 7322,
      "classifies</w>": 7323,
      "codepoint</w>": 7324,
      "viewpoint</w>": 7325,
      "viewport</w>": 7326,
      "fetched</w>": 7327,
      "bundles</w>": 7328,
      "branches</w>": 7329,
      "decrementing</w>": 7330,
      "glsurface": 7331,
      "sparql</w>": 7332,
      "declares</w>": 7333,
      "docs</w>": 7334,
      "docker</w>": 7335,
      "oma</w>": 7336,
      "reduces</w>": 7337,
      "routines</w>": 7338,
      "planes</w>": 7339,
      "transpo": 7340,
      "observation</w>": 7341,
      "observable</w>": 7342,
      "repo</w>": 7343,
      "mapmouse": 7344,
      "mouseevent</w>": 7345,
      "ggbb</w>": 7346,
      "telegram</w>": 7347,
      "exports</w>": 7348,
      "exported</w>": 7349,
      "instantiation</w>": 7350,
      "aware</w>": 7351,
      "rfc": 7352,
      "protection": 7353,
      "substitutions</w>": 7354,
      "threadpoo": 7355,
      "resizes</w>": 7356,
      "vertically</w>": 7357,
      "brokerc</w>": 7358,
      "serviceby": 7359,
      "truncated</w>": 7360,
      "facebook</w>": 7361,
      "cfml</w>": 7362,
      "applications</w>": 7363,
      "application": 7364,
      "vow": 7365,
      "parameterization</w>": 7366,
      "highlighted</w>": 7367,
      "highlighting</w>": 7368,
      "bookmarks</w>": 7369,
      "injector</w>": 7370,
      "ideal</w>": 7371,
      "denotes</w>": 7372,
      "0x0": 7373,
      "infinity</w>": 7374,
      "confirm</w>": 7375,
      "confirmation</w>": 7376,
      "sockets</w>": 7377,
      "round_half_down</w>": 7378,
      "attributevalue</w>": 7379,
      "respectively</w>": 7380,
      "partitioned</w>": 7381,
      "limitlines</w>": 7382,
      "harmony</w>": 7383,
      "customize</w>": 7384,
      "animates</w>": 7385,
      "breakpoint</w>": 7386,
      "benchmark</w>": 7387,
      "mixed</w>": 7388,
      "friends</w>": 7389,
      "reconstitu": 7390,
      "methodname</w>": 7391,
      "grace": 7392,
      "k_tck</w>": 7393,
      "accounting</w>": 7394,
      "transmit</w>": 7395,
      "freemarker</w>": 7396,
      "ciphersuites</w>": 7397,
      "smooth": 7398,
      "arrive</w>": 7399,
      "menuitem</w>": 7400,
      "magic</w>": 7401,
      "expandable</w>": 7402,
      "jpg</w>": 7403,
      "saniti": 7404,
      "supplier</w>": 7405,
      "evicted</w>": 7406,
      "infos</w>": 7407,
      "positioning</w>": 7408,
      "sysconf</w>": 7409,
      "subtracts</w>": 7410,
      "transformer</w>": 7411,
      "grabpoint</w>": 7412,
      "timestamps</w>": 7413,
      "participant</w>": 7414,
      "unmanagedvolume</w>": 7415,
      "skewed</w>": 7416,
      "yields</w>": 7417,
      "diagram</w>": 7418,
      "faults</w>": 7419,
      "accessibility</w>": 7420,
      "vorbis": 7421,
      "dummy</w>": 7422,
      "envelope</w>": 7423,
      "datatype</w>": 7424,
      "conversation</w>": 7425,
      "health</w>": 7426,
      "week": 7427,
      "periodically</w>": 7428,
      "caution</w>": 7429,
      "malici": 7430,
      "nbt</w>": 7431,
      "thanequal</w>": 7432,
      "desktop</w>": 7433,
      "watermark</w>": 7434,
      "phrase</w>": 7435,
      "structural</w>": 7436,
      "wrappers</w>": 7437,
      "emoji</w>": 7438,
      "friendly</w>": 7439,
      "avoiding</w>": 7440,
      "wanted</w>": 7441,
      "wizard</w>": 7442,
      "unsupportedoper": 7443,
      "umeric</w>": 7444,
      "imagec": 7445,
      "inheritance</w>": 7446,
      "_clk_tck</w>": 7447,
      "_sc_clk_tck</w>": 7448,
      "baud</w>": 7449,
      "brightness</w>": 7450,
      "bresenham</w>": 7451,
      "cmyk</w>": 7452,
      "administr": 7453,
      "chapter</w>": 7454,
      "dedicated</w>": 7455,
      "whatever</w>": 7456,
      "explanation</w>": 7457,
      "resuming</w>": 7458,
      "permanently</w>": 7459,
      "locpathiterator</w>": 7460,
      "scratch</w>": 7461,
      "recipient</w>": 7462,
      "bytearrayoutputstream</w>": 7463,
      "glsurfaceview</w>": 7464,
      "threadpoolexecutor</w>": 7465,
      "malicious</w>": 7466,
      "unsupportedoperationexception</w>": 7467,
      "\";</w>": 7468,
      "'<": 7469,
      "(\"": 7470,
      "**</w>": 7471,
      "15</w>": 7472,
      "26": 7473,
      "27": 7474,
      "2polynomial</w>": 7475,
      "40": 7476,
      "41": 7477,
      "60</w>": 7478,
      ":<</w>": 7479,
      ":\"</w>": 7480,
      "://": 7481,
      "=,": 7482,
      "=></w>": 7483,
      ">-</w>": 7484,
      "[\"</w>": 7485,
      "[[</w>": 7486,
      "]!</w>": 7487,
      "_data</w>": 7488,
      "aren": 7489,
      "agen": 7490,
      "aws</w>": 7491,
      "aug": 7492,
      "aque</w>": 7493,
      "aimed</w>": 7494,
      "bk": 7495,
      "ba</w>": 7496,
      "bi</w>": 7497,
      "bad": 7498,
      "ban</w>": 7499,
      "bread": 7500,
      "bad</w>": 7501,
      "bloo": 7502,
      "btn": 7503,
      "cb": 7504,
      "ck": 7505,
      "cl</w>": 7506,
      "casc": 7507,
      "cash</w>": 7508,
      "cmr</w>": 7509,
      "dn": 7510,
      "din</w>": 7511,
      "dup": 7512,
      "ee</w>": 7513,
      "espaced</w>": 7514,
      "fm</w>": 7515,
      "fter</w>": 7516,
      "fing": 7517,
      "ftest</w>": 7518,
      "gen</w>": 7519,
      "had": 7520,
      "hop": 7521,
      "hatt": 7522,
      "hdfs</w>": 7523,
      "ich": 7524,
      "ion": 7525,
      "ian</w>": 7526,
      "je": 7527,
      "jan": 7528,
      "jlist</w>": 7529,
      "jack": 7530,
      "kk": 7531,
      "md</w>": 7532,
      "mo</w>": 7533,
      "mine</w>": 7534,
      "mmessage</w>": 7535,
      "mech</w>": 7536,
      "mbeans</w>": 7537,
      "nn": 7538,
      "nt": 7539,
      "nx": 7540,
      "ne</w>": 7541,
      "oti": 7542,
      "omes</w>": 7543,
      "ps": 7544,
      "po</w>": 7545,
      "pin</w>": 7546,
      "plist</w>": 7547,
      "rdn</w>": 7548,
      "rrence</w>": 7549,
      "su</w>": 7550,
      "sten": 7551,
      "slistener</w>": 7552,
      "tx": 7553,
      "ton</w>": 7554,
      "tas</w>": 7555,
      "tting</w>": 7556,
      "uim": 7557,
      "vb": 7558,
      "v1</w>": 7559,
      "vms</w>": 7560,
      "wsp": 7561,
      "wever</w>": 7562,
      "w3c</w>": 7563,
      "y2</w>": 7564,
      "ylight</w>": 7565,
      "zed</w>": 7566,
      "}/": 7567,
      "thu": 7568,
      "thandler</w>": 7569,
      "rer</w>": 7570,
      "rep</w>": 7571,
      "rest": 7572,
      "recreate</w>": 7573,
      "reli": 7574,
      "rerandom</w>": 7575,
      "restarts</w>": 7576,
      "relay</w>": 7577,
      "reorgan": 7578,
      "inf</w>": 7579,
      "inits</w>": 7580,
      "invalid": 7581,
      "inear</w>": 7582,
      "inet": 7583,
      "inference</w>": 7584,
      "team</w>": 7585,
      "ener": 7586,
      "enger</w>": 7587,
      "enlar": 7588,
      "coding</w>": 7589,
      "covariance</w>": 7590,
      "std</w>": 7591,
      "station</w>": 7592,
      "stren": 7593,
      "stable</w>": 7594,
      "strong</w>": 7595,
      "arg": 7596,
      "arro": 7597,
      "arly</w>": 7598,
      "arrow": 7599,
      "erradi": 7600,
      "ection</w>": 7601,
      "ectl</w>": 7602,
      "ros</w>": 7603,
      "rons</w>": 7604,
      "roper": 7605,
      "tiff</w>": 7606,
      "oran": 7607,
      "actor</w>": 7608,
      "acron": 7609,
      "itr</w>": 7610,
      "asking</w>": 7611,
      "ads</w>": 7612,
      "advis": 7613,
      "onquery</w>": 7614,
      "contexts</w>": 7615,
      "conjunction</w>": 7616,
      "isible</w>": 7617,
      "des": 7618,
      "depar": 7619,
      "dead</w>": 7620,
      "delay": 7621,
      "detection</w>": 7622,
      "turning</w>": 7623,
      "seek</w>": 7624,
      "sealed</w>": 7625,
      "los</w>": 7626,
      "lot</w>": 7627,
      "leases</w>": 7628,
      "spin": 7629,
      "spon": 7630,
      "spati": 7631,
      "spans</w>": 7632,
      "trun": 7633,
      "undo": 7634,
      "unset</w>": 7635,
      "unary</w>": 7636,
      "unpack": 7637,
      "unordered</w>": 7638,
      "unprocessed</w>": 7639,
      "unparsed</w>": 7640,
      "unscaled</w>": 7641,
      "unbounded</w>": 7642,
      "unbalanced</w>": 7643,
      "uncaught</w>": 7644,
      "ulp</w>": 7645,
      "mpi</w>": 7646,
      "sition</w>": 7647,
      "mention</w>": 7648,
      "which": 7649,
      "ray</w>": 7650,
      "rated</w>": 7651,
      "moun": 7652,
      "mount</w>": 7653,
      "promo": 7654,
      "proportion</w>": 7655,
      "nowarn</w>": 7656,
      "posing</w>": 7657,
      "popped</w>": 7658,
      "posed": 7659,
      "buto</w>": 7660,
      "specif": 7661,
      "need": 7662,
      "neath</w>": 7663,
      "ride</w>": 7664,
      "forced</w>": 7665,
      "sube": 7666,
      "suffici": 7667,
      "parfor</w>": 7668,
      "parity</w>": 7669,
      "dos": 7670,
      "doors</w>": 7671,
      "checked": 7672,
      "sso": 7673,
      "sso</w>": 7674,
      "shiel": 7675,
      "avl</w>": 7676,
      "keyp": 7677,
      "tware</w>": 7678,
      "toast</w>": 7679,
      "today</w>": 7680,
      "tomb": 7681,
      "eligible</w>": 7682,
      "bot</w>": 7683,
      "upc</w>": 7684,
      "uploading</w>": 7685,
      "sole": 7686,
      "ingu": 7687,
      "inginstruction</w>": 7688,
      "preset</w>": 7689,
      "precondition</w>": 7690,
      "preprocessor</w>": 7691,
      "precalculated</w>": 7692,
      "values": 7693,
      "rects</w>": 7694,
      "itely</w>": 7695,
      "opposi": 7696,
      "oplog</w>": 7697,
      "oppos": 7698,
      "opaque</w>": 7699,
      "startelement</w>": 7700,
      "alizable</w>": 7701,
      "presented</w>": 7702,
      "idp</w>": 7703,
      "messaging</w>": 7704,
      "messenger</w>": 7705,
      "indeed</w>": 7706,
      "viewh": 7707,
      "appender</w>": 7708,
      "matical</w>": 7709,
      "ranking</w>": 7710,
      "andnot</w>": 7711,
      "andtime</w>": 7712,
      "entitle": 7713,
      "syll": 7714,
      "life": 7715,
      "sam</w>": 7716,
      "sizectl</w>": 7717,
      "guar": 7718,
      "prng</w>": 7719,
      "subqueries</w>": 7720,
      "subroutine</w>": 7721,
      "subraster</w>": 7722,
      "cile</w>": 7723,
      "thered</w>": 7724,
      "equations</w>": 7725,
      "feel</w>": 7726,
      "federation</w>": 7727,
      "feature": 7728,
      "provider": 7729,
      "ttables</w>": 7730,
      "param": 7731,
      "paragraphs</w>": 7732,
      "tweight</w>": 7733,
      "grav": 7734,
      "engines</w>": 7735,
      "stock</w>": 7736,
      "selected": 7737,
      "integra": 7738,
      "ucum": 7739,
      "ucker</w>": 7740,
      "signing</w>": 7741,
      "signum</w>": 7742,
      "groov": 7743,
      "serie</w>": 7744,
      "computer</w>": 7745,
      "respond</w>": 7746,
      "responses</w>": 7747,
      "runstate</w>": 7748,
      "runner</w>": 7749,
      "loaders</w>": 7750,
      "ambig": 7751,
      "amden": 7752,
      "oken</w>": 7753,
      "log2</w>": 7754,
      "aud": 7755,
      "variable": 7756,
      "through": 7757,
      "manual</w>": 7758,
      "manhatt": 7759,
      "invest": 7760,
      "invisible</w>": 7761,
      "hot</w>": 7762,
      "however</w>": 7763,
      "rub": 7764,
      "frag": 7765,
      "defining</w>": 7766,
      "cannon": 7767,
      "complexity</w>": 7768,
      "utilities</w>": 7769,
      "sector</w>": 7770,
      "binder</w>": 7771,
      "offers</w>": 7772,
      "offline</w>": 7773,
      "minid": 7774,
      "iteratively</w>": 7775,
      "processors</w>": 7776,
      "processinginstruction</w>": 7777,
      "timer": 7778,
      "wind</w>": 7779,
      "model": 7780,
      "decl</w>": 7781,
      "decreas": 7782,
      "decisions</w>": 7783,
      "unionquery</w>": 7784,
      "visits</w>": 7785,
      "visually</w>": 7786,
      "setter</w>": 7787,
      "batches</w>": 7788,
      "emr</w>": 7789,
      "translators</w>": 7790,
      "differs</w>": 7791,
      "facet</w>": 7792,
      "synony": 7793,
      "synapses</w>": 7794,
      "partially</w>": 7795,
      "underneath</w>": 7796,
      "describes</w>": 7797,
      "peucker</w>": 7798,
      "standby</w>": 7799,
      "projected</w>": 7800,
      "projection": 7801,
      "distributions</w>": 7802,
      "smb</w>": 7803,
      "float": 7804,
      "histor": 7805,
      "refer</w>": 7806,
      "referred</w>": 7807,
      "expecting</w>": 7808,
      "orial</w>": 7809,
      "announ": 7810,
      "merger</w>": 7811,
      "sense</w>": 7812,
      "normal": 7813,
      "futures</w>": 7814,
      "instrumented</w>": 7815,
      "touch": 7816,
      "mutual</w>": 7817,
      "mutates</w>": 7818,
      "textfield</w>": 7819,
      "carri": 7820,
      "cartitem</w>": 7821,
      "retrieving</w>": 7822,
      "ational": 7823,
      "downside</w>": 7824,
      "attempted</w>": 7825,
      "keyed</w>": 7826,
      "finishing</w>": 7827,
      "conventi": 7828,
      "triggering</w>": 7829,
      "media": 7830,
      "workers</w>": 7831,
      "workaround</w>": 7832,
      "setting": 7833,
      "playback</w>": 7834,
      "authn": 7835,
      "authoriz": 7836,
      "certificate": 7837,
      "braces</w>": 7838,
      "succeeds</w>": 7839,
      "broker</w>": 7840,
      "ipaddress</w>": 7841,
      "oop</w>": 7842,
      "convention</w>": 7843,
      "snmp</w>": 7844,
      "biome</w>": 7845,
      "checkpoints</w>": 7846,
      "convenient</w>": 7847,
      "terminating</w>": 7848,
      "terminals</w>": 7849,
      "directional</w>": 7850,
      "remotely</w>": 7851,
      "chromo": 7852,
      "chrome</w>": 7853,
      "esce</w>": 7854,
      "crypto": 7855,
      "expires</w>": 7856,
      "policies</w>": 7857,
      "category": 7858,
      "autocomplete</w>": 7859,
      "automatic</w>": 7860,
      "occurring</w>": 7861,
      "occurrrence</w>": 7862,
      "looked</w>": 7863,
      "spea": 7864,
      "simulator</w>": 7865,
      "picked</w>": 7866,
      "repeating</w>": 7867,
      "pathpattern</w>": 7868,
      "snapshot": 7869,
      "ioexception</w>": 7870,
      "imageconsumer</w>": 7871,
      "audio": 7872,
      "hexes</w>": 7873,
      "swapped</w>": 7874,
      "scopes</w>": 7875,
      "cookies</w>": 7876,
      "trait</w>": 7877,
      "trees</w>": 7878,
      "purch": 7879,
      "purge</w>": 7880,
      "holders</w>": 7881,
      "aliasing</w>": 7882,
      "combine</w>": 7883,
      "dateandtime</w>": 7884,
      "compiling</w>": 7885,
      "payment": 7886,
      "root": 7887,
      "comparisons</w>": 7888,
      "interpolates</w>": 7889,
      "latch</w>": 7890,
      "scheduled": 7891,
      "diagonal</w>": 7892,
      "launched</w>": 7893,
      "beancontextmembership</w>": 7894,
      "excludes</w>": 7895,
      "destroyed</w>": 7896,
      "changedlistener</w>": 7897,
      "xmltree</w>": 7898,
      "decrease</w>": 7899,
      "precise</w>": 7900,
      "omgraphic</w>": 7901,
      "tokenization</w>": 7902,
      "issuers</w>": 7903,
      "device": 7904,
      "distingu": 7905,
      "xxxx</w>": 7906,
      "leaks</w>": 7907,
      "watching</w>": 7908,
      "mouselistener</w>": 7909,
      "longtext</w>": 7910,
      "traverses</w>": 7911,
      "postg": 7912,
      "eventlistener</w>": 7913,
      "barging</w>": 7914,
      "telegrams</w>": 7915,
      "emote": 7916,
      "emotes</w>": 7917,
      "emote</w>": 7918,
      "decrypt</w>": 7919,
      "collapses</w>": 7920,
      "noncentral</w>": 7921,
      "substitutes</w>": 7922,
      "recover</w>": 7923,
      "painter</w>": 7924,
      "interprets</w>": 7925,
      "lista</w>": 7926,
      "facets</w>": 7927,
      "bert</w>": 7928,
      "stax</w>": 7929,
      "varint</w>": 7930,
      "satisfy</w>": 7931,
      "authorized</w>": 7932,
      "authorities</w>": 7933,
      "orderly</w>": 7934,
      "aspec": 7935,
      "proxied</w>": 7936,
      "continues</w>": 7937,
      "continuous</w>": 7938,
      "shortcuts</w>": 7939,
      "epis": 7940,
      "mdns</w>": 7941,
      "injection</w>": 7942,
      "injected</w>": 7943,
      "artist</w>": 7944,
      "corrects</w>": 7945,
      "sentences</w>": 7946,
      "null": 7947,
      "rrd</w>": 7948,
      "uriresolver</w>": 7949,
      "materialized</w>": 7950,
      "authenticated</w>": 7951,
      "authentication": 7952,
      "2045</w>": 7953,
      "prompting</w>": 7954,
      "safety</w>": 7955,
      "accurate</w>": 7956,
      "\"/\"-</w>": 7957,
      "fusion</w>": 7958,
      "sdcard</w>": 7959,
      "torfactory</w>": 7960,
      "linestring</w>": 7961,
      "composite": 7962,
      "semi</w>": 7963,
      "simplex</w>": 7964,
      "simpledateformat</w>": 7965,
      "+/-</w>": 7966,
      "analyzed</w>": 7967,
      "analyzes</w>": 7968,
      "hardcoded</w>": 7969,
      "drawer": 7970,
      "replicator</w>": 7971,
      "cardinal</w>": 7972,
      "x509</w>": 7973,
      "craw": 7974,
      "zone": 7975,
      "nextbytes</w>": 7976,
      "overlaps</w>": 7977,
      "------+----------------": 7978,
      "dark</w>": 7979,
      "darker</w>": 7980,
      "just": 7981,
      "jumps</w>": 7982,
      "reconcile</w>": 7983,
      "recovery</w>": 7984,
      "inflate</w>": 7985,
      "aborts</w>": 7986,
      "explorenode</w>": 7987,
      "sticsearch</w>": 7988,
      "implicitly</w>": 7989,
      "treebank</w>": 7990,
      "adjustment</w>": 7991,
      "shuffle</w>": 7992,
      "shuffles</w>": 7993,
      "lsb</w>": 7994,
      "account": 7995,
      "discarding</w>": 7996,
      "commandline</w>": 7997,
      "responsedata</w>": 7998,
      "guaranteed</w>": 7999,
      "'\\'</w>": 8000,
      "preserve</w>": 8001,
      "preserving</w>": 8002,
      "deployment</w>": 8003,
      "ecdsa</w>": 8004,
      "doperftest</w>": 8005,
      "activitymap</w>": 8006,
      "storagesystem</w>": 8007,
      "plotters</w>": 8008,
      "redundant</w>": 8009,
      "modulo</w>": 8010,
      "modulus</w>": 8011,
      "virtualpool</w>": 8012,
      "180</w>": 8013,
      "attrstore</w>": 8014,
      "wiki</w>": 8015,
      "visualitems</w>": 8016,
      "kills</w>": 8017,
      "sbj</w>": 8018,
      "sketch</w>": 8019,
      "provisioning</w>": 8020,
      "shrink</w>": 8021,
      "genericactivity</w>": 8022,
      "cloudlet</w>": 8023,
      "buildunionquery</w>": 8024,
      "empirical</w>": 8025,
      "alphabetically</w>": 8026,
      "shoppingcartitem</w>": 8027,
      "spawning</w>": 8028,
      "mobject</w>": 8029,
      "prepends</w>": 8030,
      "annotation": 8031,
      "annotated</w>": 8032,
      "treenode</w>": 8033,
      "happened</w>": 8034,
      "detached</w>": 8035,
      "jtextcomponent</w>": 8036,
      "rhumb</w>": 8037,
      "reminder</w>": 8038,
      "domains</w>": 8039,
      "suppressing</w>": 8040,
      "namespacesupport</w>": 8041,
      "gridviews</w>": 8042,
      "manipulation</w>": 8043,
      "'+',</w>": 8044,
      "':'</w>": 8045,
      "eulerradi": 8046,
      "fsm</w>": 8047,
      "gf2polynomial</w>": 8048,
      "securerandom</w>": 8049,
      "rebalances</w>": 8050,
      "ecc200</w>": 8051,
      "neurons</w>": 8052,
      "elasticsearch</w>": 8053,
      "upgrade</w>": 8054,
      "streamreader</w>": 8055,
      "software</w>": 8056,
      "locationpathpattern</w>": 8057,
      "baggage</w>": 8058,
      "ctrl</w>": 8059,
      "gateway</w>": 8060,
      "jamon</w>": 8061,
      "trouble": 8062,
      "atributo</w>": 8063,
      "album</w>": 8064,
      "chinese</w>": 8065,
      "conforming</w>": 8066,
      "mathematical</w>": 8067,
      "thousand</w>": 8068,
      "wherever</w>": 8069,
      "writeraw": 8070,
      "hotspot</w>": 8071,
      "circuit</w>": 8072,
      "alphanumeric</w>": 8073,
      "latlonpoint</w>": 8074,
      "gracefully</w>": 8075,
      "smoothly</w>": 8076,
      "vorbiscomment</w>": 8077,
      "arena</w>": 8078,
      "hadoop</w>": 8079,
      "reorganizes</w>": 8080,
      "energ": 8081,
      "streng": 8082,
      "whichever</w>": 8083,
      "checkedmessage</w>": 8084,
      "tombst": 8085,
      "opposite_": 8086,
      "opposite</w>": 8087,
      "ambigu": 8088,
      "amdended</w>": 8089,
      "manhattan</w>": 8090,
      "investig": 8091,
      "decreasing</w>": 8092,
      "scheduledthreadpoolexecutor</w>": 8093,
      "eulerradians": 8094,
      "!=</w>": 8095,
      "\"[</w>": 8096,
      "#'</w>": 8097,
      "%)</w>": 8098,
      "'=": 8099,
      "'\"</w>": 8100,
      "'-</w>": 8101,
      "';'</w>": 8102,
      ")^</w>": 8103,
      "*\"</w>": 8104,
      "*-</w>": 8105,
      "03</w>": 8106,
      "22": 8107,
      "30": 8108,
      "3d": 8109,
      "39</w>": 8110,
      "68": 8111,
      "75</w>": 8112,
      "86</w>": 8113,
      ";,</w>": 8114,
      ">],</w>": 8115,
      ">]!</w>": 8116,
      "?,</w>": 8117,
      "_end</w>": 8118,
      "_no</w>": 8119,
      "ab</w>": 8120,
      "ax</w>": 8121,
      "ai</w>": 8122,
      "air": 8123,
      "c_": 8124,
      "ca</w>": 8125,
      "cyp": 8126,
      "cid</w>": 8127,
      "city</w>": 8128,
      "cdatas": 8129,
      "dml</w>": 8130,
      "emul": 8131,
      "fy": 8132,
      "fx</w>": 8133,
      "fas": 8134,
      "fence</w>": 8135,
      "gon": 8136,
      "gstate</w>": 8137,
      "gles</w>": 8138,
      "gym</w>": 8139,
      "hs": 8140,
      "hor": 8141,
      "hil": 8142,
      "hou": 8143,
      "hav": 8144,
      "hbase": 8145,
      "hmac": 8146,
      "iz</w>": 8147,
      "ition</w>": 8148,
      "ient</w>": 8149,
      "ius</w>": 8150,
      "ibr": 8151,
      "jj": 8152,
      "jo</w>": 8153,
      "jan</w>": 8154,
      "jul": 8155,
      "jars</w>": 8156,
      "jre</w>": 8157,
      "kt</w>": 8158,
      "ky</w>": 8159,
      "ken": 8160,
      "kth</w>": 8161,
      "lite": 8162,
      "lication</w>": 8163,
      "lename</w>": 8164,
      "nis</w>": 8165,
      "nor</w>": 8166,
      "night</w>": 8167,
      "nick": 8168,
      "our": 8169,
      "ofin": 8170,
      "omial</w>": 8171,
      "pbe</w>": 8172,
      "pace</w>": 8173,
      "pboard</w>": 8174,
      "ppercase</w>": 8175,
      "poned</w>": 8176,
      "pbk": 8177,
      "rd</w>": 8178,
      "rsa</w>": 8179,
      "son": 8180,
[...]
