{
  "version": "1.0",
  "truncation": null,
  "padding": null,
  "added_tokens": [
    {
      "id": 0,
      "content": "<pad>",
      "single_word": false,
      "lstrip": false,
      "rstrip": false,
      "normalized": false,
      "special": true
    },
    {
      "id": 1,
      "content": "<unk>",
      "single_word": false,
      "lstrip": false,
      "rstrip": false,
      "normalized": false,
      "special": true
    },
    {
      "id": 2,
      "content": "<token_s>",
      "single_word": false,
      "lstrip": false,
      "rstrip": false,
      "normalized": false,
      "special": true
    },
    {
      "id": 3,
      "content": "<type_s>",
      "single_word": false,
      "lstrip": false,
      "rstrip": false,
      "normalized": false,
      "special": true
    },
    {
      "id": 4,
      "content": "</s>",
      "single_word": false,
      "lstrip": false,
      "rstrip": false,
      "normalized": false,
      "special": true
    },
    {
      "id": 5,
      "content": "\"<str>\"",
      "single_word": false,
      "lstrip": false,
      "rstrip": false,
      "normalized": false,
      "special": true
    },
    {
      "id": 6,
      "content": "<masked_code>",
      "single_word": false,
      "lstrip": false,
      "rstrip": false,
      "normalized": false,
      "special": true
    },
    {
      "id": 7,
      "content": "<empty>",
      "single_word": false,
      "lstrip": false,
      "rstrip": false,
      "normalized": false,
      "special": true
    },
    {
      "id": 8,
      "content": "<token_cls>",
      "single_word": false,
      "lstrip": false,
      "rstrip": false,
      "normalized": false,
      "special": true
    },
    {
      "id": 9,
      "content": "<type_cls>",
      "single_word": false,
      "lstrip": false,
      "rstrip": false,
      "normalized": false,
      "special": true
    }
  ],
  "normalizer": {
    "type": "Sequence",
    "normalizers": [
      {
        "type": "NFD"
      },
      {
        "type": "StripAccents"
      },
      {
        "type": "Strip",
        "strip_left": true,
        "strip_right": true
      }
    ]
  },
  "pre_tokenizer": {
    "type": "Whitespace"
  },
  "post_processor": null,
  "decoder": null,
  "model": {
    "type": "BPE",
    "dropout": null,
    "unk_token": "<unk>",
    "continuing_subword_prefix": null,
    "end_of_word_suffix": "</w>",
    "fuse_unk": false,
    "vocab": {
      "<pad>": 0,
      "<unk>": 1,
      "<token_s>": 2,
      "<type_s>": 3,
      "</s>": 4,
      "\"<str>\"": 5,
      "<masked_code>": 6,
      "<empty>": 7,
      "<token_cls>": 8,
      "<type_cls>": 9,
      "!": 10,
      "\"": 11,
      "#": 12,
      "$": 13,
      "%": 14,
      "&": 15,
      "'": 16,
      "(": 17,
      ")": 18,
      "*": 19,
      "+": 20,
      ",": 21,
      "-": 22,
      ".": 23,
      "/": 24,
      "0": 25,
      "1": 26,
      "2": 27,
      "3": 28,
      "4": 29,
      "5": 30,
      "6": 31,
      "7": 32,
      "8": 33,
      "9": 34,
      ":": 35,
      ";": 36,
      "<": 37,
      "=": 38,
      ">": 39,
      "?": 40,
      "@": 41,
      "A": 42,
      "B": 43,
      "C": 44,
      "D": 45,
      "E": 46,
      "F": 47,
      "G": 48,
      "H": 49,
      "I": 50,
      "J": 51,
      "K": 52,
      "L": 53,
      "M": 54,
      "N": 55,
      "O": 56,
      "P": 57,
      "Q": 58,
      "R": 59,
      "S": 60,
      "T": 61,
      "U": 62,
      "V": 63,
      "W": 64,
      "X": 65,
      "Y": 66,
      "Z": 67,
      "[": 68,
      "\\": 69,
      "]": 70,
      "^": 71,
      "_": 72,
      "`": 73,
      "a": 74,
      "b": 75,
      "c": 76,
      "d": 77,
      "e": 78,
      "f": 79,
      "g": 80,
      "h": 81,
      "i": 82,
      "j": 83,
      "k": 84,
      "l": 85,
      "m": 86,
      "n": 87,
      "o": 88,
      "p": 89,
      "q": 90,
      "r": 91,
      "s": 92,
      "t": 93,
      "u": 94,
      "v": 95,
      "w": 96,
      "x": 97,
      "y": 98,
      "z": 99,
      "{": 100,
      "|": 101,
      "}": 102,
      "~": 103,
      "s</w>": 104,
      "p</w>": 105,
      "e</w>": 106,
      "g</w>": 107,
      "W</w>": 108,
      "y</w>": 109,
      "r</w>": 110,
      "l</w>": 111,
      "n</w>": 112,
      "t</w>": 113,
      "d</w>": 114,
      "h</w>": 115,
      "S</w>": 116,
      "o</w>": 117,
      "x</w>": 118,
      "L</w>": 119,
      "a</w>": 120,
      "m</w>": 121,
      "f</w>": 122,
      "T</w>": 123,
      "D</w>": 124,
      "X</w>": 125,
      "I</w>": 126,
      "8</w>": 127,
      "5</w>": 128,
      "k</w>": 129,
      "1</w>": 130,
      "v</w>": 131,
      "E</w>": 132,
      "Y</w>": 133,
      "w</w>": 134,
      "0</w>": 135,
      "C</w>": 136,
      "B</w>": 137,
      "b</w>": 138,
      "_</w>": 139,
      "c</w>": 140,
      "3</w>": 141,
      "G</w>": 142,
      "2</w>": 143,
      "j</w>": 144,
      "O</w>": 145,
      "R</w>": 146,
      "F</w>": 147,
      "i</w>": 148,
      "A</w>": 149,
      "U</w>": 150,
      "q</w>": 151,
      "N</w>": 152,
      "K</w>": 153,
      "M</w>": 154,
      "z</w>": 155,
      "P</w>": 156,
      "4</w>": 157,
      "7</w>": 158,
      "6</w>": 159,
      "V</w>": 160,
      "H</w>": 161,
      "u</w>": 162,
      ",</w>": 163,
      "/</w>": 164,
      "9</w>": 165,
      "+</w>": 166,
      ";</w>": 167,
      "Q</w>": 168,
      "J</w>": 169,
      "-</w>": 170,
      "*</w>": 171,
      "\\</w>": 172,
      "></w>": 173,
      "$</w>": 174,
      "Z</w>": 175,
      ")</w>": 176,
      "!</w>": 177,
      ":</w>": 178,
      "(</w>": 179,
      "\"</w>": 180,
      "'</w>": 181,
      "{</w>": 182,
      "}</w>": 183,
      "=</w>": 184,
      "`</w>": 185,
      "@</w>": 186,
      ".</w>": 187,
      "<</w>": 188,
      "]</w>": 189,
      "[</w>": 190,
      "?</w>": 191,
      "&</w>": 192,
      "|</w>": 193,
      "~</w>": 194,
      "^</w>": 195,
      "%</w>": 196,
      "#</w>": 197,
      "in": 198,
      "et": 199,
      "st": 200,
      "at": 201,
      "er": 202,
      "on": 203,
      "en": 204,
      "re": 205,
      "ti": 206,
      "tr": 207,
      "get": 208,
      "al": 209,
      "ur": 210,
      "er</w>": 211,
      "le": 212,
      "ro": 213,
      "on</w>": 214,
      "str</w>": 215,
      "\"<</w>": 216,
      ">\"</w>": 217,
      "ar": 218,
      "ce": 219,
      "li": 220,
      "ne": 221,
      "or": 222,
      "ul": 223,
      "te": 224,
      "an": 225,
      "as": 226,
      "ing</w>": 227,
      "pu": 228,
      "Str": 229,
      "if</w>": 230,
      "am": 231,
      "th": 232,
      "String</w>": 233,
      "ret": 234,
      "es": 235,
      "retur": 236,
      "return</w>": 237,
      "tion</w>": 238,
      "is": 239,
      "ec": 240,
      "new</w>": 241,
      "bli": 242,
      "ati": 243,
      "In": 244,
      "publi": 245,
      "public</w>": 246,
      "ac": 247,
      "ad": 248,
      "de": 249,
      "il": 250,
      "ri": 251,
      "Ex": 252,
      "lo": 253,
      "ull</w>": 254,
      "ou": 255,
      "null</w>": 256,
      "se</w>": 257,
      "ption</w>": 258,
      "el": 259,
      "ent": 260,
      "ag": 261,
      "ue</w>": 262,
      "int</w>": 263,
      "si": 264,
      "al</w>": 265,
      "ame</w>": 266,
      "ab": 267,
      "Con": 268,
      "Exce": 269,
      "or</w>": 270,
      "Exception</w>": 271,
      "St": 272,
      "ent</w>": 273,
      "res": 274,
      "id</w>": 275,
      "qu": 276,
      "fin": 277,
      "et</w>": 278,
      "fi": 279,
      "yp": 280,
      "ch": 281,
      "ate": 282,
      "od": 283,
      "set": 284,
      "ol": 285,
      "om": 286,
      "Re": 287,
      "vo": 288,
      "le</w>": 289,
      "it": 290,
      "ap": 291,
      "is</w>": 292,
      "um": 293,
      "ate</w>": 294,
      "void</w>": 295,
      "ing": 296,
      "ser": 297,
      "con": 298,
      "final</w>": 299,
      "Name</w>": 300,
      "tion": 301,
      "es</w>": 302,
      "this</w>": 303,
      "bu": 304,
      "Typ": 305,
      "ex": 306,
      "==</w>": 307,
      "ce</w>": 308,
      "alue</w>": 309,
      "jec": 310,
      "thro": 311,
      "ed": 312,
      "las": 313,
      "oo": 314,
      "ist</w>": 315,
      "ter": 316,
      "im": 317,
      "List</w>": 318,
      "to": 319,
      "En": 320,
      "Pro": 321,
      "ra": 322,
      "vi": 323,
      "bjec": 324,
      "per": 325,
      "!=</w>": 326,
      "Res": 327,
      "Type</w>": 328,
      "ver": 329,
      "th</w>": 330,
      "ation": 331,
      "ode</w>": 332,
      "se": 333,
      "par": 334,
      "oun": 335,
      "Bu": 336,
      "pro": 337,
      "Ar": 338,
      "an</w>": 339,
      "Objec": 340,
      "our": 341,
      "else</w>": 342,
      "Lo": 343,
      "ile</w>": 344,
      "up": 345,
      "stan": 346,
      "ma": 347,
      "try</w>": 348,
      "Fi": 349,
      "rea": 350,
      "un": 351,
      "able": 352,
      "ation</w>": 353,
      "ff": 354,
      "ode": 355,
      "Ma": 356,
      "for</w>": 357,
      "To": 358,
      "der</w>": 359,
      "eng": 360,
      "Ch": 361,
      "ke": 362,
      "pon": 363,
      "ch</w>": 364,
      "iz": 365,
      "stati": 366,
      "get</w>": 367,
      "id": 368,
      "static</w>": 369,
      "Id</w>": 370,
      "tex": 371,
      "oole": 372,
      "lass</w>": 373,
      "ve": 374,
      "app": 375,
      "po": 376,
      "Par": 377,
      "ath</w>": 378,
      "te</w>": 379,
      "ength</w>": 380,
      "ws</w>": 381,
      "ult</w>": 382,
      "ist": 383,
      "oolean</w>": 384,
      "la": 385,
      "Object</w>": 386,
      "age</w>": 387,
      "Value</w>": 388,
      "ig": 389,
      "ter</w>": 390,
      "Dat": 391,
      "mp": 392,
      "end": 393,
      "est": 394,
      "ess": 395,
      "and": 396,
      "Com": 397,
      "qual": 398,
      "ment</w>": 399,
      "tor": 400,
      "add": 401,
      "Ser": 402,
      "throws</w>": 403,
      "able</w>": 404,
      "ts</w>": 405,
      "Map</w>": 406,
      "est</w>": 407,
      "cal": 408,
      "boolean</w>": 409,
      "De": 410,
      "ty</w>": 411,
      "Ke": 412,
      "&&</w>": 413,
      "length</w>": 414,
      "atch</w>": 415,
      "text</w>": 416,
      "IO": 417,
      "lec": 418,
      "asser": 419,
      "alu": 420,
      "ase</w>": 421,
      "put": 422,
      "cre": 423,
      "pri": 424,
      "ot": 425,
      "throw</w>": 426,
      "alse</w>": 427,
      "value</w>": 428,
      "Po": 429,
      "Arra": 430,
      "age": 431,
      "quals</w>": 432,
      "Tr": 433,
      "Ac": 434,
      "ut": 435,
      "put</w>": 436,
      "dex</w>": 437,
      "ger</w>": 438,
      "int": 439,
      "false</w>": 440,
      "ble</w>": 441,
      "for": 442,
      "assert": 443,
      "true</w>": 444,
      "op": 445,
      "IN": 446,
      "str": 447,
      "priv": 448,
      "Tim": 449,
      "di": 450,
      "ain": 451,
      "File</w>": 452,
      "private</w>": 453,
      "tri": 454,
      "++</w>": 455,
      "ck": 456,
      "catch</w>": 457,
      "ment": 458,
      "ack": 459,
      "Col": 460,
      "E_": 461,
      "By": 462,
      "Met": 463,
      "ator</w>": 464,
      "com": 465,
      "add</w>": 466,
      "ces": 467,
      "name</w>": 468,
      "ed</w>": 469,
      "end</w>": 470,
      "ouble</w>": 471,
      "sion</w>": 472,
      "ER": 473,
      "Set</w>": 474,
      "sh": 475,
      "For": 476,
      "fo</w>": 477,
      "urr": 478,
      "ource": 479,
      "An": 480,
      "ilder</w>": 481,
      "mo": 482,
      "result</w>": 483,
      "su": 484,
      "ang": 485,
      "Mess": 486,
      "in</w>": 487,
      "Se": 488,
      "new": 489,
      "Sy": 490,
      "ong</w>": 491,
      "ers</w>": 492,
      "At": 493,
      "Di": 494,
      "Path</w>": 495,
      "Requ": 496,
      "siz": 497,
      "cont": 498,
      "Class</w>": 499,
      "Confi": 500,
      "Node</w>": 501,
      "fa": 502,
      "Proper": 503,
      "ted</w>": 504,
      "dat": 505,
      "ount</w>": 506,
      "Uti": 507,
      "T_": 508,
      "it</w>": 509,
      "Ele": 510,
      "em": 511,
      "create": 512,
      "st</w>": 513,
      "File": 514,
      "size</w>": 515,
      "ream</w>": 516,
      "Th": 517,
      "rid": 518,
      "by": 519,
      "ty": 520,
      "ar</w>": 521,
      "ource</w>": 522,
      "atu": 523,
      "out</w>": 524,
      "cri": 525,
      "ader</w>": 526,
      "tribu": 527,
      "append</w>": 528,
      "lass": 529,
      "ponse</w>": 530,
      "ted": 531,
      "pr": 532,
      "tions</w>": 533,
      "all": 534,
      "AT": 535,
      "set</w>": 536,
      "rec": 537,
      "Servi": 538,
      "nec": 539,
      "Array": 540,
      "he": 541,
      "Qu": 542,
      "ult": 543,
      "double</w>": 544,
      "typ": 545,
      "lu": 546,
      "curr": 547,
      "do": 548,
      "case</w>": 549,
      "ic": 550,
      "stance": 551,
      "Al": 552,
      "tory</w>": 553,
      "tt": 554,
      "ans": 555,
      "Key</w>": 556,
      "star": 557,
      "Over": 558,
      "RE": 559,
      "List": 560,
      "Ad": 561,
      "por": 562,
      "Builder</w>": 563,
      "String": 564,
      "at</w>": 565,
      "log": 566,
      "As": 567,
      "Fiel": 568,
      "LO": 569,
      "Context</w>": 570,
      "wri": 571,
      "IOException</w>": 572,
      "sion": 573,
      "valu": 574,
      "||</w>": 575,
      "ls</w>": 576,
      "ste": 577,
      "Stream</w>": 578,
      "tor</w>": 579,
      "class</w>": 580,
      "ho": 581,
      "enti": 582,
      "ve</w>": 583,
      "ride</w>": 584,
      "UR": 585,
      "equals</w>": 586,
      "Man": 587,
      "Cont": 588,
      "Override</w>": 589,
      "ds</w>": 590,
      "Lin": 591,
      "ffer</w>": 592,
      "let": 593,
      "tes</w>": 594,
      "Un": 595,
      "Param": 596,
      "read": 597,
      "ON": 598,
      "requ": 599,
      "pa": 600,
      "tim": 601,
      "eck": 602,
      "ob": 603,
      "Nam": 604,
      "cess": 605,
      "atch": 606,
      "Inte": 607,
      "Index</w>": 608,
      "Ev": 609,
      "lic": 610,
      "ace</w>": 611,
      "out": 612,
      "stance</w>": 613,
      "co": 614,
      "EN": 615,
      "Data</w>": 616,
      "of</w>": 617,
      "nex": 618,
      "Op": 619,
      "Tex": 620,
      "Info</w>": 621,
      "ize</w>": 622,
      "He": 623,
      "igh": 624,
      "loc": 625,
      "stem</w>": 626,
      "long</w>": 627,
      "Su": 628,
      "col": 629,
      "Vi": 630,
      "wor": 631,
      "Attribu": 632,
      "Data": 633,
      "has": 634,
      "Integer</w>": 635,
      "ild": 636,
      "getC": 637,
      "Le": 638,
      "av": 639,
      "byte</w>": 640,
      "ument": 641,
      "System</w>": 642,
      "met": 643,
      "key</w>": 644,
      "Element</w>": 645,
      "Manag": 646,
      "Message</w>": 647,
      "current": 648,
      "ore": 649,
      "lin": 650,
      "ST": 651,
      "toString</w>": 652,
      "print": 653,
      "Ite": 654,
      "Fac": 655,
      "ith": 656,
      "tec": 657,
      "pre": 658,
      "umb": 659,
      "Inter": 660,
      "Config": 661,
      "Do": 662,
      "ID</w>": 663,
      "instance": 664,
      "ip": 665,
      "leg": 666,
      "Valu": 667,
      "ror</w>": 668,
      "ase": 669,
      "getS": 670,
      "yn": 671,
      "Count</w>": 672,
      "Pre": 673,
      "dex": 674,
      "ure</w>": 675,
      "ler</w>": 676,
      "brea": 677,
      "fer": 678,
      "remo": 679,
      "protec": 680,
      "type</w>": 681,
      "alid": 682,
      "Arg": 683,
      "sub": 684,
      "protected</w>": 685,
      "break</w>": 686,
      "ser</w>": 687,
      "ay": 688,
      "Out": 689,
      "pres": 690,
      "Vie": 691,
      "ach": 692,
      "AL": 693,
      "Key": 694,
      "index</w>": 695,
      "Equals</w>": 696,
      "Collec": 697,
      "test": 698,
      "State</w>": 699,
      "Er": 700,
      "Hand": 701,
      "Utils</w>": 702,
      "Ap": 703,
      "uc": 704,
      "ties</w>": 705,
      "wh": 706,
      "ener</w>": 707,
      "ite": 708,
      "sp": 709,
      "OR": 710,
      "abled</w>": 711,
      "AR": 712,
      "ecu": 713,
      "Des": 714,
      "Size</w>": 715,
      "form": 716,
      "pla": 717,
      "putStream</w>": 718,
      "Im": 719,
      "Gro": 720,
      "crip": 721,
      "Id": 722,
      "Ver": 723,
      "Rec": 724,
      "m_": 725,
      "assertEquals</w>": 726,
      "Statu": 727,
      "Connec": 728,
      "contain": 729,
      "flo": 730,
      "mat</w>": 731,
      "Cli": 732,
      "D_": 733,
      "param": 734,
      "Has": 735,
      "Time": 736,
      "DE": 737,
      "check": 738,
      "arg": 739,
      "ath": 740,
      "Or": 741,
      "Per": 742,
      "instanceof</w>": 743,
      "date": 744,
      "ArrayList</w>": 745,
      "enc": 746,
      "rom": 747,
      "Manager</w>": 748,
      "getName</w>": 749,
      "der": 750,
      "Log": 751,
      "ack</w>": 752,
      "Enabled</w>": 753,
      "Not": 754,
      "Class": 755,
      "file": 756,
      "Type": 757,
      "ifi": 758,
      "ener": 759,
      "Time</w>": 760,
      "ttp": 761,
      "hod</w>": 762,
      "start": 763,
      "Request</w>": 764,
      "00": 765,
      "log</w>": 766,
      "Response</w>": 767,
      "ffset</w>": 768,
      "ms": 769,
      "State": 770,
      "ron": 771,
      "Sp": 772,
      "act": 773,
      "reg": 774,
      "Loc": 775,
      "Array</w>": 776,
      "data</w>": 777,
      "umn": 778,
      "Quer": 779,
      "fault": 780,
      "ild</w>": 781,
      "Trans": 782,
      "legal": 783,
      "not": 784,
      "Il": 785,
      "red": 786,
      "Instance</w>": 787,
      "cop": 788,
      "fiel": 789,
      "ver</w>": 790,
      "posi": 791,
      "Paramet": 792,
      "Factory</w>": 793,
      "Illegal": 794,
      "Node": 795,
      "Ur": 796,
      "Co": 797,
      "Mode": 798,
      "Wri": 799,
      "Result</w>": 800,
      "au": 801,
      "0x": 802,
      "no": 803,
      "confi": 804,
      "clo": 805,
      "Entry</w>": 806,
      "up</w>": 807,
      "Set": 808,
      "Request": 809,
      "RO": 810,
      "Emp": 811,
      "Add": 812,
      "Numb": 813,
      "gn": 814,
      "Of": 815,
      "while</w>": 816,
      "ull": 817,
      "AM": 818,
      "ress</w>": 819,
      "fil": 820,
      "Service</w>": 821,
      "feren": 822,
      "mess": 823,
      "Au": 824,
      "Hash": 825,
      "ity</w>": 826,
      "hod": 827,
      "Buffer</w>": 828,
      "ror": 829,
      "lock": 830,
      "key": 831,
      "Sh": 832,
      "Of</w>": 833,
      "Compon": 834,
      "min": 835,
      "AC": 836,
      "Ro": 837,
      "Constan": 838,
      "ight</w>": 839,
      "list": 840,
      "Run": 841,
      "Reg": 842,
      "uration</w>": 843,
      "ken</w>": 844,
      "Comm": 845,
      "Null</w>": 846,
      "path</w>": 847,
      "Be": 848,
      "exp": 849,
      "context</w>": 850,
      "Fil": 851,
      "read</w>": 852,
      "S_": 853,
      "Service": 854,
      "logger</w>": 855,
      "time": 856,
      "file</w>": 857,
      "ple": 858,
      "Property</w>": 859,
      "ings</w>": 860,
      "Listener</w>": 861,
      "tar": 862,
      "ln</w>": 863,
      "AN": 864,
      "unc": 865,
      "ev": 866,
      "Byte": 867,
      "Argument": 868,
      "ext": 869,
      "SE": 870,
      "ail": 871,
      "Text</w>": 872,
      "response</w>": 873,
      "CO": 874,
      "IT": 875,
      "value": 876,
      "Resource": 877,
      "Pa": 878,
      "aliz": 879,
      "Up": 880,
      "Oper": 881,
      "Object": 882,
      "ele": 883,
      "Iter": 884,
      "On": 885,
      "info</w>": 886,
      "println</w>": 887,
      "debu": 888,
      "entry</w>": 889,
      "Status</w>": 890,
      "ore</w>": 891,
      "Field</w>": 892,
      "ari": 893,
      "Event</w>": 894,
      "gro": 895,
      "son": 896,
      "Enti": 897,
      "ort</w>": 898,
      "ask": 899,
      "try": 900,
      "Test</w>": 901,
      "request</w>": 902,
      "map</w>": 903,
      "node</w>": 904,
      "idth</w>": 905,
      "Y_": 906,
      "be": 907,
      "Empty</w>": 908,
      "And": 909,
      "ken": 910,
      "float</w>": 911,
      "+=</w>": 912,
      "ame": 913,
      "Doc": 914,
      "and</w>": 915,
      "lock</w>": 916,
      "Config</w>": 917,
      "Http": 918,
      "Test": 919,
      "write": 920,
      "servi": 921,
      "Star": 922,
      "Code</w>": 923,
      "inter": 924,
      "Selec": 925,
      "No": 926,
      "ule": 927,
      "rap": 928,
      "cli": 929,
      "quer": 930,
      "Mod": 931,
      "wn": 932,
      "string</w>": 933,
      "ound": 934,
      "ex</w>": 935,
      "valid": 936,
      "proper": 937,
      "Imp": 938,
      "mar": 939,
      "getP": 940,
      "Local": 941,
      "sW": 942,
      "max": 943,
      "Handler</w>": 944,
      "ces</w>": 945,
      "N_": 946,
      "row": 947,
      "debug</w>": 948,
      "lor</w>": 949,
      "Char": 950,
      "val</w>": 951,
      "cle": 952,
      "ity": 953,
      "User": 954,
      "*/</w>": 955,
      "View</w>": 956,
      "if": 957,
      "AS": 958,
      "next": 959,
      "FI": 960,
      "Dec": 961,
      "ib": 962,
      "syn": 963,
      "atter": 964,
      "Constants</w>": 965,
      "ord": 966,
      "Long</w>": 967,
      "Value": 968,
      "ad</w>": 969,
      "num": 970,
      "sb</w>": 971,
      "LE": 972,
      "Date</w>": 973,
      "ask</w>": 974,
      "From": 975,
      "load": 976,
      "iti": 977,
      "next</w>": 978,
      "Dis": 979,
      "App": 980,
      "ind": 981,
      "Tre": 982,
      "nel</w>": 983,
      "can": 984,
      "ponse": 985,
      "jav": 986,
      "ER_": 987,
      "parse": 988,
      "iter": 989,
      "connec": 990,
      "vel</w>": 991,
      "emp": 992,
      "Int</w>": 993,
      "port": 994,
      "Form": 995,
      "Sub": 996,
      "ure": 997,
      "ion": 998,
      "clu": 999,
      "ArgumentException</w>": 1000,
      "Util</w>": 1001,
      "ER</w>": 1002,
      "ffer": 1003,
      "ream": 1004,
      ">=</w>": 1005,
      "el</w>": 1006,
      "text": 1007,
      "Comp": 1008,
      "user": 1009,
      "ard": 1010,
      "last": 1011,
      "isEmpty</w>": 1012,
      "resource": 1013,
      "bo": 1014,
      "Attribute</w>": 1015,
      "ache</w>": 1016,
      "Length</w>": 1017,
      "class": 1018,
      "Item</w>": 1019,
      "IllegalArgumentException</w>": 1020,
      "Method</w>": 1021,
      "error</w>": 1022,
      "index": 1023,
      "Group": 1024,
      "start</w>": 1025,
      "Math</w>": 1026,
      "ments</w>": 1027,
      "Collection</w>": 1028,
      "coun": 1029,
      "trans": 1030,
      "count</w>": 1031,
      "objec": 1032,
      "ession</w>": 1033,
      "cation": 1034,
      "Direc": 1035,
      "pl": 1036,
      "Bytes</w>": 1037,
      "chron": 1038,
      "local": 1039,
      "getValue</w>": 1040,
      "sup": 1041,
      "Cal": 1042,
      "With": 1043,
      "tc</w>": 1044,
      "Ab": 1045,
      "Wor": 1046,
      "ument</w>": 1047,
      "adat": 1048,
      "Ed": 1049,
      "Item": 1050,
      "ator": 1051,
      "Lab": 1052,
      "Name": 1053,
      "YP": 1054,
      "MA": 1055,
      "/*</w>": 1056,
      "data": 1057,
      "G_": 1058,
      "format</w>": 1059,
      "Token</w>": 1060,
      "ort": 1061,
      "All</w>": 1062,
      "act</w>": 1063,
      "JS": 1064,
      "list</w>": 1065,
      "Event": 1066,
      "buffer</w>": 1067,
      "char": 1068,
      "Message": 1069,
      "ange</w>": 1070,
      "Properties</w>": 1071,
      "buf</w>": 1072,
      "Sch": 1073,
      "Field": 1074,
      "comm": 1075,
      "execu": 1076,
      "ast": 1077,
      "chroniz": 1078,
      "CON": 1079,
      "getT": 1080,
      "old": 1081,
      "Posi": 1082,
      "Text": 1083,
      "Error</w>": 1084,
      "arch": 1085,
      "Fr": 1086,
      "Component</w>": 1087,
      "ion</w>": 1088,
      "getB": 1089,
      "as</w>": 1090,
      "NAM": 1091,
      "hand": 1092,
      "Index": 1093,
      "gin": 1094,
      "close</w>": 1095,
      "message</w>": 1096,
      "Column": 1097,
      "Model</w>": 1098,
      "tiv": 1099,
      "InputStream</w>": 1100,
      "Ne": 1101,
      "remove": 1102,
      "Sec": 1103,
      "update": 1104,
      "Address</w>": 1105,
      "ml": 1106,
      "ache": 1107,
      "SI": 1108,
      "Call": 1109,
      "builder</w>": 1110,
      "UN": 1111,
      "play": 1112,
      "TYP": 1113,
      "the</w>": 1114,
      "ag</w>": 1115,
      "LOG</w>": 1116,
      "values</w>": 1117,
      "low": 1118,
      "TE": 1119,
      "synchroniz": 1120,
      "Double</w>": 1121,
      "ock": 1122,
      "dis": 1123,
      "match": 1124,
      "Provi": 1125,
      "lay": 1126,
      "Number</w>": 1127,
      "ange": 1128,
      "We": 1129,
      "find": 1130,
      "mod": 1131,
      "cep": 1132,
      "TI": 1133,
      "Sup": 1134,
      "ir": 1135,
      "arra": 1136,
      "Iterator</w>": 1137,
      "Writer</w>": 1138,
      "True</w>": 1139,
      "getM": 1140,
      "port</w>": 1141,
      "ps</w>": 1142,
      "to</w>": 1143,
      "synchronized</w>": 1144,
      "ION_": 1145,
      "Auth": 1146,
      "ric": 1147,
      "temp": 1148,
      "Path": 1149,
      "Func": 1150,
      "UL": 1151,
      "vie": 1152,
      "sho": 1153,
      "sec": 1154,
      "des": 1155,
      "StringBuilder</w>": 1156,
      "Date": 1157,
      "rst": 1158,
      "LI": 1159,
      "Pri": 1160,
      "sw": 1161,
      "ust": 1162,
      "Contr": 1163,
      "ations</w>": 1164,
      "Lay": 1165,
      "emb": 1166,
      "raw": 1167,
      "ule</w>": 1168,
      "args</w>": 1169,
      "ge": 1170,
      "Reader</w>": 1171,
      "Content": 1172,
      "00</w>": 1173,
      "selec": 1174,
      "line</w>": 1175,
      "ign": 1176,
      "Annot": 1177,
      "url</w>": 1178,
      "offset</w>": 1179,
      "Level</w>": 1180,
      "ader": 1181,
      "struc": 1182,
      "um</w>": 1183,
      "Url</w>": 1184,
      "Connection</w>": 1185,
      "NO": 1186,
      "date</w>": 1187,
      "Configuration</w>": 1188,
      "Property": 1189,
      "Method": 1190,
      "war": 1191,
      "action</w>": 1192,
      "ass": 1193,
      "Tra": 1194,
      "Client</w>": 1195,
      "Default": 1196,
      "Error": 1197,
      "fo": 1198,
      "per</w>": 1199,
      "Gener": 1200,
      "Resource</w>": 1201,
      "ateg": 1202,
      "il</w>": 1203,
      "expec": 1204,
      "Fe": 1205,
      "work": 1206,
      "L_": 1207,
      "Null": 1208,
      "Int": 1209,
      "contains</w>": 1210,
      "Hel": 1211,
      "Case</w>": 1212,
      "TR": 1213,
      "vis": 1214,
      "Descrip": 1215,
      "Table</w>": 1216,
      "Names</w>": 1217,
      "Contain": 1218,
      "nd": 1219,
      "java</w>": 1220,
      "ook": 1221,
      "mis": 1222,
      "Del": 1223,
      "Expres": 1224,
      "Version</w>": 1225,
      "delet": 1226,
      "Impl</w>": 1227,
      "Thread</w>": 1228,
      "action": 1229,
      "Boolean</w>": 1230,
      "ulti": 1231,
      "assertTrue</w>": 1232,
      "ated": 1233,
      "gh": 1234,
      "Query</w>": 1235,
      "fix</w>": 1236,
      "lan": 1237,
      "Referen": 1238,
      "umn</w>": 1239,
      "Stream": 1240,
      "HashMap</w>": 1241,
      "Table": 1242,
      "ence</w>": 1243,
      "-></w>": 1244,
      "pos</w>": 1245,
      "mode": 1246,
      "ally</w>": 1247,
      "Offset</w>": 1248,
      "ith</w>": 1249,
      "config": 1250,
      "Execu": 1251,
      "node": 1252,
      "attern</w>": 1253,
      "obj</w>": 1254,
      "res</w>": 1255,
      "Types</w>": 1256,
      "Dir</w>": 1257,
      "omain": 1258,
      "back</w>": 1259,
      "cess</w>": 1260,
      "TA": 1261,
      "ord</w>": 1262,
      "KE": 1263,
      "remove</w>": 1264,
      "Ob": 1265,
      "ili": 1266,
      "fini": 1267,
      "To</w>": 1268,
      "Line</w>": 1269,
      "one</w>": 1270,
      "Values</w>": 1271,
      "Format</w>": 1272,
      "Vari": 1273,
      "alo": 1274,
      "getR": 1275,
      "AP": 1276,
      "dec": 1277,
      "nal": 1278,
      "sr": 1279,
      "attribu": 1280,
      "ext</w>": 1281,
      "tive": 1282,
      "sum": 1283,
      "Log</w>": 1284,
      "table": 1285,
      "ble": 1286,
      "<=</w>": 1287,
      "write</w>": 1288,
      "At</w>": 1289,
      "URL</w>": 1290,
      "Valid": 1291,
      "tifi": 1292,
      "ile": 1293,
      "en</w>": 1294,
      "Option": 1295,
      "UT": 1296,
      "Query": 1297,
      "am</w>": 1298,
      "comp": 1299,
      "default": 1300,
      "ody</w>": 1301,
      "substring</w>": 1302,
      "Result": 1303,
      "Ho": 1304,
      "Vec": 1305,
      "cription</w>": 1306,
      "Response": 1307,
      "ES": 1308,
      "Dep": 1309,
      "Mode</w>": 1310,
      "Json": 1311,
      "iterator</w>": 1312,
      "Color</w>": 1313,
      "ff</w>": 1314,
      "Source</w>": 1315,
      "ten": 1316,
      "ster": 1317,
      "Token": 1318,
      "Vis": 1319,
      "ms</w>": 1320,
      "finally</w>": 1321,
      "wa": 1322,
      "DI": 1323,
      "paramet": 1324,
      "Is": 1325,
      "Process": 1326,
      "Filter</w>": 1327,
      "itor</w>": 1328,
      "SQ": 1329,
      "atri": 1330,
      "Metadat": 1331,
      "Non": 1332,
      "sign": 1333,
      "View": 1334,
      "ializ": 1335,
      "ages</w>": 1336,
      "regist": 1337,
      "params</w>": 1338,
      "Next</w>": 1339,
      "item</w>": 1340,
      "input</w>": 1341,
      "Format": 1342,
      "Mapp": 1343,
      "ender": 1344,
      "getMessage</w>": 1345,
      "Width</w>": 1346,
      "Group</w>": 1347,
      "Pack": 1348,
      "ults</w>": 1349,
      "Position</w>": 1350,
      "rom</w>": 1351,
      "ession": 1352,
      "cur": 1353,
      "config</w>": 1354,
      "Enc": 1355,
      "msg</w>": 1356,
      "getId</w>": 1357,
      "Cre": 1358,
      "ec</w>": 1359,
      "ner</w>": 1360,
      "Exp": 1361,
      "process": 1362,
      "Image": 1363,
      "Client": 1364,
      "request": 1365,
      "ain</w>": 1366,
      "Tar": 1367,
      "Link": 1368,
      "End": 1369,
      "NotNull</w>": 1370,
      "OutputStream</w>": 1371,
      "ints</w>": 1372,
      "Options</w>": 1373,
      "Point</w>": 1374,
      "count": 1375,
      "its</w>": 1376,
      "state</w>": 1377,
      "XM": 1378,
      "ies</w>": 1379,
      "mp</w>": 1380,
      "field": 1381,
      "resource</w>": 1382,
      "Get": 1383,
      "tory": 1384,
      "Defini": 1385,
      "Buffer": 1386,
      "oc": 1387,
      "Ret": 1388,
      "len</w>": 1389,
      "ION</w>": 1390,
      "Identi": 1391,
      "CH": 1392,
      "Block": 1393,
      "VAL": 1394,
      "edi": 1395,
      "ll": 1396,
      "Action</w>": 1397,
      "ax": 1398,
      "tif": 1399,
      "tx</w>": 1400,
      "sert</w>": 1401,
      "Regist": 1402,
      "source</w>": 1403,
      "Runtime": 1404,
      "Server": 1405,
      "Remo": 1406,
      "Match": 1407,
      "parent</w>": 1408,
      "Chan": 1409,
      "Attribute": 1410,
      "sch": 1411,
      "af": 1412,
      "table</w>": 1413,
      "gener": 1414,
      "ends</w>": 1415,
      "Element": 1416,
      "Check": 1417,
      "us": 1418,
      "field</w>": 1419,
      "column": 1420,
      "Params</w>": 1421,
      "Grap": 1422,
      "PRO": 1423,
      "Temp": 1424,
      "row</w>": 1425,
      "ret</w>": 1426,
      "illi": 1427,
      "ative": 1428,
      "Entity</w>": 1429,
      "event</w>": 1430,
      "Bo": 1431,
      "JSON": 1432,
      "Task": 1433,
      "Butt": 1434,
      "ID": 1435,
      "ly</w>": 1436,
      "ary": 1437,
      "NAME</w>": 1438,
      "we": 1439,
      "ress": 1440,
      "P_": 1441,
      "X_": 1442,
      "ft</w>": 1443,
      "client</w>": 1444,
      "duc": 1445,
      "Input": 1446,
      "method</w>": 1447,
      "query</w>": 1448,
      "All": 1449,
      "Det": 1450,
      "sc": 1451,
      "Helper</w>": 1452,
      "Stack": 1453,
      "getString</w>": 1454,
      "statu": 1455,
      "older</w>": 1456,
      "ded": 1457,
      "Action": 1458,
      "Provider</w>": 1459,
      "base": 1460,
      "Clo": 1461,
      "Header</w>": 1462,
      "type": 1463,
      "EC": 1464,
      "10</w>": 1465,
      "arn": 1466,
      "ong": 1467,
      "extends</w>": 1468,
      "Image</w>": 1469,
      "pare": 1470,
      "with": 1471,
      "son</w>": 1472,
      "dic": 1473,
      "Entry": 1474,
      "fr": 1475,
      "Label</w>": 1476,
      "FA": 1477,
      "method": 1478,
      "URI</w>": 1479,
      "path": 1480,
      "Coun": 1481,
      "target</w>": 1482,
      "Child": 1483,
      "ql": 1484,
      "char</w>": 1485,
      "lab": 1486,
      "indo": 1487,
      "tal": 1488,
      "parent": 1489,
      "Cache</w>": 1490,
      "rs</w>": 1491,
      "ge</w>": 1492,
      "ual": 1493,
      "Job": 1494,
      "Control": 1495,
      "jo": 1496,
      "nel": 1497,
      "Loader</w>": 1498,
      "cla": 1499,
      "child": 1500,
      "target": 1501,
      "Instance": 1502,
      "ry</w>": 1503,
      "User</w>": 1504,
      "Location</w>": 1505,
      "Access": 1506,
      "Work": 1507,
      "run": 1508,
      "doc": 1509,
      "uration": 1510,
      "Que": 1511,
      "error": 1512,
      "build</w>": 1513,
      "Projec": 1514,
      "stra": 1515,
      "ss": 1516,
      "place": 1517,
      "contin": 1518,
      "ags</w>": 1519,
      "back": 1520,
      "valueOf</w>": 1521,
      "vlet": 1522,
      "Trace</w>": 1523,
      "lication": 1524,
      "MP": 1525,
      "stem": 1526,
      "EX": 1527,
      "Sett": 1528,
      "Exten": 1529,
      "TO": 1530,
      "Flo": 1531,
      "word</w>": 1532,
      "getInstance</w>": 1533,
      "nam": 1534,
      "service": 1535,
      "fault</w>": 1536,
      "uture</w>": 1537,
      "Height</w>": 1538,
      "sWith</w>": 1539,
      "ory</w>": 1540,
      "que": 1541,
      "width</w>": 1542,
      "Start": 1543,
      "service</w>": 1544,
      "ir</w>": 1545,
      "urrent": 1546,
      "Content</w>": 1547,
      "Trace": 1548,
      "sy": 1549,
      "fs</w>": 1550,
      "Descriptor</w>": 1551,
      "io": 1552,
      "ence": 1553,
      "Debu": 1554,
      "conver": 1555,
      "cation</w>": 1556,
      "map": 1557,
      "Line": 1558,
      "auth": 1559,
      "ound</w>": 1560,
      "min</w>": 1561,
      "Sequ": 1562,
      "ory": 1563,
      "Pr": 1564,
      "Ign": 1565,
      "sing": 1566,
      "Tree": 1567,
      "SQL": 1568,
      "ke</w>": 1569,
      "Big": 1570,
      "writer</w>": 1571,
      "Throw": 1572,
      "Max": 1573,
      "getClass</w>": 1574,
      "create</w>": 1575,
      "stream</w>": 1576,
      "Modifi": 1577,
      "Mo": 1578,
      "Expression</w>": 1579,
      "imple": 1580,
      "Entity": 1581,
      "spli": 1582,
      "BL": 1583,
      "source": 1584,
      "LOG": 1585,
      "late": 1586,
      "position</w>": 1587,
      "build": 1588,
      "model</w>": 1589,
      "ly": 1590,
      "content": 1591,
      "sed</w>": 1592,
      "Map": 1593,
      "RuntimeException</w>": 1594,
      "line": 1595,
      "ler": 1596,
      "PO": 1597,
      "continue</w>": 1598,
      "Parti": 1599,
      "Number": 1600,
      "one": 1601,
      "tr</w>": 1602,
      "super</w>": 1603,
      "getD": 1604,
      "Cache": 1605,
      "UM": 1606,
      "illis</w>": 1607,
      "itch</w>": 1608,
      "hasNext</w>": 1609,
      "Activ": 1610,
      "query": 1611,
      "endar</w>": 1612,
      "Task</w>": 1613,
      "ema": 1614,
      "output": 1615,
      "Base": 1616,
      "FF": 1617,
      "ire": 1618,
      "Matri": 1619,
      "form</w>": 1620,
      "contains": 1621,
      "rup": 1622,
      "from": 1623,
      "element</w>": 1624,
      "op</w>": 1625,
      "instance</w>": 1626,
      "olu": 1627,
      "TYPE</w>": 1628,
      "rst</w>": 1629,
      "ft": 1630,
      "ry": 1631,
      "lob": 1632,
      "Parameter": 1633,
      "zz</w>": 1634,
      "ature</w>": 1635,
      "Parameters</w>": 1636,
      "ME": 1637,
      "Vo": 1638,
      "Sty": 1639,
      "group": 1640,
      "oth": 1641,
      "Read": 1642,
      "ph": 1643,
      "Unit</w>": 1644,
      "point</w>": 1645,
      "Statement</w>": 1646,
      "Fa": 1647,
      "Source": 1648,
      "val": 1649,
      "ic</w>": 1650,
      "ING</w>": 1651,
      "Start</w>": 1652,
      "Attributes</w>": 1653,
      "ud": 1654,
      "Info": 1655,
      "Asyn": 1656,
      "pace": 1657,
      "object</w>": 1658,
      "**": 1659,
      "direc": 1660,
      "ema</w>": 1661,
      "Code": 1662,
      "Pos</w>": 1663,
      "Document</w>": 1664,
      "GER</w>": 1665,
      "righ": 1666,
      "token": 1667,
      "domain": 1668,
      "sions</w>": 1669,
      "dest": 1670,
      "Rel": 1671,
      "first": 1672,
      "DO": 1673,
      "--": 1674,
      "Conver": 1675,
      "orig": 1676,
      "cope</w>": 1677,
      "db": 1678,
      "Page</w>": 1679,
      "Pattern</w>": 1680,
      "Tr</w>": 1681,
      "session</w>": 1682,
      "array</w>": 1683,
      "getN": 1684,
      "Child</w>": 1685,
      "Web": 1686,
      "max</w>": 1687,
      "Roo": 1688,
      "input": 1689,
      "exist": 1690,
      "Metadata</w>": 1691,
      "getKey</w>": 1692,
      "Sc": 1693,
      "man": 1694,
      "aders</w>": 1695,
      "initi": 1696,
      "Operation": 1697,
      "Jav": 1698,
      "Throwable</w>": 1699,
      "Parameter</w>": 1700,
      "load</w>": 1701,
      "gr": 1702,
      "Tree</w>": 1703,
      "fier</w>": 1704,
      "VALU": 1705,
      "entry": 1706,
      "un</w>": 1707,
      "Millis</w>": 1708,
      "Tag</w>": 1709,
      "Bit": 1710,
      "fac": 1711,
      "Servlet": 1712,
      "Directory</w>": 1713,
      "send": 1714,
      "time</w>": 1715,
      "Abstr": 1716,
      "Seg": 1717,
      "Multi": 1718,
      "Bund": 1719,
      "ustom": 1720,
      "ml</w>": 1721,
      "options</w>": 1722,
      "Metric": 1723,
      "Column</w>": 1724,
      "job": 1725,
      "Syn": 1726,
      "Jo": 1727,
      "task": 1728,
      "Ag": 1729,
      "utable": 1730,
      "AG": 1731,
      "Files</w>": 1732,
      "call": 1733,
      "ool</w>": 1734,
      "projec": 1735,
      "Update": 1736,
      "Logger</w>": 1737,
      "Assert</w>": 1738,
      "invo": 1739,
      "Component": 1740,
      "listener</w>": 1741,
      "my": 1742,
      "resol": 1743,
      "ger": 1744,
      "switch</w>": 1745,
      "Model": 1746,
      "ster</w>": 1747,
      "point": 1748,
      "format": 1749,
      "Sock": 1750,
      "clazz</w>": 1751,
      "Block</w>": 1752,
      "getL": 1753,
      "result": 1754,
      "compon": 1755,
      "Connection": 1756,
      "filter</w>": 1757,
      "Debug": 1758,
      "Status": 1759,
      "SS": 1760,
      "Ref</w>": 1761,
      "state": 1762,
      "top": 1763,
      "parator</w>": 1764,
      "Delet": 1765,
      "ue": 1766,
      "ren</w>": 1767,
      "server": 1768,
      "sTo": 1769,
      "Reference</w>": 1770,
      "numb": 1771,
      "om</w>": 1772,
      "iter</w>": 1773,
      "ial": 1774,
      "DB": 1775,
      "Ter": 1776,
      "rapp": 1777,
      "cei": 1778,
      "Str</w>": 1779,
      "Record</w>": 1780,
      "lat": 1781,
      "Stor": 1782,
      "event": 1783,
      "output</w>": 1784,
      "getType</w>": 1785,
      "getF": 1786,
      "collec": 1787,
      "IC": 1788,
      "Row</w>": 1789,
      "sa": 1790,
      "ample": 1791,
      "sor</w>": 1792,
      "Reposi": 1793,
      "oper": 1794,
      "Var": 1795,
      "Output": 1796,
      "fe": 1797,
      "Mar": 1798,
      "K_": 1799,
      "LOGGER</w>": 1800,
      "ary</w>": 1801,
      "Container</w>": 1802,
      "ref": 1803,
      "height</w>": 1804,
      "StackTrace</w>": 1805,
      "abstr": 1806,
      "pe": 1807,
      "reader</w>": 1808,
      "dep": 1809,
      "equal": 1810,
      "VER": 1811,
      "Store</w>": 1812,
      "Abstract": 1813,
      "Complet": 1814,
      "Trac": 1815,
      "estam": 1816,
      "ature": 1817,
      "com</w>": 1818,
      "Function</w>": 1819,
      "DAT": 1820,
      "Future</w>": 1821,
      "col</w>": 1822,
      "Ali": 1823,
      "ded</w>": 1824,
      "lim": 1825,
      "ims</w>": 1826,
      "Context": 1827,
      "main": 1828,
      "Description</w>": 1829,
      "expected": 1830,
      "late</w>": 1831,
      "os</w>": 1832,
      "Polic": 1833,
      "Any": 1834,
      "Suppres": 1835,
      "ant": 1836,
      "mt</w>": 1837,
      "ix": 1838,
      "user</w>": 1839,
      "Men": 1840,
      "Session</w>": 1841,
      "order": 1842,
      "Callback</w>": 1843,
      "Document": 1844,
      "pack": 1845,
      "arnings</w>": 1846,
      "assert</w>": 1847,
      "fix": 1848,
      "byte": 1849,
      "clear</w>": 1850,
      "AD": 1851,
      "aw": 1852,
      "Keys</w>": 1853,
      "Button</w>": 1854,
      "Definition</w>": 1855,
      "getPar": 1856,
      "charAt</w>": 1857,
      "TH": 1858,
      "Store": 1859,
      "tre": 1860,
      "Arrays</w>": 1861,
      "http": 1862,
      "alog</w>": 1863,
      "Search": 1864,
      "cap": 1865,
      "QU": 1866,
      "ance": 1867,
      "MO": 1868,
      "block": 1869,
      "Thread": 1870,
      "copy</w>": 1871,
      "SP": 1872,
      "sist": 1873,
      "resources</w>": 1874,
      "indexOf</w>": 1875,
      "urity": 1876,
      "Point": 1877,
      "ind</w>": 1878,
      "Fields</w>": 1879,
      "F_": 1880,
      "ip</w>": 1881,
      "Calendar</w>": 1882,
      "Configuration": 1883,
      "cip": 1884,
      "FAUL": 1885,
      "Datab": 1886,
      "Row": 1887,
      "abstract</w>": 1888,
      "ot</w>": 1889,
      "delete": 1890,
      "Pu": 1891,
      "Mon": 1892,
      "Clu": 1893,
      "Windo": 1894,
      "connection</w>": 1895,
      "getProperty</w>": 1896,
      "Proto": 1897,
      "Ignore": 1898,
      "DEFAUL": 1899,
      "Lock</w>": 1900,
      "XML": 1901,
      "New": 1902,
      "Devi": 1903,
      "wn</w>": 1904,
      "IL": 1905,
      "Graph": 1906,
      "properties</w>": 1907,
      "Meta": 1908,
      "Pair</w>": 1909,
      "orm": 1910,
      "Filter": 1911,
      "RI": 1912,
      "Command": 1913,
      "imen": 1914,
      "modifi": 1915,
      "register": 1916,
      "Memb": 1917,
      "Nodes</w>": 1918,
      "Panel</w>": 1919,
      "ename</w>": 1920,
      "Command</w>": 1921,
      "System": 1922,
      "Page": 1923,
      "edia": 1924,
      "sed": 1925,
      "cl": 1926,
      "Execution": 1927,
      "property": 1928,
      "name": 1929,
      "ical": 1930,
      "ast</w>": 1931,
      "Runn": 1932,
      "SIZ": 1933,
      "sWarnings</w>": 1934,
      "lang</w>": 1935,
      "ounds</w>": 1936,
      "SuppressWarnings</w>": 1937,
      "uri</w>": 1938,
      "chan": 1939,
      "Tag": 1940,
      "Atom": 1941,
      "annot": 1942,
      "Charac": 1943,
      "Vector</w>": 1944,
      "token</w>": 1945,
      "uti": 1946,
      "Buffered": 1947,
      "Parser</w>": 1948,
      "Found": 1949,
      "over": 1950,
      "printStackTrace</w>": 1951,
      "view": 1952,
      "abili": 1953,
      "ats</w>": 1954,
      "Play": 1955,
      "tors</w>": 1956,
      "code</w>": 1957,
      "gin</w>": 1958,
      "warn</w>": 1959,
      "filter": 1960,
      "Adap": 1961,
      "Cel": 1962,
      "angu": 1963,
      "Collections</w>": 1964,
      "Pres": 1965,
      "ta": 1966,
      "Encod": 1967,
      "Api": 1968,
      "Uri</w>": 1969,
      "nap": 1970,
      "Cap": 1971,
      "sig": 1972,
      "Java": 1973,
      "CL": 1974,
      "status</w>": 1975,
      "ay</w>": 1976,
      "extr": 1977,
      "tedException</w>": 1978,
      "PAR": 1979,
      "face</w>": 1980,
      "ouble": 1981,
      "SC": 1982,
      "Param</w>": 1983,
      "Bind": 1984,
      "ved": 1985,
      "root</w>": 1986,
      "group</w>": 1987,
      "bind": 1988,
      "replace": 1989,
      "Prog": 1990,
      "execute</w>": 1991,
      "ingEnabled</w>": 1992,
      "view</w>": 1993,
      "Range</w>": 1994,
      "viou": 1995,
      "Prox": 1996,
      "ED</w>": 1997,
      "conf</w>": 1998,
      "scal": 1999,
      "Layout</w>": 2000,
      "ENT_": 2001,
      "child</w>": 2002,
      "Port</w>": 2003,
      "StateException</w>": 2004,
      "Ms": 2005,
      "mb": 2006,
      "org</w>": 2007,
      "Plu": 2008,
      "ctx</w>": 2009,
      "server</w>": 2010,
      "client": 2011,
      "rel": 2012,
      "HashSet</w>": 2013,
      "addAll</w>": 2014,
      "tries</w>": 2015,
      "Names": 2016,
      "append": 2017,
      "startsWith</w>": 2018,
      "als</w>": 2019,
      "Bean</w>": 2020,
      "parti": 2021,
      "oriz": 2022,
      "PER": 2023,
      "..": 2024,
      "Excep": 2025,
      "are": 2026,
      "Abs": 2027,
      ">></w>": 2028,
      "ick": 2029,
      "ated</w>": 2030,
      "assertTh": 2031,
      "Body</w>": 2032,
      "bytes</w>": 2033,
      "assword</w>": 2034,
      "isDebug": 2035,
      "Resol": 2036,
      "SH": 2037,
      "array": 2038,
      "secon": 2039,
      "If": 2040,
      "Net": 2041,
      "<<</w>": 2042,
      "containsKey</w>": 2043,
      "Build": 2044,
      "Back": 2045,
      "Xml": 2046,
      "copy": 2047,
      "Constra": 2048,
      "MAX_": 2049,
      "Min": 2050,
      "store": 2051,
      "var": 2052,
      "Simple": 2053,
      "Serializ": 2054,
      "ordin": 2055,
      "Ids</w>": 2056,
      "Settings</w>": 2057,
      "color</w>": 2058,
      "Host": 2059,
      "ryp": 2060,
      "response": 2061,
      "Cms": 2062,
      "the": 2063,
      "sh</w>": 2064,
      "Permis": 2065,
      "Scrip": 2066,
      "Bean": 2067,
      "Application": 2068,
      "Interrup": 2069,
      "SO": 2070,
      "ref</w>": 2071,
      "Ref": 2072,
      "Annotation</w>": 2073,
      "resh": 2074,
      "message": 2075,
      "vel": 2076,
      "ING_": 2077,
      "current</w>": 2078,
      "Invalid": 2079,
      "--</w>": 2080,
      "End</w>": 2081,
      "Chang": 2082,
      "Variable": 2083,
      "Server</w>": 2084,
      "NotFound": 2085,
      "assertThat</w>": 2086,
      "...</w>": 2087,
      "wer": 2088,
      "sq": 2089,
      "IllegalStateException</w>": 2090,
      "Bas": 2091,
      "isDebugEnabled</w>": 2092,
      "repl": 2093,
      "Order</w>": 2094,
      "inal": 2095,
      "Retur": 2096,
      "vari": 2097,
      "scrip": 2098,
      "PRE": 2099,
      "condi": 2100,
      "total": 2101,
      "ner": 2102,
      "Sign": 2103,
      "IN_": 2104,
      "default</w>": 2105,
      "Queue</w>": 2106,
      "SER": 2107,
      "use": 2108,
      "isAny": 2109,
      "ize": 2110,
      "string": 2111,
      "Spec": 2112,
      "Produc": 2113,
      "Stack</w>": 2114,
      "code": 2115,
      "run</w>": 2116,
      "Cer": 2117,
      "Change": 2118,
      "ported": 2119,
      "TracingEnabled</w>": 2120,
      "mapp": 2121,
      "entity": 2122,
      "from</w>": 2123,
      "idx</w>": 2124,
      "NotFoundException</w>": 2125,
      "ved</w>": 2126,
      "call</w>": 2127,
      "ard</w>": 2128,
      "net": 2129,
      "tom</w>": 2130,
      "First": 2131,
      "gle</w>": 2132,
      "matcher</w>": 2133,
      "Render": 2134,
      "isAnyTracingEnabled</w>": 2135,
      "Option</w>": 2136,
      "eners</w>": 2137,
      "IgnoreCase</w>": 2138,
      "M_": 2139,
      "handle": 2140,
      "entity</w>": 2141,
      "Detail": 2142,
      "VALUE</w>": 2143,
      "equals": 2144,
      "Session": 2145,
      "ight": 2146,
      "LA": 2147,
      "Imm": 2148,
      "endenc": 2149,
      "ffset": 2150,
      "rapper</w>": 2151,
      "ok": 2152,
      "json": 2153,
      "roll": 2154,
      "SQLException</w>": 2155,
      "trim</w>": 2156,
      "sor": 2157,
      "Cur": 2158,
      "Header": 2159,
      "adi": 2160,
      "TER": 2161,
      "object": 2162,
      "parameters</w>": 2163,
      "generate": 2164,
      "Def</w>": 2165,
      "100": 2166,
      "Tri": 2167,
      "contr": 2168,
      "root": 2169,
      "sk": 2170,
      "Input</w>": 2171,
      "src</w>": 2172,
      "OR_": 2173,
      "bin": 2174,
      "Fail": 2175,
      "ut</w>": 2176,
      "ause</w>": 2177,
      "Sib": 2178,
      "Ge": 2179,
      "BO": 2180,
      "TraceComponent</w>": 2181,
      "DEFAULT_": 2182,
      "A_": 2183,
      "omain</w>": 2184,
      "Mem": 2185,
      "Elements</w>": 2186,
      "Intent</w>": 2187,
      "SU": 2188,
      "doc</w>": 2189,
      "FIL": 2190,
      "Order": 2191,
      "mon": 2192,
      "print</w>": 2193,
      "ecut": 2194,
      "conn</w>": 2195,
      "Track": 2196,
      "execute": 2197,
      "Nullable</w>": 2198,
      "estamp</w>": 2199,
      "init": 2200,
      "STAT": 2201,
      "viron": 2202,
      "andom": 2203,
      "Top": 2204,
      "16</w>": 2205,
      "Decim": 2206,
      "show": 2207,
      "Output</w>": 2208,
      "STR": 2209,
      "TYPE_": 2210,
      "mer": 2211,
      "results</w>": 2212,
      "aly": 2213,
      "groun": 2214,
      "Sequence</w>": 2215,
      "AL_": 2216,
      "validate": 2217,
      "men": 2218,
      "content</w>": 2219,
      "Locale</w>": 2220,
      "seg": 2221,
      "BU": 2222,
      "Async</w>": 2223,
      "Ste": 2224,
      "Box</w>": 2225,
      "Edit": 2226,
      "con</w>": 2227,
      "ld": 2228,
      "StringUtils</w>": 2229,
      "Identifier</w>": 2230,
      "exce": 2231,
      "tive</w>": 2232,
      ");</w>": 2233,
      "Messages</w>": 2234,
      "wait": 2235,
      "ned": 2236,
      "split</w>": 2237,
      "func": 2238,
      "Matrix</w>": 2239,
      "grap": 2240,
      "Linked": 2241,
      "InterruptedException</w>": 2242,
      "clude": 2243,
      "URL": 2244,
      "element": 2245,
      "ics</w>": 2246,
      "ates</w>": 2247,
      "equalsIgnoreCase</w>": 2248,
      "cm": 2249,
      "Schema</w>": 2250,
      "search": 2251,
      "compare": 2252,
      "pos": 2253,
      "AX": 2254,
      "df": 2255,
      "eck</w>": 2256,
      "task</w>": 2257,
      "ST_": 2258,
      "Rule": 2259,
      "Invo": 2260,
      "us</w>": 2261,
      "item": 2262,
      "Byte</w>": 2263,
      "Target": 2264,
      "make": 2265,
      "provi": 2266,
      "ep": 2267,
      "FIN": 2268,
      "dir</w>": 2269,
      "Region": 2270,
      "EL": 2271,
      "cache": 2272,
      "Spec</w>": 2273,
      "pol": 2274,
      "rt": 2275,
      "ties": 2276,
      "CAT": 2277,
      "me": 2278,
      "draw": 2279,
      "exception</w>": 2280,
      "Channel</w>": 2281,
      "Optional</w>": 2282,
      "open": 2283,
      "False</w>": 2284,
      "alog": 2285,
      "ker</w>": 2286,
      "cache</w>": 2287,
      "Call</w>": 2288,
      "ane</w>": 2289,
      "Immutable": 2290,
      "Categ": 2291,
      "ss</w>": 2292,
      "Label": 2293,
      "s_": 2294,
      "other</w>": 2295,
      "Manager": 2296,
      "andid": 2297,
      "12</w>": 2298,
      "Len</w>": 2299,
      "cul": 2300,
      "Security": 2301,
      "Record": 2302,
      "Bundle</w>": 2303,
      "Fin": 2304,
      "verif": 2305,
      "cas": 2306,
      "mary": 2307,
      "parse</w>": 2308,
      "header</w>": 2309,
      "From</w>": 2310,
      "version</w>": 2311,
      "Prefix</w>": 2312,
      "order</w>": 2313,
      "vo</w>": 2314,
      "Preferen": 2315,
      "ES</w>": 2316,
      "2D</w>": 2317,
      "Fon": 2318,
      "lags</w>": 2319,
      "Assign": 2320,
      "StringBuffer</w>": 2321,
      "req</w>": 2322,
      "left</w>": 2323,
      "Tool": 2324,
      "column</w>": 2325,
      "entrySet</w>": 2326,
      "src": 2327,
      "memb": 2328,
      "Link</w>": 2329,
      "bit": 2330,
      "TAG</w>": 2331,
      "tag": 2332,
      "first</w>": 2333,
      "Matcher</w>": 2334,
      "Stati": 2335,
      "Current": 2336,
      "getIn": 2337,
      "ByteBuffer</w>": 2338,
      "Av": 2339,
      "spec": 2340,
      "address</w>": 2341,
      "close": 2342,
      "Transform": 2343,
      "Float</w>": 2344,
      "exists</w>": 2345,
      "location</w>": 2346,
      "tific": 2347,
      "return": 2348,
      "prefix</w>": 2349,
      "Grid": 2350,
      "gor": 2351,
      "look": 2352,
      "tit": 2353,
      "Engin": 2354,
      "Headers</w>": 2355,
      "Val</w>": 2356,
      "Update</w>": 2357,
      "ecutor</w>": 2358,
      "getO": 2359,
      "props</w>": 2360,
      "SIZE</w>": 2361,
      "gorith": 2362,
      "Frag": 2363,
      "Char</w>": 2364,
      "loy": 2365,
      "ansi": 2366,
      "Ax": 2367,
      "Wh": 2368,
      "Sing": 2369,
      "les</w>": 2370,
      "Predic": 2371,
      "Exception": 2372,
      "Scope</w>": 2373,
      "Metrics</w>": 2374,
      "UID</w>": 2375,
      "Cop": 2376,
      "Operation</w>": 2377,
      "unk": 2378,
      "Create": 2379,
      "Interface</w>": 2380,
      "Storage": 2381,
      "GE": 2382,
      "domainObject</w>": 2383,
      "Obj</w>": 2384,
      "err</w>": 2385,
      "lot</w>": 2386,
      "isEntry": 2387,
      "Load": 2388,
      "sert": 2389,
      "Consum": 2390,
      "fileName</w>": 2391,
      "ender</w>": 2392,
      "getRe": 2393,
      "body</w>": 2394,
      "attern": 2395,
      "handler</w>": 2396,
      "assertFalse</w>": 2397,
      "isEntryEnabled</w>": 2398,
      "util</w>": 2399,
      "TION_": 2400,
      "Transaction": 2401,
      "lag</w>": 2402,
      "32</w>": 2403,
      "lobal": 2404,
      "goo": 2405,
      "encode": 2406,
      "Scal": 2407,
      "omet": 2408,
      "Style</w>": 2409,
      "Resources</w>": 2410,
      "Extr": 2411,
      "JSONObject</w>": 2412,
      "convert": 2413,
      "ran": 2414,
      "tag</w>": 2415,
      "trace</w>": 2416,
      "activ": 2417,
      "Af": 2418,
      "Socket": 2419,
      "word": 2420,
      "Absolu": 2421,
      "right</w>": 2422,
      "::</w>": 2423,
      "ape</w>": 2424,
      "ater": 2425,
      "tmp": 2426,
      "ine</w>": 2427,
      "Annotation": 2428,
      "lar": 2429,
      "Results</w>": 2430,
      "Dig": 2431,
      "Pane</w>": 2432,
      "acity</w>": 2433,
      "plic": 2434,
      "ked</w>": 2435,
      "det": 2436,
      "previou": 2437,
      "className</w>": 2438,
      "tmp</w>": 2439,
      "parser</w>": 2440,
      "names": 2441,
      "devi": 2442,
      "tex</w>": 2443,
      "lot": 2444,
      "TimeMillis</w>": 2445,
      "ENT</w>": 2446,
      "Authenti": 2447,
      "pace</w>": 2448,
      "cket": 2449,
      "Adapter</w>": 2450,
      "Base</w>": 2451,
      "tach": 2452,
      "Notifi": 2453,
      "link": 2454,
      "0f</w>": 2455,
      "Anim": 2456,
      "work</w>": 2457,
      "mbo": 2458,
      "tx": 2459,
      "compu": 2460,
      "metadat": 2461,
      "factory</w>": 2462,
      "sty": 2463,
      "bl": 2464,
      "old</w>": 2465,
      "initial": 2466,
      "Parse": 2467,
      "Enum": 2468,
      "Wrapper</w>": 2469,
      "polic": 2470,
      "attr": 2471,
      "Version": 2472,
      "ple</w>": 2473,
      "serv": 2474,
      "label</w>": 2475,
      "plu": 2476,
      "Mapping</w>": 2477,
      "image": 2478,
      "cp": 2479,
      "multi": 2480,
      "ors</w>": 2481,
      "ative</w>": 2482,
      "Frame</w>": 2483,
      "Dialog</w>": 2484,
      "accep": 2485,
      "be</w>": 2486,
      "update</w>": 2487,
      "flu": 2488,
      "greg": 2489,
      "Rule</w>": 2490,
      "cer": 2491,
      "Sql": 2492,
      "Internal": 2493,
      "MI": 2494,
      "Args</w>": 2495,
      "mark": 2496,
      "Utili": 2497,
      "Construc": 2498,
      "Account": 2499,
      "fail</w>": 2500,
      "Root</w>": 2501,
      "In</w>": 2502,
      "iv": 2503,
      "Initi": 2504,
      "Function": 2505,
      "Activity</w>": 2506,
      "Lower": 2507,
      "C_": 2508,
      "short</w>": 2509,
      "Num": 2510,
      "flow": 2511,
      "uid</w>": 2512,
      "session": 2513,
      "ine": 2514,
      "Bound": 2515,
      "Channel": 2516,
      "Condi": 2517,
      "attribute": 2518,
      "Bin": 2519,
      "ta</w>": 2520,
      "ive": 2521,
      "Lim": 2522,
      "getCurrent": 2523,
      "ending": 2524,
      "Me": 2525,
      "ared": 2526,
      "andom</w>": 2527,
      "Variable</w>": 2528,
      "pattern</w>": 2529,
      "TT": 2530,
      "de</w>": 2531,
      "atom": 2532,
      "Transaction</w>": 2533,
      "Target</w>": 2534,
      "wner</w>": 2535,
      "post": 2536,
      "store</w>": 2537,
      "replace</w>": 2538,
      "ance</w>": 2539,
      "Logg": 2540,
      "exit</w>": 2541,
      "norm": 2542,
      "delete</w>": 2543,
      "Exist": 2544,
      "sum</w>": 2545,
      "Character</w>": 2546,
      "label": 2547,
      "20</w>": 2548,
      "stack</w>": 2549,
      "supported": 2550,
      "DA": 2551,
      "Timeout</w>": 2552,
      "OP": 2553,
      "Registry</w>": 2554,
      "TH</w>": 2555,
      "ority</w>": 2556,
      "Media": 2557,
      "Size": 2558,
      "ID_": 2559,
      "Wa": 2560,
      "Tup": 2561,
      "Host</w>": 2562,
      "number": 2563,
      "SibTr</w>": 2564,
      "ategy</w>": 2565,
      "stream": 2566,
      "FOR": 2567,
      "Display": 2568,
      "Idx</w>": 2569,
      "del": 2570,
      "NE": 2571,
      "currentTimeMillis</w>": 2572,
      "CE</w>": 2573,
      "keySet</w>": 2574,
      "ao</w>": 2575,
      "KEY_": 2576,
      "Pool</w>": 2577,
      "Last": 2578,
      "100</w>": 2579,
      "Project</w>": 2580,
      "temp</w>": 2581,
      "Pol": 2582,
      "uld": 2583,
      "host": 2584,
      "Custom": 2585,
      "izer</w>": 2586,
      "Remote": 2587,
      "AL</w>": 2588,
      "Sched": 2589,
      "face": 2590,
      "Tit": 2591,
      "java": 2592,
      "ite</w>": 2593,
      "Reference": 2594,
      "expected</w>": 2595,
      "Open": 2596,
      "0x0": 2597,
      "pc": 2598,
      "api": 2599,
      "ture</w>": 2600,
      "Ph": 2601,
      "Rol": 2602,
      "prox": 2603,
      "getChild": 2604,
      "Controller</w>": 2605,
      "Absolute": 2606,
      "page": 2607,
      "Suc": 2608,
      "avi": 2609,
      "property</w>": 2610,
      "led": 2611,
      "ooki": 2612,
      "oot": 2613,
      "ENT": 2614,
      "bund": 2615,
      "Visib": 2616,
      "Repository</w>": 2617,
      "Pay": 2618,
      "player</w>": 2619,
      "etch": 2620,
      "newInstance</w>": 2621,
      "stmt</w>": 2622,
      "clear": 2623,
      "Void</w>": 2624,
      "parseInt</w>": 2625,
      "sett": 2626,
      "proto": 2627,
      "Msg</w>": 2628,
      "HttpServlet": 2629,
      "ClassLoader</w>": 2630,
      "Struc": 2631,
      "Print": 2632,
      "Generator</w>": 2633,
      "Handle</w>": 2634,
      "Out</w>": 2635,
      "Database": 2636,
      "attributes</w>": 2637,
      "command</w>": 2638,
      "getPath</w>": 2639,
      "ible</w>": 2640,
      "11</w>": 2641,
      "pli": 2642,
      "Region</w>": 2643,
      "configuration</w>": 2644,
      "Rect": 2645,
      "HE": 2646,
      "incip": 2647,
      "tree</w>": 2648,
      "Publi": 2649,
      "host</w>": 2650,
      "Partition": 2651,
      "files</w>": 2652,
      "getDefault": 2653,
      "CLAS": 2654,
      "PAT": 2655,
      "ByteArray": 2656,
      "ST</w>": 2657,
      "Policy</w>": 2658,
      "miti": 2659,
      "ired": 2660,
      "p_": 2661,
      "keys</w>": 2662,
      "UI": 2663,
      "tml": 2664,
      "way": 2665,
      "component": 2666,
      "Items</w>": 2667,
      "google</w>": 2668,
      "Look": 2669,
      "manag": 2670,
      "Url": 2671,
      "64</w>": 2672,
      "setText</w>": 2673,
      "Down": 2674,
      "Edge</w>": 2675,
      "Num</w>": 2676,
      "Layout": 2677,
      "Template": 2678,
      "25": 2679,
      "ns": 2680,
      "Module": 2681,
      "ters</w>": 2682,
      "Inner</w>": 2683,
      "iled": 2684,
      "getText</w>": 2685,
      "redenti": 2686,
      "param</w>": 2687,
      "Dest": 2688,
      "ationException</w>": 2689,
      "scan": 2690,
      "angle</w>": 2691,
      "Domain": 2692,
      "cel": 2693,
      "ual</w>": 2694,
      "****": 2695,
      "hash": 2696,
      "PU": 2697,
      "Level": 2698,
      "Environ": 2699,
      "Runnable</w>": 2700,
      "Artif": 2701,
      "Long": 2702,
      "FileName</w>": 2703,
      "xml": 2704,
      "0000": 2705,
      "Persist": 2706,
      "Collection": 2707,
      "Hist": 2708,
      "nal</w>": 2709,
      "W_": 2710,
      "header": 2711,
      "Vector": 2712,
      "parameter": 2713,
      "active": 2714,
      "Recei": 2715,
      "Lock": 2716,
      "complet": 2717,
      "Left</w>": 2718,
      "stor": 2719,
      "DE</w>": 2720,
      "Write": 2721,
      "Scan": 2722,
      "Menu": 2723,
      "Read</w>": 2724,
      "Wid": 2725,
      "save": 2726,
      "render": 2727,
      "getUser": 2728,
      "container</w>": 2729,
      "select": 2730,
      "Are": 2731,
      "her": 2732,
      "api</w>": 2733,
      "exten": 2734,
      "BLE</w>": 2735,
      "fields</w>": 2736,
      "Frame": 2737,
      "ol</w>": 2738,
      "ords</w>": 2739,
      "Dir": 2740,
      "Columns</w>": 2741,
      "env</w>": 2742,
      "Schema": 2743,
      "block</w>": 2744,
      "mbol</w>": 2745,
      "pay": 2746,
      "ker": 2747,
      "ans</w>": 2748,
      "Decimal</w>": 2749,
      "10": 2750,
      "cent": 2751,
      "DE_": 2752,
      "KEY</w>": 2753,
      "VI": 2754,
      "assertNotNull</w>": 2755,
      "Doc</w>": 2756,
      "Address": 2757,
      "toArray</w>": 2758,
      "FO": 2759,
      "Project": 2760,
      "sql": 2761,
      "children</w>": 2762,
      "Next": 2763,
      "suc": 2764,
      "Dependenc": 2765,
      "----": 2766,
      "STAN": 2767,
      "Mis": 2768,
      "cf": 2769,
      "cor": 2770,
      "asList</w>": 2771,
      "control": 2772,
      "filename</w>": 2773,
      "Selected": 2774,
      "space</w>": 2775,
      "datab": 2776,
      "connection": 2777,
      "Iterable</w>": 2778,
      "NonNull</w>": 2779,
      "attribute</w>": 2780,
      "consum": 2781,
      "Chain": 2782,
      "patch": 2783,
      "Part</w>": 2784,
      "original": 2785,
      "Bounds</w>": 2786,
      "ached": 2787,
      "LIN": 2788,
      "Atom</w>": 2789,
      "tional": 2790,
      "Certific": 2791,
      "ap</w>": 2792,
      "Sk": 2793,
      "Extension</w>": 2794,
      "notif": 2795,
      "Post": 2796,
      "Dimen": 2797,
      "ency</w>": 2798,
      "url": 2799,
      "Graph</w>": 2800,
      "down": 2801,
      "ixel": 2802,
      "Cluster": 2803,
      "Holder</w>": 2804,
      "ONE</w>": 2805,
      "SERV": 2806,
      "RA": 2807,
      "component</w>": 2808,
      "Port": 2809,
      "US": 2810,
      "gl": 2811,
      "referen": 2812,
      "level</w>": 2813,
      "sql</w>": 2814,
      "TION</w>": 2815,
      "Pool": 2816,
      "getClass": 2817,
      "command": 2818,
      "play</w>": 2819,
      "Network": 2820,
      "init</w>": 2821,
      "oolean": 2822,
      "Desc</w>": 2823,
      "produc": 2824,
      "xml</w>": 2825,
      "Val": 2826,
      "channel</w>": 2827,
      "prop": 2828,
      "Vol": 2829,
      "AD_": 2830,
      "Rou": 2831,
      "Short</w>": 2832,
      "amil": 2833,
      "ClassName</w>": 2834,
      "First</w>": 2835,
      "Snap": 2836,
      "Sw": 2837,
      "Such": 2838,
      "Draw": 2839,
      "ish": 2840,
      "conditions</w>": 2841,
      "VERS": 2842,
      "rows</w>": 2843,
      "Objects</w>": 2844,
      "fore": 2845,
      "Cor": 2846,
      "OB": 2847,
      "Am": 2848,
      "Template</w>": 2849,
      "ingException</w>": 2850,
      "AB": 2851,
      "cr": 2852,
      "NoSuch": 2853,
      "UUID</w>": 2854,
      "ION": 2855,
      "Gr": 2856,
      "teri": 2857,
      "Changed</w>": 2858,
      "transform": 2859,
      "Spli": 2860,
      "Rest": 2861,
      "Pointer": 2862,
      "go": 2863,
      "matches</w>": 2864,
      "destin": 2865,
      "LOC": 2866,
      "Cla": 2867,
      "sin": 2868,
      "ENG": 2869,
      "image</w>": 2870,
      "sched": 2871,
      "Us": 2872,
      "ized": 2873,
      "ld</w>": 2874,
      "ree": 2875,
      "project": 2876,
      "Active": 2877,
      "imum": 2878,
      "stop": 2879,
      "Color": 2880,
      "ids</w>": 2881,
      "dest</w>": 2882,
      "Unit": 2883,
      "ear</w>": 2884,
      "y_": 2885,
      "Listeners</w>": 2886,
      "Job</w>": 2887,
      "Strategy</w>": 2888,
      "allow": 2889,
      "Container": 2890,
      "sets</w>": 2891,
      "Auto": 2892,
      "20": 2893,
      "ED_": 2894,
      "full": 2895,
      "TY_": 2896,
      "Unsupported": 2897,
      "Match</w>": 2898,
      "ternal": 2899,
      "Processor</w>": 2900,
      "DS</w>": 2901,
      "rule": 2902,
      "compute": 2903,
      "getAll": 2904,
      "Avail": 2905,
      "use</w>": 2906,
      "TIM": 2907,
      "rop": 2908,
      "BLE_": 2909,
      "Secon": 2910,
      "sIn": 2911,
      "H_": 2912,
      "IG": 2913,
      "this": 2914,
      "Stand": 2915,
      "fire": 2916,
      "require": 2917,
      "Resolver</w>": 2918,
      "cluster": 2919,
      "LowerCase</w>": 2920,
      "Box": 2921,
      "right": 2922,
      "binding</w>": 2923,
      "ach</w>": 2924,
      "istri": 2925,
      "Interval</w>": 2926,
      "ant</w>": 2927,
      "Entries</w>": 2928,
      "getAbsolute": 2929,
      "PROPER": 2930,
      "arch</w>": 2931,
      "long": 2932,
      "vm": 2933,
      "Device": 2934,
      "DateTime</w>": 2935,
      "DT": 2936,
      "getNode": 2937,
      "tra": 2938,
      "18": 2939,
      "sException</w>": 2940,
      "Single": 2941,
      "getParent</w>": 2942,
      "ep</w>": 2943,
      "istribu": 2944,
      "dig": 2945,
      "domain</w>": 2946,
      "Generic": 2947,
      "Transi": 2948,
      "NOT_": 2949,
      "shot": 2950,
      "invoke</w>": 2951,
      "OR</w>": 2952,
      "timeout</w>": 2953,
      "prev": 2954,
      "TEX": 2955,
      "empty": 2956,
      "Metadata": 2957,
      "Lib": 2958,
      "change": 2959,
      "ek": 2960,
      "ency": 2961,
      "all</w>": 2962,
      "Get</w>": 2963,
      "butt": 2964,
      "expres": 2965,
      "sure": 2966,
      "older": 2967,
      "CE": 2968,
      "description</w>": 2969,
      "limit</w>": 2970,
      "inter</w>": 2971,
      "tro": 2972,
      "Default</w>": 2973,
      "elements</w>": 2974,
      "Stats</w>": 2975,
      "arg</w>": 2976,
      "prepare": 2977,
      "ali": 2978,
      "Credenti": 2979,
      "fs": 2980,
      "Folder</w>": 2981,
      "prog": 2982,
      "Argument</w>": 2983,
      "document</w>": 2984,
      "ced": 2985,
      "anguage</w>": 2986,
      "Rows</w>": 2987,
      "so": 2988,
      "24</w>": 2989,
      "Analy": 2990,
      "Cri": 2991,
      "ROR</w>": 2992,
      "Uni": 2993,
      "1000</w>": 2994,
      "Delete": 2995,
      "Window": 2996,
      "ram</w>": 2997,
      "Button": 2998,
      "tab": 2999,
      "valueObject</w>": 3000,
      "should": 3001,
      "ERROR</w>": 3002,
      "db</w>": 3003,
      "buffer": 3004,
      "Coordin": 3005,
      "getBytes</w>": 3006,
      "points</w>": 3007,
      "track": 3008,
      "toLowerCase</w>": 3009,
      "Mapper</w>": 3010,
      "metadata</w>": 3011,
      "ori": 3012,
      "Module</w>": 3013,
      "SECON": 3014,
      "recei": 3015,
      "ility</w>": 3016,
      "Meta</w>": 3017,
      "Segment": 3018,
      "FF</w>": 3019,
      "Area</w>": 3020,
      "Json</w>": 3021,
      "tal</w>": 3022,
      "arraycopy</w>": 3023,
      "Algorith": 3024,
      "getMax": 3025,
      "Timestamp</w>": 3026,
      "types</w>": 3027,
      "setValue</w>": 3028,
      "lication</w>": 3029,
      "ouse": 3030,
      "Count": 3031,
      "tic": 3032,
      "HO": 3033,
      "ail</w>": 3034,
      "throw": 3035,
      "change</w>": 3036,
      "NO_": 3037,
      "Present</w>": 3038,
      "shall": 3039,
      "Observ": 3040,
      "Change</w>": 3041,
      "extract": 3042,
      "reset</w>": 3043,
      "getE": 3044,
      "thread": 3045,
      "getLocal": 3046,
      "Selection": 3047,
      "selected": 3048,
      "json</w>": 3049,
      "Fix": 3050,
      "Feature": 3051,
      "Qual": 3052,
      "SW": 3053,
      "Icon</w>": 3054,
      "ffec": 3055,
      "Matrix": 3056,
      "CONT": 3057,
      "Props</w>": 3058,
      "ESS": 3059,
      "Visible</w>": 3060,
      "locale</w>": 3061,
      "Mock": 3062,
      "avail": 3063,
      "Ori": 3064,
      "JEC": 3065,
      "ength": 3066,
      "title</w>": 3067,
      "record</w>": 3068,
      "Member": 3069,
      "Double": 3070,
      "Db": 3071,
      "NUM": 3072,
      "BE": 3073,
      "cu": 3074,
      "scri": 3075,
      "Counter</w>": 3076,
      "sel": 3077,
      "eres": 3078,
      "names</w>": 3079,
      "mem": 3080,
      "password</w>": 3081,
      "space": 3082,
      "record": 3083,
      "insert": 3084,
      "ni": 3085,
      "Parent</w>": 3086,
      "Check</w>": 3087,
      "pul": 3088,
      "ATTR": 3089,
      "setProperty</w>": 3090,
      "ill": 3091,
      "candid": 3092,
      "BigDecimal</w>": 3093,
      "Fragment</w>": 3094,
      "Report": 3095,
      "ture": 3096,
      "Style": 3097,
      "alize": 3098,
      "getG": 3099,
      "getData": 3100,
      "mary</w>": 3101,
      "Script": 3102,
      "other": 3103,
      "IV": 3104,
      "custom": 3105,
      "left": 3106,
      "puts</w>": 3107,
      "Dao</w>": 3108,
      "bound": 3109,
      "encod": 3110,
      "eme</w>": 3111,
      "cursor</w>": 3112,
      "sequ": 3113,
      "creen": 3114,
      "Flow": 3115,
      "Font</w>": 3116,
      "kno": 3117,
      "getH": 3118,
      "Inet": 3119,
      "Join": 3120,
      "MS": 3121,
      "Empty": 3122,
      "ies": 3123,
      "By</w>": 3124,
      "Preconditions</w>": 3125,
      "Parser": 3126,
      "region": 3127,
      "serializ": 3128,
      "context": 3129,
      "mode</w>": 3130,
      "any</w>": 3131,
      "Cell</w>": 3132,
      "remain": 3133,
      "fail": 3134,
      "Sho": 3135,
      "Details</w>": 3136,
      "Sum": 3137,
      "MetaData</w>": 3138,
      "Classes</w>": 3139,
      "Operator</w>": 3140,
      "Kind</w>": 3141,
      "Form</w>": 3142,
      "Expression": 3143,
      "Expr</w>": 3144,
      "Return</w>": 3145,
      "itor": 3146,
      "alle": 3147,
      "abs</w>": 3148,
      "Enum</w>": 3149,
      "getAttribute</w>": 3150,
      "metric": 3151,
      "Basic": 3152,
      "Title</w>": 3153,
      "getResource": 3154,
      "COL": 3155,
      "project</w>": 3156,
      "tokens</w>": 3157,
      "Executor</w>": 3158,
      "bject</w>": 3159,
      "notify": 3160,
      "atures</w>": 3161,
      "Provider": 3162,
      "updat": 3163,
      "Repository": 3164,
      "IP": 3165,
      "tableName</w>": 3166,
      "scope</w>": 3167,
      "page</w>": 3168,
      "dices</w>": 3169,
      "Window</w>": 3170,
      "GL": 3171,
      "callback</w>": 3172,
      "12": 3173,
      "report": 3174,
      "R_": 3175,
      "pare</w>": 3176,
      "web": 3177,
      "Handler": 3178,
      "50": 3179,
      "resp</w>": 3180,
      "apply</w>": 3181,
      "rtual": 3182,
      "now</w>": 3183,
      "Vertex</w>": 3184,
      "last</w>": 3185,
      "ody": 3186,
      "Declar": 3187,
      "descrip": 3188,
      "obj": 3189,
      "sBy": 3190,
      "split": 3191,
      "Term</w>": 3192,
      "stall": 3193,
      "location": 3194,
      "'\\</w>": 3195,
      "attr</w>": 3196,
      "ime": 3197,
      "resolve": 3198,
      "Package": 3199,
      "defaultValue</w>": 3200,
      "get_": 3201,
      "rou": 3202,
      "TimeUnit</w>": 3203,
      "os": 3204,
      "headers</w>": 3205,
      "status": 3206,
      "number</w>": 3207,
      "Cursor</w>": 3208,
      "match</w>": 3209,
      "Only</w>": 3210,
      "getInt</w>": 3211,
      "provider</w>": 3212,
      "Converter</w>": 3213,
      "Proxy</w>": 3214,
      "lassi": 3215,
      "Predicate</w>": 3216,
      "gram": 3217,
      "nodes</w>": 3218,
      "endsWith</w>": 3219,
      "ample</w>": 3220,
      "Paths</w>": 3221,
      "non": 3222,
      "rele": 3223,
      "that</w>": 3224,
      "getAbsolutePath</w>": 3225,
      "region</w>": 3226,
      "aset</w>": 3227,
      "getColumn": 3228,
      "Hash</w>": 3229,
      "Primiti": 3230,
      "ade": 3231,
      "BigInteger</w>": 3232,
      "double": 3233,
      "previous": 3234,
      "FS": 3235,
      "Sequence": 3236,
      "down</w>": 3237,
      "ResultSet</w>": 3238,
      "Location": 3239,
      "Symbol</w>": 3240,
      "flush</w>": 3241,
      "wer</w>": 3242,
      "Protocol": 3243,
      "INSTAN": 3244,
      "Standard": 3245,
      "Groups</w>": 3246,
      "Ass": 3247,
      "test</w>": 3248,
      "Strings</w>": 3249,
      "intValue</w>": 3250,
      "gre": 3251,
      "getWidth</w>": 3252,
      "internal": 3253,
      "partition": 3254,
      "Proxy": 3255,
      "username</w>": 3256,
      "frame</w>": 3257,
      "calcul": 3258,
      "-=</w>": 3259,
      "windo": 3260,
      "argument": 3261,
      "construc": 3262,
      "Cell": 3263,
      "FormatException</w>": 3264,
      "size": 3265,
      "Pe": 3266,
      "TO_": 3267,
      "getHeight</w>": 3268,
      "ators</w>": 3269,
      "COM": 3270,
      "checkNotNull</w>": 3271,
      "display": 3272,
      "items</w>": 3273,
      "compareTo</w>": 3274,
      "Bar</w>": 3275,
      "ak": 3276,
      "ason</w>": 3277,
      "API": 3278,
      "sock": 3279,
      "ude</w>": 3280,
      "ATION_": 3281,
      "oci": 3282,
      "Flag</w>": 3283,
      "jcas": 3284,
      "manager</w>": 3285,
      "For</w>": 3286,
      "Segment</w>": 3287,
      "iod</w>": 3288,
      "jcasType</w>": 3289,
      "mit": 3290,
      "Activity": 3291,
      "s1</w>": 3292,
      "intent</w>": 3293,
      "evalu": 3294,
      "Common": 3295,
      "Dri": 3296,
      "sle": 3297,
      "sort</w>": 3298,
      "Range": 3299,
      "lookup": 3300,
      "ings": 3301,
      "Memory": 3302,
      "Duration</w>": 3303,
      "ByteArray</w>": 3304,
      "ables</w>": 3305,
      "fon": 3306,
      "Nonnull</w>": 3307,
      "getFile": 3308,
      "core": 3309,
      "entation</w>": 3310,
      "ek</w>": 3311,
      "ynam": 3312,
      "localVar": 3313,
      "statement</w>": 3314,
      "RES": 3315,
      "settings</w>": 3316,
      "Full": 3317,
      "cs</w>": 3318,
      "var</w>": 3319,
      "Engine</w>": 3320,
      "model": 3321,
      "SIT": 3322,
      "Pattern": 3323,
      "Queue": 3324,
      "ById</w>": 3325,
      "hash</w>": 3326,
      "Feature</w>": 3327,
      "Socket</w>": 3328,
      "signed": 3329,
      "cat": 3330,
      "IB": 3331,
      "Valid</w>": 3332,
      "actual": 3333,
      "graph": 3334,
      "Offset": 3335,
      "Buf</w>": 3336,
      "Selected</w>": 3337,
      "Inform": 3338,
      "NAME_": 3339,
      "Bits</w>": 3340,
      "So": 3341,
      "incre": 3342,
      "module": 3343,
      "package": 3344,
      "AR</w>": 3345,
      "Zone</w>": 3346,
      "gg": 3347,
      "rie": 3348,
      "Permission</w>": 3349,
      "Equal": 3350,
      "EMP": 3351,
      "Player</w>": 3352,
      "frame": 3353,
      "we</w>": 3354,
      "Aggreg": 3355,
      "Plugin": 3356,
      "Factory": 3357,
      "Instan": 3358,
      "Compil": 3359,
      "unk</w>": 3360,
      "Geomet": 3361,
      "Packet</w>": 3362,
      "LENG": 3363,
      "Native": 3364,
      "du": 3365,
      "ON</w>": 3366,
      "ts": 3367,
      "methodName</w>": 3368,
      "UP": 3369,
      "remote": 3370,
      "/*": 3371,
      "lared": 3372,
      "Limit</w>": 3373,
      "Environment</w>": 3374,
      "pe</w>": 3375,
      "Chain</w>": 3376,
      "Ta": 3377,
      "setName</w>": 3378,
      "OF_": 3379,
      "amer": 3380,
      "ns</w>": 3381,
      "cmd</w>": 3382,
      "base</w>": 3383,
      "sm": 3384,
      "verify": 3385,
      "device": 3386,
      "ics": 3387,
      "Database</w>": 3388,
      "job</w>": 3389,
      "rap</w>": 3390,
      "0xff</w>": 3391,
      "MAX_VALUE</w>": 3392,
      "gen": 3393,
      "rid</w>": 3394,
      "unit": 3395,
      "ligh": 3396,
      "ground</w>": 3397,
      "Can": 3398,
      "LinkedList</w>": 3399,
      "Conf</w>": 3400,
      "of": 3401,
      "BufferedReader</w>": 3402,
      "access": 3403,
      "Attach": 3404,
      "getTime</w>": 3405,
      "are</w>": 3406,
      "MESS": 3407,
      "cover": 3408,
      "ide": 3409,
      "MESSAG": 3410,
      "Async": 3411,
      "More": 3412,
      "Op</w>": 3413,
      "schema": 3414,
      "Definition": 3415,
      "Progress": 3416,
      "pc</w>": 3417,
      "FIX</w>": 3418,
      "Policy": 3419,
      "La": 3420,
      "decode": 3421,
      "numberOf": 3422,
      "legate</w>": 3423,
      ").</w>": 3424,
      "super": 3425,
      "visit": 3426,
      "Plat": 3427,
      "Core": 3428,
      "join</w>": 3429,
      "Formatter</w>": 3430,
      "unit</w>": 3431,
      "ome": 3432,
      "Allow": 3433,
      "Tokens</w>": 3434,
      "shut": 3435,
      "Profile</w>": 3436,
      "WAR": 3437,
      "random": 3438,
      "INTER": 3439,
      "Batch": 3440,
      "Plan": 3441,
      "Space</w>": 3442,
      "Cluster</w>": 3443,
      "CE_": 3444,
      "option</w>": 3445,
      "fore</w>": 3446,
      "chang": 3447,
      "ground": 3448,
      "ell": 3449,
      "enable": 3450,
      "Authoriz": 3451,
      "option": 3452,
      "Super": 3453,
      "Root": 3454,
      "Points</w>": 3455,
      "Dic": 3456,
      "Upper": 3457,
      "Tab": 3458,
      "constra": 3459,
      "Methods</w>": 3460,
      "Close": 3461,
      "Arguments</w>": 3462,
      "do</w>": 3463,
      "offset": 3464,
      "s2</w>": 3465,
      "STAR": 3466,
      "queue</w>": 3467,
      "Html": 3468,
      "shot</w>": 3469,
      "ACE</w>": 3470,
      "sFor": 3471,
      "sample": 3472,
      "ents</w>": 3473,
      "anguage": 3474,
      "Gu": 3475,
      "bean": 3476,
      "Utilities</w>": 3477,
      "schema</w>": 3478,
      "tax": 3479,
      "Menu</w>": 3480,
      "editor</w>": 3481,
      "Copy</w>": 3482,
      "ape": 3483,
      "ome</w>": 3484,
      "Replic": 3485,
      "REQU": 3486,
      "meta": 3487,
      "fieldName</w>": 3488,
      "REC": 3489,
      "Binding</w>": 3490,
      "Category</w>": 3491,
      "One": 3492,
      "iod": 3493,
      "head</w>": 3494,
      "ParseException</w>": 3495,
      "dit": 3496,
      "cluster</w>": 3497,
      "process</w>": 3498,
      "Member</w>": 3499,
      "ignore": 3500,
      "sv": 3501,
      "AsString</w>": 3502,
      "warn": 3503,
      "ferred": 3504,
      "core</w>": 3505,
      "columns</w>": 3506,
      "matri": 3507,
      "Condition</w>": 3508,
      "system": 3509,
      "operation</w>": 3510,
      "skip": 3511,
      "Tuple": 3512,
      "Device</w>": 3513,
      "getSh": 3514,
      "stri": 3515,
      "Identifi": 3516,
      "ear": 3517,
      "identi": 3518,
      "found</w>": 3519,
      "stop</w>": 3520,
      "any": 3521,
      "incipal</w>": 3522,
      "Notification": 3523,
      "Pl": 3524,
      "ave": 3525,
      "bas": 3526,
      "snap": 3527,
      "Editor</w>": 3528,
      "OU": 3529,
      "dir": 3530,
      "authenti": 3531,
      "Specifi": 3532,
      "ITY</w>": 3533,
      "Bitmap</w>": 3534,
      "validate</w>": 3535,
      "second": 3536,
      "ability</w>": 3537,
      "Constant</w>": 3538,
      "getFirst": 3539,
      "roun": 3540,
      "Preferences</w>": 3541,
      "br": 3542,
      "SY": 3543,
      "|=</w>": 3544,
      "Rect</w>": 3545,
      "msg": 3546,
      "Gate": 3547,
      "Pla": 3548,
      "ITY_": 3549,
      "categ": 3550,
      "Qualifi": 3551,
      "stats</w>": 3552,
      "HTT": 3553,
      "Relation": 3554,
      "updateres": 3555,
      "whe": 3556,
      "ensi": 3557,
      "reset": 3558,
      "predic": 3559,
      "day": 3560,
      "getLast": 3561,
      "clean": 3562,
      "asure": 3563,
      "real": 3564,
      "begin": 3565,
      "num</w>": 3566,
      "LE</w>": 3567,
      "Jar": 3568,
      "Stop": 3569,
      "0x00</w>": 3570,
      "Day": 3571,
      "ads</w>": 3572,
      "ighb": 3573,
      "document": 3574,
      "Float": 3575,
      "entries</w>": 3576,
      "top</w>": 3577,
      "Directory": 3578,
      "ship": 3579,
      "Report</w>": 3580,
      "ipel": 3581,
      "graph</w>": 3582,
      "cl</w>": 3583,
      "Statist": 3584,
      "loc</w>": 3585,
      "ges</w>": 3586,
      "off</w>": 3587,
      "ere": 3588,
      "ensure": 3589,
      "Comparator</w>": 3590,
      "Password</w>": 3591,
      "gr</w>": 3592,
      "Control</w>": 3593,
      "Access</w>": 3594,
      "accept</w>": 3595,
      "Lookup": 3596,
      "scale</w>": 3597,
      "member": 3598,
      "isIn": 3599,
      "NullPointer": 3600,
      "img</w>": 3601,
      "actual</w>": 3602,
      "not</w>": 3603,
      "join": 3604,
      "Selector</w>": 3605,
      "afe": 3606,
      "NullPointerException</w>": 3607,
      "itu": 3608,
      "Bar": 3609,
      "Stat": 3610,
      "box</w>": 3611,
      "Validation": 3612,
      "Sample": 3613,
      "Instruc": 3614,
      "cket</w>": 3615,
      "expression</w>": 3616,
      ">>></w>": 3617,
      "PP": 3618,
      "Curr": 3619,
      "vec": 3620,
      "Libr": 3621,
      "dri": 3622,
      "adap": 3623,
      "White": 3624,
      "include": 3625,
      "sList</w>": 3626,
      "BY": 3627,
      "OBJEC": 3628,
      "JAX": 3629,
      "getNext": 3630,
      "getX</w>": 3631,
      "getLength</w>": 3632,
      "Tick": 3633,
      "uture": 3634,
      "axis</w>": 3635,
      "Sync": 3636,
      "COMP": 3637,
      "flags</w>": 3638,
      "ier": 3639,
      "Arch": 3640,
      "Progress</w>": 3641,
      "oi": 3642,
      "getY</w>": 3643,
      "range</w>": 3644,
      "Role</w>": 3645,
      "plier</w>": 3646,
      "cls</w>": 3647,
      "cast": 3648,
      "Step</w>": 3649,
      "Audi": 3650,
      "velo": 3651,
      "Dimension</w>": 3652,
      "Require": 3653,
      "link</w>": 3654,
      "sort": 3655,
      "ric</w>": 3656,
      "Rate</w>": 3657,
      "ffix</w>": 3658,
      "hs</w>": 3659,
      "ash": 3660,
      "DEBU": 3661,
      "Bl": 3662,
      "move": 3663,
      "excep": 3664,
      "ie": 3665,
      "ook</w>": 3666,
      "Var</w>": 3667,
      "loader</w>": 3668,
      "Deploy": 3669,
      "SE</w>": 3670,
      "CR": 3671,
      "FIEL": 3672,
      "getContent": 3673,
      "PARAM": 3674,
      "parts</w>": 3675,
      "counter</w>": 3676,
      "External": 3677,
      "LED</w>": 3678,
      "ven": 3679,
      "Constructor</w>": 3680,
      "sPer": 3681,
      "ATION</w>": 3682,
      "CRE": 3683,
      "FILE_": 3684,
      "ookie</w>": 3685,
      "Evalu": 3686,
      "MIN": 3687,
      "style</w>": 3688,
      "wid": 3689,
      "ERR": 3690,
      "rc</w>": 3691,
      "Flags</w>": 3692,
      "URI": 3693,
      "teria</w>": 3694,
      "Max</w>": 3695,
      "Properties": 3696,
      "addr</w>": 3697,
      "Priv": 3698,
      "Composi": 3699,
      "Consumer</w>": 3700,
      "version": 3701,
      "account": 3702,
      "Role": 3703,
      "our</w>": 3704,
      "TED</w>": 3705,
      "mbol": 3706,
      "reposi": 3707,
      "Protocol</w>": 3708,
      "Bundle": 3709,
      "JAXB": 3710,
      "IZ": 3711,
      "replaceAll</w>": 3712,
      "ward": 3713,
      "Total": 3714,
      "getNum": 3715,
      "Return": 3716,
      "Account</w>": 3717,
      "application": 3718,
      "handle</w>": 3719,
      "ps": 3720,
      "queue": 3721,
      "onical": 3722,
      "formatter</w>": 3723,
      "Pass": 3724,
      "cause</w>": 3725,
      "Liter": 3726,
      "pec": 3727,
      "Endpoint</w>": 3728,
      "Poly": 3729,
      "Destin": 3730,
      "Tags</w>": 3731,
      "bs</w>": 3732,
      "GRO": 3733,
      "pha</w>": 3734,
      "Cle": 3735,
      "MIN_": 3736,
      "Process</w>": 3737,
      "Instances</w>": 3738,
      "Select": 3739,
      "Authentication": 3740,
      "reshold</w>": 3741,
      "COLUM": 3742,
      "CES": 3743,
      "On</w>": 3744,
      "CLASS_": 3745,
      "SV": 3746,
      "ere</w>": 3747,
      "IN</w>": 3748,
      "ci": 3749,
      "namespace</w>": 3750,
      "fill": 3751,
      "connect</w>": 3752,
      "wrap</w>": 3753,
      "pk": 3754,
      "sl": 3755,
      "Registr": 3756,
      "NUL": 3757,
      "sol": 3758,
      "verify</w>": 3759,
      "Active</w>": 3760,
      "scription": 3761,
      "Observable</w>": 3762,
      "0L</w>": 3763,
      "amily</w>": 3764,
      "nt</w>": 3765,
      "md</w>": 3766,
      "polog": 3767,
      "Encoding</w>": 3768,
      "insert</w>": 3769,
      "part": 3770,
      "1_": 3771,
      "ged": 3772,
      "Main": 3773,
      "best": 3774,
      "setAttribute</w>": 3775,
      "hel": 3776,
      "qPath</w>": 3777,
      "inner": 3778,
      "avig": 3779,
      "ssl": 3780,
      "ify": 3781,
      "objects</w>": 3782,
      "getKey": 3783,
      "ren": 3784,
      "prop</w>": 3785,
      "getParent": 3786,
      "Constraints</w>": 3787,
      "atomChain": 3788,
      "Zip": 3789,
      "unch": 3790,
      "Timeout": 3791,
      "Foc": 3792,
      "Initializ": 3793,
      "notNull</w>": 3794,
      "rot": 3795,
      "Extension": 3796,
      "RequestMetrics</w>": 3797,
      "deo": 3798,
      "Application</w>": 3799,
      "Mark": 3800,
      "Cance": 3801,
      "ses</w>": 3802,
      "Failure": 3803,
      "AV": 3804,
      "LE_": 3805,
      "bean</w>": 3806,
      "Delete</w>": 3807,
      "Distribu": 3808,
      "adius</w>": 3809,
      "getCo": 3810,
      "Selection</w>": 3811,
      "AUT": 3812,
      "Random": 3813,
      "DTO</w>": 3814,
      "Oc": 3815,
      "Right</w>": 3816,
      "Accep": 3817,
      "Package</w>": 3818,
      "sd": 3819,
      "getSub": 3820,
      "EXP": 3821,
      "setS": 3822,
      "annotation</w>": 3823,
      "INDE": 3824,
      "Click": 3825,
      "HttpServletRequest</w>": 3826,
      "def</w>": 3827,
      "ByteArrayOutputStream</w>": 3828,
      "Mer": 3829,
      "direct": 3830,
      "Variables</w>": 3831,
      "x1</w>": 3832,
      "cribe": 3833,
      "odes": 3834,
      "nitro": 3835,
      "INSTANCE</w>": 3836,
      "angle": 3837,
      "AccessException</w>": 3838,
      "gu": 3839,
      "nitro_": 3840,
      "p1</w>": 3841,
      "Manage": 3842,
      "setEnabled</w>": 3843,
      "desc</w>": 3844,
      "_c": 3845,
      "cms</w>": 3846,
      "collect</w>": 3847,
      "v1</w>": 3848,
      "isAssign": 3849,
      "pared": 3850,
      "OK</w>": 3851,
      "Namespace</w>": 3852,
      "ycle": 3853,
      "find</w>": 3854,
      "CATION_": 3855,
      "COUN": 3856,
      "ump": 3857,
      "Expec": 3858,
      "Repl": 3859,
      "SECONDS</w>": 3860,
      "Intercep": 3861,
      "Script</w>": 3862,
      "fetch": 3863,
      "Gen": 3864,
      "listeners</w>": 3865,
      "rm": 3866,
      "bon": 3867,
      "getRequest": 3868,
      "tree": 3869,
      "Sor": 3870,
      "iled</w>": 3871,
      "getCli": 3872,
      "SAX": 3873,
      "vileg": 3874,
      "getMin": 3875,
      "template": 3876,
      "Amount</w>": 3877,
      "apply": 3878,
      "Use": 3879,
      "color": 3880,
      "Compar": 3881,
      "pn": 3882,
      "Dialog": 3883,
      "DER</w>": 3884,
      "TIME": 3885,
      "global": 3886,
      "Blan": 3887,
      "getType": 3888,
      "Asser": 3889,
      "just": 3890,
      "sing</w>": 3891,
      "Transl": 3892,
      "tool": 3893,
      "Children</w>": 3894,
      "bounds</w>": 3895,
      "rect</w>": 3896,
      "scale": 3897,
      "TY</w>": 3898,
      "encode</w>": 3899,
      "PA": 3900,
      "cle</w>": 3901,
      "Equ": 3902,
      "stitu": 3903,
      "escap": 3904,
      "Failure</w>": 3905,
      "capacity</w>": 3906,
      "IR": 3907,
      "alloc": 3908,
      "part</w>": 3909,
      "mock": 3910,
      "timestamp</w>": 3911,
      "tf": 3912,
      "Named": 3913,
      "ServiceResponse</w>": 3914,
      "propertyName</w>": 3915,
      "getW": 3916,
      "Serializer</w>": 3917,
      "Shared": 3918,
      "estion": 3919,
      "Pag": 3920,
      "ill</w>": 3921,
      "ynamic": 3922,
      "vas</w>": 3923,
      "ling": 3924,
      "nitro_service</w>": 3925,
      "separator</w>": 3926,
      "ured": 3927,
      "clone</w>": 3928,
      "Pos": 3929,
      "0xFF</w>": 3930,
      "Enumer": 3931,
      "Bucket": 3932,
      "getTar": 3933,
      "random</w>": 3934,
      "oder</w>": 3935,
      "invoke": 3936,
      "Builder": 3937,
      "ned</w>": 3938,
      "uni": 3939,
      "ado": 3940,
      "bits</w>": 3941,
      "itch": 3942,
      "ioe</w>": 3943,
      "Day</w>": 3944,
      "Internal</w>": 3945,
      "ERROR_": 3946,
      "annotation": 3947,
      "led</w>": 3948,
      "64": 3949,
      "calculate": 3950,
      "function": 3951,
      "Virtual": 3952,
      "INT</w>": 3953,
      "Support</w>": 3954,
      "Word</w>": 3955,
      "Distance</w>": 3956,
      "transform</w>": 3957,
      "Errors</w>": 3958,
      "Axis</w>": 3959,
      "Dto</w>": 3960,
      "TE</w>": 3961,
      "Marshall": 3962,
      "when</w>": 3963,
      "Visibility</w>": 3964,
      "Invocation": 3965,
      "inputStream</w>": 3966,
      "Binary": 3967,
      "raw</w>": 3968,
      "Tile": 3969,
      "io</w>": 3970,
      "forE": 3971,
      "success</w>": 3972,
      "Product": 3973,
      "delta</w>": 3974,
      "rule</w>": 3975,
      "Add</w>": 3976,
      "IDs</w>": 3977,
      "channel": 3978,
      "denti": 3979,
      "Executor": 3980,
      "eq</w>": 3981,
      "JSON</w>": 3982,
      "/**</w>": 3983,
      "permis": 3984,
      "ClassNotFoundException</w>": 3985,
      "batch": 3986,
      "El": 3987,
      "Flu": 3988,
      "Direction</w>": 3989,
      "Sim": 3990,
      "ATOR</w>": 3991,
      "origin": 3992,
      "found": 3993,
      "Information</w>": 3994,
      "gan": 3995,
      "jar": 3996,
      "PREFIX</w>": 3997,
      "Failed": 3998,
      "cessi": 3999,
      "Constraint</w>": 4000,
      "container": 4001,
      "OperationException</w>": 4002,
      "Formul": 4003,
      "isAssignable": 4004,
      "flat": 4005,
      "template</w>": 4006,
      "Depth</w>": 4007,
      "Register": 4008,
      "errors</w>": 4009,
      "Namespace": 4010,
      "waitFor": 4011,
      "rag": 4012,
      "bot": 4013,
      "chunk": 4014,
      "Tokenizer</w>": 4015,
      "cal</w>": 4016,
      "Global": 4017,
      "ial</w>": 4018,
      "US_": 4019,
      "getSimple": 4020,
      "ds": 4021,
      "auto": 4022,
      "Diction": 4023,
      "liver": 4024,
      "DataType</w>": 4025,
      "null": 4026,
      "words</w>": 4027,
      "getContext</w>": 4028,
      "idd": 4029,
      "Paint</w>": 4030,
      "check</w>": 4031,
      "arr</w>": 4032,
      "Edge": 4033,
      "Sin": 4034,
      "EO": 4035,
      "JsonObject</w>": 4036,
      "GroupName</w>": 4037,
      "Annotations</w>": 4038,
      "Storage</w>": 4039,
      "red</w>": 4040,
      "runn": 4041,
      "XML</w>": 4042,
      "wner": 4043,
      "JsonNode</w>": 4044,
      "isAssignableFrom</w>": 4045,
      "ass</w>": 4046,
      "cope": 4047,
      "segment": 4048,
      "Position": 4049,
      "getIs": 4050,
      "bytes": 4051,
      "getDec": 4052,
      "ade</w>": 4053,
      "SOUR": 4054,
      "stack": 4055,
      "MENT_": 4056,
      "ess</w>": 4057,
      "getValue": 4058,
      "getPri": 4059,
      "hist": 4060,
      "debug": 4061,
      "range": 4062,
      "empty</w>": 4063,
      "porter</w>": 4064,
      "Retry": 4065,
      "lers</w>": 4066,
      "CONFI": 4067,
      "Axis": 4068,
      "FileInputStream</w>": 4069,
      "WS": 4070,
      "15</w>": 4071,
      "notifi": 4072,
      "proxy": 4073,
      "Search</w>": 4074,
      "Tab</w>": 4075,
      "grid": 4076,
      "high": 4077,
      "payload</w>": 4078,
      "'.": 4079,
      "getPre": 4080,
      "let</w>": 4081,
      "Tw": 4082,
      "Exists</w>": 4083,
      "'.'</w>": 4084,
      "APP": 4085,
      "Ema": 4086,
      "Capacity</w>": 4087,
      "execution": 4088,
      "erce": 4089,
      "getA": 4090,
      "Tx": 4091,
      "Events</w>": 4092,
      "Case": 4093,
      "Left": 4094,
      "Signature</w>": 4095,
      "CUR": 4096,
      "md": 4097,
      "umul": 4098,
      "CI": 4099,
      "directory</w>": 4100,
      "Comment</w>": 4101,
      "future</w>": 4102,
      "respon": 4103,
      "Parent": 4104,
      "Random</w>": 4105,
      "arguments</w>": 4106,
      "Zer": 4107,
      "sleep</w>": 4108,
      "getData</w>": 4109,
      "App</w>": 4110,
      "bundle</w>": 4111,
      "bd": 4112,
      "Factor</w>": 4113,
      "CharSequence</w>": 4114,
      "Blocks</w>": 4115,
      "ert": 4116,
      "B_": 4117,
      "ON_": 4118,
      "parameter</w>": 4119,
      "expr</w>": 4120,
      "no</w>": 4121,
      "ACTION_": 4122,
      "Bytes": 4123,
      "gle": 4124,
      "Rectangle</w>": 4125,
      "Unique": 4126,
      "defin": 4127,
      "faces</w>": 4128,
      "Alias</w>": 4129,
      "Gra": 4130,
      "open</w>": 4131,
      "DateTime": 4132,
      "NumberOf": 4133,
      "compare</w>": 4134,
      "NumberFormatException</w>": 4135,
      "getField": 4136,
      "final": 4137,
      "Profile": 4138,
      "Chunk": 4139,
      "medi": 4140,
      "Termin": 4141,
      "sWith": 4142,
      "bucket": 4143,
      "getText": 4144,
      "After": 4145,
      "mark</w>": 4146,
      "Pair": 4147,
      "Bound</w>": 4148,
      "Attr</w>": 4149,
      "known": 4150,
      "UE</w>": 4151,
      "plugin": 4152,
      "sMap</w>": 4153,
      "Attr": 4154,
      "SET_": 4155,
      "Artifact</w>": 4156,
      "getLogger</w>": 4157,
      "bi": 4158,
      "TEST_": 4159,
      "hasMore": 4160,
      "ACK": 4161,
      "nextToken</w>": 4162,
      "Success</w>": 4163,
      "Blank</w>": 4164,
      "getTable": 4165,
      "frag": 4166,
      "ell</w>": 4167,
      "endar": 4168,
      "dst": 4169,
      "dimen": 4170,
      "re</w>": 4171,
      "SET</w>": 4172,
      "Norm": 4173,
      "__": 4174,
      "lip": 4175,
      "Added</w>": 4176,
      "Plugin</w>": 4177,
      "REQUES": 4178,
      "Modified</w>": 4179,
      "Trig": 4180,
      "Border": 4181,
      "000</w>": 4182,
      "currentThread</w>": 4183,
      "encoding</w>": 4184,
      "Real": 4185,
      "relation": 4186,
      "DF": 4187,
      "Vertex": 4188,
      "Loo": 4189,
      "cb</w>": 4190,
      "ToString</w>": 4191,
      "ide</w>": 4192,
      "dependenc": 4193,
      "Engine": 4194,
      "Found</w>": 4195,
      "vent": 4196,
      "ating": 4197,
      "Bro": 4198,
      "Lists</w>": 4199,
      "99": 4200,
      "card": 4201,
      "elem</w>": 4202,
      "ConfigurationException</w>": 4203,
      "Atomic": 4204,
      "Down</w>": 4205,
      "cell": 4206,
      "NONE</w>": 4207,
      "ImmutableList</w>": 4208,
      "pose</w>": 4209,
      "feature": 4210,
      "Fixed": 4211,
      "distance</w>": 4212,
      "button": 4213,
      "Removed</w>": 4214,
      "EV": 4215,
      "MAS": 4216,
      "credenti": 4217,
      "FileOutputStream</w>": 4218,
      "descriptor</w>": 4219,
      "collection</w>": 4220,
      "DateFormat</w>": 4221,
      "register</w>": 4222,
      "newValue</w>": 4223,
      "Ration": 4224,
      "owner</w>": 4225,
      "ub": 4226,
      "Vec</w>": 4227,
      "commit</w>": 4228,
      "Tracker</w>": 4229,
      "ii</w>": 4230,
      "t1</w>": 4231,
      "Geo": 4232,
      "Attemp": 4233,
      "getProperty": 4234,
      "persist": 4235,
      "Comple": 4236,
      "Site": 4237,
      "Verti": 4238,
      "Manif": 4239,
      "prev</w>": 4240,
      "Sort": 4241,
      "enter": 4242,
      "Sur": 4243,
      "main</w>": 4244,
      "divi": 4245,
      "60</w>": 4246,
      "MAN": 4247,
      "Admin": 4248,
      "Operator": 4249,
      "compil": 4250,
      "OutOf": 4251,
      "forEach</w>": 4252,
      "media": 4253,
      "Delta</w>": 4254,
      "info": 4255,
      "getElement": 4256,
      "lastIndex": 4257,
      "Uri": 4258,
      "c1</w>": 4259,
      "FilePath</w>": 4260,
      "zip": 4261,
      "EN_": 4262,
      "function</w>": 4263,
      "DEBUG</w>": 4264,
      "Snapshot": 4265,
      "pool</w>": 4266,
      "Period</w>": 4267,
      "Feat": 4268,
      "tories</w>": 4269,
      "LON": 4270,
      "Separator</w>": 4271,
      "Pending": 4272,
      "tile": 4273,
      "popul": 4274,
      "'/": 4275,
      "Topic": 4276,
      "509": 4277,
      "ELE": 4278,
      "exp</w>": 4279,
      "Renderer</w>": 4280,
      "Encode": 4281,
      "ave</w>": 4282,
      "'/'</w>": 4283,
      "Iter</w>": 4284,
      "NUMB": 4285,
      "getOr": 4286,
      "simp": 4287,
      "anim": 4288,
      "menu": 4289,
      "verse": 4290,
      "Runtime</w>": 4291,
      "Raw": 4292,
      "ANG": 4293,
      "Agent</w>": 4294,
      "Step": 4295,
      "mask</w>": 4296,
      "ness</w>": 4297,
      "artif": 4298,
      "readLine</w>": 4299,
      "ACH": 4300,
      "Js": 4301,
      "ward</w>": 4302,
      "TER_": 4303,
      "Lines</w>": 4304,
      "matrix</w>": 4305,
      "Year</w>": 4306,
      "ExecutionException</w>": 4307,
      "modification": 4308,
      "getParameter": 4309,
      "analy": 4310,
      "set_": 4311,
      "lines</w>": 4312,
      "TIME_": 4313,
      "Ms</w>": 4314,
      "TM": 4315,
      "vision": 4316,
      "Packet": 4317,
      "mu": 4318,
      "Sli": 4319,
      "Na": 4320,
      "REN": 4321,
      "sn": 4322,
      "Visitor</w>": 4323,
      "getStatus</w>": 4324,
      "Tasks</w>": 4325,
      "Li": 4326,
      "cached": 4327,
      "rest": 4328,
      "getSimpleName</w>": 4329,
      "Align": 4330,
      "destination</w>": 4331,
      "GET</w>": 4332,
      "getConnection</w>": 4333,
      "Msg": 4334,
      "Pixel": 4335,
      "attach": 4336,
      "low</w>": 4337,
      "Scale</w>": 4338,
      "Short": 4339,
      "AD</w>": 4340,
      "Mouse": 4341,
      "existing": 4342,
      "ouch": 4343,
      "DC": 4344,
      "Domain</w>": 4345,
      "Validator</w>": 4346,
      "LAT": 4347,
      "MAT": 4348,
      "unlock</w>": 4349,
      "second</w>": 4350,
      "Candid": 4351,
      "Endpoint": 4352,
      "activity</w>": 4353,
      "lastIndexOf</w>": 4354,
      "30</w>": 4355,
      "dx</w>": 4356,
      "STRING</w>": 4357,
      "ORT</w>": 4358,
      "Permission": 4359,
      "JAXBElement</w>": 4360,
      "zu": 4361,
      "lick</w>": 4362,
      "Cat": 4363,
      "Syntax": 4364,
      "exception": 4365,
      "MIL": 4366,
      "total</w>": 4367,
      "VERSION</w>": 4368,
      "Acc": 4369,
      "edit": 4370,
      "database</w>": 4371,
      "sp</w>": 4372,
      "mt": 4373,
      "duration</w>": 4374,
      "Login": 4375,
      "merge": 4376,
      "API</w>": 4377,
      "executor</w>": 4378,
      "getAttribute": 4379,
      "quo": 4380,
      "vol": 4381,
      "RP": 4382,
      "Transform</w>": 4383,
      "uri": 4384,
      "nels</w>": 4385,
      "step</w>": 4386,
      "Associ": 4387,
      "ume": 4388,
      "Shape</w>": 4389,
      "tern": 4390,
      "getSch": 4391,
      "Feed": 4392,
      "InputStream": 4393,
      "WOR": 4394,
      "LENGTH</w>": 4395,
      "Platform</w>": 4396,
      "Components</w>": 4397,
      "uplic": 4398,
      "post</w>": 4399,
      "Privileg": 4400,
      "isDirectory</w>": 4401,
      "Accessi": 4402,
      "Listener": 4403,
      "ense": 4404,
      "creen</w>": 4405,
      "layout</w>": 4406,
      "FE": 4407,
      "ders</w>": 4408,
      "getPack": 4409,
      "********": 4410,
      "forName</w>": 4411,
      "self</w>": 4412,
      "13</w>": 4413,
      "zer": 4414,
      "actions</w>": 4415,
      "trace": 4416,
      "Filename</w>": 4417,
      "Wait": 4418,
      "Commit": 4419,
      "WR": 4420,
      "paint</w>": 4421,
      "Dispatch": 4422,
      "trig": 4423,
      "Timer</w>": 4424,
      "box": 4425,
      "PrintWriter</w>": 4426,
      "Services</w>": 4427,
      "UP</w>": 4428,
      "sn</w>": 4429,
      "Pointer</w>": 4430,
      "Detail</w>": 4431,
      "Scroll": 4432,
      "PR": 4433,
      "c2</w>": 4434,
      "ability": 4435,
      "Rational</w>": 4436,
      "BufferedImage</w>": 4437,
      "Category": 4438,
      "Word": 4439,
      "Enumeration</w>": 4440,
      "Mask</w>": 4441,
      "sRequestMetrics</w>": 4442,
      "serviceName</w>": 4443,
      "Schedule": 4444,
      "2_": 4445,
      "thread</w>": 4446,
      "Top</w>": 4447,
      "01</w>": 4448,
      "Perform": 4449,
      "Bad": 4450,
      "primary": 4451,
      "seconds</w>": 4452,
      "Route": 4453,
      "ARRA": 4454,
      "Owner</w>": 4455,
      "Certificate</w>": 4456,
      "Arg</w>": 4457,
      "Integer": 4458,
      "Write</w>": 4459,
      "Sig": 4460,
      "Part": 4461,
      "Cloud": 4462,
      "IVE_": 4463,
      "Callback": 4464,
      "properties": 4465,
      "Display</w>": 4466,
      "connect": 4467,
      "_b": 4468,
      "DB</w>": 4469,
      "Copy": 4470,
      "assign": 4471,
      "encryp": 4472,
      "ision</w>": 4473,
      "bundle": 4474,
      "USER_": 4475,
      "Vo</w>": 4476,
      "setup": 4477,
      "module</w>": 4478,
      "Remove</w>": 4479,
      "ther": 4480,
      "Closed</w>": 4481,
      "olution</w>": 4482,
      "err": 4483,
      "ular": 4484,
      "Injec": 4485,
      "rt</w>": 4486,
      "then": 4487,
      "MenuItem</w>": 4488,
      "Character": 4489,
      "No</w>": 4490,
      "style": 4491,
      "calendar</w>": 4492,
      "HttpServletResponse</w>": 4493,
      "TypeName</w>": 4494,
      "Slot</w>": 4495,
      "send</w>": 4496,
      "LOG_": 4497,
      "Section</w>": 4498,
      "pret": 4499,
      "erializ": 4500,
      "setMax": 4501,
      "subscri": 4502,
      "Only": 4503,
      "rect": 4504,
      "JSONArray</w>": 4505,
      "encoded": 4506,
      "Bi": 4507,
      "exec</w>": 4508,
      "Sets</w>": 4509,
      "abilities</w>": 4510,
      "req": 4511,
      "socket</w>": 4512,
      "with</w>": 4513,
      "TRAN": 4514,
      "Clause</w>": 4515,
      "Primitive</w>": 4516,
      "Score</w>": 4517,
      "HT</w>": 4518,
      "getResource</w>": 4519,
      "site": 4520,
      "One</w>": 4521,
      "ume</w>": 4522,
      "Font": 4523,
      "amp</w>": 4524,
      "ChangeListener</w>": 4525,
      "IT_": 4526,
      "acts</w>": 4527,
      "MAR": 4528,
      "getSec": 4529,
      "zy": 4530,
      "Local</w>": 4531,
      "member</w>": 4532,
      "paces</w>": 4533,
      "meta</w>": 4534,
      "pattern": 4535,
      "ATTRIB": 4536,
      "IM": 4537,
      "edge</w>": 4538,
      "Classi": 4539,
      "Stro": 4540,
      "FileSystem</w>": 4541,
      "ffi": 4542,
      "Modifier</w>": 4543,
      "UnsupportedOperationException</w>": 4544,
      "getField</w>": 4545,
      "getError": 4546,
      "edge": 4547,
      "player": 4548,
      "UpperCase</w>": 4549,
      "CH_": 4550,
      "topic": 4551,
      "depth</w>": 4552,
      "DataSource</w>": 4553,
      "contents</w>": 4554,
      "available": 4555,
      "FAC": 4556,
      "States</w>": 4557,
      "checkArgument</w>": 4558,
      "Weight</w>": 4559,
      "Player": 4560,
      "Success": 4561,
      "X509": 4562,
      "engine</w>": 4563,
      "Hex": 4564,
      "enum": 4565,
      "art": 4566,
      "edException</w>": 4567,
      "ActionListener</w>": 4568,
      "attrs</w>": 4569,
      "sm</w>": 4570,
      "script": 4571,
      "p2</w>": 4572,
      "database": 4573,
      "chars</w>": 4574,
      "messages</w>": 4575,
      "MILLI": 4576,
      "Layer": 4577,
      "TreeNode</w>": 4578,
      "Master": 4579,
      "getEx": 4580,
      "enter</w>": 4581,
      "ES_": 4582,
      "dst</w>": 4583,
      "compres": 4584,
      "shape</w>": 4585,
      "aset": 4586,
      "Contact": 4587,
      "Certificate": 4588,
      "EMPTY_": 4589,
      "Up</w>": 4590,
      "aved": 4591,
      "authoriz": 4592,
      "Monitor</w>": 4593,
      "Values": 4594,
      "Xml</w>": 4595,
      "e1</w>": 4596,
      "paredStatement</w>": 4597,
      "verse</w>": 4598,
      "pair</w>": 4599,
      "Shard": 4600,
      "ock</w>": 4601,
      "que</w>": 4602,
      "ship</w>": 4603,
      "sha": 4604,
      "startTime</w>": 4605,
      "getMethod</w>": 4606,
      "testGet": 4607,
      "Constant": 4608,
      "increment": 4609,
      "PROPERTY_": 4610,
      "Credentials</w>": 4611,
      "Complete</w>": 4612,
      "getSize</w>": 4613,
      "_id</w>": 4614,
      "isNot": 4615,
      "Sorted": 4616,
      "TE_": 4617,
      "eded</w>": 4618,
      "verti": 4619,
      "IllegalAccessException</w>": 4620,
      "Gateway": 4621,
      "My": 4622,
      "sent": 4623,
      "SERVIC": 4624,
      "Fore": 4625,
      "Icon": 4626,
      "book": 4627,
      "getSelected": 4628,
      "Lat": 4629,
      "Period": 4630,
      "InetAddress</w>": 4631,
      "alias</w>": 4632,
      "ization": 4633,
      "mapper</w>": 4634,
      "VO": 4635,
      "Boolean": 4636,
      "PL": 4637,
      "Labels</w>": 4638,
      "storage</w>": 4639,
      "g2</w>": 4640,
      "import": 4641,
      "Schedul": 4642,
      "ED": 4643,
      "ServiceResponse": 4644,
      "IC_": 4645,
      "Widget</w>": 4646,
      "x2</w>": 4647,
      "cp</w>": 4648,
      "sis": 4649,
      "way</w>": 4650,
      "Create</w>": 4651,
      "OBJECT_": 4652,
      "If</w>": 4653,
      "network": 4654,
      "--------": 4655,
      "Modification": 4656,
      "app</w>": 4657,
      "Chunk</w>": 4658,
      "ATTRIBUT": 4659,
      "Open</w>": 4660,
      "Interface": 4661,
      "High": 4662,
      "With</w>": 4663,
      "Quo": 4664,
      "force": 4665,
      "Features</w>": 4666,
      "tup": 4667,
      "Plan</w>": 4668,
      "Black": 4669,
      "Compres": 4670,
      "havi": 4671,
      "assertNull</w>": 4672,
      "flow</w>": 4673,
      "Encryp": 4674,
      "Chars</w>": 4675,
      "EM": 4676,
      "SEPAR": 4677,
      "COLO": 4678,
      "Answ": 4679,
      "Extended": 4680,
      "_Type</w>": 4681,
      "Agent": 4682,
      "initialize</w>": 4683,
      "she": 4684,
      "CS": 4685,
      "im</w>": 4686,
      "JC": 4687,
      "Pdf": 4688,
      "Env</w>": 4689,
      "Der": 4690,
      "_binding</w>": 4691,
      "scroll": 4692,
      "TL": 4693,
      "perform": 4694,
      "ableFuture</w>": 4695,
      "Binding": 4696,
      "Video": 4697,
      "interrup": 4698,
      "getRoot": 4699,
      "Private": 4700,
      "comp</w>": 4701,
      "atio</w>": 4702,
      "LEC": 4703,
      "toByteArray</w>": 4704,
      "Bal": 4705,
      "SSL": 4706,
      "Actions</w>": 4707,
      "Uuid</w>": 4708,
      "Esc": 4709,
      "Layer</w>": 4710,
      "NOR": 4711,
      "Enable": 4712,
      "IC</w>": 4713,
      "NEC": 4714,
      "AR_": 4715,
      "inc": 4716,
      "Descriptor": 4717,
      "Product</w>": 4718,
      "bro": 4719,
      "retval</w>": 4720,
      "TIV": 4721,
      "getString": 4722,
      "setC": 4723,
      "remaining</w>": 4724,
      "TUR": 4725,
      "ermin": 4726,
      "getAs": 4727,
      "getUn": 4728,
      "Subject</w>": 4729,
      "INVAL": 4730,
      "anges</w>": 4731,
      "Interval": 4732,
      "injec": 4733,
      "att": 4734,
      "filePath</w>": 4735,
      "Charset</w>": 4736,
      "tp": 4737,
      "21</w>": 4738,
      "Length": 4739,
      "userId</w>": 4740,
      "Detec": 4741,
      "contentType</w>": 4742,
      "CACH": 4743,
      "Fast": 4744,
      "shard": 4745,
      "STATE_": 4746,
      "Exp</w>": 4747,
      "Audio": 4748,
      "short": 4749,
      "getStart": 4750,
      "Prefix": 4751,
      "checkState</w>": 4752,
      "groups</w>": 4753,
      "actor</w>": 4754,
      "serial": 4755,
      "head": 4756,
      "erException</w>": 4757,
      "Import": 4758,
      "TABLE_": 4759,
      "Persistence": 4760,
      "Ve": 4761,
      "ByteString</w>": 4762,
      "pool": 4763,
      "Constraint": 4764,
      "Encoder</w>": 4765,
      "lex": 4766,
      "AST</w>": 4767,
      "CLI": 4768,
      "IF": 4769,
      "endpoint</w>": 4770,
      "ookie": 4771,
      "QName</w>": 4772,
      "boolean": 4773,
      "wait</w>": 4774,
      "segment</w>": 4775,
      "CONNEC": 4776,
      "MASK</w>": 4777,
      "Observer</w>": 4778,
      "abs": 4779,
      "Build</w>": 4780,
      "STOR": 4781,
      "Debug</w>": 4782,
      "14</w>": 4783,
      "INF": 4784,
      "initialize": 4785,
      "Border</w>": 4786,
      "sFrom": 4787,
      "getImage": 4788,
      "aggreg": 4789,
      "shutdown</w>": 4790,
      "Dataset</w>": 4791,
      "Deprec": 4792,
      "pending": 4793,
      "singlet": 4794,
      "Bot": 4795,
      "holder</w>": 4796,
      "ik": 4797,
      "Managed": 4798,
      "position": 4799,
      "Execution</w>": 4800,
      "CP": 4801,
      "cs": 4802,
      "Disk": 4803,
      "'\\": 4804,
      "Game": 4805,
      "need": 4806,
      "save</w>": 4807,
      "Prop</w>": 4808,
      "shif": 4809,
      "WA": 4810,
      "BigRational</w>": 4811,
      "mapping</w>": 4812,
      "Supplier</w>": 4813,
      "3f</w>": 4814,
      "day</w>": 4815,
      "push</w>": 4816,
      "Declaration</w>": 4817,
      "==": 4818,
      "flag</w>": 4819,
      "getItem": 4820,
      "Show": 4821,
      "UI</w>": 4822,
      "Principal</w>": 4823,
      "operation": 4824,
      "def": 4825,
      "Select</w>": 4826,
      "Download": 4827,
      "SWT</w>": 4828,
      "algorith": 4829,
      "ambd": 4830,
      "ages": 4831,
      "Git": 4832,
      "ene": 4833,
      "destination": 4834,
      "opt": 4835,
      "vision</w>": 4836,
      "Split": 4837,
      "year</w>": 4838,
      "javax</w>": 4839,
      "environ": 4840,
      "Api</w>": 4841,
      "Visible": 4842,
      "Language</w>": 4843,
      "pixel": 4844,
      "Mapping": 4845,
      "orizon": 4846,
      "Priority</w>": 4847,
      "Algorithm": 4848,
      "ba": 4849,
      "report</w>": 4850,
      "TableName</w>": 4851,
      "DATA_": 4852,
      "tags</w>": 4853,
      "refresh": 4854,
      "limiter</w>": 4855,
      "previous</w>": 4856,
      "lay</w>": 4857,
      "qualifi": 4858,
      "Callable</w>": 4859,
      "CompletableFuture</w>": 4860,
      "CLO": 4861,
      "ContentType</w>": 4862,
      "cc</w>": 4863,
      "ObjectMap</w>": 4864,
      "Contents</w>": 4865,
      "Summary</w>": 4866,
      "INT_": 4867,
      "NaN</w>": 4868,
      "ulk": 4869,
      "updateresource</w>": 4870,
      "y1</w>": 4871,
      "Future": 4872,
      "getBlock": 4873,
      "Literal</w>": 4874,
      "used": 4875,
      "storage": 4876,
      "poly": 4877,
      "ranch": 4878,
      "Diag": 4879,
      "DOM": 4880,
      "t2</w>": 4881,
      "stat": 4882,
      "sure</w>": 4883,
      "ensor": 4884,
      "ApiException</w>": 4885,
      "Finish": 4886,
      "extension</w>": 4887,
      "getDeclared": 4888,
      "ases</w>": 4889,
      "Remove": 4890,
      "finish": 4891,
      "transaction</w>": 4892,
      "Partition</w>": 4893,
      "Algorithm</w>": 4894,
      "by</w>": 4895,
      "lower": 4896,
      "Memory</w>": 4897,
      "Seconds</w>": 4898,
      "warning</w>": 4899,
      "ck</w>": 4900,
      "Based": 4901,
      "layer": 4902,
      "Decl</w>": 4903,
      "registry</w>": 4904,
      "ources": 4905,
      "answer</w>": 4906,
      "Collectors</w>": 4907,
      "80</w>": 4908,
      "mut": 4909,
      "getState</w>": 4910,
      "defini": 4911,
      "ources</w>": 4912,
      "sync": 4913,
      "has</w>": 4914,
      "servlet": 4915,
      "Prop": 4916,
      "menu</w>": 4917,
      "Public": 4918,
      "doubleValue</w>": 4919,
      "adding</w>": 4920,
      "ights</w>": 4921,
      "dbc": 4922,
      "getAttributes</w>": 4923,
      "Angle</w>": 4924,
      "valid</w>": 4925,
      "Brea": 4926,
      "ma</w>": 4927,
      "AN_": 4928,
      "deploy": 4929,
      "TH_": 4930,
      "cell</w>": 4931,
      "isTrace": 4932,
      "50</w>": 4933,
      "Measure": 4934,
      "getJ": 4935,
      "acc": 4936,
      "Parts</w>": 4937,
      "dirs</w>": 4938,
      "Connect": 4939,
      "THO": 4940,
      "ASE_": 4941,
      "identifier</w>": 4942,
      "scanner</w>": 4943,
      "toUpperCase</w>": 4944,
      "methods</w>": 4945,
      "getObject": 4946,
      "Indices</w>": 4947,
      "signature</w>": 4948,
      "TS</w>": 4949,
      "UC": 4950,
      "getX": 4951,
      "Symbol": 4952,
      "progress": 4953,
      "Last</w>": 4954,
      "rol": 4955,
      "Chat": 4956,
      "br</w>": 4957,
      "getStatus": 4958,
      "eme": 4959,
      "select</w>": 4960,
      "Camer": 4961,
      "NING</w>": 4962,
      "topic</w>": 4963,
      "Language": 4964,
      "asyn": 4965,
      "getChildren</w>": 4966,
      "ride": 4967,
      "voList</w>": 4968,
      "Discover": 4969,
      "awsRequestMetrics</w>": 4970,
      "Mutable": 4971,
      "ber": 4972,
      "ree</w>": 4973,
      "edName</w>": 4974,
      "parsed": 4975,
      "decode</w>": 4976,
      "car": 4977,
      "Neg": 4978,
      "Rot": 4979,
      "Transport": 4980,
      "rout": 4981,
      "URLConnection</w>": 4982,
      "Pain": 4983,
      "WE": 4984,
      "METHO": 4985,
      "packet</w>": 4986,
      "variable": 4987,
      "Run</w>": 4988,
      "getImage</w>": 4989,
      "Static": 4990,
      "IT</w>": 4991,
      "Rout": 4992,
      "cmd": 4993,
      "INFO</w>": 4994,
      "schedule": 4995,
      "dim</w>": 4996,
      "UND</w>": 4997,
      "PATH</w>": 4998,
      "bb</w>": 4999,
      "Sum</w>": 5000,
      "Extensions</w>": 5001,
      "Batch</w>": 5002,
      "Folder": 5003,
      "Use</w>": 5004,
      "codes</w>": 5005,
      "JOption": 5006,
      "END": 5007,
      "SM": 5008,
      "neg": 5009,
      "plugin</w>": 5010,
      "tn": 5011,
      "ount": 5012,
      "Expir": 5013,
      "Choo": 5014,
      "DELE": 5015,
      "serviceCallback</w>": 5016,
      "SA": 5017,
      "*=</w>": 5018,
      "her</w>": 5019,
      "ped": 5020,
      "getVersion</w>": 5021,
      "getCause</w>": 5022,
      "Available</w>": 5023,
      "ierarch": 5024,
      "Send": 5025,
      "done</w>": 5026,
      "Right": 5027,
      "ported</w>": 5028,
      "resolve</w>": 5029,
      "sequence</w>": 5030,
      "Password": 5031,
      "JOptionPane</w>": 5032,
      "Dirs</w>": 5033,
      "Controller": 5034,
      "Statistics</w>": 5035,
      "prefix": 5036,
      "enabled</w>": 5037,
      "Decimal": 5038,
      "light": 5039,
      "setType</w>": 5040,
      "address": 5041,
      "MON": 5042,
      "Warn": 5043,
      "fill</w>": 5044,
      "oAc": 5045,
      "constan": 5046,
      "Notification</w>": 5047,
      "nextInt</w>": 5048,
      "classes</w>": 5049,
      "show</w>": 5050,
      "profile</w>": 5051,
      "ByName</w>": 5052,
      "interval</w>": 5053,
      "Threads</w>": 5054,
      "cols</w>": 5055,
      "FORMA": 5056,
      "before": 5057,
      "Book": 5058,
      "tml</w>": 5059,
      "wrap": 5060,
      "bar": 5061,
      "Reflec": 5062,
      "addTo": 5063,
      "round</w>": 5064,
      "Car": 5065,
      "22</w>": 5066,
      "isValid": 5067,
      "tom": 5068,
      "urn": 5069,
      "FileNotFoundException</w>": 5070,
      "OutOfBound": 5071,
      "Initial": 5072,
      "AN</w>": 5073,
      "Navig": 5074,
      "Before": 5075,
      "domainObject": 5076,
      "condition</w>": 5077,
      "section</w>": 5078,
      "ram": 5079,
      "This</w>": 5080,
      "US</w>": 5081,
      "Span</w>": 5082,
      "Effec": 5083,
      "Editor": 5084,
      "POSIT": 5085,
      "window": 5086,
      "dispatch": 5087,
      "COLUMN_": 5088,
      "ok</w>": 5089,
      "AGE_": 5090,
      "255</w>": 5091,
      "(\"</w>": 5092,
      "login": 5093,
      "policy_": 5094,
      "a_": 5095,
      "af</w>": 5096,
      "Defin": 5097,
      "Body": 5098,
      "Space": 5099,
      "ling</w>": 5100,
      "Ui": 5101,
      "mk": 5102,
      "board": 5103,
      "Ip": 5104,
      "chor</w>": 5105,
      "itude</w>": 5106,
      "getTime": 5107,
      "vh": 5108,
      "transaction": 5109,
      "imum</w>": 5110,
      "Edges</w>": 5111,
      "sorted": 5112,
      "ish</w>": 5113,
      "isPresent</w>": 5114,
      "install": 5115,
      "Codes</w>": 5116,
      "Extra</w>": 5117,
      "Lif": 5118,
      "toList</w>": 5119,
      "Mal": 5120,
      "button</w>": 5121,
      "));</w>": 5122,
      "unitTest": 5123,
      "js": 5124,
      "Choi": 5125,
      "findView": 5126,
      "1L</w>": 5127,
      "pi": 5128,
      "DATE_": 5129,
      "SqlDao</w>": 5130,
      "diff</w>": 5131,
      "TRUE</w>": 5132,
      "Drop": 5133,
      "addi": 5134,
      "alized": 5135,
      "ready": 5136,
      "Tuple</w>": 5137,
      "getParameter</w>": 5138,
      "ub</w>": 5139,
      "setVisible</w>": 5140,
      "Def": 5141,
      "base_": 5142,
      "Relation</w>": 5143,
      "ecked</w>": 5144,
      "resourceGroupName</w>": 5145,
      "geomet": 5146,
      "og": 5147,
      "Instruction</w>": 5148,
      "getRow": 5149,
      "Publish": 5150,
      "FLO": 5151,
      "Sol": 5152,
      "score</w>": 5153,
      "normal": 5154,
      "Zone": 5155,
      "cel</w>": 5156,
      "net</w>": 5157,
      "OutOfBoundsException</w>": 5158,
      "NS</w>": 5159,
      "NOW": 5160,
      "unitTestSqlDao</w>": 5161,
      "MediaType</w>": 5162,
      "native": 5163,
      "under": 5164,
      "me</w>": 5165,
      "sub</w>": 5166,
      "IONS</w>": 5167,
      "zer</w>": 5168,
      "getLog": 5169,
      "IndexOutOfBoundsException</w>": 5170,
      "Locator</w>": 5171,
      "STATUS_": 5172,
      "reference": 5173,
      "Off": 5174,
      "Serial": 5175,
      "General": 5176,
      "FAI": 5177,
      "VALUE_": 5178,
      "OUT</w>": 5179,
      "Scanner</w>": 5180,
      "getService": 5181,
      "anode": 5182,
      "bet": 5183,
      "x_": 5184,
      "policy</w>": 5185,
      "controller</w>": 5186,
      "CREAT": 5187,
      "Before</w>": 5188,
      "getBase": 5189,
      "sign</w>": 5190,
      "tw": 5191,
      "getTest": 5192,
      "pers</w>": 5193,
      "Diff</w>": 5194,
      "Threshold</w>": 5195,
      "findViewById</w>": 5196,
      "hashCode</w>": 5197,
      "font": 5198,
      "RIP": 5199,
      "device</w>": 5200,
      "APPLI": 5201,
      "The": 5202,
      "SUB": 5203,
      "Collector</w>": 5204,
      "ice": 5205,
      "Brow": 5206,
      "env": 5207,
      "bject": 5208,
      "getCan": 5209,
      "DomainObjectMap</w>": 5210,
      "reference</w>": 5211,
      "TEXT_": 5212,
      "dist": 5213,
      "Statement": 5214,
      "ServiceException</w>": 5215,
      "oAcid": 5216,
      "policy": 5217,
      "transi": 5218,
      "TIT": 5219,
      "proxy</w>": 5220,
      "Missing": 5221,
      "ech": 5222,
      "Upload": 5223,
      "Close</w>": 5224,
      "Fragment": 5225,
      "ORT_": 5226,
      "Delegate</w>": 5227,
      "shared": 5228,
      "Segments</w>": 5229,
      "charac": 5230,
      "charset</w>": 5231,
      "BOO": 5232,
      "ours</w>": 5233,
      "Squ": 5234,
      "licit": 5235,
      "TED_": 5236,
      "TIME</w>": 5237,
      "pass": 5238,
      "ware": 5239,
      "aging": 5240,
      "Term": 5241,
      "Background</w>": 5242,
      "Min</w>": 5243,
      "dialog</w>": 5244,
      "subject</w>": 5245,
      "Describe": 5246,
      "cancel": 5247,
      "getBoolean</w>": 5248,
      "Management": 5249,
      "ql</w>": 5250,
      "JSONException</w>": 5251,
      "Cir": 5252,
      "cat</w>": 5253,
      "alpha</w>": 5254,
      "language</w>": 5255,
      "UTF": 5256,
      "SecurityException</w>": 5257,
      "Replace": 5258,
      "utils</w>": 5259,
      "Marg": 5260,
      "indices</w>": 5261,
      "getResources</w>": 5262,
      "Tools</w>": 5263,
      "TOR": 5264,
      "monitor</w>": 5265,
      "Snapshot</w>": 5266,
      "Screen": 5267,
      "apache</w>": 5268,
      "Audit": 5269,
      "SEPARATOR</w>": 5270,
      "Polyg": 5271,
      "O_": 5272,
      "Unknown": 5273,
      "destro": 5274,
      "sli": 5275,
      "Remain": 5276,
      "SE_": 5277,
      "sible": 5278,
      "She": 5279,
      "m1</w>": 5280,
      "sive</w>": 5281,
      "Multiple": 5282,
      "setString</w>": 5283,
      "comment</w>": 5284,
      "cast</w>": 5285,
      "Mater": 5286,
      "ca": 5287,
      "ich": 5288,
      "getIndex</w>": 5289,
      "neighb": 5290,
      "Const</w>": 5291,
      "STE": 5292,
      "Permissions</w>": 5293,
      "REG": 5294,
      "Put": 5295,
      "Primary": 5296,
      "SUC": 5297,
      "putAll</w>": 5298,
      "Person": 5299,
      "visit</w>": 5300,
      "simple": 5301,
      "pl</w>": 5302,
      "Artifact": 5303,
      "ences</w>": 5304,
      "Res</w>": 5305,
      "Loader": 5306,
      "Unsigned": 5307,
      "ServiceResponseAsync</w>": 5308,
      "Mozu": 5309,
      "Driver</w>": 5310,
      "Animation</w>": 5311,
      "ka": 5312,
      "atom</w>": 5313,
      "isValid</w>": 5314,
      "Rele": 5315,
      "Numer": 5316,
      "labels</w>": 5317,
      "resourcePath</w>": 5318,
      "commit": 5319,
      "priority</w>": 5320,
      "Addr</w>": 5321,
      "SIG": 5322,
      "Usage</w>": 5323,
      "compiler</w>": 5324,
      "200</w>": 5325,
      "getInputStream</w>": 5326,
      "END_": 5327,
      "clude</w>": 5328,
      "SocketAddress</w>": 5329,
      "SD": 5330,
      "ames</w>": 5331,
      "Act": 5332,
      "Transfer": 5333,
      "Sm": 5334,
      "Person</w>": 5335,
      "columnName</w>": 5336,
      "Marker</w>": 5337,
      "Transition</w>": 5338,
      "FIELD_": 5339,
      "ive</w>": 5340,
      "ped</w>": 5341,
      "layer</w>": 5342,
      "board</w>": 5343,
      "Identity": 5344,
      "original</w>": 5345,
      "Authorization": 5346,
      "push": 5347,
      "Place": 5348,
      "OFF": 5349,
      "step": 5350,
      "CU": 5351,
      "off": 5352,
      "RESUL": 5353,
      "indent</w>": 5354,
      "ACTIV": 5355,
      "drop": 5356,
      "oom": 5357,
      "ycle</w>": 5358,
      "startIndex</w>": 5359,
      "ility": 5360,
      "Transformer</w>": 5361,
      "candidate</w>": 5362,
      "term</w>": 5363,
      "Delay</w>": 5364,
      "lag": 5365,
      "ending</w>": 5366,
      "Verifi": 5367,
      "Digest</w>": 5368,
      "Without": 5369,
      "Rules</w>": 5370,
      "Wrap": 5371,
      "getSource": 5372,
      "Rpc": 5373,
      "FILE</w>": 5374,
      "namespace": 5375,
      "getSystem": 5376,
      "getEnd": 5377,
      "begin</w>": 5378,
      "Dictionary</w>": 5379,
      "t_": 5380,
      "dy</w>": 5381,
      "Ovh": 5382,
      "Pipel": 5383,
      "Ten": 5384,
      "screen": 5385,
      "ets</w>": 5386,
      "getHost": 5387,
      "KEY": 5388,
      "resolved": 5389,
      "Utility</w>": 5390,
      "Assertion": 5391,
      "World</w>": 5392,
      "delta": 5393,
      "Criteria</w>": 5394,
      "panel</w>": 5395,
      "Col</w>": 5396,
      "CHEC": 5397,
      "Rate": 5398,
      "Trust": 5399,
      "olution": 5400,
      "DOW": 5401,
      "Cl": 5402,
      "visib": 5403,
      "Geometry</w>": 5404,
      "ws": 5405,
      "VM</w>": 5406,
      "will</w>": 5407,
      "UNK": 5408,
      "retrie": 5409,
      "Conf": 5410,
      "ffers</w>": 5411,
      "PreparedStatement</w>": 5412,
      "estamp": 5413,
      "Month</w>": 5414,
      "imeType</w>": 5415,
      "TER</w>": 5416,
      "Topolog": 5417,
      "canvas</w>": 5418,
      "nan": 5419,
      "Install": 5420,
      "Metric</w>": 5421,
      "PER_": 5422,
      "nextElement</w>": 5423,
      "paths</w>": 5424,
      "anti": 5425,
      "Expr": 5426,
      "VERSION_": 5427,
      "spec</w>": 5428,
      "ise": 5429,
      "ADD": 5430,
      "protobuf</w>": 5431,
      "etch</w>": 5432,
      "Infos</w>": 5433,
      "window</w>": 5434,
      "lement": 5435,
      "isLogg": 5436,
      "getComponent": 5437,
      "addElement</w>": 5438,
      "Scale": 5439,
      "Click</w>": 5440,
      "termin": 5441,
      "ecure": 5442,
      "WithServiceResponseAsync</w>": 5443,
      "atient": 5444,
      "Ext": 5445,
      "configure": 5446,
      "Equal</w>": 5447,
      "sc</w>": 5448,
      "Desc": 5449,
      "Required</w>": 5450,
      "igh</w>": 5451,
      "Slot": 5452,
      "Stmt</w>": 5453,
      "Records</w>": 5454,
      "Kno": 5455,
      "po</w>": 5456,
      "Configur": 5457,
      "Commit</w>": 5458,
      "cluded": 5459,
      "Formula": 5460,
      "urity</w>": 5461,
      "pid</w>": 5462,
      "Writable": 5463,
      "compile</w>": 5464,
      "length": 5465,
      "ous": 5466,
      "required": 5467,
      "binary": 5468,
      "MENT</w>": 5469,
      "ting": 5470,
      "mock</w>": 5471,
      "ports</w>": 5472,
      "single": 5473,
      "DER_": 5474,
      "Envelo": 5475,
      "modificationName</w>": 5476,
      "Painter</w>": 5477,
      "Ignite": 5478,
      "extra": 5479,
      "icon</w>": 5480,
      "Calcul": 5481,
      "Behavi": 5482,
      "HttpResponse</w>": 5483,
      "EncodingException</w>": 5484,
      "SAXException</w>": 5485,
      "dataset</w>": 5486,
      "ware</w>": 5487,
      "unique": 5488,
      "getMessage": 5489,
      "exec": 5490,
      "FR": 5491,
      "atit": 5492,
      "ALL_": 5493,
      "MethodName</w>": 5494,
      "Stroke</w>": 5495,
      "TEN": 5496,
      "modifiable": 5497,
      "Drawable</w>": 5498,
      "weight</w>": 5499,
      "Mach": 5500,
      "big": 5501,
      "Leg": 5502,
      "where</w>": 5503,
      "Relative": 5504,
      "Graphics": 5505,
      "Dependency": 5506,
      "InputStreamReader</w>": 5507,
      "Emb": 5508,
      "role": 5509,
      "Kee": 5510,
      "StringTokenizer</w>": 5511,
      "ole": 5512,
      "Exec": 5513,
      "newBuilder</w>": 5514,
      "recision</w>": 5515,
      "release": 5516,
      "folder</w>": 5517,
      "sal": 5518,
      "publish": 5519,
      "Required": 5520,
      "release</w>": 5521,
      "profile": 5522,
      "LEF": 5523,
      "Identifier": 5524,
      "Same": 5525,
      "BUFF": 5526,
      "amily": 5527,
      "ipe": 5528,
      "ROO": 5529,
      "FieldName</w>": 5530,
      "updated": 5531,
      "ten</w>": 5532,
      "admin</w>": 5533,
      "mx": 5534,
      "evt</w>": 5535,
      "replic": 5536,
      "ffff": 5537,
      "combin": 5538,
      "SSION_": 5539,
      "Arr</w>": 5540,
      "estion</w>": 5541,
      "After</w>": 5542,
      "Direct": 5543,
      "HEAD": 5544,
      "icon": 5545,
      "suffix</w>": 5546,
      "DATE</w>": 5547,
      "1024</w>": 5548,
      "mit</w>": 5549,
      "ping": 5550,
      "train": 5551,
      "SCRIP": 5552,
      "cfg</w>": 5553,
      "Complex": 5554,
      "go</w>": 5555,
      "terion</w>": 5556,
      "coordin": 5557,
      "Go": 5558,
      "Fetch": 5559,
      "buff</w>": 5560,
      "preferen": 5561,
      "GL_": 5562,
      "HTM": 5563,
      "v2</w>": 5564,
      "Split</w>": 5565,
      "CF": 5566,
      "ves</w>": 5567,
      "SHO": 5568,
      "SCH": 5569,
      "rapped": 5570,
      "sRequest</w>": 5571,
      "rc": 5572,
      "executeQuery</w>": 5573,
      "adding": 5574,
      "requireNonNull</w>": 5575,
      "CONTENT_": 5576,
      "Sn": 5577,
      "DIREC": 5578,
      "DER": 5579,
      "Reader": 5580,
      "exchange</w>": 5581,
      "security": 5582,
      "CEP": 5583,
      "schedul": 5584,
      "Bag": 5585,
      "ZER": 5586,
      "sim": 5587,
      "delegate</w>": 5588,
      "ipi": 5589,
      "script</w>": 5590,
      "LINE</w>": 5591,
      "Second": 5592,
      "Load</w>": 5593,
      "pt</w>": 5594,
      "safe": 5595,
      "Coordinate</w>": 5596,
      "dit</w>": 5597,
      "I_": 5598,
      "ByteCode</w>": 5599,
      "v20": 5600,
      "pop</w>": 5601,
      "ks</w>": 5602,
      "getObject</w>": 5603,
      "Cols</w>": 5604,
      "RIE</w>": 5605,
      "common": 5606,
      "dum": 5607,
      "i1</w>": 5608,
      "ization</w>": 5609,
      "Note</w>": 5610,
      "Gen</w>": 5611,
      "Subscri": 5612,
      "complete": 5613,
      "_name</w>": 5614,
      "resh</w>": 5615,
      "Util": 5616,
      "world": 5617,
      "hasMoreElements</w>": 5618,
      "Failed</w>": 5619,
      "protocol</w>": 5620,
      "INVALID_": 5621,
      "Reason</w>": 5622,
      "Bitmap": 5623,
      "Ex</w>": 5624,
      "setP": 5625,
      "setColor</w>": 5626,
      "cancel</w>": 5627,
      "buf": 5628,
      "b1</w>": 5629,
      "master": 5630,
      "Consumer": 5631,
      "ins</w>": 5632,
      "Modifiers</w>": 5633,
      "rand</w>": 5634,
      "ond</w>": 5635,
      "ename": 5636,
      "body": 5637,
      "Identity</w>": 5638,
      "variable</w>": 5639,
      "FINE</w>": 5640,
      "Available": 5641,
      "APPLICATION_": 5642,
      "BLOC": 5643,
      "Distance": 5644,
      "New</w>": 5645,
      "zon": 5646,
      "formed": 5647,
      "Spe": 5648,
      "Library": 5649,
      "SyntaxException</w>": 5650,
      "//</w>": 5651,
      "metrics</w>": 5652,
      "UNKNOW": 5653,
      "Latch</w>": 5654,
      "vals</w>": 5655,
      "category</w>": 5656,
      "Optional": 5657,
      "errorMessage</w>": 5658,
      "WID": 5659,
      "SL": 5660,
      "ross": 5661,
      "feature</w>": 5662,
      "equ": 5663,
      "inte": 5664,
      "trim": 5665,
      "addresource</w>": 5666,
      "tab</w>": 5667,
      "activity": 5668,
      "Rectangle": 5669,
      "getCanonical": 5670,
      "getProperties</w>": 5671,
      "getWork": 5672,
      "Setting</w>": 5673,
      "33": 5674,
      "Family</w>": 5675,
      "STRING_": 5676,
      "native</w>": 5677,
      "search</w>": 5678,
      "upper": 5679,
      "TEXT</w>": 5680,
      "Shut": 5681,
      "Volt": 5682,
      "HTTP_": 5683,
      "anc": 5684,
      "setId</w>": 5685,
      "Calendar": 5686,
      "Stats": 5687,
      "adapter</w>": 5688,
      "Save": 5689,
      "Tile</w>": 5690,
      "Move": 5691,
      "df</w>": 5692,
      "booleanValue</w>": 5693,
      "getEntity": 5694,
      "3D</w>": 5695,
      "Authentic": 5696,
      "NULL</w>": 5697,
      "casFeat": 5698,
      "arge": 5699,
      "transl": 5700,
      "Mgr</w>": 5701,
      "ItemStack</w>": 5702,
      "so</w>": 5703,
      "getID</w>": 5704,
      "ENTI": 5705,
      "Find": 5706,
      "ical</w>": 5707,
      "Cip": 5708,
      "scription</w>": 5709,
      "LayoutParams</w>": 5710,
      "driver</w>": 5711,
      "40": 5712,
      "The</w>": 5713,
      "MOV": 5714,
      "detail": 5715,
      "Incre": 5716,
      "UTF_": 5717,
      "Card": 5718,
      "Recover": 5719,
      "callback": 5720,
      "reason</w>": 5721,
      "faults</w>": 5722,
      "VoCollection</w>": 5723,
      "SERVER_": 5724,
      "relative": 5725,
      "Payload</w>": 5726,
      "adoo": 5727,
      "Malformed": 5728,
      "Watch": 5729,
      "RESOUR": 5730,
      "Shado": 5731,
      "layout": 5732,
      "DAO</w>": 5733,
      "sender</w>": 5734,
      "metadata": 5735,
      "Panel": 5736,
      "Alloc": 5737,
      "getDb": 5738,
      "DATA</w>": 5739,
      "TES</w>": 5740,
      "WRIT": 5741,
      "getCount</w>": 5742,
      "Sent": 5743,
      "getRet": 5744,
      "Cancel": 5745,
      "Subscription": 5746,
      "Ctx</w>": 5747,
      "FLA": 5748,
      "QL": 5749,
      "Objective": 5750,
      "getClassLoader</w>": 5751,
      "bar</w>": 5752,
      "consumer": 5753,
      "Alignment</w>": 5754,
      "RIG": 5755,
      "emptyList</w>": 5756,
      "Monitor": 5757,
      "DEFAULT</w>": 5758,
      "CH</w>": 5759,
      "Obj": 5760,
      "DOU": 5761,
      "Payment": 5762,
      "getGroup": 5763,
      "TAG_": 5764,
      "livery": 5765,
      "getConfiguration</w>": 5766,
      "getActive": 5767,
      "Concurrent": 5768,
      "vertex": 5769,
      "packageName</w>": 5770,
      "async": 5771,
      "History</w>": 5772,
      "conf": 5773,
      "getColor</w>": 5774,
      "nb": 5775,
      "instruc": 5776,
      "adjust": 5777,
      "Glob": 5778,
      "exit": 5779,
      "pair": 5780,
      "FAL": 5781,
      "pw</w>": 5782,
      "chain</w>": 5783,
      "NODE</w>": 5784,
      "IO</w>": 5785,
      "getDescription</w>": 5786,
      "Exchange</w>": 5787,
      "ype</w>": 5788,
      "move</w>": 5789,
      "Writer": 5790,
      "digest</w>": 5791,
      "snapshot": 5792,
      "getApplication": 5793,
      "Bet": 5794,
      "IS_": 5795,
      "Same</w>": 5796,
      "ding": 5797,
      "Filters</w>": 5798,
      "ited": 5799,
      "16": 5800,
      "convert</w>": 5801,
      "predicate</w>": 5802,
      "ClickListener</w>": 5803,
      "Head": 5804,
      "Settings": 5805,
      "ML": 5806,
      "Topic</w>": 5807,
      "getDisplay": 5808,
      "role</w>": 5809,
      "network</w>": 5810,
      "ogram</w>": 5811,
      "SELEC": 5812,
      "outputStream</w>": 5813,
      "CESS</w>": 5814,
      "amount</w>": 5815,
      "Alert": 5816,
      "world</w>": 5817,
      "direction</w>": 5818,
      "collection": 5819,
      "Usage": 5820,
      "Checker</w>": 5821,
      "Protec": 5822,
      "readInt</w>": 5823,
      "minu": 5824,
      "Flow</w>": 5825,
      "THRE": 5826,
      "sqrt</w>": 5827,
      "2d</w>": 5828,
      "Nan": 5829,
      "Mail": 5830,
      "siness": 5831,
      "additional": 5832,
      "Running</w>": 5833,
      "EventListener</w>": 5834,
      "Struct": 5835,
      "vector</w>": 5836,
      "OUT": 5837,
      "NodeList</w>": 5838,
      "GET_": 5839,
      "Logging": 5840,
      "ByteArrayInputStream</w>": 5841,
      "isLoggable</w>": 5842,
      "evaluate</w>": 5843,
      "dk": 5844,
      "getFile</w>": 5845,
      "getParameters</w>": 5846,
      "Cookie</w>": 5847,
      "mac": 5848,
      "rate</w>": 5849,
      "Series</w>": 5850,
      "Zoo": 5851,
      "kind</w>": 5852,
      "getLong</w>": 5853,
      "Datanode": 5854,
      "game": 5855,
      "saved": 5856,
      "getTask": 5857,
      "fe</w>": 5858,
      "html": 5859,
      "Stage</w>": 5860,
      "getOutput": 5861,
      "Contact</w>": 5862,
      "Math": 5863,
      "getServer": 5864,
      "stat</w>": 5865,
      "after": 5866,
      "',": 5867,
      "ABLE</w>": 5868,
      "getContent</w>": 5869,
      "o1</w>": 5870,
      "Proced": 5871,
      "Ker": 5872,
      "ural": 5873,
      "retry": 5874,
      "diff": 5875,
      "before</w>": 5876,
      "provider": 5877,
      "','</w>": 5878,
      "Post</w>": 5879,
      "dt": 5880,
      "getResponse": 5881,
      "ply</w>": 5882,
      "Embed": 5883,
      "GEN": 5884,
      "ich</w>": 5885,
      "getLine": 5886,
      "ority": 5887,
      "Conversion": 5888,
      "Interceptor</w>": 5889,
      "setIn": 5890,
      "upload": 5891,
      "equalTo</w>": 5892,
      "renderer</w>": 5893,
      "cm</w>": 5894,
      "may": 5895,
      "grid</w>": 5896,
      "exc</w>": 5897,
      "Geometry": 5898,
      "getDate": 5899,
      "Signature": 5900,
      "Dependency</w>": 5901,
      "Indexes</w>": 5902,
      "POST</w>": 5903,
      "ystem</w>": 5904,
      "side": 5905,
      "IS": 5906,
      "s_</w>": 5907,
      "AND": 5908,
      "marsh": 5909,
      "events</w>": 5910,
      "Structure</w>": 5911,
      "Expected": 5912,
      "zz": 5913,
      "Focus": 5914,
      "orizontal": 5915,
      "RT": 5916,
      "getLocation</w>": 5917,
      "setOn": 5918,
      "ALL</w>": 5919,
      "getPort</w>": 5920,
      "SEVER": 5921,
      "throwable</w>": 5922,
      "ournal": 5923,
      "unmodifiable": 5924,
      "REP": 5925,
      "ire</w>": 5926,
      "appendChild</w>": 5927,
      "lap": 5928,
      "erFactory</w>": 5929,
      "Dynamic": 5930,
      "Handlers</w>": 5931,
      "Definitions</w>": 5932,
      "sw</w>": 5933,
      "ING": 5934,
      "Connector</w>": 5935,
      "_ID</w>": 5936,
      "ited</w>": 5937,
      "pstmt</w>": 5938,
      "ingBox</w>": 5939,
      "Operations</w>": 5940,
      "partition</w>": 5941,
      "Share": 5942,
      "detec": 5943,
      "required</w>": 5944,
      "ix</w>": 5945,
      "sym</w>": 5946,
      "mv</w>": 5947,
      "radius</w>": 5948,
      "getRaw": 5949,
      "Origin": 5950,
      "den": 5951,
      "pup": 5952,
      "chain": 5953,
      "Background": 5954,
      "bal": 5955,
      "Opcodes</w>": 5956,
      "TreeMap</w>": 5957,
      "History": 5958,
      "sts</w>": 5959,
      "choo": 5960,
      "selection": 5961,
      "flush": 5962,
      "Cast": 5963,
      "Runner</w>": 5964,
      "MESSAGE</w>": 5965,
      "Outcom": 5966,
      "struct</w>": 5967,
      "components</w>": 5968,
      "_1</w>": 5969,
      "getNode</w>": 5970,
      "available</w>": 5971,
      "Bucket</w>": 5972,
      "selector</w>": 5973,
      "VIE": 5974,
      "HexString</w>": 5975,
      "PI</w>": 5976,
      "oler": 5977,
      "Optim": 5978,
      "font</w>": 5979,
      "uuid</w>": 5980,
      "y2</w>": 5981,
      "getContext": 5982,
      "account</w>": 5983,
      "environment</w>": 5984,
      "USE": 5985,
      "free": 5986,
      "rg": 5987,
      "httpResponse</w>": 5988,
      "atomChainAdded</w>": 5989,
      "atomChainRemoved</w>": 5990,
      "Toast</w>": 5991,
      "Units</w>": 5992,
      "nost": 5993,
      "instan": 5994,
      "Instanti": 5995,
      "getEvent": 5996,
      "getRel": 5997,
      "getIsRIE</w>": 5998,
      "FER": 5999,
      "OAuth": 6000,
      "level": 6001,
      "Writable</w>": 6002,
      "typeName</w>": 6003,
      "Deployment": 6004,
      "cert": 6005,
      "Receiver</w>": 6006,
      "escape": 6007,
      "ze": 6008,
      "loop</w>": 6009,
      "jobId</w>": 6010,
      "UTF_8</w>": 6011,
      "RG": 6012,
      "ranch</w>": 6013,
      "Ratio</w>": 6014,
      "Matches</w>": 6015,
      "VE": 6016,
      "oldValue</w>": 6017,
      "Scan</w>": 6018,
      "REQUEST_": 6019,
      "ration": 6020,
      "Logger": 6021,
      "tasks</w>": 6022,
      "Done</w>": 6023,
      "Hierarch": 6024,
      "Destination</w>": 6025,
      "atitude</w>": 6026,
      "o2</w>": 6027,
      "Neighb": 6028,
      "Preference": 6029,
      "PUT</w>": 6030,
      "tuple</w>": 6031,
      "40</w>": 6032,
      "used</w>": 6033,
      "Suffix</w>": 6034,
      "Structure": 6035,
      "product": 6036,
      "PH": 6037,
      "getJob": 6038,
      "selected</w>": 6039,
      "consumer</w>": 6040,
      "VAR": 6041,
      "issu": 6042,
      "AGE</w>": 6043,
      "Restric": 6044,
      "Psi": 6045,
      "Reser": 6046,
      "Missing</w>": 6047,
      "resourceName</w>": 6048,
      "PATTER": 6049,
      "Screen</w>": 6050,
      "dist</w>": 6051,
      "copyOf</w>": 6052,
      "progress</w>": 6053,
      "Connections</w>": 6054,
      "Exceptions</w>": 6055,
      "Cause</w>": 6056,
      "PROPERTY</w>": 6057,
      "32": 6058,
      "disable": 6059,
      "ErrorCode</w>": 6060,
      "month</w>": 6061,
      "ExecutorService</w>": 6062,
      "ogn": 6063,
      "pha": 6064,
      "lookups</w>": 6065,
      "JB": 6066,
      "zone</w>": 6067,
      "Registration</w>": 6068,
      "MBean": 6069,
      "tick": 6070,
      "Nodes": 6071,
      "StringUtil</w>": 6072,
      "Worker": 6073,
      "Digits</w>": 6074,
      "classLoader</w>": 6075,
      "SQL</w>": 6076,
      "Registry": 6077,
      "ysi": 6078,
      "Paralle": 6079,
      "distance": 6080,
      "plan": 6081,
      "Delay": 6082,
      "COUNT</w>": 6083,
      "ants</w>": 6084,
      "afe</w>": 6085,
      "START_": 6086,
      "asure</w>": 6087,
      "vic": 6088,
      "Note": 6089,
      "ABLE_": 6090,
      "getAnnotation</w>": 6091,
      "Base64</w>": 6092,
      "ber</w>": 6093,
      "arm": 6094,
      "Requests</w>": 6095,
      "stored": 6096,
      "Mock</w>": 6097,
      "thenReturn</w>": 6098,
      "Free": 6099,
      "It</w>": 6100,
      "Differ": 6101,
      "()</w>": 6102,
      "score": 6103,
      "esTo": 6104,
      "repository</w>": 6105,
      "ARG": 6106,
      "vars</w>": 6107,
      "getNumberOf": 6108,
      "Primitive": 6109,
      "Launch": 6110,
      "sAnd": 6111,
      "accept": 6112,
      "LIST</w>": 6113,
      "after</w>": 6114,
      "attributeName</w>": 6115,
      "Analysis": 6116,
      "Clean": 6117,
      "31</w>": 6118,
      "Cached": 6119,
      "adcast": 6120,
      "CODE</w>": 6121,
      "Expan": 6122,
      "LinkedHashMap</w>": 6123,
      "changed</w>": 6124,
      "external": 6125,
      "relation</w>": 6126,
      "NAL_": 6127,
      "ank": 6128,
      "ollow": 6129,
      "DS": 6130,
      "amp": 6131,
      "validation": 6132,
      "mission": 6133,
      "lookup</w>": 6134,
      "Allowed</w>": 6135,
      "Cach": 6136,
      "PAS": 6137,
      "gate": 6138,
      "oot</w>": 6139,
      "StringWriter</w>": 6140,
      "weight": 6141,
      "Home</w>": 6142,
      "ActionEvent</w>": 6143,
      "extension": 6144,
      "ert</w>": 6145,
      "segments</w>": 6146,
      "PARAME": 6147,
      "Comment": 6148,
      "constraints</w>": 6149,
      "Propos": 6150,
      "Handle": 6151,
      "OP_": 6152,
      "cent</w>": 6153,
      "thet": 6154,
      "\"'</w>": 6155,
      "Tables</w>": 6156,
      "UnsupportedEncodingException</w>": 6157,
      "opt</w>": 6158,
      "repository": 6159,
      "UP_": 6160,
      "cc": 6161,
      "hal": 6162,
      "pot": 6163,
      "bose</w>": 6164,
      "incipal": 6165,
      "e2</w>": 6166,
      "IND": 6167,
      "TargetException</w>": 6168,
      "CAP": 6169,
      "prepareStatement</w>": 6170,
      "WIT": 6171,
      "Driver": 6172,
      "02</w>": 6173,
      "GR": 6174,
      "OS</w>": 6175,
      "pow</w>": 6176,
      "Faces": 6177,
      "Destination": 6178,
      "Scope": 6179,
      "getSource</w>": 6180,
      "Graphics</w>": 6181,
      "Used</w>": 6182,
      "radi": 6183,
      "getDocument": 6184,
      "Secret": 6185,
      "Sel": 6186,
      "_p": 6187,
      "sive": 6188,
      "setInt</w>": 6189,
      "AsStream</w>": 6190,
      "skip</w>": 6191,
      "ABLED</w>": 6192,
      "converter</w>": 6193,
      "annotations</w>": 6194,
      "PUT_": 6195,
      "public": 6196,
      "URE</w>": 6197,
      "ATTR_": 6198,
      "Started</w>": 6199,
      "display</w>": 6200,
      "FFFF": 6201,
      "framework</w>": 6202,
      "Compu": 6203,
      "ventory</w>": 6204,
      "marshall": 6205,
      "Dependencies</w>": 6206,
      "23</w>": 6207,
      "Init": 6208,
      "expResult</w>": 6209,
      "embed": 6210,
      "CAN": 6211,
      "odec": 6212,
      "Typed": 6213,
      "float": 6214,
      "Issu": 6215,
      "Environment": 6216,
      "ALIZ": 6217,
      "INDEX</w>": 6218,
      "18</w>": 6219,
      "writeInt</w>": 6220,
      "authentication": 6221,
      "Received</w>": 6222,
      "sType</w>": 6223,
      "inner</w>": 6224,
      "transformer</w>": 6225,
      "JPanel</w>": 6226,
      "ingClass</w>": 6227,
      "proble": 6228,
      "INFIN": 6229,
      "FormulaRepository</w>": 6230,
      "Adapter": 6231,
      "Lazy": 6232,
      "Organ": 6233,
      "a1</w>": 6234,
      "modification</w>": 6235,
      "notification": 6236,
      "Ind": 6237,
      "ands</w>": 6238,
      "getSession</w>": 6239,
      "MODE_": 6240,
      "Mut": 6241,
      "ench": 6242,
      "roid": 6243,
      "Ops</w>": 6244,
      "PARAM_": 6245,
      "19": 6246,
      "sCount</w>": 6247,
      "ony": 6248,
      "Program": 6249,
      "seq": 6250,
      "dialog": 6251,
      "Head</w>": 6252,
      "RequestBuilder</w>": 6253,
      "TextField</w>": 6254,
      "timer</w>": 6255,
      "getPath": 6256,
      "VISI": 6257,
      "JLabel</w>": 6258,
      "Ptr</w>": 6259,
      "ths</w>": 6260,
      "ested": 6261,
      "addBody</w>": 6262,
      "CACHE_": 6263,
      "setDefault": 6264,
      "ESP": 6265,
      "MIN_VALUE</w>": 6266,
      "getV": 6267,
      "getInput": 6268,
      "CODE_": 6269,
      "basic": 6270,
      "newArrayList</w>": 6271,
      "Logging</w>": 6272,
      "Goo": 6273,
      "listener": 6274,
      "tokenizer</w>": 6275,
      "CLASS</w>": 6276,
      "wrapper</w>": 6277,
      "Addi": 6278,
      "center": 6279,
      "Trigger": 6280,
      "SEVERE</w>": 6281,
      "ito</w>": 6282,
      "vertex</w>": 6283,
      "Dataset": 6284,
      "Under": 6285,
      "LAY": 6286,
      "Persistent": 6287,
      "sess</w>": 6288,
      "divid": 6289,
      "Deprecated</w>": 6290,
      "Previou": 6291,
      "Operand</w>": 6292,
      "ResponseBody</w>": 6293,
      "Producer</w>": 6294,
      "Grid</w>": 6295,
      "setRequest": 6296,
      "visitor</w>": 6297,
      "Assignment</w>": 6298,
      "Tax": 6299,
      "YE": 6300,
      "gs</w>": 6301,
      "Composite</w>": 6302,
      "bottom</w>": 6303,
      "Har": 6304,
      "Finder</w>": 6305,
      "strings</w>": 6306,
      "interface": 6307,
      "Work</w>": 6308,
      "ie</w>": 6309,
      "pm</w>": 6310,
      "userName</w>": 6311,
      "Absent</w>": 6312,
      "sequence": 6313,
      "CharArray</w>": 6314,
      "switch": 6315,
      "bc</w>": 6316,
      "isBlank</w>": 6317,
      "Network</w>": 6318,
      "longValue</w>": 6319,
      "WARNING</w>": 6320,
      "Views</w>": 6321,
      "Serializable</w>": 6322,
      "keep": 6323,
      "dispose</w>": 6324,
      "SC_": 6325,
      "Safe": 6326,
      "logg": 6327,
      "Interfaces</w>": 6328,
      "WH": 6329,
      "SimpleDateFormat</w>": 6330,
      "success": 6331,
      "cur</w>": 6332,
      "dr</w>": 6333,
      "ooth": 6334,
      "RED</w>": 6335,
      "DataSet</w>": 6336,
      "ErrorException</w>": 6337,
      "Accessible</w>": 6338,
      "PRI": 6339,
      "ise</w>": 6340,
      "card</w>": 6341,
      "ern": 6342,
      "auth</w>": 6343,
      "clip": 6344,
      "getElement</w>": 6345,
      "loop": 6346,
      "Off</w>": 6347,
      "Email</w>": 6348,
      "Drag": 6349,
      "convertTo": 6350,
      "Destro": 6351,
      "Performed</w>": 6352,
      "algorithm</w>": 6353,
      "classi": 6354,
      "liter": 6355,
      "Needed</w>": 6356,
      "UND_": 6357,
      "bitmap</w>": 6358,
      "eni": 6359,
      "Stamp</w>": 6360,
      "Links</w>": 6361,
      "PROP_": 6362,
      "Vars</w>": 6363,
      "LINE_": 6364,
      "EOF</w>": 6365,
      "Brid": 6366,
      "populate": 6367,
      "Loc</w>": 6368,
      "lav": 6369,
      "complete</w>": 6370,
      "getTotal": 6371,
      "verage": 6372,
      "addresources</w>": 6373,
      "FileUtils</w>": 6374,
      "getFull": 6375,
      "Side": 6376,
      "ason": 6377,
      "Composite": 6378,
      "SAM": 6379,
      "cf</w>": 6380,
      "Proble": 6381,
      "EST</w>": 6382,
      "constructor</w>": 6383,
      "unic": 6384,
      "Radi": 6385,
      "bind</w>": 6386,
      "slot</w>": 6387,
      "getPosition</w>": 6388,
      "recover": 6389,
      "pipel": 6390,
      "getDefault</w>": 6391,
      "Series": 6392,
      "Elem</w>": 6393,
      "definition</w>": 6394,
      "0F</w>": 6395,
      "TimeZone</w>": 6396,
      "manif": 6397,
      "Py": 6398,
      "EXPIR": 6399,
      "cx</w>": 6400,
      "hase": 6401,
      "ferr": 6402,
      "email</w>": 6403,
      "d1</w>": 6404,
      "getHost</w>": 6405,
      "bucket</w>": 6406,
      "local</w>": 6407,
      "slot": 6408,
      "product</w>": 6409,
      "AT</w>": 6410,
      "Dum": 6411,
      "commerce": 6412,
      "HOR": 6413,
      "getClient": 6414,
      "b2</w>": 6415,
      "KeyEvent</w>": 6416,
      "Changed": 6417,
      "getSession": 6418,
      "Cost</w>": 6419,
      "Processor": 6420,
      "packet": 6421,
      "15": 6422,
      "1f</w>": 6423,
      "Area": 6424,
      "tten</w>": 6425,
      "Description": 6426,
      "Gre": 6427,
      "par1": 6428,
      "Pick": 6429,
      "MAG": 6430,
      "Animator</w>": 6431,
      "Coords</w>": 6432,
      "MESSAGE_": 6433,
      "ae</w>": 6434,
      "ries</w>": 6435,
      "mkdirs</w>": 6436,
      "EXTR": 6437,
      "EP": 6438,
      "Indic": 6439,
      "Seq": 6440,
      "origin</w>": 6441,
      "Route</w>": 6442,
      "Da": 6443,
      "getApp": 6444,
      "determin": 6445,
      "i2</w>": 6446,
      "mouse": 6447,
      "ExecutionContext</w>": 6448,
      "Let": 6449,
      "This": 6450,
      "expect": 6451,
      "cert</w>": 6452,
      "DIR</w>": 6453,
      "Authentication</w>": 6454,
      "InvocationTargetException</w>": 6455,
      "Chooser</w>": 6456,
      "SUCCESS</w>": 6457,
      "comparator</w>": 6458,
      "Week": 6459,
      "NullOr": 6460,
      "Validate</w>": 6461,
      "HEADER_": 6462,
      "GP": 6463,
      "jc": 6464,
      "und": 6465,
      "Hashtable</w>": 6466,
      "Implement": 6467,
      "PD": 6468,
      "bed": 6469,
      "Processing": 6470,
      "limit": 6471,
      "FL": 6472,
      "lash": 6473,
      "fr</w>": 6474,
      "lob</w>": 6475,
      "redu": 6476,
      "note": 6477,
      "TEMP": 6478,
      "URE_": 6479,
      "singleton": 6480,
      "d2</w>": 6481,
      "texts</w>": 6482,
      "HttpClient</w>": 6483,
      "declar": 6484,
      "CLU": 6485,
      "IOUtils</w>": 6486,
      "recur": 6487,
      "Accessor</w>": 6488,
      "Radius</w>": 6489,
      "system</w>": 6490,
      "Two": 6491,
      "World": 6492,
      "DIS": 6493,
      "filters</w>": 6494,
      "FALSE</w>": 6495,
      "Hint</w>": 6496,
      "getAddress</w>": 6497,
      "getLabel</w>": 6498,
      "retrieve": 6499,
      "Medi": 6500,
      "boot": 6501,
      "ud</w>": 6502,
      "retVal</w>": 6503,
      "MILLISECONDS</w>": 6504,
      "MUL": 6505,
      "Transport</w>": 6506,
      "getBody</w>": 6507,
      "CHAR": 6508,
      "axis": 6509,
      "plication": 6510,
      "requested": 6511,
      "0x01</w>": 6512,
      "Email": 6513,
      "TRANS": 6514,
      "MS</w>": 6515,
      "sur": 6516,
      "ories</w>": 6517,
      "counts</w>": 6518,
      "clone": 6519,
      "authentic": 6520,
      "Ra": 6521,
      "CENT": 6522,
      "getSuper": 6523,
      "Shape": 6524,
      "getTit": 6525,
      "Motion": 6526,
      "trigger": 6527,
      "Touch": 6528,
      "endpoint": 6529,
      "metric</w>": 6530,
      "getMemb": 6531,
      "sessionId</w>": 6532,
      "ARRAY</w>": 6533,
      "MIT": 6534,
      "access</w>": 6535,
      "resolver</w>": 6536,
      "Digit</w>": 6537,
      "References</w>": 6538,
      "PUB": 6539,
      "setVisibility</w>": 6540,
      "HttpURLConnection</w>": 6541,
      "NULL_": 6542,
      "fu": 6543,
      "aml": 6544,
      "AtomImpl</w>": 6545,
      "NUMBER_": 6546,
      "3_": 6547,
      "uid": 6548,
      "Insets</w>": 6549,
      "AndGet</w>": 6550,
      "cookie</w>": 6551,
      "ee</w>": 6552,
      "tl": 6553,
      "roid</w>": 6554,
      "requency</w>": 6555,
      "initializ": 6556,
      "Alig": 6557,
      "updateresources</w>": 6558,
      "ision": 6559,
      "Times</w>": 6560,
      "responses</w>": 6561,
      "alth": 6562,
      "MethodException</w>": 6563,
      "Point2D</w>": 6564,
      "getResult</w>": 6565,
      "nano": 6566,
      "Te": 6567,
      "drag": 6568,
      "Checked</w>": 6569,
      "comment": 6570,
      "ALLO": 6571,
      "CHAR</w>": 6572,
      "runtime": 6573,
      "Rad": 6574,
      "sin</w>": 6575,
      "oAcidPattern</w>": 6576,
      "ISO": 6577,
      "conn": 6578,
      "exclude": 6579,
      "make</w>": 6580,
      "prefs</w>": 6581,
      "Maps</w>": 6582,
      "download": 6583,
      "Encoded": 6584,
      "DED</w>": 6585,
      "Updat": 6586,
      "Parameterized": 6587,
      "grade": 6588,
      "Stop</w>": 6589,
      "getChild</w>": 6590,
      "concat</w>": 6591,
      "ipe</w>": 6592,
      "removeAll</w>": 6593,
      "selection</w>": 6594,
      "Creator</w>": 6595,
      "INFINITY</w>": 6596,
      "Completion": 6597,
      "Condition": 6598,
      "Bud": 6599,
      "Members</w>": 6600,
      "Credential": 6601,
      "Concep": 6602,
      "span</w>": 6603,
      "timeout": 6604,
      "Chart": 6605,
      "ClientException</w>": 6606,
      "orEl": 6607,
      "opts</w>": 6608,
      "criteria</w>": 6609,
      "Put</w>": 6610,
      "BagConstraints</w>": 6611,
      "ZERO</w>": 6612,
      "iet": 6613,
      "IfAbsent</w>": 6614,
      "title": 6615,
      "enari": 6616,
      "Combin": 6617,
      "aller": 6618,
      "TextView</w>": 6619,
      "Preference</w>": 6620,
      "Archive": 6621,
      "amel": 6622,
      "ITI": 6623,
      "DD": 6624,
      "DN": 6625,
      "ful": 6626,
      "Substitu": 6627,
      "Plus</w>": 6628,
      "JO": 6629,
      "associ": 6630,
      "processor</w>": 6631,
      "features</w>": 6632,
      "MODE</w>": 6633,
      "td</w>": 6634,
      "vol</w>": 6635,
      "elementAt</w>": 6636,
      "FailedException</w>": 6637,
      "OBJECT_TYPE</w>": 6638,
      "25</w>": 6639,
      "Lic": 6640,
      "sd</w>": 6641,
      "export": 6642,
      "audi": 6643,
      "Decor": 6644,
      "InetSocketAddress</w>": 6645,
      "LEFT</w>": 6646,
      "getName": 6647,
      "Dispatcher</w>": 6648,
      "Dev": 6649,
      "Recur": 6650,
      "Auth</w>": 6651,
      "Options": 6652,
      "drawable</w>": 6653,
      "Jar</w>": 6654,
      "delay</w>": 6655,
      "Roles</w>": 6656,
      "TestUtils</w>": 6657,
      "afka": 6658,
      "Gram": 6659,
      "EMPTY</w>": 6660,
      "F64</w>": 6661,
      "Ld": 6662,
      "lots</w>": 6663,
      "toCharArray</w>": 6664,
      "configuration": 6665,
      "Tempor": 6666,
      "specifi": 6667,
      "PATH_": 6668,
      "Hex</w>": 6669,
      "m2</w>": 6670,
      "tail</w>": 6671,
      "adoop": 6672,
      "sters</w>": 6673,
      "Logical": 6674,
      "RequestCount</w>": 6675,
      "ACE_": 6676,
      "Price</w>": 6677,
      "ll_": 6678,
      "HTTP": 6679,
      "Patient": 6680,
      "Std": 6681,
      "setStatus</w>": 6682,
      "Configs</w>": 6683,
      "snapshot</w>": 6684,
      "65": 6685,
      "Bus": 6686,
      "submit": 6687,
      "services</w>": 6688,
      "Peer": 6689,
      "baos</w>": 6690,
      "Keeper": 6691,
      "Types": 6692,
      "topolog": 6693,
      "peek</w>": 6694,
      "getFirstChild</w>": 6695,
      "artifact": 6696,
      "IP</w>": 6697,
      "Siz": 6698,
      "XA": 6699,
      "pi</w>": 6700,
      "uld</w>": 6701,
      "Deleg": 6702,
      "Rich": 6703,
      "Minu": 6704,
      "center</w>": 6705,
      "getDbPlatform</w>": 6706,
      "Items": 6707,
      "FieldType</w>": 6708,
      "Providers</w>": 6709,
      "ll_c": 6710,
      "remaining": 6711,
      "ll_cas</w>": 6712,
      "have</w>": 6713,
      "stand": 6714,
      "ick</w>": 6715,
      "spe": 6716,
      "Cert": 6717,
      "getClient</w>": 6718,
      "14": 6719,
      "3d</w>": 6720,
      "perim": 6721,
      "cos</w>": 6722,
      "ImmutableSet</w>": 6723,
      "Ok": 6724,
      "wt": 6725,
      "mod</w>": 6726,
      "Push": 6727,
      "returnValue</w>": 6728,
      "olerance</w>": 6729,
      "();</w>": 6730,
      "bl</w>": 6731,
      "application</w>": 6732,
      "Shif": 6733,
      "Si": 6734,
      "dr": 6735,
      "Example": 6736,
      "seed</w>": 6737,
      "parator": 6738,
      "INT": 6739,
      "Mac": 6740,
      "pt": 6741,
      "series</w>": 6742,
      "Compati": 6743,
      "Seq</w>": 6744,
      "expir": 6745,
      "ene</w>": 6746,
      "isActive</w>": 6747,
      "Func1</w>": 6748,
      "Sources</w>": 6749,
      "Rendering": 6750,
      "Inputs</w>": 6751,
      "Reporter</w>": 6752,
      "Connected</w>": 6753,
      "chunk</w>": 6754,
      "logy</w>": 6755,
      "NoSuchMethodException</w>": 6756,
      "side</w>": 6757,
      "Diff": 6758,
      "Sync</w>": 6759,
      "brid": 6760,
      "den</w>": 6761,
      "Now</w>": 6762,
      "Words</w>": 6763,
      "ates": 6764,
      "getConfig</w>": 6765,
      "isEnabled</w>": 6766,
      "new_": 6767,
      "admin": 6768,
      "Linear": 6769,
      "BitSet</w>": 6770,
      "ng</w>": 6771,
      "setCurrent": 6772,
      "ibern": 6773,
      "gen</w>": 6774,
      "Counts</w>": 6775,
      "Convers": 6776,
      "resultSet</w>": 6777,
      "invalid": 6778,
      "ecycle": 6779,
      "launch": 6780,
      "strument": 6781,
      "paint": 6782,
      "failure</w>": 6783,
      "ysical": 6784,
      "watch": 6785,
      "olders</w>": 6786,
      "executeUpdate</w>": 6787,
      "Animation": 6788,
      "OW": 6789,
      "attemp": 6790,
      "presentation</w>": 6791,
      "Blocking</w>": 6792,
      "Partitions</w>": 6793,
      "IVE_INFINITY</w>": 6794,
      "term": 6795,
      "Face": 6796,
      "Hy": 6797,
      "getEntity</w>": 6798,
      "putExtra</w>": 6799,
      "CONFIG_": 6800,
      "NUM_": 6801,
      "credentials</w>": 6802,
      "brow": 6803,
      "getActivity</w>": 6804,
      "yph": 6805,
      "which</w>": 6806,
      "()": 6807,
      "isNull</w>": 6808,
      "END</w>": 6809,
      "submit</w>": 6810,
      "Compiler": 6811,
      "GENER": 6812,
      "Supported</w>": 6813,
      "Print</w>": 6814,
      "Zero": 6815,
      "Remaining</w>": 6816,
      "case": 6817,
      "draw</w>": 6818,
      "was": 6819,
      "ze</w>": 6820,
      "readUnsigned": 6821,
      "ify</w>": 6822,
      "FIX": 6823,
      "parseLong</w>": 6824,
      "lib": 6825,
      "Particip": 6826,
      "getNew": 6827,
      "period</w>": 6828,
      "pring": 6829,
      "BuilderFactory</w>": 6830,
      "AlgorithmException</w>": 6831,
      "Locations</w>": 6832,
      "Functions</w>": 6833,
      "Modified": 6834,
      "filtered": 6835,
      "Refresh": 6836,
      "Sample</w>": 6837,
      "Swing": 6838,
      "width": 6839,
      "INDEX_": 6840,
      "ond": 6841,
      "acy": 6842,
      "Stud": 6843,
      "IdOr": 6844,
      "ASN": 6845,
      "Program</w>": 6846,
      "LONG</w>": 6847,
      "ubli": 6848,
      "Whitespace</w>": 6849,
      "MozuUrl</w>": 6850,
      "cn": 6851,
      "ov": 6852,
      "zk": 6853,
      "getIndex": 6854,
      "contact": 6855,
      "Throw</w>": 6856,
      "getPage": 6857,
      "generator</w>": 6858,
      "adv": 6859,
      "Entities</w>": 6860,
      "Decoder</w>": 6861,
      "Registration": 6862,
      "200": 6863,
      "Question": 6864,
      "Alpha</w>": 6865,
      "FOUND</w>": 6866,
      "ELEMENT_": 6867,
      "ating</w>": 6868,
      "executor": 6869,
      "statusCode</w>": 6870,
      "ATTRIBUTE_": 6871,
      "AssertionError</w>": 6872,
      "Transition": 6873,
      "aTo": 6874,
      "effec": 6875,
      "Redu": 6876,
      "merge</w>": 6877,
      "Mockito</w>": 6878,
      "x0</w>": 6879,
      "times</w>": 6880,
      "ACK_": 6881,
      "listFiles</w>": 6882,
      "libr": 6883,
      "bus": 6884,
      "ResourceBundle</w>": 6885,
      "Wait</w>": 6886,
      "Charsets</w>": 6887,
      "Texture": 6888,
      "Flush": 6889,
      "ChangeEvent</w>": 6890,
      "executionContext</w>": 6891,
      "Est": 6892,
      "Pk": 6893,
      "where": 6894,
      "artbe": 6895,
      "ential": 6896,
      "Roll": 6897,
      "failure": 6898,
      "BACK": 6899,
      "Score": 6900,
      "plot": 6901,
      "rec</w>": 6902,
      "orts</w>": 6903,
      "ACK</w>": 6904,
      "blocks</w>": 6905,
      "Limit": 6906,
      "5f</w>": 6907,
      "AST": 6908,
      "rack": 6909,
      "Secret</w>": 6910,
      "getResourceAsStream</w>": 6911,
      "sole</w>": 6912,
      "Mu": 6913,
      "scheme</w>": 6914,
      "Card</w>": 6915,
      "COP": 6916,
      "URLException</w>": 6917,
      "Gl": 6918,
      "Modify": 6919,
      "Append": 6920,
      "route": 6921,
      "Discovery": 6922,
      "family</w>": 6923,
      "rhs</w>": 6924,
      "uff": 6925,
      "intercep": 6926,
      "teria": 6927,
      "Attempt": 6928,
      "hex": 6929,
      "RED_": 6930,
      "Checkpoint": 6931,
      "Stored": 6932,
      "poll</w>": 6933,
      "DAY</w>": 6934,
      "Scheduled": 6935,
      "Insert": 6936,
      "getOri": 6937,
      "Accumul": 6938,
      "restore": 6939,
      "entation": 6940,
      "nextPage": 6941,
      "Move</w>": 6942,
      "FORMAT</w>": 6943,
      "Dist": 6944,
      "Notif": 6945,
      "Extra": 6946,
      "Vertical": 6947,
      "Classifi": 6948,
      "bound</w>": 6949,
      "fn": 6950,
      "ju": 6951,
      "nest": 6952,
      "pose": 6953,
      "Combo": 6954,
      "Quot": 6955,
      "section": 6956,
      "QUER": 6957,
      "Comparable</w>": 6958,
      "getPackage": 6959,
      "Blob": 6960,
      "handler": 6961,
      "Mappings</w>": 6962,
      "Changes</w>": 6963,
      "Cryp": 6964,
      "VM": 6965,
      "VR": 6966,
      "XPath": 6967,
      "camer": 6968,
      "alt": 6969,
      "Track</w>": 6970,
      "Leaf": 6971,
      "socket": 6972,
      "MalformedURLException</w>": 6973,
      "Old": 6974,
      "Ranges</w>": 6975,
      "Site</w>": 6976,
      "lang": 6977,
      "Buffers</w>": 6978,
      "FileSystem": 6979,
      "active</w>": 6980,
      "Span": 6981,
      "curr</w>": 6982,
      "fragment</w>": 6983,
      "dump": 6984,
      "vs</w>": 6985,
      "unc</w>": 6986,
      "ATE</w>": 6987,
      "XMLStream": 6988,
      "dfs": 6989,
      "alias": 6990,
      "Criterion</w>": 6991,
      "Library</w>": 6992,
      "Candidate</w>": 6993,
      "Db</w>": 6994,
      "owner": 6995,
      "NoSuchAlgorithmException</w>": 6996,
      "Actual": 6997,
      "WIDTH</w>": 6998,
      "yper": 6999,
      "ForTest": 7000,
      "awt</w>": 7001,
      "ImmutableMap</w>": 7002,
      "choi": 7003,
      "EventType</w>": 7004,
      "Focus</w>": 7005,
      "Lex": 7006,
      "^=</w>": 7007,
      "trust": 7008,
      "Prob": 7009,
      "Defaults</w>": 7010,
      "Addresses</w>": 7011,
      "Nanos</w>": 7012,
      "PUBLI": 7013,
      "Cas": 7014,
      "Duplic": 7015,
      "PK": 7016,
      "TAS": 7017,
      "getQuery": 7018,
      "candidate": 7019,
      "EN</w>": 7020,
      "cret": 7021,
      "em</w>": 7022,
      "eline": 7023,
      "plan</w>": 7024,
      "serializer</w>": 7025,
      "squ": 7026,
      "wled": 7027,
      "Positions</w>": 7028,
      "RepositoryException</w>": 7029,
      "inf": 7030,
      "Respon": 7031,
      "transfer": 7032,
      "area</w>": 7033,
      "getModel</w>": 7034,
      "tionException</w>": 7035,
      "0x80</w>": 7036,
      "Polygon</w>": 7037,
      "AM</w>": 7038,
      "symbol</w>": 7039,
      "60": 7040,
      "returnType</w>": 7041,
      "optim": 7042,
      "eval</w>": 7043,
      "httpRequest</w>": 7044,
      "person</w>": 7045,
      "multiply</w>": 7046,
      "Vertices</w>": 7047,
      "Answer</w>": 7048,
      "Bit</w>": 7049,
      "CM": 7050,
      "Sort</w>": 7051,
      "Utf": 7052,
      "V_": 7053,
      "differ": 7054,
      "hoto": 7055,
      "OUT_": 7056,
      "CESS_": 7057,
      "I18": 7058,
      "Bug": 7059,
      "Low": 7060,
      "digest": 7061,
      "MONTH</w>": 7062,
      "render</w>": 7063,
      "getList": 7064,
      "getAuth": 7065,
      "period": 7066,
      "estim": 7067,
      "CHANG": 7068,
      "Worker</w>": 7069,
      "LENGTH_": 7070,
      "mContext</w>": 7071,
      "mCurrent": 7072,
      "fine</w>": 7073,
      "Percent": 7074,
      "getTemp": 7075,
      "generic": 7076,
      "len": 7077,
      "threshold</w>": 7078,
      "ENCO": 7079,
      "TokenType</w>": 7080,
      "CollectionFrom": 7081,
      "Alias": 7082,
      "Catalog": 7083,
      "feed": 7084,
      "orian": 7085,
      "Sql</w>": 7086,
      "LOAD_": 7087,
      "coe": 7088,
      "GOR": 7089,
      "Files": 7090,
      "Formatted": 7091,
      "Capabilities</w>": 7092,
      "txt</w>": 7093,
      "shutdown": 7094,
      "Veloc": 7095,
      "Pic": 7096,
      "ui": 7097,
      "ationType</w>": 7098,
      "Quiet": 7099,
      "currentNode</w>": 7100,
      "listOf": 7101,
      "TimeoutException</w>": 7102,
      "vpn": 7103,
      "Timer": 7104,
      "Shar": 7105,
      "Modification</w>": 7106,
      "Tracing</w>": 7107,
      "getConfig": 7108,
      "Popul": 7109,
      "invocation": 7110,
      "sole": 7111,
      "ires": 7112,
      "NAMESP": 7113,
      "Running": 7114,
      "ffix": 7115,
      "Deserializ": 7116,
      "hic": 7117,
      "entr": 7118,
      "Coord</w>": 7119,
      "expect</w>": 7120,
      "NullNode</w>": 7121,
      "Urls</w>": 7122,
      "Diagnost": 7123,
      "BR": 7124,
      "cus": 7125,
      "getIdentifier</w>": 7126,
      "Distributed": 7127,
      "pointer": 7128,
      "FileReader</w>": 7129,
      "URL_": 7130,
      "dataSource</w>": 7131,
      "Contract</w>": 7132,
      "Channels</w>": 7133,
      "scan</w>": 7134,
      "Trigger</w>": 7135,
      "X509Certificate</w>": 7136,
      "BOOLE": 7137,
      "ASN1": 7138,
      "Water": 7139,
      "til": 7140,
      "p_7": 7141,
      "allowed": 7142,
      "SYSTE": 7143,
      "SH</w>": 7144,
      "support": 7145,
      "getTitle</w>": 7146,
      "inst": 7147,
      "READ_": 7148,
      "dn</w>": 7149,
      "kit</w>": 7150,
      "setUser": 7151,
      "ttp</w>": 7152,
      "RESP": 7153,
      "getFon": 7154,
      "CATION</w>": 7155,
      "Boot": 7156,
      "pis": 7157,
      "to_": 7158,
      "Generator": 7159,
      "shift</w>": 7160,
      "minimum": 7161,
      "sys": 7162,
      "TreeSet</w>": 7163,
      "256</w>": 7164,
      "Other": 7165,
      "_source</w>": 7166,
      "virtual": 7167,
      "Fire": 7168,
      "0000</w>": 7169,
      "trans</w>": 7170,
      "impl</w>": 7171,
      "toString": 7172,
      "ObjectType</w>": 7173,
      "BUFFER_": 7174,
      "FLAG_": 7175,
      "NullOrEmpty</w>": 7176,
      "cir": 7177,
      "xio": 7178,
      "deserializ": 7179,
      "Binary</w>": 7180,
      "Attachment</w>": 7181,
      "24": 7182,
      "Total</w>": 7183,
      "obt": 7184,
      "mapped": 7185,
      "edges</w>": 7186,
      "SED</w>": 7187,
      "ColumnName</w>": 7188,
      "TRACE</w>": 7189,
      "RIGHT</w>": 7190,
      "dn": 7191,
      "sid</w>": 7192,
      "putInt</w>": 7193,
      "Sugg": 7194,
      "Finished</w>": 7195,
      "sOf": 7196,
      "Stat</w>": 7197,
      "person": 7198,
      "TIMEOUT</w>": 7199,
      "book</w>": 7200,
      "future": 7201,
      "inputs</w>": 7202,
      "parseDouble</w>": 7203,
      "ServletException</w>": 7204,
      "dot": 7205,
      "Details": 7206,
      "DN</w>": 7207,
      "EMA": 7208,
      "cd</w>": 7209,
      "dynamic": 7210,
      "ank</w>": 7211,
      "audit": 7212,
      "Enabled": 7213,
      "parser": 7214,
      "maximum": 7215,
      "tracker</w>": 7216,
      "Manifest</w>": 7217,
      "language": 7218,
      "setTitle</w>": 7219,
      "Admin</w>": 7220,
      "SIZE_": 7221,
      "merged": 7222,
      "maybe": 7223,
      "AS_": 7224,
      "getLog</w>": 7225,
      "ather": 7226,
      "Week</w>": 7227,
      "registered": 7228,
      "reply</w>": 7229,
      "gl</w>": 7230,
      "mag": 7231,
      "delay": 7232,
      "Viol": 7233,
      "getTable</w>": 7234,
      "single</w>": 7235,
      "RESPON": 7236,
      "Sensi": 7237,
      "isSelected</w>": 7238,
      "Commerce": 7239,
      "getHeader</w>": 7240,
      "tenant": 7241,
      "direct</w>": 7242,
      "Codec</w>": 7243,
      "construct": 7244,
      "C1</w>": 7245,
      "can</w>": 7246,
      "getItem</w>": 7247,
      "Viewer</w>": 7248,
      "Back</w>": 7249,
      "hl": 7250,
      "setPre": 7251,
      "ENABLED</w>": 7252,
      "aries</w>": 7253,
      "getLong": 7254,
      "collect": 7255,
      "v2018": 7256,
      "':": 7257,
      "Queu": 7258,
      "Margin</w>": 7259,
      "Io": 7260,
      "numer": 7261,
      "AT_": 7262,
      "hs": 7263,
      "Revision</w>": 7264,
      "Timestamp": 7265,
      "white": 7266,
      "0x7": 7267,
      "ignore</w>": 7268,
      "worker": 7269,
      "Assess": 7270,
      "dimension</w>": 7271,
      "normalize</w>": 7272,
      "pn</w>": 7273,
      "ur</w>": 7274,
      "less": 7275,
      "deriv": 7276,
      "ixel</w>": 7277,
      "strike</w>": 7278,
      "JSON_": 7279,
      "fixture</w>": 7280,
      "visible": 7281,
      "gc</w>": 7282,
      "agent</w>": 7283,
      "':'</w>": 7284,
      "sArray</w>": 7285,
      "zone": 7286,
      "agrap": 7287,
      "Lookup</w>": 7288,
      "Fit": 7289,
      "acqu": 7290,
      "MAL</w>": 7291,
      "SYN": 7292,
      "operator</w>": 7293,
      "QualifiedName</w>": 7294,
      "Merge": 7295,
      "RUN": 7296,
      "NODE_": 7297,
      "FFDC": 7298,
      "ired</w>": 7299,
      "Assignment": 7300,
      "URISyntaxException</w>": 7301,
      "'\"'</w>": 7302,
      "urn</w>": 7303,
      "failed": 7304,
      "NodeId</w>": 7305,
      "ROL": 7306,
      "StoreException</w>": 7307,
      "Static</w>": 7308,
      "ignored</w>": 7309,
      "strip": 7310,
      "Milli": 7311,
      "border": 7312,
      "Resources": 7313,
      "Eval": 7314,
      "writeLock</w>": 7315,
      "actionPerformed</w>": 7316,
      "pect": 7317,
      "Mes": 7318,
      "folder": 7319,
      "jo</w>": 7320,
      "ResourceException</w>": 7321,
      "Depend": 7322,
      "Loop</w>": 7323,
      "EQU": 7324,
      "Side</w>": 7325,
      "T1</w>": 7326,
      "omin": 7327,
      "Business": 7328,
      "Fake": 7329,
      "SPEC": 7330,
      "Reply</w>": 7331,
      "Intent": 7332,
      "Mojo": 7333,
      "Platform": 7334,
      "TIME_TO_": 7335,
      "Warning</w>": 7336,
      "mi": 7337,
      "inst</w>": 7338,
      "toHexString</w>": 7339,
      "getSign": 7340,
      "Updated</w>": 7341,
      "Behavior</w>": 7342,
      "Google": 7343,
      "Duration": 7344,
      "Support": 7345,
      "LIST_": 7346,
      "sendMessage</w>": 7347,
      "normalize": 7348,
      "Pairs</w>": 7349,
      "Sizes</w>": 7350,
      "ing_": 7351,
      "Streams</w>": 7352,
      "states</w>": 7353,
      "CURREN": 7354,
      "REQUEST</w>": 7355,
      "ffici": 7356,
      "ambda</w>": 7357,
      "Cnt</w>": 7358,
      "lb": 7359,
      "VISIBLE</w>": 7360,
      "sample</w>": 7361,
      "HttpStatus</w>": 7362,
      "fos</w>": 7363,
      "CENTER</w>": 7364,
      "Scheme</w>": 7365,
      "nanoTime</w>": 7366,
      "CAR": 7367,
      "symbol": 7368,
      "Extractor</w>": 7369,
      "Bottom</w>": 7370,
      "gra": 7371,
      "KeyValue</w>": 7372,
      "Common</w>": 7373,
      "geo": 7374,
      "destroy</w>": 7375,
      "nextPageLink</w>": 7376,
      "isTrue</w>": 7377,
      "Recom": 7378,
      "Numbers</w>": 7379,
      "Counter": 7380,
      "getClassName</w>": 7381,
      "getReturn": 7382,
      "EXTRA_": 7383,
      "IST": 7384,
      "itr</w>": 7385,
      "existing</w>": 7386,
      "AF": 7387,
      "locator</w>": 7388,
      "XML_": 7389,
      "Switch": 7390,
      "HORIZ": 7391,
      "ibernate": 7392,
      "Plot": 7393,
      "oid</w>": 7394,
      "Completed</w>": 7395,
      "Routing": 7396,
      "Greg": 7397,
      "da": 7398,
      "Main</w>": 7399,
      "HttpRequest</w>": 7400,
      "Users</w>": 7401,
      "Join</w>": 7402,
      "17</w>": 7403,
      "getEn": 7404,
      "seq</w>": 7405,
      "apiClient</w>": 7406,
      "Core</w>": 7407,
      "Gran": 7408,
      "bo</w>": 7409,
      "dim": 7410,
      "principal</w>": 7411,
      "subscription": 7412,
      "mantic": 7413,
      "Orientation</w>": 7414,
      "Summary": 7415,
      "SERVICE</w>": 7416,
      "LV": 7417,
      "pp</w>": 7418,
      "addAttribute</w>": 7419,
      "LocalDate</w>": 7420,
      "bit</w>": 7421,
      "jax": 7422,
      "Affin": 7423,
      "Samples</w>": 7424,
      "scope": 7425,
      "repo": 7426,
      "paralle": 7427,
      "plat": 7428,
      "swing</w>": 7429,
      "Created</w>": 7430,
      "encoded</w>": 7431,
      "MSG_": 7432,
      "duplic": 7433,
      "receiver</w>": 7434,
      "'-": 7435,
      "strap": 7436,
      "Allocation": 7437,
      "METHOD_": 7438,
      "MD": 7439,
      "getCurr": 7440,
      "click": 7441,
      "META": 7442,
      "Tem": 7443,
      "tm": 7444,
      "erg": 7445,
      "RETUR": 7446,
      "expan": 7447,
      "describe": 7448,
      "Invocation</w>": 7449,
      "((</w>": 7450,
      "Yang": 7451,
      "fis</w>": 7452,
      "Suite</w>": 7453,
      "rules</w>": 7454,
      "Coordinates</w>": 7455,
      "html</w>": 7456,
      "TagName</w>": 7457,
      "FEAT": 7458,
      "gp": 7459,
      "dataType</w>": 7460,
      "START</w>": 7461,
      "sheet": 7462,
      "isTraceEnabled</w>": 7463,
      "lhs</w>": 7464,
      "Contin": 7465,
      "Results": 7466,
      "Metrics": 7467,
      "'-'</w>": 7468,
      "Blu": 7469,
      "distribu": 7470,
      "pur": 7471,
      "assertSame</w>": 7472,
      "nodeId</w>": 7473,
      "SHA": 7474,
      "ordinal</w>": 7475,
      "EqualTo</w>": 7476,
      "Canvas</w>": 7477,
      "Gray": 7478,
      "BASE_": 7479,
      "ORD</w>": 7480,
      "translate": 7481,
      "Validation</w>": 7482,
      "named": 7483,
      "activeCount</w>": 7484,
      "Patterns</w>": 7485,
      "TIME_TO_EXPIR": 7486,
      "JMS": 7487,
      "login</w>": 7488,
      "Soft": 7489,
      "INTE": 7490,
      "private": 7491,
      "Exist</w>": 7492,
      "vers": 7493,
      "calc": 7494,
      "servers</w>": 7495,
      "Tracker": 7496,
      "LD": 7497,
      "ting</w>": 7498,
      "getFirst</w>": 7499,
      "isNaN</w>": 7500,
      "ourse": 7501,
      "ign</w>": 7502,
      "LES": 7503,
      "desc": 7504,
      "Histogram</w>": 7505,
      "example": 7506,
      "Attributes": 7507,
      "getTableName</w>": 7508,
      "TP": 7509,
      "yc": 7510,
      "CLIENT_": 7511,
      "GAT": 7512,
      "anaTo": 7513,
      "setLength</w>": 7514,
      "argument</w>": 7515,
      "Workflow": 7516,
      "cach": 7517,
      "utom": 7518,
      "expand": 7519,
      "Current</w>": 7520,
      "mediate": 7521,
      "YEAR</w>": 7522,
      "Tip": 7523,
      "pp": 7524,
      "plot</w>": 7525,
      "repe": 7526,
      "Compare": 7527,
      "Serv": 7528,
      "decor": 7529,
      "AtomContainer</w>": 7530,
      "BIN": 7531,
      "CT": 7532,
      "DFS": 7533,
      "ServiceCall</w>": 7534,
      "Synchroniz": 7535,
      "candidates</w>": 7536,
      "Graphics2D</w>": 7537,
      "0_": 7538,
      "Secure": 7539,
      "getProject": 7540,
      "Exclu": 7541,
      "expr": 7542,
      "Section": 7543,
      "FAILED</w>": 7544,
      "PASSW": 7545,
      "T2</w>": 7546,
      "dns": 7547,
      "setRe": 7548,
      "roll</w>": 7549,
      "tide": 7550,
      "ingType</w>": 7551,
      "eventType</w>": 7552,
      "GridBagConstraints</w>": 7553,
      "NUMBER</w>": 7554,
      "Zon": 7555,
      "umbn": 7556,
      "Code_": 7557,
      "Peer</w>": 7558,
      "CLASS_NAME</w>": 7559,
      "Quietly</w>": 7560,
      "BAD_": 7561,
      "IFI": 7562,
      "maj": 7563,
      "Epo": 7564,
      "delimiter</w>": 7565,
      "mar</w>": 7566,
      "ensity</w>": 7567,
      "InstantiationException</w>": 7568,
      "Gregorian": 7569,
      "Docs</w>": 7570,
      "identifi": 7571,
      "DOUBLE</w>": 7572,
      "&=</w>": 7573,
      "aa": 7574,
      "bad": 7575,
      "fd</w>": 7576,
      "r2</w>": 7577,
      "istic": 7578,
      "emit": 7579,
      "AndSet</w>": 7580,
      "HttpMethod</w>": 7581,
      "getStatusCode</w>": 7582,
      "geometry</w>": 7583,
      "getY": 7584,
      "setContent": 7585,
      "CD": 7586,
      "composi": 7587,
      "generated": 7588,
      "DAY_": 7589,
      "500</w>": 7590,
      "BIT": 7591,
      "FUL": 7592,
      "lo</w>": 7593,
      "ime</w>": 7594,
      "jsonObject</w>": 7595,
      "Family": 7596,
      "LY</w>": 7597,
      "ival": 7598,
      "allet": 7599,
      "getPubli": 7600,
      "PATTERN</w>": 7601,
      "elap": 7602,
      "coming": 7603,
      "cloud</w>": 7604,
      "variables</w>": 7605,
      "OPTION</w>": 7606,
      "NOT_FOUND</w>": 7607,
      "category": 7608,
      "helper</w>": 7609,
      "allocate</w>": 7610,
      "Privileged": 7611,
      "getUrl</w>": 7612,
      "Interpol": 7613,
      "DELI": 7614,
      "interfaces</w>": 7615,
      "VoCollectionFrom": 7616,
      "peer": 7617,
      "Constructor": 7618,
      "Title": 7619,
      "sever": 7620,
      "addListener</w>": 7621,
      "validator</w>": 7622,
      "Simul": 7623,
      "rase</w>": 7624,
      "tm</w>": 7625,
      "imal": 7626,
      "STO": 7627,
      "ongo": 7628,
      "Days</w>": 7629,
      "Subject": 7630,
      "ValueType</w>": 7631,
      "getRoot</w>": 7632,
      "override": 7633,
      "interrupt</w>": 7634,
      "serialize</w>": 7635,
      "Sparse": 7636,
      "dence</w>": 7637,
      "ged</w>": 7638,
      "endIndex</w>": 7639,
      "measure": 7640,
      "PrintStream</w>": 7641,
      "BYTE_": 7642,
      "Buff</w>": 7643,
      "Price": 7644,
      "Generate": 7645,
      "LABE": 7646,
      "Sender</w>": 7647,
      "fw": 7648,
      "ptr</w>": 7649,
      "ense</w>": 7650,
      "createNew": 7651,
      "TIME_TO_EXPIRY</w>": 7652,
      "bin</w>": 7653,
      "high</w>": 7654,
      "altern": 7655,
      "DESCRIP": 7656,
      "regex</w>": 7657,
      "Locked</w>": 7658,
      "Offsets</w>": 7659,
      "IMP": 7660,
      "Recon": 7661,
      "mitive": 7662,
      "ForTesting</w>": 7663,
      "Ip</w>": 7664,
      "track</w>": 7665,
      "ERS</w>": 7666,
      "Navigation": 7667,
      "Popup": 7668,
      "diag": 7669,
      "DES</w>": 7670,
      "Archive</w>": 7671,
      "med": 7672,
      "lash</w>": 7673,
      "paramName</w>": 7674,
      "indexOf": 7675,
      "targets</w>": 7676,
      "mean</w>": 7677,
      "Relationship</w>": 7678,
      "mid</w>": 7679,
      "semb": 7680,
      "STRE": 7681,
      "checkFor": 7682,
      "getTag": 7683,
      "MessageFormat</w>": 7684,
      "DOC": 7685,
      "CountDown": 7686,
      "COR": 7687,
      "entities</w>": 7688,
      "JSType</w>": 7689,
      "control</w>": 7690,
      "Compilation": 7691,
      "Hints</w>": 7692,
      "JComponent</w>": 7693,
      "Sid</w>": 7694,
      "FAIL": 7695,
      "received": 7696,
      "FACTOR": 7697,
      "MULTI": 7698,
      "fc</w>": 7699,
      "mes": 7700,
      "FileWriter</w>": 7701,
      "decryp": 7702,
      "Validator": 7703,
      "Complete": 7704,
      "getDouble</w>": 7705,
      "added": 7706,
      "setF": 7707,
      "putString</w>": 7708,
      "printf</w>": 7709,
      "Descriptors</w>": 7710,
      "method_": 7711,
      "actor": 7712,
      "LevelObjective": 7713,
      "Width": 7714,
      "ci</w>": 7715,
      "getOffset</w>": 7716,
      "Formats</w>": 7717,
      "getInt": 7718,
      "Attachment": 7719,
      "Shadow": 7720,
      "getStr": 7721,
      "finish</w>": 7722,
      "setH": 7723,
      "getCode</w>": 7724,
      "ValuePair</w>": 7725,
      "EXCEP": 7726,
      "Sibling</w>": 7727,
      "Equality": 7728,
      "Additional": 7729,
      "Cmd</w>": 7730,
      "Wik": 7731,
      "Degre": 7732,
      "queryString</w>": 7733,
      "Payload": 7734,
      "Mime": 7735,
      "atis": 7736,
      "ilt": 7737,
      "Export": 7738,
      "vec</w>": 7739,
      "feat": 7740,
      "Special": 7741,
      "Initialized</w>": 7742,
      "ADDRES": 7743,
      "().</w>": 7744,
      "pd": 7745,
      "r1</w>": 7746,
      "LAY_": 7747,
      "INITI": 7748,
      "Anchor</w>": 7749,
      "binding": 7750,
      "IdOrPath</w>": 7751,
      "getJava": 7752,
      "edit</w>": 7753,
      "observ": 7754,
      "ssi": 7755,
      "Init</w>": 7756,
      "removed": 7757,
      "intersec": 7758,
      "ENCOD": 7759,
      "GregorianCalendar</w>": 7760,
      "setSelected": 7761,
      "addActionListener</w>": 7762,
      "Images</w>": 7763,
      "Versions</w>": 7764,
      "Checksum</w>": 7765,
      "Dur": 7766,
      "zip</w>": 7767,
      "getAction": 7768,
      "factor</w>": 7769,
      "Curve</w>": 7770,
      "policy_binding</w>": 7771,
      "marshaller</w>": 7772,
      "ration</w>": 7773,
      "getId": 7774,
      "setHeader</w>": 7775,
      "cker": 7776,
      "TABLE</w>": 7777,
      "Instant</w>": 7778,
      "Pipeline": 7779,
      "BOR": 7780,
      "Vk": 7781,
      "pack</w>": 7782,
      "cores</w>": 7783,
      "Locale": 7784,
      "Disable": 7785,
      "Name_": 7786,
      "fixed": 7787,
      "LD</w>": 7788,
      "mc</w>": 7789,
      "amin": 7790,
      "UND": 7791,
      "fieldType</w>": 7792,
      "InMillis</w>": 7793,
      "Exit": 7794,
      "agent": 7795,
      "sync</w>": 7796,
      "Final</w>": 7797,
      "buffered": 7798,
      "****************": 7799,
      "polyg": 7800,
      "values": 7801,
      "RequestMarshall": 7802,
      "ObjectName</w>": 7803,
      "Gradi": 7804,
      "getInstance": 7805,
      "Begin": 7806,
      "baseUrl</w>": 7807,
      "Connector": 7808,
      "LIC": 7809,
      "MEDI": 7810,
      "Deleted</w>": 7811,
      "depend": 7812,
      "memory": 7813,
      "rieCount</w>": 7814,
      "DELETE</w>": 7815,
      "domainObjectList</w>": 7816,
      "sig</w>": 7817,
      "Ord": 7818,
      "SVG": 7819,
      "bytesRead</w>": 7820,
      "JM": 7821,
      "Conn</w>": 7822,
      "Bus</w>": 7823,
      "StringValue</w>": 7824,
      "ElementException</w>": 7825,
      "UM</w>": 7826,
      "sue</w>": 7827,
      "reser": 7828,
      "Heap": 7829,
      "copes</w>": 7830,
      "TOR</w>": 7831,
      "taskId</w>": 7832,
      "Specification</w>": 7833,
      "Betwe": 7834,
      "Sip": 7835,
      "ac</w>": 7836,
      "y0</w>": 7837,
      "permissions</w>": 7838,
      "Camera": 7839,
      "rs": 7840,
      "getModifiers</w>": 7841,
      "then</w>": 7842,
      "reader": 7843,
      "_value</w>": 7844,
      "_size</w>": 7845,
      "goti": 7846,
      "getUser</w>": 7847,
      "Altern": 7848,
      "ONE_": 7849,
      "protocol": 7850,
      "Edit</w>": 7851,
      "Owner": 7852,
      "Exit</w>": 7853,
      "setIs": 7854,
      "icro": 7855,
      "coords</w>": 7856,
      "Sink</w>": 7857,
      "SIN": 7858,
      "setLast": 7859,
      "STY": 7860,
      "getSet": 7861,
      "MAP</w>": 7862,
      "Phase</w>": 7863,
      "Currency": 7864,
      "nn": 7865,
      "note</w>": 7866,
      "Creation": 7867,
      "Skip": 7868,
      "11": 7869,
      "cnt</w>": 7870,
      "ied": 7871,
      "getState": 7872,
      "leaf": 7873,
      "Insn</w>": 7874,
      "Iterator": 7875,
      "pub": 7876,
      "AST_": 7877,
      "Branch": 7878,
      "Fron": 7879,
      "IAtom</w>": 7880,
      "rm</w>": 7881,
      "Adjust": 7882,
      "getCre": 7883,
      "ookies</w>": 7884,
      "Dimension": 7885,
      "vertices</w>": 7886,
      "sProvider</w>": 7887,
      "EXTEN": 7888,
      "members</w>": 7889,
      "Negative": 7890,
      "Journal": 7891,
      "series": 7892,
      "cessed</w>": 7893,
      "LED_": 7894,
      "sources</w>": 7895,
      "'\\\\": 7896,
      ")).</w>": 7897,
      "responseHandler</w>": 7898,
      "dependency</w>": 7899,
      "Envelope</w>": 7900,
      "'\\\\'</w>": 7901,
      "RemoteException</w>": 7902,
      "Gateway</w>": 7903,
      "1_</w>": 7904,
      "Att": 7905,
      "writeByte</w>": 7906,
      "Selector": 7907,
      "disk": 7908,
      "getTarget": 7909,
      "Numeric": 7910,
      "DataOutputStream</w>": 7911,
      "Recogn": 7912,
      "canonical": 7913,
      "BorderLayout</w>": 7914,
      "SK": 7915,
      "hcache</w>": 7916,
      "std": 7917,
      "sis</w>": 7918,
      "Confirm": 7919,
      "UM_": 7920,
      "Multimap</w>": 7921,
      "ENTITY_": 7922,
      "serialize": 7923,
      "Specific": 7924,
      "MR": 7925,
      "k1</w>": 7926,
      "trac": 7927,
      "Delta": 7928,
      "Execute": 7929,
      "runtime</w>": 7930,
      "Cu": 7931,
      "getSearch": 7932,
      "schedule</w>": 7933,
      "Src</w>": 7934,
      "onto": 7935,
      "til</w>": 7936,
      "created": 7937,
      "TIC": 7938,
      "Blocking": 7939,
      "mgr</w>": 7940,
      "align": 7941,
      "isSub": 7942,
      "curr_": 7943,
      "currency": 7944,
      "AM_": 7945,
      "36": 7946,
      "android</w>": 7947,
      "urls</w>": 7948,
      "isNullOrEmpty</w>": 7949,
      "admanager</w>": 7950,
      "Delimiter</w>": 7951,
      "strategy</w>": 7952,
      "monitor": 7953,
      "getElementsBy": 7954,
      "====": 7955,
      "Conflic": 7956,
      "patch</w>": 7957,
      "setParameter</w>": 7958,
      "addChild</w>": 7959,
      "FileStatus</w>": 7960,
      "Already": 7961,
      "Matching": 7962,
      "ee": 7963,
      "fli": 7964,
      "tle": 7965,
      "Help": 7966,
      "Portlet": 7967,
      "ResponseEntity</w>": 7968,
      "DocumentBuilder</w>": 7969,
      "illing": 7970,
      "ADER</w>": 7971,
      "mise</w>": 7972,
      "SECOND</w>": 7973,
      "INTERNAL_": 7974,
      "getParentFile</w>": 7975,
      "As</w>": 7976,
      "JN": 7977,
      "Power": 7978,
      "replacement</w>": 7979,
      "running": 7980,
      "just</w>": 7981,
      "only</w>": 7982,
      "getStart</w>": 7983,
      "isArray</w>": 7984,
      "Ext</w>": 7985,
      "verage</w>": 7986,
      "Allu": 7987,
      "common</w>": 7988,
      "STRUC": 7989,
      "bottom": 7990,
      "Pixels</w>": 7991,
      "500": 7992,
      "f1</w>": 7993,
      "panel": 7994,
      "FOR_": 7995,
      "RF": 7996,
      "setAccessible</w>": 7997,
      "statist": 7998,
      "getDimen": 7999,
      "route</w>": 8000,
      "Jdbc": 8001,
      "await": 8002,
      "setMin": 8003,
      "tries": 8004,
      "Unic": 8005,
      "configure</w>": 8006,
      "SQL_": 8007,
      "alleng": 8008,
      "menus": 8009,
      "ATTRIBUTE</w>": 8010,
      "Jsp": 8011,
      "pass</w>": 8012,
      "getClu": 8013,
      "backup": 8014,
      "SHORT</w>": 8015,
      "Browser": 8016,
      "Ldap": 8017,
      "menusystem</w>": 8018,
      "GRE": 8019,
      "junc": 8020,
      "fit": 8021,
      "DBConstants</w>": 8022,
      "SCAL": 8023,
      "permission</w>": 8024,
      "EVENT_": 8025,
      "OM": 8026,
      "Sensor": 8027,
      "dl": 8028,
      "tip</w>": 8029,
      "Ance": 8030,
      "jcas</w>": 8031,
      "trunc": 8032,
      "isFile</w>": 8033,
      "newName</w>": 8034,
      "Helpers</w>": 8035,
      "processException</w>": 8036,
      "Renderer": 8037,
      "Led": 8038,
      "isH": 8039,
      "identity</w>": 8040,
      "formul": 8041,
      "getPay": 8042,
      "Compat</w>": 8043,
      "Singlet": 8044,
      "COMMAN": 8045,
      "ampa": 8046,
      "ErrorMessage</w>": 8047,
      "cookie": 8048,
      "midd": 8049,
      "createStatement</w>": 8050,
      "Than": 8051,
      "Asset": 8052,
      "lipse</w>": 8053,
      "getRead": 8054,
      "engine": 8055,
      "ResponseHandler</w>": 8056,
      "managed": 8057,
      "rest</w>": 8058,
      "Arti": 8059,
      "static": 8060,
      "pop": 8061,
      "Recipi": 8062,
      "getPrimary": 8063,
      "TITLE</w>": 8064,
      "CHECK": 8065,
      "Gau": 8066,
      "USER": 8067,
      "Wild": 8068,
      "BP": 8069,
      "hi</w>": 8070,
      "isRead": 8071,
      "Rel</w>": 8072,
      "peer</w>": 8073,
      "Credential</w>": 8074,
      "SERVICE_": 8075,
      "Solr": 8076,
      "UTF8</w>": 8077,
      "RESOURCE_": 8078,
      "FEREN": 8079,
      "site</w>": 8080,
      "Bindings</w>": 8081,
      "millis</w>": 8082,
      "img": 8083,
      "ITE": 8084,
      "declared": 8085,
      "NEW_": 8086,
      "Encryption": 8087,
      "Alluxio": 8088,
      "Login</w>": 8089,
      "Existing": 8090,
      "flater</w>": 8091,
      "Utf8</w>": 8092,
      "CountDownLatch</w>": 8093,
      "Cf": 8094,
      "mail": 8095,
      "subtr": 8096,
      "numRows</w>": 8097,
      "ARRAY_": 8098,
      "Rectangle2D</w>": 8099,
      "batch</w>": 8100,
      "ct": 8101,
      "glob": 8102,
      "Begin</w>": 8103,
      "MEM": 8104,
      "MODI": 8105,
      "Commands</w>": 8106,
      "certific": 8107,
      "ParserException</w>": 8108,
      "Maven": 8109,
      "Room": 8110,
      "SharedPreferences</w>": 8111,
      "Formula</w>": 8112,
      "30": 8113,
      "sOn": 8114,
      "typed": 8115,
      "payload": 8116,
      "Attrs</w>": 8117,
      "88": 8118,
      "pb": 8119,
      "getCon": 8120,
      "lif": 8121,
      "bus</w>": 8122,
      "locale": 8123,
      "Zero</w>": 8124,
      "JDB": 8125,
      "verbose</w>": 8126,
      "Dot": 8127,
      "a2</w>": 8128,
      "degre": 8129,
      "Chron": 8130,
      "testName</w>": 8131,
      "BufferedWriter</w>": 8132,
      "getLocalized": 8133,
      "400</w>": 8134,
      "dd</w>": 8135,
      "getU": 8136,
      "newNode</w>": 8137,
      "Override": 8138,
      "LEVE": 8139,
      "Texture</w>": 8140,
      "Accept</w>": 8141,
      "ru": 8142,
      "getMain": 8143,
      "arti": 8144,
      "ampl": 8145,
      "visible</w>": 8146,
      "background": 8147,
      "Widget": 8148,
      "eded": 8149,
      "Interpret": 8150,
      "Paint": 8151,
      "convers": 8152,
      "QUE": 8153,
      "BYTES</w>": 8154,
      "Manifest": 8155,
      "gateway": 8156,
      "f_": 8157,
      "ARY</w>": 8158,
      "Allowed": 8159,
      "dfs</w>": 8160,
      "tail": 8161,
      "getConnection": 8162,
      "removed</w>": 8163,
      "Annotated": 8164,
      "Converter": 8165,
      "SUPP": 8166,
      "Origin</w>": 8167,
      "artifact</w>": 8168,
      "Pur": 8169,
      "San": 8170,
      "ced</w>": 8171,
      "pre</w>": 8172,
      "ready</w>": 8173,
      "readLock</w>": 8174,
      "parentVo": 8175,
      "Pub": 8176,
      "cau": 8177,
      "readObject</w>": 8178,
      "eval": 8179,
      "convertTo</w>": 8180,
      "Comparis": 8181,
      "_index</w>": 8182,
      "Health": 8183,
      "compile": 8184,
      "orElse</w>": 8185,
      "Year": 8186,
      "wal": 8187,
      "repaint</w>": 8188,
      "getNext</w>": 8189,
      "instances</w>": 8190,
      "marker</w>": 8191,
      "Generated": 8192,
      "jobs</w>": 8193,
      "FUN": 8194,
      "Sdk": 8195,
      "zoom": 8196,
      "getRegion": 8197,
      "ReturnType</w>": 8198,
      "obtain": 8199,
      "HAND": 8200,
      "fn</w>": 8201,
      "pad": 8202,
      "Master</w>": 8203,
      "idden</w>": 8204,
      "security</w>": 8205,
      "Register</w>": 8206,
      "isNotBlank</w>": 8207,
      "nodes": 8208,
      "endor": 8209,
      "hostname</w>": 8210,
      "deviceId</w>": 8211,
      "quote</w>": 8212,
      "v20180": 8213,
      "watch</w>": 8214,
      "forward": 8215,
      "getCache": 8216,
      "refresh</w>": 8217,
      "links</w>": 8218,
      "Schedule</w>": 8219,
      "get_resources</w>": 8220,
      "ggle": 8221,
      "Forward": 8222,
      "Err</w>": 8223,
      "writeObject</w>": 8224,
      "MetaData": 8225,
      "IMAG": 8226,
      "Mir": 8227,
      "Send</w>": 8228,
      "cd": 8229,
      "si</w>": 8230,
      "outer": 8231,
      "but</w>": 8232,
      "NOT": 8233,
      "NoSuchElementException</w>": 8234,
      "Instances": 8235,
      "Registered": 8236,
      "COLOR</w>": 8237,
      "Dist</w>": 8238,
      "precision</w>": 8239,
      "getView": 8240,
      "Referr": 8241,
      "Clip": 8242,
      "FromString</w>": 8243,
      "FOL": 8244,
      "IGHT</w>": 8245,
      "sheet</w>": 8246,
      "Camera</w>": 8247,
      "fp</w>": 8248,
      "unregister": 8249,
      "Delivery": 8250,
      "DataSource": 8251,
      "H2": 8252,
      "Kafka": 8253,
      "vm</w>": 8254,
      "atial": 8255,
      "groupId</w>": 8256,
      "Translation": 8257,
      "getService</w>": 8258,
      "moz": 8259,
      "Than</w>": 8260,
      "----------------": 8261,
      "Break": 8262,
      "LS</w>": 8263,
      "Strateg": 8264,
      "ital": 8265,
      "ATE_": 8266,
      "StatusCode</w>": 8267,
      "pkg</w>": 8268,
      "UNKNOWN</w>": 8269,
      "bi</w>": 8270,
      "navig": 8271,
      "getRemote": 8272,
      "sem": 8273,
      "Defs</w>": 8274,
      "Actor</w>": 8275,
      "connector</w>": 8276,
      "localName</w>": 8277,
      "Machine</w>": 8278,
      "OF": 8279,
      "Rast": 8280,
      "tolerance</w>": 8281,
      "vserver": 8282,
      "Leaf</w>": 8283,
      "floor</w>": 8284,
      "archive": 8285,
      "lastModified</w>": 8286,
      "Workspace": 8287,
      "Parameters": 8288,
      "metaData</w>": 8289,
      "ype": 8290,
      "closed</w>": 8291,
      "Lifecycle": 8292,
      "base_responses</w>": 8293,
      "Mix": 8294,
      "nd</w>": 8295,
      "Inclu": 8296,
      "InProgress</w>": 8297,
      "Vector3f</w>": 8298,
      "BC": 8299,
      "branch": 8300,
      "shape": 8301,
      "suite</w>": 8302,
      "XMPP": 8303,
      "getDest": 8304,
      "Ordered": 8305,
      "EnumSet</w>": 8306,
      "catalog": 8307,
      "Marshalling</w>": 8308,
      "cut": 8309,
      "cmp</w>": 8310,
      "organ": 8311,
      "views</w>": 8312,
      "Jobs</w>": 8313,
      "outputFile</w>": 8314,
      "increment</w>": 8315,
      "mozu</w>": 8316,
      "sName</w>": 8317,
      "setAuto": 8318,
      "cript": 8319,
      "Variant": 8320,
      "trigger</w>": 8321,
      "envelo": 8322,
      "setSize</w>": 8323,
      "lat</w>": 8324,
      "Compound": 8325,
      "MISS": 8326,
      "Center</w>": 8327,
      "http</w>": 8328,
      "tile</w>": 8329,
      "Sec</w>": 8330,
      "transport</w>": 8331,
      "FIELD</w>": 8332,
      "Loop": 8333,
      "Pass</w>": 8334,
      "Tx</w>": 8335,
      "Using": 8336,
      "Parsing": 8337,
      "128</w>": 8338,
      "WIN": 8339,
      "sb": 8340,
      "COMPLE": 8341,
      "aa</w>": 8342,
      "INFO": 8343,
      "COS": 8344,
      "OutputStream": 8345,
      "mapping": 8346,
      "setState</w>": 8347,
      "RequestException</w>": 8348,
      "Expressions</w>": 8349,
      "CHAN": 8350,
      "generate</w>": 8351,
      "domainObjectSet</w>": 8352,
      "HL": 8353,
      "Nested": 8354,
      "PE": 8355,
      "blob": 8356,
      "mIs": 8357,
      "year": 8358,
      "ading": 8359,
      "BufferSize</w>": 8360,
      "Req</w>": 8361,
      "Topology": 8362,
      "mimeType</w>": 8363,
      "enable</w>": 8364,
      "alec": 8365,
      "ACTION</w>": 8366,
      "ObjectMapper</w>": 8367,
      "missing": 8368,
      "UTE</w>": 8369,
      "StandardCharsets</w>": 8370,
      "Reply": 8371,
      "Wrapper": 8372,
      "/=</w>": 8373,
      "getResult": 8374,
      "proc</w>": 8375,
      "Sever": 8376,
      "coord": 8377,
      "SETT": 8378,
      "Android": 8379,
      "TRY_": 8380,
      "tagName</w>": 8381,
      "await</w>": 8382,
      "bond</w>": 8383,
      "Dictionary": 8384,
      "SortedSet</w>": 8385,
      "Inst": 8386,
      "setText": 8387,
      "Cost": 8388,
      "factory": 8389,
      "10000</w>": 8390,
      "light</w>": 8391,
      "constraint": 8392,
      "notification</w>": 8393,
      "Radio": 8394,
      "='</w>": 8395,
      "sFile</w>": 8396,
      "alt</w>": 8397,
      "ness": 8398,
      "StackTrace": 8399,
      "Working": 8400,
      "OS": 8401,
      "_type</w>": 8402,
      "btn": 8403,
      "pic": 8404,
      "Representation</w>": 8405,
      "closing": 8406,
      "clientId</w>": 8407,
      "Sky": 8408,
      "Drawer": 8409,
      "MotionEvent</w>": 8410,
      "getTh": 8411,
      "Compound</w>": 8412,
      "audio": 8413,
      "34": 8414,
      "inv": 8415,
      "WebElement</w>": 8416,
      "ialize</w>": 8417,
      "Comments</w>": 8418,
      "Compiler</w>": 8419,
      "seek</w>": 8420,
      "prob": 8421,
      "Ship": 8422,
      "disconnect</w>": 8423,
      "runnable</w>": 8424,
      "Hive": 8425,
      "getRequest</w>": 8426,
      "isF": 8427,
      "Disabled</w>": 8428,
      "Currency</w>": 8429,
      "ROOT_": 8430,
      "details</w>": 8431,
      "ful</w>": 8432,
      "redirect": 8433,
      "setR": 8434,
      "ALIG": 8435,
      "Impl": 8436,
      "Modules</w>": 8437,
      "sleep": 8438,
      "Replica": 8439,
      "crete": 8440,
      "pr</w>": 8441,
      "numOf": 8442,
      "removeAll": 8443,
      "CONTENT</w>": 8444,
      "IVE</w>": 8445,
      "fragment": 8446,
      "Bl</w>": 8447,
      "IP_": 8448,
      "getOutputStream</w>": 8449,
      "chor": 8450,
      "unset": 8451,
      "currentTime</w>": 8452,
      "XmlElement": 8453,
      "POSITIVE_INFINITY</w>": 8454,
      "singletonList</w>": 8455,
      "Username</w>": 8456,
      "ParameterizedType</w>": 8457,
      "odes</w>": 8458,
      "interval": 8459,
      "Subscription</w>": 8460,
      "sink</w>": 8461,
      "constraint</w>": 8462,
      "'='</w>": 8463,
      "33</w>": 8464,
      "ranges</w>": 8465,
      "sep</w>": 8466,
      "KeyStore</w>": 8467,
      "Coe": 8468,
      "Partial": 8469,
      "refVec</w>": 8470,
      "BufferedInputStream</w>": 8471,
      "equal</w>": 8472,
      "BA": 8473,
      "Branch</w>": 8474,
      "iel": 8475,
      "setOutput": 8476,
      "Written</w>": 8477,
      "cuit": 8478,
      "milli": 8479,
      "Inner": 8480,
      "cos": 8481,
      "Leader": 8482,
      "Volume</w>": 8483,
      "Analyzer</w>": 8484,
      "Previous": 8485,
      "TOR_": 8486,
      "rad": 8487,
      "setParent</w>": 8488,
      "OBJECT</w>": 8489,
      "Cms</w>": 8490,
      "dc</w>": 8491,
      "erName</w>": 8492,
      "alse": 8493,
      "ToFile</w>": 8494,
      "Any</w>": 8495,
      "ObjectNode</w>": 8496,
      "thisTest</w>": 8497,
      "19</w>": 8498,
      "Padding</w>": 8499,
      "dt</w>": 8500,
      "bud": 8501,
      "lower</w>": 8502,
      "LinkedHashSet</w>": 8503,
      "USE_": 8504,
      "getParameterTypes</w>": 8505,
      "deployment": 8506,
      "Servlet</w>": 8507,
      "rpc": 8508,
      "getComponent</w>": 8509,
      "Include": 8510,
      "tok</w>": 8511,
      "posed": 8512,
      "ClassInfo</w>": 8513,
      "ASE</w>": 8514,
      "StartTime</w>": 8515,
      "AtomChain</w>": 8516,
      "BoundingBox</w>": 8517,
      "fw</w>": 8518,
      "marg": 8519,
      "pointer</w>": 8520,
      "anced": 8521,
      "SocketFactory</w>": 8522,
      "FFDCFilter</w>": 8523,
      "SPO": 8524,
      "clin": 8525,
      "nor": 8526,
      "setM": 8527,
      "Colors</w>": 8528,
      "Month": 8529,
      "decoded": 8530,
      "aminoAcidPattern</w>": 8531,
      "parentVoLookup": 8532,
      "Zoom": 8533,
      "setData</w>": 8534,
      "Acl": 8535,
      "Handsha": 8536,
      "getPlu": 8537,
      "processor": 8538,
      "formatUrl</w>": 8539,
      "Triple</w>": 8540,
      "Tracking": 8541,
      "Templates</w>": 8542,
      "TLV": 8543,
      "Destroy": 8544,
      "Jms": 8545,
      "LIT": 8546,
      "idx": 8547,
      "Setup</w>": 8548,
      "ObjectId</w>": 8549,
      "handlers</w>": 8550,
      "possible": 8551,
      "STORE_": 8552,
      "2D_": 8553,
      "allback": 8554,
      "READ": 8555,
      "currentState</w>": 8556,
      "checked": 8557,
      "Decode": 8558,
      "Coordinate": 8559,
      "mix": 8560,
      "rop</w>": 8561,
      "span": 8562,
      "translate</w>": 8563,
      "UD": 8564,
      "We</w>": 8565,
      "getFileName</w>": 8566,
      "par2</w>": 8567,
      "DataInputStream</w>": 8568,
      "DISP": 8569,
      "TAR": 8570,
      "entityType</w>": 8571,
      "AWS": 8572,
      "getAccount": 8573,
      "asy": 8574,
      "STAM": 8575,
      "QueryParams</w>": 8576,
      "Literal": 8577,
      "Vehic": 8578,
      "steps</w>": 8579,
      "working": 8580,
      "AP_": 8581,
      "sic": 8582,
      "collector</w>": 8583,
      "stringBuilder</w>": 8584,
      "onError</w>": 8585,
      "Mark</w>": 8586,
      "days</w>": 8587,
      "scheduler</w>": 8588,
      "WITH_": 8589,
      "2f</w>": 8590,
      "RS": 8591,
      "jdbc": 8592,
      "tivi": 8593,
      "Keyword</w>": 8594,
      "Appender</w>": 8595,
      "Band": 8596,
      "follow": 8597,
      "ri</w>": 8598,
      "stric": 8599,
      "ingle": 8600,
      "endTime</w>": 8601,
      "m_a": 8602,
      "rone</w>": 8603,
      "ServiceFuture</w>": 8604,
      "transport": 8605,
      "Matchers</w>": 8606,
      "threads</w>": 8607,
      "rotate": 8608,
      "Futures</w>": 8609,
      "vers</w>": 8610,
      "ByteBuf</w>": 8611,
      "GroupId</w>": 8612,
      "When": 8613,
      "ruleContext</w>": 8614,
      "allocate": 8615,
      "getTextValue</w>": 8616,
      "FLOAT</w>": 8617,
      "TEMPLAT": 8618,
      "cv</w>": 8619,
      "spar": 8620,
      "ucle": 8621,
      "LES</w>": 8622,
      "InputSource</w>": 8623,
      "closeQuietly</w>": 8624,
      "receive": 8625,
      "accumul": 8626,
      "password": 8627,
      "ct</w>": 8628,
      "SPACE</w>": 8629,
      "idden": 8630,
      "GE</w>": 8631,
      "sr</w>": 8632,
      "acl": 8633,
      "Parse</w>": 8634,
      "substitu": 8635,
      "spector</w>": 8636,
      "Tuple2</w>": 8637,
      "rv</w>": 8638,
      "discover": 8639,
      "DocumentBuilderFactory</w>": 8640,
      "modified</w>": 8641,
      "poll": 8642,
      "Soy": 8643,
      "moveTo": 8644,
      "BLOCK_": 8645,
      "Elec": 8646,
      "ui</w>": 8647,
      "ous</w>": 8648,
      "share": 8649,
      "Opt</w>": 8650,
      "Closure</w>": 8651,
      "Scene": 8652,
      "Sheet": 8653,
      "casFeatCode_": 8654,
      "Recovery": 8655,
      "PACK": 8656,
      "gest": 8657,
      "TestCase</w>": 8658,
      "counter": 8659,
      "reshold": 8660,
      "Volume": 8661,
      "Choice": 8662,
      "thing</w>": 8663,
      "video": 8664,
      "ponent</w>": 8665,
      "Colli": 8666,
      "DEV": 8667,
      "ffic": 8668,
      "Hibernate": 8669,
      "n1</w>": 8670,
      "Serializable": 8671,
      "topology": 8672,
      "Recomm": 8673,
      "ole</w>": 8674,
      "example</w>": 8675,
      "internal</w>": 8676,
      "Chart</w>": 8677,
[...]
